{
  "<PAD>": 0,
  "<SOS>": 1,
  "<EOS>": 2,
  "<UNK>": 3,
  ",": 4,
  ".": 5,
  "the": 6,
  "and": 7,
  "in": 8,
  "und": 9,
  "to": 10,
  "die": 11,
  "of": 12,
  "a": 13,
  "that": 14,
  "i": 15,
  "sie": 16,
  "das": 17,
  "it": 18,
  "ich": 19,
  "der": 20,
  "&quot;": 21,
  "you": 22,
  "ist": 23,
  "es": 24,
  "is": 25,
  "we": 26,
  "wir": 27,
  "&apos;s": 28,
  "so": 29,
  "zu": 30,
  "was": 31,
  "this": 32,
  "?": 33,
  "ein": 34,
  "eine": 35,
  ":": 36,
  "von": 37,
  "nicht": 38,
  "dass": 39,
  "an": 40,
  "--": 41,
  "they": 42,
  "den": 43,
  "mit": 44,
  "for": 45,
  "are": 46,
  "wie": 47,
  "on": 48,
  "have": 49,
  "what": 50,
  "but": 51,
  "auf": 52,
  "man": 53,
  "with": 54,
  "sich": 55,
  "can": 56,
  "sind": 57,
  "aber": 58,
  "haben": 59,
  "&apos;t": 60,
  "all": 61,
  "für": 62,
  "there": 63,
  "er": 64,
  "also": 65,
  "wenn": 66,
  "about": 67,
  "als": 68,
  "be": 69,
  "war": 70,
  "as": 71,
  "at": 72,
  "diese": 73,
  "do": 74,
  "not": 75,
  "one": 76,
  "um": 77,
  "my": 78,
  "&apos;re": 79,
  "im": 80,
  "people": 81,
  "like": 82,
  "from": 83,
  "if": 84,
  "dem": 85,
  "he": 86,
  "now": 87,
  "einen": 88,
  "uns": 89,
  "these": 90,
  "können": 91,
  "just": 92,
  "hier": 93,
  "or": 94,
  "werden": 95,
  "our": 96,
  "hat": 97,
  "aus": 98,
  "very": 99,
  "des": 100,
  "oder": 101,
  "because": 102,
  "me": 103,
  "when": 104,
  "über": 105,
  "out": 106,
  "how": 107,
  "auch": 108,
  "know": 109,
  "by": 110,
  "up": 111,
  "kann": 112,
  "einer": 113,
  "sehr": 114,
  "them": 115,
  "going": 116,
  "here": 117,
  "dann": 118,
  "einem": 119,
  "see": 120,
  "nur": 121,
  "more": 122,
  "think": 123,
  "wird": 124,
  "–": 125,
  "had": 126,
  "gibt": 127,
  "which": 128,
  "your": 129,
  "really": 130,
  "ihnen": 131,
  "mich": 132,
  "menschen": 133,
  "get": 134,
  "will": 135,
  "were": 136,
  "then": 137,
  "sehen": 138,
  "who": 139,
  "sein": 140,
  "&apos;ve": 141,
  "would": 142,
  "their": 143,
  "us": 144,
  "&apos;m": 145,
  "etwas": 146,
  "world": 147,
  "time": 148,
  "noch": 149,
  "dieser": 150,
  "habe": 151,
  "some": 152,
  "don": 153,
  "nach": 154,
  "has": 155,
  "actually": 156,
  "-@@": 157,
  "mir": 158,
  "into": 159,
  "way": 160,
  "things": 161,
  "am": 162,
  "years": 163,
  "go": 164,
  "well": 165,
  "no": 166,
  "vor": 167,
  "mehr": 168,
  "alle": 169,
  "where": 170,
  "bei": 171,
  "other": 172,
  "welt": 173,
  "want": 174,
  "meine": 175,
  "said": 176,
  "could": 177,
  "nun": 178,
  "-": 179,
  "machen": 180,
  "leben": 181,
  "ihre": 182,
  "ver@@": 183,
  "make": 184,
  "zum": 185,
  ";": 186,
  "been": 187,
  "dies": 188,
  "weil": 189,
  "right": 190,
  "da": 191,
  "wirklich": 192,
  "wurde": 193,
  "new": 194,
  "something": 195,
  "dieses": 196,
  "she": 197,
  "first": 198,
  "two": 199,
  "kind": 200,
  "tun": 201,
  "un@@": 202,
  "look": 203,
  "immer": 204,
  "those": 205,
  "jetzt": 206,
  "er@@": 207,
  "little": 208,
  "than": 209,
  "thing": 210,
  "wissen": 211,
  "durch": 212,
  "got": 213,
  "ihr": 214,
  "unsere": 215,
  "his": 216,
  "art": 217,
  "much": 218,
  "hatte": 219,
  "keine": 220,
  "zeit": 221,
  "back": 222,
  "say": 223,
  "leute": 224,
  "problem": 225,
  "life": 226,
  "most": 227,
  "an@@": 228,
  "viel": 229,
  "over": 230,
  "sagte": 231,
  "viele": 232,
  "ge@@": 233,
  "work": 234,
  "&apos;": 235,
  "diesem": 236,
  "only": 237,
  "du": 238,
  "einfach": 239,
  "denn": 240,
  "sagen": 241,
  "zwei": 242,
  "take": 243,
  "even": 244,
  "eines": 245,
  "dinge": 246,
  "did": 247,
  "diesen": 248,
  "need": 249,
  "bin": 250,
  "alles": 251,
  "waren": 252,
  "many": 253,
  "good": 254,
  "her": 255,
  "be@@": 256,
  "müssen": 257,
  "ab@@": 258,
  "jahren": 259,
  "lot": 260,
  "why": 261,
  "andere": 262,
  "around": 263,
  "let": 264,
  "&apos;ll": 265,
  "down": 266,
  "!": 267,
  "wo": 268,
  "würde": 269,
  "anderen": 270,
  "mein": 271,
  "system": 272,
  "different": 273,
  "te": 274,
  "s": 275,
  "re@@": 276,
  "damit": 277,
  "geht": 278,
  "gut": 279,
  "every": 280,
  "in@@": 281,
  "bis": 282,
  "vielleicht": 283,
  "mal": 284,
  "zur": 285,
  "selbst": 286,
  "come": 287,
  "use": 288,
  "ein@@": 289,
  "through": 290,
  "same": 291,
  "aus@@": 292,
  "jahre": 293,
  "ten": 294,
  "doing": 295,
  "put": 296,
  "muss": 297,
  "being": 298,
  "heute": 299,
  "three": 300,
  "en@@": 301,
  "day": 302,
  "warum": 303,
  "schon": 304,
  "ja": 305,
  "called": 306,
  "end": 307,
  "any": 308,
  "able": 309,
  "geschichte": 310,
  "möchte": 311,
  "einige": 312,
  "auf@@": 313,
  "percent": 314,
  "made": 315,
  "s@@": 316,
  "great": 317,
  "tatsächlich": 318,
  "macht": 319,
  "10": 320,
  "gehen": 321,
  "&apos;d": 322,
  "wieder": 323,
  "today": 324,
  "tell": 325,
  "after": 326,
  "denken": 327,
  "big": 328,
  "person": 329,
  "dort": 330,
  "talk": 331,
  "davon": 332,
  "ganz": 333,
  "year": 334,
  "land": 335,
  "genau": 336,
  "kinder": 337,
  "lassen": 338,
  "another": 339,
  "its": 340,
  "drei": 341,
  "human": 342,
  "hatten": 343,
  "o@@": 344,
  "last": 345,
  "didn": 346,
  "ihn": 347,
  "ed": 348,
  "paar": 349,
  "change": 350,
  "jahr": 351,
  "t@@": 352,
  "went": 353,
  "kommen": 354,
  "find": 355,
  "fact": 356,
  "seine": 357,
  "könnte": 358,
  "started": 359,
  "darüber": 360,
  "should": 361,
  "werde": 362,
  "wollen": 363,
  "idea": 364,
  "vor@@": 365,
  "own": 366,
  "k@@": 367,
  "before": 368,
  "show": 369,
  "thought": 370,
  "meiner": 371,
  "story": 372,
  "give": 373,
  "never": 374,
  "course": 375,
  "thank": 376,
  "en": 377,
  "ob": 378,
  "ende": 379,
  "design": 380,
  "ted": 381,
  "again": 382,
  "über@@": 383,
  "wurden": 384,
  "off": 385,
  "start": 386,
  "important": 387,
  "does": 388,
  "gab": 389,
  "20": 390,
  "ihren": 391,
  "geben": 392,
  "him": 393,
  "better": 394,
  "weg": 395,
  "still": 396,
  "gemacht": 397,
  "de@@": 398,
  "teil": 399,
  "beispiel": 400,
  "denke": 401,
  "jeder": 402,
  "next": 403,
  "e@@": 404,
  "g@@": 405,
  "ago": 406,
  "frage": 407,
  "während": 408,
  "okay": 409,
  "part": 410,
  "kein": 411,
  "glaube": 412,
  "moment": 413,
  "finden": 414,
  "tag": 415,
  "bit": 416,
  "form": 417,
  "brain": 418,
  "came": 419,
  "kommt": 420,
  "technology": 421,
  "might": 422,
  "together": 423,
  "natürlich": 424,
  "...": 425,
  "doch": 426,
  "ent@@": 427,
  "million": 428,
  "each": 429,
  "used": 430,
  "neue": 431,
  "dazu": 432,
  "wäre": 433,
  "unser": 434,
  "unserer": 435,
  "vom": 436,
  "long": 437,
  "place": 438,
  "d@@": 439,
  "ok": 440,
  "sogar": 441,
  "water": 442,
  "nichts": 443,
  "stellen": 444,
  "einmal": 445,
  "a@@": 446,
  "few": 447,
  "t": 448,
  "weiß": 449,
  "computer": 450,
  "arbeit": 451,
  "weiter": 452,
  "ging": 453,
  "ohne": 454,
  "li@@": 455,
  "gerade": 456,
  "mean": 457,
  "di@@": 458,
  "school": 459,
  "denen": 460,
  "between": 461,
  "zwischen": 462,
  "zeigen": 463,
  "erste": 464,
  "ing": 465,
  "o": 466,
  "sondern": 467,
  "ihrer": 468,
  "too": 469,
  "i@@": 470,
  "dafür": 471,
  "looking": 472,
  "p@@": 473,
  "question": 474,
  "nie": 475,
  "sieht": 476,
  "doesn": 477,
  "passiert": 478,
  "ch@@": 479,
  "se@@": 480,
  "ma@@": 481,
  "prozent": 482,
  "würden": 483,
  "sch@@": 484,
  "love": 485,
  "done": 486,
  "vielen": 487,
  "point": 488,
  "information": 489,
  "hand": 490,
  "zurück": 491,
  "ti@@": 492,
  "found": 493,
  "gen": 494,
  "sort": 495,
  "verstehen": 496,
  "maybe": 497,
  "unter": 498,
  "example": 499,
  "oh": 500,
  "ro@@": 501,
  "children": 502,
  "ersten": 503,
  "real": 504,
  "data": 505,
  "millionen": 506,
  "whole": 507,
  "große": 508,
  "wanted": 509,
  "e": 510,
  "live": 511,
  "de": 512,
  "daran": 513,
  "bild": 514,
  "ganze": 515,
  "konnte": 516,
  "understand": 517,
  "nehmen": 518,
  "dollar": 519,
  "zu@@": 520,
  "ge": 521,
  "etwa": 522,
  "fragen": 523,
  "ung": 524,
  "idee": 525,
  "u@@": 526,
  "30": 527,
  "four": 528,
  "ar@@": 529,
  "fall": 530,
  "less": 531,
  "may": 532,
  "bekommen": 533,
  "away": 534,
  "m@@": 535,
  "b@@": 536,
  "sagt": 537,
  "sollte": 538,
  "50": 539,
  "z@@": 540,
  "times": 541,
  "ziemlich": 542,
  "always": 543,
  "sprechen": 544,
  "call": 545,
  "ter": 546,
  "fast": 547,
  "arbeiten": 548,
  "al@@": 549,
  "try": 550,
  "women": 551,
  "letzten": 552,
  "everything": 553,
  "kam": 554,
  "ever": 555,
  "n@@": 556,
  "dabei": 557,
  "feel": 558,
  "money": 559,
  "believe": 560,
  "100": 561,
  "kids": 562,
  "wollte": 563,
  "meisten": 564,
  "working": 565,
  "sollten": 566,
  "space": 567,
  "internet": 568,
  "geld": 569,
  "five": 570,
  "seite": 571,
  "könnten": 572,
  "um@@": 573,
  "meinem": 574,
  "second": 575,
  "trying": 576,
  "using": 577,
  "bringen": 578,
  "frauen": 579,
  "wasser": 580,
  "wichtig": 581,
  "power": 582,
  "r@@": 583,
  "meinen": 584,
  "al": 585,
  "old": 586,
  "men": 587,
  "le@@": 588,
  "welche": 589,
  "sten": 590,
  "country": 591,
  "sache": 592,
  "ins": 593,
  "y": 594,
  "food": 595,
  "number": 596,
  "light": 597,
  "video": 598,
  "thinking": 599,
  "y@@": 600,
  "took": 601,
  "help": 602,
  "weise": 603,
  "china": 604,
  "ts": 605,
  "l@@": 606,
  "city": 607,
  "kleinen": 608,
  "daten": 609,
  "danke": 610,
  "zusammen": 611,
  "technologie": 612,
  "c@@": 613,
  "darauf": 614,
  "quite": 615,
  "besser": 616,
  "means": 617,
  "create": 618,
  "eigentlich": 619,
  "weniger": 620,
  "f@@": 621,
  "m": 622,
  "gesehen": 623,
  "k": 624,
  "lernen": 625,
  "small": 626,
  "become": 627,
  "probably": 628,
  "menge": 629,
  "energy": 630,
  "enough": 631,
  "building": 632,
  "future": 633,
  "best": 634,
  "comes": 635,
  "el@@": 636,
  "h@@": 637,
  "vier": 638,
  "dachte": 639,
  "dis@@": 640,
  "getting": 641,
  "happened": 642,
  "st@@": 643,
  "mann": 644,
  "brauchen": 645,
  "sense": 646,
  "kleine": 647,
  "g": 648,
  "or@@": 649,
  "left": 650,
  "ganzen": 651,
  "making": 652,
  "bedeutet": 653,
  "without": 654,
  "glauben": 655,
  "ra@@": 656,
  "play": 657,
  "ihm": 658,
  "interesting": 659,
  "jemand": 660,
  "großen": 661,
  "africa": 662,
  "ri@@": 663,
  "home": 664,
  "dollars": 665,
  "body": 666,
  "ers": 667,
  "nein": 668,
  "stuff": 669,
  "raum": 670,
  "talking": 671,
  "unseren": 672,
  "social": 673,
  "science": 674,
  "earth": 675,
  "wer": 676,
  "says": 677,
  "side": 678,
  "st": 679,
  "unter@@": 680,
  "jedes": 681,
  "15": 682,
  "ab": 683,
  "versuchen": 684,
  "ihrem": 685,
  "simple": 686,
  "gehirn": 687,
  "pretty": 688,
  "&#91;": 689,
  "&#93;": 690,
  "anything": 691,
  "ungen": 692,
  "ort": 693,
  "goes": 694,
  "grund": 695,
  "schauen": 696,
  "half": 697,
  "co@@": 698,
  "coming": 699,
  "la@@": 700,
  "am@@": 701,
  "ask": 702,
  "los": 703,
  "frau": 704,
  "ni@@": 705,
  "jeden": 706,
  "essen": 707,
  "tes": 708,
  "makes": 709,
  "gute": 710,
  "gesagt": 711,
  "york": 712,
  "ways": 713,
  "keinen": 714,
  "lo@@": 715,
  "high": 716,
  "project": 717,
  "ated": 718,
  "si@@": 719,
  "es@@": 720,
  "seit": 721,
  "seen": 722,
  "lich": 723,
  "else": 724,
  "picture": 725,
  "v@@": 726,
  "problems": 727,
  "le": 728,
  "room": 729,
  "happen": 730,
  "nutzen": 731,
  "planet": 732,
  "told": 733,
  "job": 734,
  "zukunft": 735,
  "spielen": 736,
  "bad": 737,
  "zeigt": 738,
  "d": 739,
  "living": 740,
  "across": 741,
  "saw": 742,
  "film": 743,
  "lives": 744,
  "yet": 745,
  "ischen": 746,
  "b": 747,
  "health": 748,
  "happens": 749,
  "liche": 750,
  "once": 751,
  "imagine": 752,
  "l": 753,
  "hard": 754,
  "basically": 755,
  "ding": 756,
  "such": 757,
  "später": 758,
  "days": 759,
  "allen": 760,
  "ische": 761,
  "countries": 762,
  "fünf": 763,
  "move": 764,
  "indem": 765,
  "eigenen": 766,
  "asked": 767,
  "pro@@": 768,
  "erde": 769,
  "ungefähr": 770,
  "beim": 771,
  "build": 772,
  "line": 773,
  "gegen": 774,
  "sa@@": 775,
  "stand": 776,
  "heraus": 777,
  "inside": 778,
  "funktioniert": 779,
  "schaffen": 780,
  "halten": 781,
  "hätte": 782,
  "bauen": 783,
  "family": 784,
  "wahrscheinlich": 785,
  "seiner": 786,
  "having": 787,
  "global": 788,
  "richtig": 789,
  "set": 790,
  "care": 791,
  "experience": 792,
  "mutter": 793,
  "case": 794,
  "name": 795,
  "book": 796,
  "business": 797,
  "ere": 798,
  "pro": 799,
  "everybody": 800,
  "p": 801,
  "jede": 802,
  "wenig": 803,
  "probleme": 804,
  "ation": 805,
  "arten": 806,
  "eren": 807,
  "age": 808,
  "team": 809,
  "con@@": 810,
  "ideas": 811,
  "learn": 812,
  "chen": 813,
  "40": 814,
  "ta@@": 815,
  "erzählen": 816,
  "te@@": 817,
  "billion": 818,
  "on@@": 819,
  "ern": 820,
  "later": 821,
  "per": 822,
  "ungs@@": 823,
  "car": 824,
  "while": 825,
  "sicher": 826,
  "enden": 827,
  "heißt": 828,
  "reason": 829,
  "almost": 830,
  "nothing": 831,
  "young": 832,
  "dank": 833,
  "six": 834,
  "bo@@": 835,
  "ert": 836,
  "se": 837,
  "process": 838,
  "ate": 839,
  "po@@": 840,
  "mo@@": 841,
  "child": 842,
  "states": 843,
  "looks": 844,
  "both": 845,
  "konnten": 846,
  "sah": 847,
  "lichen": 848,
  "bisschen": 849,
  "liebe": 850,
  "mind": 851,
  "punkt": 852,
  "single": 853,
  "helfen": 854,
  "schule": 855,
  "schnell": 856,
  "mi@@": 857,
  "oft": 858,
  "top": 859,
  "wrong": 860,
  "teilen": 861,
  "within": 862,
  "stehen": 863,
  "gen@@": 864,
  "lange": 865,
  "begann": 866,
  "remember": 867,
  "history": 868,
  "genug": 869,
  "material": 870,
  "licht": 871,
  "bu@@": 872,
  "true": 873,
  "neuen": 874,
  "yes": 875,
  "bi@@": 876,
  "guy": 877,
  "far": 878,
  "cells": 879,
  "hin@@": 880,
  "open": 881,
  "th@@": 882,
  "rest": 883,
  "afrika": 884,
  "reden": 885,
  "körper": 886,
  "saying": 887,
  "already": 888,
  "möglich": 889,
  "nächsten": 890,
  "sure": 891,
  "music": 892,
  "durch@@": 893,
  "ideen": 894,
  "h": 895,
  "lang": 896,
  "cancer": 897,
  "ds": 898,
  "stadt": 899,
  "überall": 900,
  "pa@@": 901,
  "mon@@": 902,
  "erst": 903,
  "c": 904,
  "ating": 905,
  "ste": 906,
  "anders": 907,
  "heard": 908,
  "nach@@": 909,
  "%": 910,
  "manchmal": 911,
  "nature": 912,
  "n": 913,
  "den@@": 914,
  "unserem": 915,
  "ger": 916,
  "buch": 917,
  "level": 918,
  "projekt": 919,
  "looked": 920,
  "keep": 921,
  "answer": 922,
  "bring": 923,
  "je": 924,
  "gruppe": 925,
  "euch": 926,
  "possible": 927,
  "darum": 928,
  "seinen": 929,
  "under": 930,
  "hope": 931,
  "matter": 932,
  "liegt": 933,
  "red": 934,
  "milliarden": 935,
  "sp@@": 936,
  "leuten": 937,
  "as@@": 938,
  "he@@": 939,
  "yeah": 940,
  "me@@": 941,
  "beautiful": 942,
  "universe": 943,
  "often": 944,
  "test": 945,
  "face": 946,
  "hin": 947,
  "inter@@": 948,
  "systems": 949,
  "gehört": 950,
  "months": 951,
  "india": 952,
  "ha@@": 953,
  "her@@": 954,
  "built": 955,
  "read": 956,
  "god": 957,
  "piece": 958,
  "z": 959,
  "bevor": 960,
  "hören": 961,
  "isn": 962,
  "ger@@": 963,
  "amazing": 964,
  "planeten": 965,
  "sagten": 966,
  "du@@": 967,
  "isch": 968,
  "works": 969,
  "sometimes": 970,
  "anderes": 971,
  "united": 972,
  "energie": 973,
  "kennen": 974,
  "u": 975,
  "au@@": 976,
  "mit@@": 977,
  "ei@@": 978,
  "state": 979,
  "tat": 980,
  "at@@": 981,
  "situation": 982,
  "nennen": 983,
  "machte": 984,
  "since": 985,
  "sei": 986,
  "ter@@": 987,
  "usa": 988,
  "unternehmen": 989,
  "words": 990,
  "op@@": 991,
  "verändern": 992,
  "decided": 993,
  "führen": 994,
  "ne@@": 995,
  "dna": 996,
  "research": 997,
  "ting": 998,
  "someone": 999,
  "mädchen": 1000,
  "group": 1001,
  "myself": 1002,
  "species": 1003,
  "education": 1004,
  "mar@@": 1005,
  "entwickelt": 1006,
  "ru@@": 1007,
  "until": 1008,
  "ho@@": 1009,
  "generation": 1010,
  "bar": 1011,
  "ko@@": 1012,
  "couple": 1013,
  "whether": 1014,
  "control": 1015,
  "community": 1016,
  "stories": 1017,
  "gets": 1018,
  "head": 1019,
  "ken": 1020,
  "instead": 1021,
  "places": 1022,
  "deshalb": 1023,
  "turn": 1024,
  "revolution": 1025,
  "besonders": 1026,
  "mother": 1027,
  "2": 1028,
  "exactly": 1029,
  "weit": 1030,
  "steht": 1031,
  "ie": 1032,
  "taking": 1033,
  "word": 1034,
  "minuten": 1035,
  "language": 1036,
  "gar": 1037,
  "informationen": 1038,
  "order": 1039,
  "ten@@": 1040,
  "oben": 1041,
  "vi@@": 1042,
  "ur@@": 1043,
  "completely": 1044,
  "house": 1045,
  "gt": 1046,
  "im@@": 1047,
  "stop": 1048,
  "turns": 1049,
  "model": 1050,
  "news": 1051,
  "government": 1052,
  "bilder": 1053,
  "everyone": 1054,
  "middle": 1055,
  "public": 1056,
  "natur": 1057,
  "seinem": 1058,
  "though": 1059,
  "king": 1060,
  "wissenschaft": 1061,
  "bereits": 1062,
  "25": 1063,
  "sprache": 1064,
  "lage": 1065,
  "namens": 1066,
  "so@@": 1067,
  "familie": 1068,
  "must": 1069,
  "erreichen": 1070,
  "verschiedene": 1071,
  "antwort": 1072,
  "son": 1073,
  "e-@@": 1074,
  "minutes": 1075,
  "benutzen": 1076,
  "wasn": 1077,
  "front": 1078,
  "ourselves": 1079,
  "somebody": 1080,
  "ine": 1081,
  "itself": 1082,
  "em": 1083,
  "ly": 1084,
  "ck@@": 1085,
  "recht": 1086,
  "car@@": 1087,
  "company": 1088,
  "haus": 1089,
  "happy": 1090,
  "third": 1091,
  "gerne": 1092,
  "braucht": 1093,
  "kinds": 1094,
  "musste": 1095,
  "america": 1096,
  "woman": 1097,
  "heart": 1098,
  "sechs": 1099,
  "zusammen@@": 1100,
  "eins": 1101,
  "per@@": 1102,
  "experiment": 1103,
  "ses": 1104,
  "american": 1105,
  "large": 1106,
  "became": 1107,
  "indien": 1108,
  "lebens": 1109,
  "animals": 1110,
  "geschichten": 1111,
  "ous": 1112,
  "klar": 1113,
  "wert": 1114,
  "run": 1115,
  "share": 1116,
  "for@@": 1117,
  "da@@": 1118,
  "night": 1119,
  "musik": 1120,
  "do@@": 1121,
  "happening": 1122,
  "sh@@": 1123,
  "themselves": 1124,
  "dich": 1125,
  "gleich": 1126,
  "j@@": 1127,
  "gefühl": 1128,
  "gu@@": 1129,
  "rather": 1130,
  "evolution": 1131,
  "hand@@": 1132,
  "to@@": 1133,
  "12": 1134,
  "wegen": 1135,
  "gene": 1136,
  "ne": 1137,
  "sage": 1138,
  "huge": 1139,
  "sound": 1140,
  "zurück@@": 1141,
  "students": 1142,
  "environment": 1143,
  "sen": 1144,
  "darin": 1145,
  "oil": 1146,
  "ones": 1147,
  "erkennen": 1148,
  "spiel": 1149,
  "air": 1150,
  "learned": 1151,
  "stellt": 1152,
  "study": 1153,
  "1": 1154,
  "ze": 1155,
  "niemand": 1156,
  "natural": 1157,
  "guys": 1158,
  "friends": 1159,
  "rate": 1160,
  "pi@@": 1161,
  "einzige": 1162,
  "d-@@": 1163,
  "möglichkeit": 1164,
  "hätten": 1165,
  "game": 1166,
  "population": 1167,
  "zellen": 1168,
  "wi@@": 1169,
  "augen": 1170,
  "hear": 1171,
  "gi@@": 1172,
  "w@@": 1173,
  "innovation": 1174,
  "ant": 1175,
  "verhalten": 1176,
  "won": 1177,
  "irgendwie": 1178,
  "along": 1179,
  "society": 1180,
  "falls": 1181,
  "treffen": 1182,
  "besten": 1183,
  "stück": 1184,
  "hours": 1185,
  "x": 1186,
  "innerhalb": 1187,
  "gott": 1188,
  "bewegen": 1189,
  "soll": 1190,
  "sk@@": 1191,
  "created": 1192,
  "knew": 1193,
  "couldn": 1194,
  "sen@@": 1195,
  "machine": 1196,
  "man@@": 1197,
  "ac@@": 1198,
  "learning": 1199,
  "kopf": 1200,
  "worked": 1201,
  "vater": 1202,
  "lots": 1203,
  "vorstellen": 1204,
  "ex@@": 1205,
  "ster": 1206,
  "stunden": 1207,
  "is@@": 1208,
  "ändern": 1209,
  "gebäude": 1210,
  "der@@": 1211,
  "mu@@": 1212,
  "ch": 1213,
  "s-@@": 1214,
  "gesellschaft": 1215,
  "par@@": 1216,
  "setzen": 1217,
  "questions": 1218,
  "gave": 1219,
  "na@@": 1220,
  "century": 1221,
  "ability": 1222,
  "schreiben": 1223,
  "gra@@": 1224,
  "patienten": 1225,
  "during": 1226,
  "perhaps": 1227,
  "against": 1228,
  "sachen": 1229,
  "jedem": 1230,
  "ges": 1231,
  "hoch@@": 1232,
  "disease": 1233,
  "finally": 1234,
  "ocean": 1235,
  "ben": 1236,
  "center": 1237,
  "ons": 1238,
  "national": 1239,
  "ak@@": 1240,
  "particular": 1241,
  "zer@@": 1242,
  "ke": 1243,
  "erten": 1244,
  "area": 1245,
  "beiden": 1246,
  "erte": 1247,
  "moving": 1248,
  "tiere": 1249,
  "kindern": 1250,
  "regierung": 1251,
  "ziehen": 1252,
  "ans": 1253,
  "ber@@": 1254,
  "alt": 1255,
  "wollten": 1256,
  "men@@": 1257,
  "takes": 1258,
  "bitte": 1259,
  "pre@@": 1260,
  "ar": 1261,
  "bar@@": 1262,
  "licher": 1263,
  "early": 1264,
  "alen": 1265,
  "el": 1266,
  "super@@": 1267,
  "führt": 1268,
  "difference": 1269,
  "erhalten": 1270,
  "figure": 1271,
  "others": 1272,
  "gleiche": 1273,
  "menschlichen": 1274,
  "länder": 1275,
  "fi@@": 1276,
  "200": 1277,
  "entwickeln": 1278,
  "unglaublich": 1279,
  "ck": 1280,
  "version": 1281,
  "schwer": 1282,
  "past": 1283,
  "wonderful": 1284,
  "ad@@": 1285,
  "glück": 1286,
  "herum": 1287,
  "free": 1288,
  "einigen": 1289,
  "daher": 1290,
  "bringt": 1291,
  "dir": 1292,
  "beginnen": 1293,
  "needs": 1294,
  "obwohl": 1295,
  "media": 1296,
  "gern": 1297,
  "verschiedenen": 1298,
  "3": 1299,
  "ausge@@": 1300,
  "least": 1301,
  "no@@": 1302,
  "80": 1303,
  "green": 1304,
  "wa@@": 1305,
  "60": 1306,
  "aller": 1307,
  "patient": 1308,
  "ale": 1309,
  "5": 1310,
  "kt": 1311,
  "pe@@": 1312,
  "taken": 1313,
  "seven": 1314,
  "based": 1315,
  "chance": 1316,
  "entire": 1317,
  "nächste": 1318,
  "verändert": 1319,
  "—": 1320,
  "shows": 1321,
  "ens": 1322,
  "outside": 1323,
  "überhaupt": 1324,
  "lässt": 1325,
  "hoch": 1326,
  "kunst": 1327,
  "close": 1328,
  "damals": 1329,
  "view": 1330,
  "universum": 1331,
  "tage": 1332,
  "image": 1333,
  "wohl": 1334,
  "männer": 1335,
  "gleichen": 1336,
  "us@@": 1337,
  "verwenden": 1338,
  "online": 1339,
  "lesen": 1340,
  "kamen": 1341,
  "thousands": 1342,
  "ange@@": 1343,
  "r": 1344,
  "easy": 1345,
  "hiv": 1346,
  "fahren": 1347,
  "angst": 1348,
  "changed": 1349,
  "ka@@": 1350,
  "interested": 1351,
  "ded": 1352,
  "nen": 1353,
  "hause": 1354,
  "/": 1355,
  "google": 1356,
  "david": 1357,
  "parts": 1358,
  "ste@@": 1359,
  "cool": 1360,
  "versucht": 1361,
  "lebens@@": 1362,
  "et@@": 1363,
  "fühlen": 1364,
  "fe@@": 1365,
  "tut": 1366,
  "cannot": 1367,
  "market": 1368,
  "u.s.": 1369,
  "bewegung": 1370,
  "su@@": 1371,
  "auto": 1372,
  "war@@": 1373,
  "yourself": 1374,
  "fand": 1375,
  "zen": 1376,
  "turned": 1377,
  "staaten": 1378,
  "plan": 1379,
  "wirtschaft": 1380,
  "eltern": 1381,
  "500": 1382,
  "given": 1383,
  "leave": 1384,
  "unten": 1385,
  "nämlich": 1386,
  "getan": 1387,
  "beginning": 1388,
  "cell": 1389,
  "culture": 1390,
  "ms": 1391,
  "arm": 1392,
  "buy": 1393,
  "junge": 1394,
  "zahlen": 1395,
  "scale": 1396,
  "eight": 1397,
  "wind": 1398,
  "difficult": 1399,
  "fähigkeit": 1400,
  "behind": 1401,
  "ä@@": 1402,
  "led": 1403,
  "black": 1404,
  "week": 1405,
  "2@@": 1406,
  "software": 1407,
  "entwicklung": 1408,
  "sinn": 1409,
  "weitere": 1410,
  "size": 1411,
  "walk": 1412,
  "wort": 1413,
  "letzte": 1414,
  "grow": 1415,
  "groß": 1416,
  "fa@@": 1417,
  "began": 1418,
  "tra@@": 1419,
  "hilfe": 1420,
  "seeing": 1421,
  "teile": 1422,
  "kurz": 1423,
  "vision": 1424,
  "self-@@": 1425,
  "eyes": 1426,
  "möglichkeiten": 1427,
  "stelle": 1428,
  "nimmt": 1429,
  "common": 1430,
  "wei@@": 1431,
  "normal": 1432,
  "whatever": 1433,
  "spend": 1434,
  "baby": 1435,
  "powerful": 1436,
  "we@@": 1437,
  "needed": 1438,
  "kraft": 1439,
  "full": 1440,
  "ir@@": 1441,
  "audience": 1442,
  "menschliche": 1443,
  "t-@@": 1444,
  "fish": 1445,
  "18": 1446,
  "born": 1447,
  "kultur": 1448,
  "unterschied": 1449,
  "jedoch": 1450,
  "lösen": 1451,
  "laufen": 1452,
  "certain": 1453,
  "worden": 1454,
  "3@@": 1455,
  "cities": 1456,
  "ku@@": 1457,
  "schön": 1458,
  "ent": 1459,
  "region": 1460,
  "ser@@": 1461,
  "gone": 1462,
  "economic": 1463,
  "tried": 1464,
  "nachdem": 1465,
  "krebs": 1466,
  "paper": 1467,
  "father": 1468,
  "death": 1469,
  "south": 1470,
  "terms": 1471,
  "zwar": 1472,
  "it@@": 1473,
  "stellte": 1474,
  "lösung": 1475,
  "roboter": 1476,
  "dingen": 1477,
  "tragen": 1478,
  "maschine": 1479,
  "labor": 1480,
  "zi@@": 1481,
  "blue": 1482,
  "dessen": 1483,
  "street": 1484,
  "ot@@": 1485,
  "allem": 1486,
  "ates": 1487,
  "force": 1488,
  "longer": 1489,
  "ischer": 1490,
  "parents": 1491,
  "qu@@": 1492,
  "muster": 1493,
  "genommen": 1494,
  "v": 1495,
  "local": 1496,
  "erfahrung": 1497,
  "stage": 1498,
  "ker": 1499,
  "eher": 1500,
  "richtung": 1501,
  "amount": 1502,
  "field": 1503,
  "over@@": 1504,
  "modell": 1505,
  "simply": 1506,
  "th": 1507,
  "betrachten": 1508,
  "cost": 1509,
  "eigene": 1510,
  "incredible": 1511,
  "feet": 1512,
  "humans": 1513,
  "hi@@": 1514,
  "meines": 1515,
  "deal": 1516,
  "growth": 1517,
  "fliegen": 1518,
  "virus": 1519,
  "hands": 1520,
  "nahm": 1521,
  "zweite": 1522,
  "falsch": 1523,
  "web": 1524,
  "em@@": 1525,
  "mag": 1526,
  "kon@@": 1527,
  "lehrer": 1528,
  "ph@@": 1529,
  "interessant": 1530,
  "go@@": 1531,
  "schul@@": 1532,
  "anfang": 1533,
  "kosten": 1534,
  "ziel": 1535,
  "ground": 1536,
  "4": 1537,
  "prozess": 1538,
  "beste": 1539,
  "alter": 1540,
  "structure": 1541,
  "guten": 1542,
  "lose": 1543,
  "deren": 1544,
  "books": 1545,
  "erinnern": 1546,
  "wahr": 1547,
  "18@@": 1548,
  "alten": 1549,
  "wasser@@": 1550,
  "watch": 1551,
  "white": 1552,
  "woche": 1553,
  "code": 1554,
  "rei@@": 1555,
  "known": 1556,
  "bau@@": 1557,
  "value": 1558,
  "complex": 1559,
  "step": 1560,
  "jungen": 1561,
  "neu": 1562,
  "spent": 1563,
  "mor@@": 1564,
  "größte": 1565,
  "mis@@": 1566,
  "girl": 1567,
  "met": 1568,
  "w": 1569,
  "liches": 1570,
  "bleiben": 1571,
  "grunde": 1572,
  "y-@@": 1573,
  "realized": 1574,
  "kaufen": 1575,
  "br@@": 1576,
  "surface": 1577,
  "ches": 1578,
  "boden": 1579,
  "ene": 1580,
  "act": 1581,
  "publikum": 1582,
  "welches": 1583,
  "genauso": 1584,
  "university": 1585,
  "tri@@": 1586,
  "quickly": 1587,
  "thema": 1588,
  "mussten": 1589,
  "ks": 1590,
  "solche": 1591,
  "x@@": 1592,
  "sea": 1593,
  "aren": 1594,
  "friend": 1595,
  "ell": 1596,
  "ings": 1597,
  "reality": 1598,
  "meter": 1599,
  "tieren": 1600,
  "sieben": 1601,
  "dar@@": 1602,
  "hinter": 1603,
  "felt": 1604,
  "schließlich": 1605,
  "ves": 1606,
  "bio@@": 1607,
  "wissenschaftler": 1608,
  "wouldn": 1609,
  "sub@@": 1610,
  "fragte": 1611,
  "animal": 1612,
  "zahl": 1613,
  "lost": 1614,
  "formen": 1615,
  "har@@": 1616,
  "pay": 1617,
  "sollen": 1618,
  "position": 1619,
  "eat": 1620,
  "hey": 1621,
  "minute": 1622,
  "sitting": 1623,
  "sti@@": 1624,
  "fly": 1625,
  "pu@@": 1626,
  "fun": 1627,
  "sts": 1628,
  "direkt": 1629,
  "bereich": 1630,
  "danach": 1631,
  "verbindung": 1632,
  "companies": 1633,
  "f": 1634,
  "che": 1635,
  "autos": 1636,
  "namen": 1637,
  "hu@@": 1638,
  "either": 1639,
  "patients": 1640,
  "sex": 1641,
  "sterben": 1642,
  "hast": 1643,
  "write": 1644,
  "designer": 1645,
  "des@@": 1646,
  "box": 1647,
  "nice": 1648,
  "weeks": 1649,
  "wer@@": 1650,
  "re": 1651,
  "wären": 1652,
  "en-@@": 1653,
  "behavior": 1654,
  "chten": 1655,
  "ton": 1656,
  "personal": 1657,
  "struktur": 1658,
  "platz": 1659,
  "zuvor": 1660,
  "brought": 1661,
  "bildung": 1662,
  "wrote": 1663,
  "miles": 1664,
  "ja@@": 1665,
  "wusste": 1666,
  "auszu@@": 1667,
  "monate": 1668,
  "neues": 1669,
  "gedanken": 1670,
  "hal@@": 1671,
  "gebaut": 1672,
  "schen": 1673,
  "ve": 1674,
  "opportunity": 1675,
  "john": 1676,
  "ors": 1677,
  "kan@@": 1678,
  "mer@@": 1679,
  "anderer": 1680,
  "ci@@": 1681,
  "late": 1682,
  "college": 1683,
  "ben@@": 1684,
  "90": 1685,
  "feeling": 1686,
  "fer@@": 1687,
  "ice": 1688,
  "fl@@": 1689,
  "cut": 1690,
  "changes": 1691,
  "tages": 1692,
  "ment": 1693,
  "welt@@": 1694,
  "hei@@": 1695,
  "zuerst": 1696,
  "plötzlich": 1697,
  "growing": 1698,
  "mache": 1699,
  "north": 1700,
  "theory": 1701,
  "economy": 1702,
  "ber": 1703,
  "11": 1704,
  "manche": 1705,
  "average": 1706,
  "freunde": 1707,
  "potential": 1708,
  "wochen": 1709,
  "poor": 1710,
  "besteht": 1711,
  "technologies": 1712,
  "links": 1713,
  "all@@": 1714,
  "ma": 1715,
  "ca@@": 1716,
  "west": 1717,
  "findet": 1718,
  "zehn": 1719,
  "speak": 1720,
  "political": 1721,
  "gesch@@": 1722,
  "reise": 1723,
  "sal@@": 1724,
  "scheint": 1725,
  "anyone": 1726,
  "größe": 1727,
  "tions": 1728,
  "ihres": 1729,
  "beginnt": 1730,
  "tic": 1731,
  "religion": 1732,
  "scientists": 1733,
  "gas": 1734,
  "gewesen": 1735,
  "genannt": 1736,
  "under@@": 1737,
  "developed": 1738,
  "fest": 1739,
  "luft": 1740,
  "wachsen": 1741,
  "jobs": 1742,
  "sun": 1743,
  "om@@": 1744,
  "technologien": 1745,
  "möchten": 1746,
  "funktionieren": 1747,
  "numbers": 1748,
  "gefunden": 1749,
  "sehe": 1750,
  "bottom": 1751,
  "moral": 1752,
  "os": 1753,
  "museum": 1754,
  "stimmt": 1755,
  "bereit": 1756,
  "lab": 1757,
  "images": 1758,
  "deep": 1759,
  "völlig": 1760,
  ".@@": 1761,
  "seems": 1762,
  "suchen": 1763,
  "dr.": 1764,
  "erschaffen": 1765,
  "anzu@@": 1766,
  "schwierig": 1767,
  "bri@@": 1768,
  "wall": 1769,
  "ty": 1770,
  "map": 1771,
  "theorie": 1772,
  "program": 1773,
  "discovered": 1774,
  "aussehen": 1775,
  "legen": 1776,
  "short": 1777,
  "ler": 1778,
  "draußen": 1779,
  "fanden": 1780,
  "8": 1781,
  "pen@@": 1782,
  "6": 1783,
  "student": 1784,
  "bl@@": 1785,
  "tu@@": 1786,
  "technik": 1787,
  "key": 1788,
  "ps": 1789,
  "ki@@": 1790,
  "isches": 1791,
  "tisch": 1792,
  "english": 1793,
  "morning": 1794,
  "starting": 1795,
  "nobody": 1796,
  "anfangen": 1797,
  "schritt": 1798,
  "chris": 1799,
  "reihe": 1800,
  "mal@@": 1801,
  "kom@@": 1802,
  "geworden": 1803,
  "bist": 1804,
  "tion": 1805,
  "forward": 1806,
  "egal": 1807,
  "markt": 1808,
  "zeit@@": 1809,
  "running": 1810,
  "mars": 1811,
  "acht": 1812,
  "attention": 1813,
  "passieren": 1814,
  "jahrhundert": 1815,
  "playing": 1816,
  "krieg": 1817,
  "gives": 1818,
  "modern": 1819,
  "general": 1820,
  "com@@": 1821,
  "sc@@": 1822,
  "challenge": 1823,
  "shape": 1824,
  "physical": 1825,
  "brachte": 1826,
  "eln": 1827,
  "ges@@": 1828,
  "climate": 1829,
  "bücher": 1830,
  "literally": 1831,
  "alone": 1832,
  "ling": 1833,
  "giving": 1834,
  "movement": 1835,
  "niemals": 1836,
  "bare": 1837,
  "absolutely": 1838,
  "ellen": 1839,
  "stimme": 1840,
  "tet": 1841,
  "beide": 1842,
  "ländern": 1843,
  "wieder@@": 1844,
  "digital": 1845,
  "cars": 1846,
  "studenten": 1847,
  "uses": 1848,
  "na": 1849,
  "positive": 1850,
  "forschung": 1851,
  "firma": 1852,
  "realize": 1853,
  "gebracht": 1854,
  "kleines": 1855,
  "mittel": 1856,
  "gingen": 1857,
  "glücklich": 1858,
  "mensch": 1859,
  "law": 1860,
  "telling": 1861,
  "cor@@": 1862,
  "jemals": 1863,
  "lei@@": 1864,
  "16": 1865,
  "ff@@": 1866,
  "computers": 1867,
  "recently": 1868,
  "anzahl": 1869,
  "areas": 1870,
  "ke@@": 1871,
  "gel@@": 1872,
  "ary": 1873,
  "amerika": 1874,
  "individual": 1875,
  "gemeinschaft": 1876,
  "ce": 1877,
  "il@@": 1878,
  "daraus": 1879,
  "tion@@": 1880,
  "knowledge": 1881,
  "anybody": 1882,
  "obviously": 1883,
  "morgen": 1884,
  "300": 1885,
  "bekommt": 1886,
  "miteinander": 1887,
  "fen": 1888,
  "cu@@": 1889,
  "tr@@": 1890,
  "gruppen": 1891,
  "seem": 1892,
  "out@@": 1893,
  "hold": 1894,
  "blood": 1895,
  "ig@@": 1896,
  "nachdenken": 1897,
  "bekannt": 1898,
  "knows": 1899,
  "aufgabe": 1900,
  "erklären": 1901,
  "afghanistan": 1902,
  "erung": 1903,
  "est": 1904,
  "aufge@@": 1905,
  "incredibly": 1906,
  "gl@@": 1907,
  "unseres": 1908,
  "died": 1909,
  "phone": 1910,
  "changing": 1911,
  "ft": 1912,
  "ga@@": 1913,
  "verwendet": 1914,
  "ba@@": 1915,
  "tatsache": 1916,
  "listen": 1917,
  "gegeben": 1918,
  "pri@@": 1919,
  "foto": 1920,
  "größten": 1921,
  "grund@@": 1922,
  "wahrheit": 1923,
  "chinese": 1924,
  "schrieb": 1925,
  "tools": 1926,
  "gesundheit": 1927,
  "focus": 1928,
  "kid": 1929,
  "industry": 1930,
  "tiert": 1931,
  "gelernt": 1932,
  "bei@@": 1933,
  "gezeigt": 1934,
  "issue": 1935,
  "tigen": 1936,
  "dark": 1937,
  "a-@@": 1938,
  "krankheit": 1939,
  "fu@@": 1940,
  "haven": 1941,
  "dr@@": 1942,
  "karte": 1943,
  "geboren": 1944,
  "designed": 1945,
  "bra@@": 1946,
  "ju@@": 1947,
  "oberfläche": 1948,
  "ner": 1949,
  "girls": 1950,
  "materials": 1951,
  "neu@@": 1952,
  "relationship": 1953,
  "sta@@": 1954,
  "aufzu@@": 1955,
  "ster@@": 1956,
  "elle": 1957,
  "tt@@": 1958,
  "east": 1959,
  "kontrolle": 1960,
  "tische": 1961,
  "save": 1962,
  "mission": 1963,
  "weg@@": 1964,
  "leicht": 1965,
  "creating": 1966,
  "low": 1967,
  "gte": 1968,
  "les": 1969,
  "interessiert": 1970,
  "boy": 1971,
  "gerät": 1972,
  "product": 1973,
  "4@@": 1974,
  "understanding": 1975,
  "showed": 1976,
  "cht": 1977,
  "medical": 1978,
  "hälfte": 1979,
  "soziale": 1980,
  "testen": 1981,
  "development": 1982,
  "richtige": 1983,
  "games": 1984,
  "bewusst": 1985,
  "action": 1986,
  "compassion": 1987,
  "min@@": 1988,
  "voll": 1989,
  "schlecht": 1990,
  "result": 1991,
  "guess": 1992,
  "please": 1993,
  "london": 1994,
  "allein": 1995,
  "einge@@": 1996,
  "blick": 1997,
  "rolle": 1998,
  "hundreds": 1999,
  "entfernt": 2000,
  "je@@": 2001,
  "millions": 2002,
  "heraus@@": 2003,
  "clear": 2004,
  "cher": 2005,
  "geschrieben": 2006,
  "hour": 2007,
  "kleiner": 2008,
  "umgebung": 2009,
  "vorstellung": 2010,
  "meet": 2011,
  "effect": 2012,
  "land@@": 2013,
  "fallen": 2014,
  "class": 2015,
  "vortrag": 2016,
  "ol@@": 2017,
  "happiness": 2018,
  "städte": 2019,
  "lu@@": 2020,
  "gebiet": 2021,
  "verbunden": 2022,
  "talked": 2023,
  "access": 2024,
  "sicht": 2025,
  "support": 2026,
  "haupt@@": 2027,
  "regeln": 2028,
  "tiny": 2029,
  "begin": 2030,
  "tive": 2031,
  "bs": 2032,
  "nacht": 2033,
  "tischen": 2034,
  "stark": 2035,
  "anstatt": 2036,
  "systeme": 2037,
  "gang": 2038,
  "fin@@": 2039,
  "ah": 2040,
  "schulen": 2041,
  "selbst@@": 2042,
  "benutzt": 2043,
  "jo@@": 2044,
  "veränderung": 2045,
  "solution": 2046,
  "developing": 2047,
  "finde": 2048,
  "meinung": 2049,
  "finger": 2050,
  "website": 2051,
  "perfect": 2052,
  "produce": 2053,
  "jemanden": 2054,
  "color": 2055,
  "park": 2056,
  "erreicht": 2057,
  "beyond": 2058,
  "europe": 2059,
  "teach": 2060,
  "straße": 2061,
  "tz@@": 2062,
  "bedeutung": 2063,
  "stra@@": 2064,
  "70": 2065,
  "bed": 2066,
  "mitte": 2067,
  "table": 2068,
  "office": 2069,
  "dead": 2070,
  "heutzutage": 2071,
  "network": 2072,
  "fehler": 2073,
  "nor@@": 2074,
  "stri@@": 2075,
  "type": 2076,
  "worth": 2077,
  "bank": 2078,
  "aids": 2079,
  "einfache": 2080,
  "ständig": 2081,
  "available": 2082,
  "pictures": 2083,
  "especially": 2084,
  "voice": 2085,
  "pflanzen": 2086,
  "tier": 2087,
  "major": 2088,
  "becomes": 2089,
  "ness": 2090,
  "offensichtlich": 2091,
  "komplett": 2092,
  "freund": 2093,
  "special": 2094,
  "lived": 2095,
  "absolut": 2096,
  "mögen": 2097,
  "por@@": 2098,
  "bewegt": 2099,
  "hoffe": 2100,
  "bur@@": 2101,
  "writing": 2102,
  "groups": 2103,
  "drive": 2104,
  "machten": 2105,
  "starts": 2106,
  "sicherheit": 2107,
  "resources": 2108,
  "solve": 2109,
  "explain": 2110,
  "fangen": 2111,
  "towards": 2112,
  "allow": 2113,
  "ou@@": 2114,
  "mine": 2115,
  "politik": 2116,
  "the@@": 2117,
  "beziehung": 2118,
  "reasons": 2119,
  "tier@@": 2120,
  "richard": 2121,
  "board": 2122,
  "verloren": 2123,
  "bekam": 2124,
  "nation": 2125,
  "versuche": 2126,
  "gekommen": 2127,
  "dachten": 2128,
  "teachers": 2129,
  "mass": 2130,
  "che@@": 2131,
  "robot": 2132,
  "erzählt": 2133,
  "zeige": 2134,
  "several": 2135,
  "similar": 2136,
  "bal@@": 2137,
  "tur@@": 2138,
  "bilden": 2139,
  "san@@": 2140,
  "zed": 2141,
  "ö@@": 2142,
  "fähigkeiten": 2143,
  "wait": 2144,
  "present": 2145,
  "ordnung": 2146,
  "international": 2147,
  "non-@@": 2148,
  "kar@@": 2149,
  "device": 2150,
  "wann": 2151,
  "preis": 2152,
  "village": 2153,
  "spricht": 2154,
  "ic": 2155,
  "everywhere": 2156,
  "chte": 2157,
  "training": 2158,
  "linie": 2159,
  "nennt": 2160,
  "rules": 2161,
  "basis": 2162,
  "kl@@": 2163,
  "ung@@": 2164,
  "fear": 2165,
  "vereinigten": 2166,
  "ul@@": 2167,
  "7@@": 2168,
  "eye": 2169,
  "seiten": 2170,
  "bigger": 2171,
  "security": 2172,
  "star@@": 2173,
  "dy": 2174,
  "gegenüber": 2175,
  "nine": 2176,
  "certainly": 2177,
  "spiel@@": 2178,
  "notice": 2179,
  "trotzdem": 2180,
  "ansehen": 2181,
  "folgen": 2182,
  "denkt": 2183,
  "evidence": 2184,
  "quality": 2185,
  "putting": 2186,
  "sounds": 2187,
  "einander": 2188,
  "impact": 2189,
  "tige": 2190,
  "ties": 2191,
  "ct": 2192,
  "tre@@": 2193,
  "send": 2194,
  "sofort": 2195,
  "mer": 2196,
  "arbeitet": 2197,
  "schools": 2198,
  "scientific": 2199,
  "gearbeitet": 2200,
  "hundred": 2201,
  "lieben": 2202,
  "liegen": 2203,
  "indeed": 2204,
  "soon": 2205,
  "normalerweise": 2206,
  "ity": 2207,
  "cken": 2208,
  "total": 2209,
  "hospital": 2210,
  "sonne": 2211,
  "einzelne": 2212,
  "truth": 2213,
  "door": 2214,
  "gesicht": 2215,
  "sonst": 2216,
  "activity": 2217,
  "del@@": 2218,
  "gesamte": 2219,
  "nu@@": 2220,
  "fort@@": 2221,
  "solar": 2222,
  "risk": 2223,
  "frei@@": 2224,
  "gs": 2225,
  "asking": 2226,
  "grew": 2227,
  "bald": 2228,
  "14": 2229,
  "forms": 2230,
  "dra@@": 2231,
  "herausforderung": 2232,
  "month": 2233,
  "ally": 2234,
  "wants": 2235,
  "$": 2236,
  "auto@@": 2237,
  "suddenly": 2238,
  "wichtige": 2239,
  "road": 2240,
  "choice": 2241,
  "ähnlich": 2242,
  "zwei@@": 2243,
  "sorgen": 2244,
  "res@@": 2245,
  "examples": 2246,
  "mp@@": 2247,
  "page": 2248,
  "studie": 2249,
  "smart": 2250,
  "abzu@@": 2251,
  "geschieht": 2252,
  "statt": 2253,
  "walking": 2254,
  "gten": 2255,
  "sing": 2256,
  "gewinnen": 2257,
  "involved": 2258,
  "basic": 2259,
  "anyway": 2260,
  "sahen": 2261,
  "flu@@": 2262,
  "19@@": 2263,
  "stay": 2264,
  "7": 2265,
  "ver": 2266,
  "skin": 2267,
  "ged": 2268,
  "gestellt": 2269,
  "message": 2270,
  "erfolg": 2271,
  "bill": 2272,
  "ready": 2273,
  "punkte": 2274,
  "programm": 2275,
  "europa": 2276,
  "exciting": 2277,
  "mitgefühl": 2278,
  "ction": 2279,
  "ment@@": 2280,
  "passierte": 2281,
  "9": 2282,
  "begannen": 2283,
  "taten": 2284,
  "moved": 2285,
  "sha@@": 2286,
  "lichkeit": 2287,
  "issues": 2288,
  "wish": 2289,
  "realität": 2290,
  "stre@@": 2291,
  "gung": 2292,
  "hoffnung": 2293,
  "ters": 2294,
  "laden": 2295,
  "kannst": 2296,
  "ergebnis": 2297,
  "alte": 2298,
  "voller": 2299,
  "pattern": 2300,
  "cks": 2301,
  "entscheidungen": 2302,
  "zieren": 2303,
  "flo@@": 2304,
  "größer": 2305,
  "monaten": 2306,
  "rück@@": 2307,
  "extremely": 2308,
  "sche": 2309,
  "bevölkerung": 2310,
  "tagen": 2311,
  "pp@@": 2312,
  "möglichen": 2313,
  "win@@": 2314,
  "tung": 2315,
  "sprach": 2316,
  "totally": 2317,
  "speed": 2318,
  "richtigen": 2319,
  "hält": 2320,
  "peace": 2321,
  "hit": 2322,
  "deine": 2323,
  "übrigens": 2324,
  "spiele": 2325,
  "gemeinsam": 2326,
  "aufmerksamkeit": 2327,
  "tod": 2328,
  "star": 2329,
  "further": 2330,
  "biggest": 2331,
  "grenzen": 2332,
  "plants": 2333,
  "medicine": 2334,
  "il": 2335,
  "don@@": 2336,
  "vergessen": 2337,
  "ce@@": 2338,
  "projects": 2339,
  "spaß": 2340,
  "can@@": 2341,
  "schneller": 2342,
  "vorher": 2343,
  "6@@": 2344,
  "ken@@": 2345,
  "text": 2346,
  "wussten": 2347,
  "rich": 2348,
  "ars": 2349,
  "particularly": 2350,
  "tor@@": 2351,
  "largest": 2352,
  "überleben": 2353,
  "japan": 2354,
  "sobald": 2355,
  "break": 2356,
  "langsam": 2357,
  "400": 2358,
  "verlieren": 2359,
  "ended": 2360,
  "showing": 2361,
  "ing@@": 2362,
  "dri@@": 2363,
  "länger": 2364,
  "umwelt@@": 2365,
  "großer": 2366,
  "lebt": 2367,
  "medi@@": 2368,
  "tional": 2369,
  "tausende": 2370,
  "fire": 2371,
  "wow": 2372,
  "elt": 2373,
  "et": 2374,
  "bel@@": 2375,
  "object": 2376,
  "weltweit": 2377,
  "gh@@": 2378,
  "feld": 2379,
  "strong": 2380,
  "computer@@": 2381,
  "einzu@@": 2382,
  "pick": 2383,
  "sitzen": 2384,
  "zeiten": 2385,
  "connected": 2386,
  "nachrichten": 2387,
  "journey": 2388,
  "carbon": 2389,
  "partner": 2390,
  "ess": 2391,
  "bewusstsein": 2392,
  "blo@@": 2393,
  "hinter@@": 2394,
  "anti@@": 2395,
  "service": 2396,
  "wesen": 2397,
  "ebene": 2398,
  "heit": 2399,
  "ag@@": 2400,
  "öl": 2401,
  "außer": 2402,
  "reach": 2403,
  "industrie": 2404,
  "gutes": 2405,
  "det": 2406,
  "onto": 2407,
  "produkt": 2408,
  "ran@@": 2409,
  "list": 2410,
  "hab": 2411,
  "hen": 2412,
  "bestimmt": 2413,
  "orte": 2414,
  "measure": 2415,
  "professor": 2416,
  "voll@@": 2417,
  "13": 2418,
  "zero": 2419,
  "end@@": 2420,
  "ator": 2421,
  "cr@@": 2422,
  "add": 2423,
  "ß@@": 2424,
  "gesprochen": 2425,
  "points": 2426,
  "nahmen": 2427,
  "wahl": 2428,
  "lead": 2429,
  "24": 2430,
  "künstler": 2431,
  "anschauen": 2432,
  "herauszufinden": 2433,
  "beispiele": 2434,
  "großes": 2435,
  "tells": 2436,
  "follow": 2437,
  "beobachten": 2438,
  "klasse": 2439,
  "mom": 2440,
  "african": 2441,
  "organization": 2442,
  "sit": 2443,
  "babies": 2444,
  "nuclear": 2445,
  "island": 2446,
  "bor@@": 2447,
  "bre@@": 2448,
  "fahr@@": 2449,
  "source": 2450,
  "toll": 2451,
  "versch@@": 2452,
  "ap@@": 2453,
  "stars": 2454,
  "zing": 2455,
  "ley": 2456,
  "fing": 2457,
  "führte": 2458,
  "definition": 2459,
  "gleichzeitig": 2460,
  "medien": 2461,
  "lines": 2462,
  "mittel@@": 2463,
  "serious": 2464,
  "visual": 2465,
  "sand": 2466,
  "hr@@": 2467,
  "lich@@": 2468,
  "named": 2469,
  "ard": 2470,
  "wieso": 2471,
  "än@@": 2472,
  "interessante": 2473,
  "außerdem": 2474,
  "aussieht": 2475,
  "geschehen": 2476,
  "vo@@": 2477,
  "biology": 2478,
  "orten": 2479,
  "wichtiger": 2480,
  "extraordinary": 2481,
  "messen": 2482,
  "weiter@@": 2483,
  "zweiten": 2484,
  "teacher": 2485,
  "wal@@": 2486,
  "bessere": 2487,
  "mental": 2488,
  "fla@@": 2489,
  "umwelt": 2490,
  "develop": 2491,
  "washington": 2492,
  "ari@@": 2493,
  "fo@@": 2494,
  "ban@@": 2495,
  "doctor": 2496,
  "ell@@": 2497,
  "poverty": 2498,
  "san": 2499,
  "zelle": 2500,
  "democracy": 2501,
  "klein": 2502,
  "screen": 2503,
  "ner@@": 2504,
  "sozialen": 2505,
  "expensive": 2506,
  "farbe": 2507,
  "arbeitete": 2508,
  "usually": 2509,
  "ad": 2510,
  "medizin": 2511,
  "fe": 2512,
  "bleibt": 2513,
  "ations": 2514,
  "produzieren": 2515,
  "fest@@": 2516,
  "bestimmten": 2517,
  "buildings": 2518,
  "videos": 2519,
  "versuchte": 2520,
  "bin@@": 2521,
  "continue": 2522,
  "baren": 2523,
  "electricity": 2524,
  "gegangen": 2525,
  "sekunden": 2526,
  "mü@@": 2527,
  "hört": 2528,
  "ali@@": 2529,
  "likely": 2530,
  "dro@@": 2531,
  "handelt": 2532,
  "success": 2533,
  "song": 2534,
  "larger": 2535,
  "wo@@": 2536,
  "private": 2537,
  "co2": 2538,
  "einzelnen": 2539,
  "ders": 2540,
  "zentrum": 2541,
  "fantastic": 2542,
  "fil@@": 2543,
  "watching": 2544,
  "foot": 2545,
  "firmen": 2546,
  "among": 2547,
  "holen": 2548,
  "shot": 2549,
  "expect": 2550,
  "band": 2551,
  "kli@@": 2552,
  "ship": 2553,
  "standing": 2554,
  "berg": 2555,
  "demokratie": 2556,
  "ball": 2557,
  "safe": 2558,
  "sprachen": 2559,
  "series": 2560,
  "tend": 2561,
  "besch@@": 2562,
  "fine": 2563,
  "creative": 2564,
  "sent": 2565,
  "except": 2566,
  "fully": 2567,
  "drei@@": 2568,
  "trees": 2569,
  "tree": 2570,
  "goal": 2571,
  "ant@@": 2572,
  "ker@@": 2573,
  "einfluss": 2574,
  "methode": 2575,
  "grad": 2576,
  "vier@@": 2577,
  "cker": 2578,
  "tig": 2579,
  "nachricht": 2580,
  "ern@@": 2581,
  "ob@@": 2582,
  "essentially": 2583,
  "frei": 2584,
  "objects": 2585,
  "pal@@": 2586,
  "period": 2587,
  "konzept": 2588,
  "arzt": 2589,
  "strom": 2590,
  "krankheiten": 2591,
  "rede": 2592,
  "movie": 2593,
  "amerikaner": 2594,
  "fällt": 2595,
  "universität": 2596,
  "amerikanischen": 2597,
  "schaut": 2598,
  "wider@@": 2599,
  "killed": 2600,
  "impossible": 2601,
  "warten": 2602,
  "tv": 2603,
  "läuft": 2604,
  "entdecken": 2605,
  "großartige": 2606,
  "verbessern": 2607,
  "seconds": 2608,
  "papier": 2609,
  "wand": 2610,
  "werte": 2611,
  "öl@@": 2612,
  "results": 2613,
  "eventually": 2614,
  "zustand": 2615,
  "dorf": 2616,
  "thousand": 2617,
  "gende": 2618,
  "ism": 2619,
  "sive": 2620,
  "perspective": 2621,
  "spezies": 2622,
  "sowohl": 2623,
  "architecture": 2624,
  "eben": 2625,
  "beauty": 2626,
  "nenne": 2627,
  "products": 2628,
  "haut": 2629,
  "wife": 2630,
  "paul": 2631,
  "written": 2632,
  "somewhere": 2633,
  "körper@@": 2634,
  "higher": 2635,
  "eller": 2636,
  "len@@": 2637,
  "himself": 2638,
  "traditional": 2639,
  "str@@": 2640,
  "cause": 2641,
  "crazy": 2642,
  "personen": 2643,
  "sky": 2644,
  "dadurch": 2645,
  "mikro@@": 2646,
  "my@@": 2647,
  "upon": 2648,
  "wirklichkeit": 2649,
  "complicated": 2650,
  "sorts": 2651,
  "response": 2652,
  "conditions": 2653,
  "befinden": 2654,
  "leaders": 2655,
  "lin@@": 2656,
  "site": 2657,
  "arbeits@@": 2658,
  "trans@@": 2659,
  "fundamental": 2660,
  "sell": 2661,
  "models": 2662,
  "facebook": 2663,
  "9@@": 2664,
  "square": 2665,
  "ori@@": 2666,
  "nachzudenken": 2667,
  "ble": 2668,
  "nummer": 2669,
  "spread": 2670,
  "schicken": 2671,
  "sin@@": 2672,
  "and@@": 2673,
  "zeug": 2674,
  "approach": 2675,
  "zumindest": 2676,
  "vergangenheit": 2677,
  "35": 2678,
  "tiger": 2679,
  "sei@@": 2680,
  "pl@@": 2681,
  "kin@@": 2682,
  "geist": 2683,
  "ance": 2684,
  "kal@@": 2685,
  "camera": 2686,
  "older": 2687,
  "tool": 2688,
  "suche": 2689,
  "typ": 2690,
  "male": 2691,
  "charles": 2692,
  "flow": 2693,
  "treatment": 2694,
  "allowed": 2695,
  "ca": 2696,
  "bas@@": 2697,
  "prinzip": 2698,
  "rise": 2699,
  "pieces": 2700,
  "ach@@": 2701,
  "favorite": 2702,
  "ran": 2703,
  "western": 2704,
  "up@@": 2705,
  "dad": 2706,
  "organisation": 2707,
  "bühne": 2708,
  "werfen": 2709,
  "mark": 2710,
  "bacteria": 2711,
  "ser": 2712,
  "ws": 2713,
  "bro@@": 2714,
  "abge@@": 2715,
  "erlaubt": 2716,
  "thanks": 2717,
  "lan@@": 2718,
  "cts": 2719,
  "herstellen": 2720,
  "solchen": 2721,
  "finding": 2722,
  "tete": 2723,
  "pan@@": 2724,
  "hole": 2725,
  "hinaus": 2726,
  "high-@@": 2727,
  "genes": 2728,
  "gers": 2729,
  "verlassen": 2730,
  "mathematik": 2731,
  "gel": 2732,
  "monat": 2733,
  "fer": 2734,
  "individuals": 2735,
  "party": 2736,
  "brains": 2737,
  "bt": 2738,
  "dance": 2739,
  "military": 2740,
  "kept": 2741,
  "gri@@": 2742,
  "crisis": 2743,
  "99": 2744,
  "17": 2745,
  "cted": 2746,
  "ces": 2747,
  "massive": 2748,
  "central": 2749,
  "successful": 2750,
  "gend": 2751,
  "herum@@": 2752,
  "fotos": 2753,
  "rechts": 2754,
  "truly": 2755,
  "reading": 2756,
  "früher": 2757,
  "menschheit": 2758,
  "somehow": 2759,
  "kor@@": 2760,
  "han@@": 2761,
  "setzt": 2762,
  "taught": 2763,
  "neurons": 2764,
  "fra@@": 2765,
  "er-@@": 2766,
  "context": 2767,
  "excited": 2768,
  "alive": 2769,
  "dritte": 2770,
  "oren": 2771,
  "erzeugen": 2772,
  "win": 2773,
  "gründen": 2774,
  "worte": 2775,
  "above": 2776,
  "gründe": 2777,
  "stellten": 2778,
  "cre@@": 2779,
  "ozean": 2780,
  "interest": 2781,
  "theater": 2782,
  "one-@@": 2783,
  "behandlung": 2784,
  "diejenigen": 2785,
  "150": 2786,
  "aufgrund": 2787,
  "ven@@": 2788,
  "drugs": 2789,
  "arbeite": 2790,
  "shown": 2791,
  "worse": 2792,
  "irgendwo": 2793,
  "gewalt": 2794,
  "physics": 2795,
  "station": 2796,
  "dasselbe": 2797,
  "interesse": 2798,
  "store": 2799,
  "faster": 2800,
  "ts@@": 2801,
  "blind": 2802,
  "supposed": 2803,
  "gkeit": 2804,
  "tro@@": 2805,
  "artikel": 2806,
  "ry": 2807,
  "neben": 2808,
  "aid": 2809,
  "verstand": 2810,
  "befindet": 2811,
  "spielt": 2812,
  "touch": 2813,
  "meaning": 2814,
  "role": 2815,
  "gr@@": 2816,
  "famous": 2817,
  "town": 2818,
  "ys": 2819,
  "connect": 2820,
  "unmöglich": 2821,
  "antworten": 2822,
  "sammeln": 2823,
  "dung": 2824,
  "kr@@": 2825,
  "george": 2826,
  "materialien": 2827,
  "ments": 2828,
  "dan@@": 2829,
  "»": 2830,
  "ality": 2831,
  "active": 2832,
  "schüler": 2833,
  "kill": 2834,
  "concept": 2835,
  "gleich@@": 2836,
  "geb@@": 2837,
  "trust": 2838,
  "beings": 2839,
  "kinder@@": 2840,
  "welcher": 2841,
  "satz": 2842,
  "entdeckt": 2843,
  "kt@@": 2844,
  "verstanden": 2845,
  "aler": 2846,
  "cent": 2847,
  "weight": 2848,
  "pass": 2849,
  "liste": 2850,
  "dream": 2851,
  "therefore": 2852,
  "globalen": 2853,
  "ften": 2854,
  "main": 2855,
  "talks": 2856,
  "gefragt": 2857,
  "sohn": 2858,
  "stunde": 2859,
  "studien": 2860,
  "zugang": 2861,
  "hervor@@": 2862,
  "progress": 2863,
  "ve@@": 2864,
  "hot": 2865,
  "indi@@": 2866,
  "communities": 2867,
  "ziert": 2868,
  "radio": 2869,
  "traf": 2870,
  "sam@@": 2871,
  "pf@@": 2872,
  "extra": 2873,
  "selben": 2874,
  "geschäft": 2875,
  "einfachen": 2876,
  "content": 2877,
  "naja": 2878,
  "architektur": 2879,
  "nahrung": 2880,
  "re-@@": 2881,
  "entschieden": 2882,
  "kte": 2883,
  "tumor": 2884,
  "«": 2885,
  "betrachtet": 2886,
  "innen": 2887,
  "far@@": 2888,
  "dog": 2889,
  "ü@@": 2890,
  "us-@@": 2891,
  "wachstum": 2892,
  "iert": 2893,
  "details": 2894,
  "drug": 2895,
  "choose": 2896,
  "meant": 2897,
  "sorry": 2898,
  "kunst@@": 2899,
  "ang@@": 2900,
  "press": 2901,
  "including": 2902,
  "riesige": 2903,
  "dern": 2904,
  "malaria": 2905,
  "va@@": 2906,
  "geschwindigkeit": 2907,
  "genome": 2908,
  "sinne": 2909,
  "ll@@": 2910,
  "foundation": 2911,
  "neun": 2912,
  "les@@": 2913,
  "2000": 2914,
  "leisten": 2915,
  "gan@@": 2916,
  "balance": 2917,
  "slow": 2918,
  "england": 2919,
  "familien": 2920,
  "großartig": 2921,
  "studies": 2922,
  "hy@@": 2923,
  "net": 2924,
  "biologie": 2925,
  "hilft": 2926,
  "tan@@": 2927,
  "produkte": 2928,
  "lösungen": 2929,
  "families": 2930,
  "maschinen": 2931,
  "leider": 2932,
  "lau@@": 2933,
  "fight": 2934,
  "legs": 2935,
  "throughout": 2936,
  "himmel": 2937,
  "earlier": 2938,
  "invented": 2939,
  "machines": 2940,
  "pain": 2941,
  "costs": 2942,
  "clearly": 2943,
  "reichen": 2944,
  "sto@@": 2945,
  "kollegen": 2946,
  "armut": 2947,
  "glass": 2948,
  "however": 2949,
  "eis": 2950,
  "dangerous": 2951,
  "vers": 2952,
  "magic": 2953,
  "americans": 2954,
  "record": 2955,
  "pat@@": 2956,
  "strange": 2957,
  "handeln": 2958,
  "ieren": 2959,
  "1,@@": 2960,
  "entweder": 2961,
  "smaller": 2962,
  "plastic": 2963,
  "ergebnisse": 2964,
  "ving": 2965,
  "versuch": 2966,
  "original": 2967,
  "mm@@": 2968,
  "netz": 2969,
  "einstein": 2970,
  "ther@@": 2971,
  "weren": 2972,
  "zunächst": 2973,
  "stimmen": 2974,
  "cur@@": 2975,
  "&amp;": 2976,
  "wor@@": 2977,
  "ants": 2978,
  "familiar": 2979,
  "kten": 2980,
  "5@@": 2981,
  "comp@@": 2982,
  "verständnis": 2983,
  "freiheit": 2984,
  "bunch": 2985,
  "zeigte": 2986,
  "extrem": 2987,
  "neuro@@": 2988,
  "argument": 2989,
  "kaum": 2990,
  "treten": 2991,
  "ebenso": 2992,
  "sted": 2993,
  "nigeria": 2994,
  "fällen": 2995,
  "untersuchen": 2996,
  "600": 2997,
  "price": 2998,
  "actual": 2999,
  "enen": 3000,
  "verbinden": 3001,
  "policy": 3002,
  "engineering": 3003,
  "fisch": 3004,
  "keiner": 3005,
  "cra@@": 3006,
  "rights": 3007,
  "greater": 3008,
  "performance": 3009,
  "increase": 3010,
  "income": 3011,
  "gar@@": 3012,
  "not@@": 3013,
  "lag": 3014,
  "direction": 3015,
  "spitze": 3016,
  "yo@@": 3017,
  "plant": 3018,
  "production": 3019,
  "slide": 3020,
  "stick": 3021,
  "beginn": 3022,
  "ums": 3023,
  "waiting": 3024,
  "näher": 3025,
  "wing": 3026,
  "km": 3027,
  "schlechte": 3028,
  "vertrauen": 3029,
  "although": 3030,
  "bestimmte": 3031,
  "operation": 3032,
  "tief@@": 3033,
  "robots": 3034,
  "onen": 3035,
  "erstens": 3036,
  "ckt": 3037,
  "james": 3038,
  "meeting": 3039,
  "listening": 3040,
  "sch": 3041,
  "pres@@": 3042,
  "unfortunately": 3043,
  "deswegen": 3044,
  "digen": 3045,
  "hörte": 3046,
  "solutions": 3047,
  "schönheit": 3048,
  "cover": 3049,
  "verkaufen": 3050,
  "ca.": 3051,
  "eu@@": 3052,
  "iran": 3053,
  "sting": 3054,
  "schlagen": 3055,
  "emp@@": 3056,
  "hielt": 3057,
  "train": 3058,
  "k-@@": 3059,
  "ebenfalls": 3060,
  "cases": 3061,
  "pla@@": 3062,
  "bisher": 3063,
  "mas@@": 3064,
  "10@@": 3065,
  "energie@@": 3066,
  "chen@@": 3067,
  "dein": 3068,
  "healthy": 3069,
  "michael": 3070,
  "entscheiden": 3071,
  "fertig": 3072,
  "cal": 3073,
  "reaktion": 3074,
  "recognize": 3075,
  "uhr": 3076,
  "wichtigste": 3077,
  "micro@@": 3078,
  "driving": 3079,
  "ermöglicht": 3080,
  "allows": 3081,
  "ressourcen": 3082,
  "freedom": 3083,
  "natur@@": 3084,
  "ehrlich": 3085,
  "waste": 3086,
  "raus": 3087,
  "walked": 3088,
  "cting": 3089,
  "ze@@": 3090,
  "herz": 3091,
  "immediately": 3092,
  "hände": 3093,
  "hundert": 3094,
  "tem": 3095,
  "teten": 3096,
  "objekt": 3097,
  "bedingungen": 3098,
  "ließ": 3099,
  "block": 3100,
  "wonder": 3101,
  "pping": 3102,
  "mel@@": 3103,
  "komme": 3104,
  "grade": 3105,
  "tionen": 3106,
  "violence": 3107,
  "ure": 3108,
  "intelligence": 3109,
  "standard": 3110,
  "tests": 3111,
  "function": 3112,
  "ced": 3113,
  "eigen@@": 3114,
  "zen@@": 3115,
  "außerhalb": 3116,
  "ide@@": 3117,
  "rein@@": 3118,
  "connection": 3119,
  "none": 3120,
  "motor": 3121,
  "tru@@": 3122,
  "flying": 3123,
  "pr@@": 3124,
  "meer": 3125,
  "zes": 3126,
  "kampf": 3127,
  "surgery": 3128,
  "bakterien": 3129,
  "gesamten": 3130,
  "kilometer": 3131,
  "forget": 3132,
  "studio": 3133,
  "exist": 3134,
  "signal": 3135,
  "nt": 3136,
  "unglaubliche": 3137,
  "lasst": 3138,
  "retten": 3139,
  "gegen@@": 3140,
  "fal@@": 3141,
  "bus": 3142,
  "ss": 3143,
  "mt": 3144,
  "skills": 3145,
  "trifft": 3146,
  "lie@@": 3147,
  "anymore": 3148,
  "rechte": 3149,
  "rechten": 3150,
  "000": 3151,
  "patterns": 3152,
  "mobile": 3153,
  "druck": 3154,
  "humanity": 3155,
  "kamera": 3156,
  "conversation": 3157,
  "specific": 3158,
  "getroffen": 3159,
  "range": 3160,
  "drehen": 3161,
  "projekte": 3162,
  "ess@@": 3163,
  "dreht": 3164,
  "2008": 3165,
  "verrückt": 3166,
  "lt": 3167,
  "rule": 3168,
  "steigen": 3169,
  "travel": 3170,
  "decisions": 3171,
  "tzen": 3172,
  "graph": 3173,
  "letztes": 3174,
  "israel": 3175,
  "tens": 3176,
  "cher@@": 3177,
  "1@@": 3178,
  "ton@@": 3179,
  "herz@@": 3180,
  "endlich": 3181,
  "consider": 3182,
  "daten@@": 3183,
  "genen": 3184,
  "auge": 3185,
  "unterschiede": 3186,
  "math": 3187,
  "hn@@": 3188,
  "explo@@": 3189,
  "effective": 3190,
  "protect": 3191,
  "aware": 3192,
  "nehme": 3193,
  "pull": 3194,
  "schließen": 3195,
  "krankenhaus": 3196,
  "cke": 3197,
  "din@@": 3198,
  "är@@": 3199,
  "president": 3200,
  "cht@@": 3201,
  "stein": 3202,
  "lower": 3203,
  "erzählte": 3204,
  "luft@@": 3205,
  "understood": 3206,
  "greatest": 3207,
  "status": 3208,
  "licht@@": 3209,
  "held": 3210,
  "air@@": 3211,
  "clean": 3212,
  "groß@@": 3213,
  "erwarten": 3214,
  "gesetz": 3215,
  "masse": 3216,
  "gesundheits@@": 3217,
  "wel@@": 3218,
  "draw": 3219,
  "fli@@": 3220,
  "halte": 3221,
  "fälle": 3222,
  "wohn@@": 3223,
  "erfolgreich": 3224,
  "fy": 3225,
  "current": 3226,
  "subject": 3227,
  "einzigen": 3228,
  "bodies": 3229,
  "ved": 3230,
  "bau": 3231,
  "sion": 3232,
  "armen": 3233,
  "unterschiedliche": 3234,
  "wege": 3235,
  "photograph": 3236,
  "zeitpunkt": 3237,
  "gehirn@@": 3238,
  "erklärt": 3239,
  "geschaffen": 3240,
  "self": 3241,
  "char@@": 3242,
  "survive": 3243,
  "stern": 3244,
  "emotional": 3245,
  "län@@": 3246,
  "sor@@": 3247,
  "ns": 3248,
  "genetic": 3249,
  "useful": 3250,
  "passion": 3251,
  "werk": 3252,
  "erinnere": 3253,
  "ka": 3254,
  "son@@": 3255,
  "spe@@": 3256,
  "ked": 3257,
  "experiments": 3258,
  "leidenschaft": 3259,
  "remarkable": 3260,
  "mr.": 3261,
  "lernte": 3262,
  "eigenschaften": 3263,
  "cultural": 3264,
  "zeichen": 3265,
  "rock": 3266,
  "anywhere": 3267,
  "landes": 3268,
  "tions@@": 3269,
  "nasa": 3270,
  "ators": 3271,
  "provide": 3272,
  "feed": 3273,
  "wür@@": 3274,
  "critical": 3275,
  "zei@@": 3276,
  "cking": 3277,
  "s.": 3278,
  "artist": 3279,
  "environmental": 3280,
  "cold": 3281,
  "mini@@": 3282,
  "obvious": 3283,
  "typen": 3284,
  "straßen": 3285,
  "ha": 3286,
  "worten": 3287,
  "zweitens": 3288,
  "ic@@": 3289,
  "traum": 3290,
  "twitter": 3291,
  "gehe": 3292,
  "rund": 3293,
  "erfahren": 3294,
  "gre@@": 3295,
  "related": 3296,
  "schützen": 3297,
  "nar@@": 3298,
  "45": 3299,
  "freude": 3300,
  "strukturen": 3301,
  "values": 3302,
  "fuel": 3303,
  "practice": 3304,
  "els": 3305,
  "ren": 3306,
  "sau@@": 3307,
  "teaching": 3308,
  "enormous": 3309,
  "mostly": 3310,
  "herausfinden": 3311,
  "conference": 3312,
  "seines": 3313,
  "hunderte": 3314,
  "evolved": 3315,
  "eating": 3316,
  "abend": 3317,
  "minds": 3318,
  "played": 3319,
  "organisationen": 3320,
  "television": 3321,
  "ring": 3322,
  "ahnung": 3323,
  "darwin": 3324,
  "loved": 3325,
  "za@@": 3326,
  "beziehungen": 3327,
  "englisch": 3328,
  "raise": 3329,
  "forces": 3330,
  "kern": 3331,
  "complete": 3332,
  "services": 3333,
  "september": 3334,
  "cli@@": 3335,
  "doctors": 3336,
  "stische": 3337,
  "final": 3338,
  "multi@@": 3339,
  "creativity": 3340,
  "depression": 3341,
  "geräte": 3342,
  "dan": 3343,
  "ev@@": 3344,
  "regel": 3345,
  "ani@@": 3346,
  "politics": 3347,
  "floor": 3348,
  "chs": 3349,
  "bezug": 3350,
  "eli@@": 3351,
  "sharing": 3352,
  "person@@": 3353,
  "osten": 3354,
  "becoming": 3355,
  "stic": 3356,
  "lat@@": 3357,
  "gedacht": 3358,
  "bes@@": 3359,
  "tief": 3360,
  "tten": 3361,
  "schutz": 3362,
  "ely": 3363,
  "sat": 3364,
  "pped": 3365,
  "various": 3366,
  "ctive": 3367,
  "öffentlichen": 3368,
  "westen": 3369,
  "la": 3370,
  "langen": 3371,
  "netzwerk": 3372,
  "lights": 3373,
  "brauchte": 3374,
  "markets": 3375,
  "wikipedia": 3376,
  "form@@": 3377,
  "20@@": 3378,
  "alternative": 3379,
  "birds": 3380,
  "near": 3381,
  "konferenz": 3382,
  "search": 3383,
  "plan@@": 3384,
  "stone": 3385,
  "erfunden": 3386,
  "ing-@@": 3387,
  "gehirns": 3388,
  "wohin": 3389,
  "laptop": 3390,
  "flugzeug": 3391,
  "fis@@": 3392,
  "lung": 3393,
  "angefangen": 3394,
  "cal@@": 3395,
  "produktion": 3396,
  "negative": 3397,
  "phase": 3398,
  "id": 3399,
  "erleben": 3400,
  "instrument": 3401,
  "los@@": 3402,
  "auswirkungen": 3403,
  "temperature": 3404,
  "führung": 3405,
  "lö@@": 3406,
  "bäume": 3407,
  "leistung": 3408,
  "globale": 3409,
  "len": 3410,
  "daughter": 3411,
  "ably": 3412,
  "hängt": 3413,
  "leiden": 3414,
  "fen@@": 3415,
  "mehrere": 3416,
  "desto": 3417,
  "z.b.": 3418,
  "designers": 3419,
  "äu@@": 3420,
  "verantwortung": 3421,
  "behandeln": 3422,
  "trade": 3423,
  "twice": 3424,
  "schw@@": 3425,
  "geschah": 3426,
  "phones": 3427,
  "consciousness": 3428,
  "event": 3429,
  "75": 3430,
  "track": 3431,
  "quick": 3432,
  "elles": 3433,
  "shared": 3434,
  "gebe": 3435,
  "erfahrungen": 3436,
  "produced": 3437,
  "zug": 3438,
  "discover": 3439,
  "geo@@": 3440,
  "sur@@": 3441,
  "budget": 3442,
  "element": 3443,
  "networks": 3444,
  "gold": 3445,
  "path": 3446,
  "kra@@": 3447,
  "ff": 3448,
  "fehl@@": 3449,
  "anti-@@": 3450,
  "2007": 3451,
  "co": 3452,
  "boys": 3453,
  "sustainable": 3454,
  "ssen": 3455,
  "sli@@": 3456,
  "financial": 3457,
  "ärzte": 3458,
  "steve": 3459,
  "cy@@": 3460,
  "stell@@": 3461,
  "restaurant": 3462,
  "karten": 3463,
  "tal@@": 3464,
  "tern": 3465,
  "gesellschaften": 3466,
  "ies": 3467,
  "fit": 3468,
  "entschied": 3469,
  "hil@@": 3470,
  "echt": 3471,
  "nahe": 3472,
  "regierungen": 3473,
  "sekunde": 3474,
  "seien": 3475,
  "ian": 3476,
  "moon": 3477,
  "genden": 3478,
  "stoff": 3479,
  "schluss": 3480,
  "farben": 3481,
  "weisen": 3482,
  "heat": 3483,
  "slightly": 3484,
  "apple": 3485,
  "capacity": 3486,
  "institutions": 3487,
  "stecken": 3488,
  "büro": 3489,
  "kes": 3490,
  "possibly": 3491,
  "protein": 3492,
  "decade": 3493,
  "wählen": 3494,
  "lief": 3495,
  "pen": 3496,
  "chemical": 3497,
  "funny": 3498,
  "raum@@": 3499,
  "treat": 3500,
  "weiss": 3501,
  "police": 3502,
  "ahead": 3503,
  "runter": 3504,
  "ages": 3505,
  "fragt": 3506,
  "nieder@@": 3507,
  "wichtigsten": 3508,
  "rat": 3509,
  "character": 3510,
  "ganzes": 3511,
  "brot": 3512,
  "speaking": 3513,
  "thomas": 3514,
  "causes": 3515,
  "helped": 3516,
  "ets": 3517,
  "sicherlich": 3518,
  "unique": 3519,
  "jahrhunderts": 3520,
  "verbindungen": 3521,
  "herzustellen": 3522,
  "pun@@": 3523,
  "winter": 3524,
  "medikamente": 3525,
  "types": 3526,
  "year-old": 3527,
  "instance": 3528,
  "tradition": 3529,
  "gender": 3530,
  "ia": 3531,
  "hinein": 3532,
  "endes": 3533,
  "gaben": 3534,
  "down@@": 3535,
  "etc": 3536,
  "erstaunlich": 3537,
  "medium": 3538,
  "öffnen": 3539,
  "geführt": 3540,
  "menschen@@": 3541,
  "infrastructure": 3542,
  "push": 3543,
  "recent": 3544,
  "stattdessen": 3545,
  "neuronen": 3546,
  "gro@@": 3547,
  "fühlte": 3548,
  "blu@@": 3549,
  "bought": 3550,
  "echte": 3551,
  "significant": 3552,
  "größeren": 3553,
  "werkzeuge": 3554,
  "ancient": 3555,
  "levels": 3556,
  "cri@@": 3557,
  "jemandem": 3558,
  "charge": 3559,
  "loch": 3560,
  "sleep": 3561,
  "societies": 3562,
  "indian": 3563,
  "kostet": 3564,
  "efficient": 3565,
  "offen@@": 3566,
  "guter": 3567,
  "reich": 3568,
  "teil@@": 3569,
  "ismus": 3570,
  "wunsch": 3571,
  "äre": 3572,
  "enter": 3573,
  "herzen": 3574,
  "erstes": 3575,
  "jene": 3576,
  "größere": 3577,
  "terrible": 3578,
  "geschafft": 3579,
  "fähig": 3580,
  "sonnen@@": 3581,
  "degrees": 3582,
  "sign": 3583,
  "secret": 3584,
  "konzentrieren": 3585,
  "following": 3586,
  "waffen": 3587,
  "begonnen": 3588,
  "ying": 3589,
  "prote@@": 3590,
  "veränderungen": 3591,
  "directly": 3592,
  "farm": 3593,
  "gefühle": 3594,
  "hor@@": 3595,
  "modelle": 3596,
  "hi": 3597,
  "communication": 3598,
  "radi@@": 3599,
  "tochter": 3600,
  "meters": 3601,
  "spreche": 3602,
  "wagen": 3603,
  "schöne": 3604,
  "existiert": 3605,
  "workers": 3606,
  "fühlt": 3607,
  "produziert": 3608,
  "fuß": 3609,
  "sar@@": 3610,
  "beeinflusst": 3611,
  "carry": 3612,
  "ppen": 3613,
  "below": 3614,
  "purpose": 3615,
  "focused": 3616,
  "california": 3617,
  "paid": 3618,
  "ted-@@": 3619,
  "ernst": 3620,
  "industrial": 3621,
  "alität": 3622,
  "cs": 3623,
  "capital": 3624,
  "institute": 3625,
  "worry": 3626,
  "wenige": 3627,
  "complexity": 3628,
  "ning": 3629,
  "ass": 3630,
  "verbringen": 3631,
  "stu@@": 3632,
  "term": 3633,
  "fluss": 3634,
  "höhe": 3635,
  "genutzt": 3636,
  "verursacht": 3637,
  "komplexität": 3638,
  "heutigen": 3639,
  "tele@@": 3640,
  "ct@@": 3641,
  "fair": 3642,
  "fun@@": 3643,
  "infrastruktur": 3644,
  "schaft": 3645,
  "frühen": 3646,
  "freunden": 3647,
  "wild": 3648,
  "1.@@": 3649,
  "fle@@": 3650,
  "extreme": 3651,
  "spieler": 3652,
  "tür": 3653,
  "atom@@": 3654,
  "schätzen": 3655,
  "urban": 3656,
  "pra@@": 3657,
  "summer": 3658,
  "straight": 3659,
  "staat": 3660,
  "bitten": 3661,
  "greifen": 3662,
  "dig": 3663,
  "fü@@": 3664,
  "ology": 3665,
  "amerikanische": 3666,
  "poli@@": 3667,
  "aktivität": 3668,
  "career": 3669,
  "qualität": 3670,
  "pressure": 3671,
  "sand@@": 3672,
  "ach": 3673,
  "governments": 3674,
  "10,000": 3675,
  "valley": 3676,
  "eigenes": 3677,
  "fort": 3678,
  "lehr@@": 3679,
  "ien": 3680,
  "pakistan": 3681,
  "erzeugt": 3682,
  "inspired": 3683,
  "flug@@": 3684,
  "reisen": 3685,
  "folgendes": 3686,
  "fernsehen": 3687,
  "einkommen": 3688,
  "schafft": 3689,
  "vorbei": 3690,
  "fleisch": 3691,
  "kur@@": 3692,
  "river": 3693,
  "dorthin": 3694,
  "fühle": 3695,
  "oxygen": 3696,
  "fied": 3697,
  "willing": 3698,
  "8@@": 3699,
  "biological": 3700,
  "plus": 3701,
  "o-@@": 3702,
  "fr@@": 3703,
  "ta": 3704,
  "schutz@@": 3705,
  "kommunikation": 3706,
  "senden": 3707,
  "wirtschafts@@": 3708,
  "drop": 3709,
  "fre@@": 3710,
  "wörter": 3711,
  "unterstützen": 3712,
  "artists": 3713,
  "diseases": 3714,
  "whose": 3715,
  "birth": 3716,
  "nächstes": 3717,
  "magazine": 3718,
  "krise": 3719,
  "folge": 3720,
  "in-@@": 3721,
  "ren@@": 3722,
  "conflict": 3723,
  "ically": 3724,
  "francisco": 3725,
  "effects": 3726,
  "scientist": 3727,
  "robert": 3728,
  "closer": 3729,
  "creates": 3730,
  "forth": 3731,
  "erlauben": 3732,
  "youtube": 3733,
  "augen@@": 3734,
  "hel@@": 3735,
  "detail": 3736,
  "atmosphere": 3737,
  "zusammenhang": 3738,
  "kriegen": 3739,
  "challenges": 3740,
  "linken": 3741,
  "differences": 3742,
  "cul@@": 3743,
  "dor@@": 3744,
  "ls": 3745,
  "lation": 3746,
  "aller@@": 3747,
  "brechen": 3748,
  "leads": 3749,
  "apart": 3750,
  "funktion": 3751,
  "intelligent": 3752,
  "nutz@@": 3753,
  "physik": 3754,
  "laws": 3755,
  "forest": 3756,
  "gest@@": 3757,
  "ra": 3758,
  "arme": 3759,
  "structures": 3760,
  "gewicht": 3761,
  "stücke": 3762,
  "sucht": 3763,
  "tolle": 3764,
  "molecules": 3765,
  "mond": 3766,
  "prä@@": 3767,
  "0@@": 3768,
  "memory": 3769,
  "zog": 3770,
  "ausdruck": 3771,
  "gewebe": 3772,
  "harvard": 3773,
  "somit": 3774,
  "stem": 3775,
  "weiterhin": 3776,
  "hotel": 3777,
  "on-@@": 3778,
  "supply": 3779,
  "enten": 3780,
  "explore": 3781,
  "sol@@": 3782,
  "trouble": 3783,
  "film@@": 3784,
  "ender": 3785,
  "cl@@": 3786,
  "nicht-@@": 3787,
  "british": 3788,
  "boston": 3789,
  "entscheidung": 3790,
  "begriff": 3791,
  "asia": 3792,
  "yellow": 3793,
  "ats": 3794,
  "trial": 3795,
  "bis@@": 3796,
  "ven": 3797,
  "roten": 3798,
  "trick": 3799,
  "particles": 3800,
  "ents": 3801,
  "mat@@": 3802,
  "kreativität": 3803,
  "sel": 3804,
  "dying": 3805,
  "allerdings": 3806,
  "fenster": 3807,
  "stolz": 3808,
  "pul@@": 3809,
  "devices": 3810,
  "tel": 3811,
  "mil@@": 3812,
  "gelegenheit": 3813,
  "ctions": 3814,
  "pe": 3815,
  "steckt": 3816,
  "quelle": 3817,
  "dy@@": 3818,
  "losen": 3819,
  "note": 3820,
  "scher": 3821,
  "popular": 3822,
  "hart": 3823,
  "1,000": 3824,
  "teams": 3825,
  "einzel@@": 3826,
  "islam": 3827,
  "electric": 3828,
  "ish": 3829,
  "prize": 3830,
  "bat": 3831,
  "spending": 3832,
  "inspiration": 3833,
  "ausbildung": 3834,
  "broken": 3835,
  "ären": 3836,
  "hü@@": 3837,
  "ute": 3838,
  "bat@@": 3839,
  "hä@@": 3840,
  "materie": 3841,
  "enti@@": 3842,
  "familien@@": 3843,
  "trägt": 3844,
  "seemed": 3845,
  "klingt": 3846,
  "organisms": 3847,
  "minister": 3848,
  "answers": 3849,
  "2010": 3850,
  "tter": 3851,
  "ast": 3852,
  "feuer": 3853,
  "xi@@": 3854,
  "ina": 3855,
  "mountain": 3856,
  "aufgenommen": 3857,
  "hom@@": 3858,
  "published": 3859,
  "gew@@": 3860,
  "vergleich": 3861,
  "quote": 3862,
  "ful": 3863,
  "worst": 3864,
  "al-@@": 3865,
  "ober@@": 3866,
  "colleagues": 3867,
  "designs": 3868,
  "lam@@": 3869,
  "gas@@": 3870,
  "check": 3871,
  "hearing": 3872,
  "dd@@": 3873,
  "edi@@": 3874,
  "schü@@": 3875,
  "heiten": 3876,
  "bits": 3877,
  "zimmer": 3878,
  "wirst": 3879,
  "entstehen": 3880,
  "gam@@": 3881,
  "prison": 3882,
  "benötigt": 3883,
  "easily": 3884,
  "bird": 3885,
  "trotz": 3886,
  "noticed": 3887,
  "marketing": 3888,
  "highly": 3889,
  "ently": 3890,
  "universums": 3891,
  "laut": 3892,
  "zo@@": 3893,
  "est@@": 3894,
  "und@@": 3895,
  "filme": 3896,
  "uni@@": 3897,
  "beine": 3898,
  "ny": 3899,
  "date": 3900,
  "tungen": 3901,
  "studying": 3902,
  "paris": 3903,
  "sozusagen": 3904,
  "choices": 3905,
  "fische": 3906,
  "irgendwann": 3907,
  "botschaft": 3908,
  "bestehen": 3909,
  "noise": 3910,
  "selber": 3911,
  "habt": 3912,
  "phenomenon": 3913,
  "pin@@": 3914,
  "va": 3915,
  "passed": 3916,
  "turning": 3917,
  "leid": 3918,
  "pollen": 3919,
  "decide": 3920,
  "ise": 3921,
  "kraft@@": 3922,
  "sters": 3923,
  "nochmal": 3924,
  "zone": 3925,
  "fri@@": 3926,
  "decades": 3927,
  "print": 3928,
  "necessarily": 3929,
  "berei@@": 3930,
  "einsatz": 3931,
  "schwer@@": 3932,
  "perspektive": 3933,
  "olo@@": 3934,
  "sodass": 3935,
  "col@@": 3936,
  "21": 3937,
  "responsibility": 3938,
  "soldaten": 3939,
  "stopped": 3940,
  "ecke": 3941,
  "massen@@": 3942,
  "condition": 3943,
  "wahrscheinlichkeit": 3944,
  "nähe": 3945,
  "heben": 3946,
  "17@@": 3947,
  "lucky": 3948,
  "einfacher": 3949,
  "sterne": 3950,
  "zieht": 3951,
  "bringing": 3952,
  "effekt": 3953,
  "mes": 3954,
  "race": 3955,
  "kat@@": 3956,
  "scheinen": 3957,
  "scht": 3958,
  "lautet": 3959,
  "bridge": 3960,
  "card": 3961,
  "modernen": 3962,
  "van@@": 3963,
  "vielfalt": 3964,
  "g-@@": 3965,
  "task": 3966,
  "fläche": 3967,
  "mc@@": 3968,
  "edge": 3969,
  "natürliche": 3970,
  "wind@@": 3971,
  "kämpfen": 3972,
  "engine": 3973,
  "cas@@": 3974,
  "bone": 3975,
  "wert@@": 3976,
  "agree": 3977,
  "tation": 3978,
  "politischen": 3979,
  "offen": 3980,
  "darf": 3981,
  "fix": 3982,
  "communicate": 3983,
  "großbritannien": 3984,
  "tis": 3985,
  "weiteres": 3986,
  "brilliant": 3987,
  "frieden": 3988,
  "bezahlen": 3989,
  "daß": 3990,
  "tremendous": 3991,
  "politische": 3992,
  "schlag": 3993,
  "ft@@": 3994,
  "iraq": 3995,
  "decision": 3996,
  "bildern": 3997,
  "benötigen": 3998,
  "zell@@": 3999,
  "chicago": 4000,
  "töten": 4001,
  "coffee": 4002,
  "fol@@": 4003,
  "dh": 4004,
  "sieren": 4005,
  "gol@@": 4006,
  "gei@@": 4007,
  "knowing": 4008,
  "throw": 4009,
  "sed": 4010,
  "städten": 4011,
  "hunger": 4012,
  "bot@@": 4013,
  "ines": 4014,
  "feels": 4015,
  "lied": 4016,
  "dagegen": 4017,
  "fte": 4018,
  "moments": 4019,
  "verfügung": 4020,
  "wh@@": 4021,
  "kontrollieren": 4022,
  "haft": 4023,
  "pas@@": 4024,
  "aufgaben": 4025,
  "investieren": 4026,
  "window": 4027,
  "erforschen": 4028,
  "surprising": 4029,
  "tissue": 4030,
  "haufen": 4031,
  "cro@@": 4032,
  "erinnert": 4033,
  "corner": 4034,
  "vermutlich": 4035,
  "aging": 4036,
  "räume": 4037,
  "sparen": 4038,
  "treiben": 4039,
  "tics": 4040,
  "ford": 4041,
  "programs": 4042,
  "possibility": 4043,
  "5,000": 4044,
  "civil": 4045,
  "dritten": 4046,
  "imagination": 4047,
  "improve": 4048,
  "brown": 4049,
  "st-@@": 4050,
  "giant": 4051,
  "kunden": 4052,
  "gesetze": 4053,
  "kenne": 4054,
  "zogen": 4055,
  "golf": 4056,
  "wood": 4057,
  "cou@@": 4058,
  "fortschritt": 4059,
  "gilt": 4060,
  "meeres@@": 4061,
  "sho@@": 4062,
  "steigt": 4063,
  "nis@@": 4064,
  "spo@@": 4065,
  "werkzeug": 4066,
  "achieve": 4067,
  "return": 4068,
  "bush": 4069,
  "wissenschaftliche": 4070,
  "sitzt": 4071,
  "farmers": 4072,
  "amp": 4073,
  "elements": 4074,
  "ändert": 4075,
  "cap@@": 4076,
  "goo@@": 4077,
  "back@@": 4078,
  "-year-old": 4079,
  "wand@@": 4080,
  "ansatz": 4081,
  "dennoch": 4082,
  "mögliche": 4083,
  "helping": 4084,
  "kräfte": 4085,
  "weiteren": 4086,
  "männern": 4087,
  "wir@@": 4088,
  "repli@@": 4089,
  "relationships": 4090,
  "brand": 4091,
  "verkauft": 4092,
  "illu@@": 4093,
  "gsten": 4094,
  "rot": 4095,
  "motor@@": 4096,
  "nearly": 4097,
  "sir": 4098,
  "polio": 4099,
  "gal@@": 4100,
  "lli@@": 4101,
  "organismen": 4102,
  "fairly": 4103,
  "objekte": 4104,
  "zuhause": 4105,
  "intelligenz": 4106,
  "2005": 4107,
  "dre@@": 4108,
  "bil@@": 4109,
  "two-@@": 4110,
  "eis@@": 4111,
  "korea": 4112,
  "address": 4113,
  "oni@@": 4114,
  "interface": 4115,
  "link": 4116,
  "vollkommen": 4117,
  "vis@@": 4118,
  "spar@@": 4119,
  "legt": 4120,
  "mur@@": 4121,
  "perfekt": 4122,
  "20.": 4123,
  "brings": 4124,
  "stro@@": 4125,
  "wesentlichen": 4126,
  "starb": 4127,
  "welchen": 4128,
  "gras": 4129,
  "bewegungen": 4130,
  "fold": 4131,
  "med": 4132,
  "wen@@": 4133,
  "klang": 4134,
  "verdienen": 4135,
  "vollständig": 4136,
  "chaos": 4137,
  "verfolgen": 4138,
  "gotten": 4139,
  "missing": 4140,
  "photo": 4141,
  "flight": 4142,
  "hinein@@": 4143,
  "events": 4144,
  "app@@": 4145,
  "cally": 4146,
  "interact": 4147,
  "hirn@@": 4148,
  "ese": 4149,
  "typical": 4150,
  "entwerfen": 4151,
  "titel": 4152,
  "behalten": 4153,
  "entwickelten": 4154,
  "entlang": 4155,
  "core": 4156,
  "tausend": 4157,
  "reagieren": 4158,
  "wiederum": 4159,
  "gestern": 4160,
  "sy@@": 4161,
  "ht": 4162,
  "vol@@": 4163,
  "obama": 4164,
  "sten@@": 4165,
  "methoden": 4166,
  "heads": 4167,
  "french": 4168,
  "kontakt": 4169,
  "clo@@": 4170,
  "kurzem": 4171,
  "problemen": 4172,
  "teilchen": 4173,
  "gewonnen": 4174,
  "tom": 4175,
  "hell": 4176,
  "moleküle": 4177,
  "steuern": 4178,
  "mouse": 4179,
  "transformation": 4180,
  "sun@@": 4181,
  "möglicherweise": 4182,
  "saß": 4183,
  "ließen": 4184,
  "kern@@": 4185,
  "reduce": 4186,
  "besitzen": 4187,
  "opportunities": 4188,
  "volle": 4189,
  "motion": 4190,
  "cloud": 4191,
  "durchgeführt": 4192,
  "forever": 4193,
  "bf": 4194,
  "zation": 4195,
  "bread": 4196,
  "ermöglichen": 4197,
  "differently": 4198,
  "boat": 4199,
  "fragten": 4200,
  "organ": 4201,
  "mothers": 4202,
  "beschäftigt": 4203,
  "figured": 4204,
  "phänomen": 4205,
  "atmosphäre": 4206,
  "diversity": 4207,
  "sam": 4208,
  "risiko": 4209,
  "organizations": 4210,
  "herausgefunden": 4211,
  "behandelt": 4212,
  "finished": 4213,
  "af@@": 4214,
  "ously": 4215,
  "benefits": 4216,
  "join": 4217,
  "grenze": 4218,
  "strei@@": 4219,
  "chan@@": 4220,
  "dly": 4221,
  "haiti": 4222,
  "beschreiben": 4223,
  "meistens": 4224,
  "suffering": 4225,
  "dieselbe": 4226,
  "ie@@": 4227,
  "religious": 4228,
  "gestalten": 4229,
  "riesigen": 4230,
  "wächst": 4231,
  "shift": 4232,
  "planets": 4233,
  "base": 4234,
  "gener@@": 4235,
  "ence": 4236,
  "gemeinde": 4237,
  "hall": 4238,
  "norden": 4239,
  "eri@@": 4240,
  "unbedingt": 4241,
  "fuhr": 4242,
  "profit": 4243,
  "union": 4244,
  "pac@@": 4245,
  "fields": 4246,
  "feedback": 4247,
  "engineers": 4248,
  "igen": 4249,
  "management": 4250,
  "gebiete": 4251,
  "report": 4252,
  "cycle": 4253,
  "lebte": 4254,
  "coast": 4255,
  "lachen": 4256,
  "discovery": 4257,
  "landscape": 4258,
  "j": 4259,
  "leben@@": 4260,
  "hair": 4261,
  "bild@@": 4262,
  "lieren": 4263,
  "cation": 4264,
  "wirkung": 4265,
  "stream": 4266,
  "competition": 4267,
  "veröffentlicht": 4268,
  "schi@@": 4269,
  "hum@@": 4270,
  "arbeiter": 4271,
  "geschäfts@@": 4272,
  "hl@@": 4273,
  "zufällig": 4274,
  "creatures": 4275,
  "afraid": 4276,
  "val@@": 4277,
  "schwester": 4278,
  "legal": 4279,
  "era": 4280,
  "hergestellt": 4281,
  "sä@@": 4282,
  "breast": 4283,
  "le-@@": 4284,
  "benefit": 4285,
  "unterschiedlichen": 4286,
  "wahre": 4287,
  "asi@@": 4288,
  "gie": 4289,
  "ente": 4290,
  "post": 4291,
  "hrt": 4292,
  "woher": 4293,
  "14@@": 4294,
  "hoffentlich": 4295,
  "lass": 4296,
  "setzte": 4297,
  "lern@@": 4298,
  "circle": 4299,
  "lin": 4300,
  "organic": 4301,
  "hauptsächlich": 4302,
  "elemente": 4303,
  "hau@@": 4304,
  "zeichnen": 4305,
  "milliarde": 4306,
  "mouth": 4307,
  "colors": 4308,
  "stress": 4309,
  "bac@@": 4310,
  "ned": 4311,
  "extra@@": 4312,
  "davor": 4313,
  "yp@@": 4314,
  "mehr@@": 4315,
  "gelangen": 4316,
  "traffic": 4317,
  "streets": 4318,
  "19": 4319,
  "walls": 4320,
  "ill@@": 4321,
  "hyper@@": 4322,
  "kommunizieren": 4323,
  "gefängnis": 4324,
  "lichsten": 4325,
  "barkeit": 4326,
  "tel@@": 4327,
  "pil@@": 4328,
  "glo@@": 4329,
  "letztendlich": 4330,
  "wunderbare": 4331,
  "flu": 4332,
  "drittel": 4333,
  "mütter": 4334,
  "kennt": 4335,
  "unterstützung": 4336,
  "nations": 4337,
  "gehalten": 4338,
  "siert": 4339,
  "rein": 4340,
  "slowly": 4341,
  "lauf@@": 4342,
  "ba": 4343,
  "degree": 4344,
  "meilen": 4345,
  "arti@@": 4346,
  "campaign": 4347,
  "temperatur": 4348,
  "sel@@": 4349,
  "citizens": 4350,
  "versus": 4351,
  "dauert": 4352,
  "jahres": 4353,
  "stufe": 4354,
  "gift": 4355,
  "names": 4356,
  "lesson": 4357,
  "sie@@": 4358,
  "nah": 4359,
  "notion": 4360,
  "holding": 4361,
  "x-@@": 4362,
  "sinn@@": 4363,
  "moves": 4364,
  "basiert": 4365,
  "irgendetwas": 4366,
  "erin": 4367,
  "lie": 4368,
  "pt": 4369,
  "wuchs": 4370,
  "wohl@@": 4371,
  "matters": 4372,
  "deutlich": 4373,
  "catch": 4374,
  "fas@@": 4375,
  "visit": 4376,
  "to-@@": 4377,
  "wide": 4378,
  "om": 4379,
  "ham@@": 4380,
  "ei": 4381,
  "faces": 4382,
  "liber@@": 4383,
  "symbol": 4384,
  "describe": 4385,
  "despite": 4386,
  "bett": 4387,
  "begins": 4388,
  "dahin": 4389,
  "zt": 4390,
  "reicht": 4391,
  "origami": 4392,
  "calls": 4393,
  "meat": 4394,
  "mathematics": 4395,
  "las@@": 4396,
  "worüber": 4397,
  "themen": 4398,
  "falsche": 4399,
  "aten": 4400,
  "saving": 4401,
  "tierte": 4402,
  "cing": 4403,
  "trag@@": 4404,
  "insects": 4405,
  "laufe": 4406,
  "buchstäblich": 4407,
  "kreis": 4408,
  "arms": 4409,
  "experimente": 4410,
  "sommer": 4411,
  "insekten": 4412,
  "umgehen": 4413,
  "stei@@": 4414,
  "blin@@": 4415,
  "blog": 4416,
  "ameisen": 4417,
  "baum": 4418,
  "erstellen": 4419,
  "buch@@": 4420,
  "master": 4421,
  "kurze": 4422,
  "zz@@": 4423,
  "dar": 4424,
  "relevant": 4425,
  "wunderbar": 4426,
  "stischen": 4427,
  "ping": 4428,
  "lebten": 4429,
  "perfectly": 4430,
  "helps": 4431,
  "hohe": 4432,
  "otherwise": 4433,
  "haus@@": 4434,
  "verbracht": 4435,
  "schwarze": 4436,
  "jungs": 4437,
  "2009": 4438,
  "klimawandel": 4439,
  "experiences": 4440,
  "llen": 4441,
  "roll": 4442,
  "weder": 4443,
  "gesetzt": 4444,
  "billions": 4445,
  "ß": 4446,
  "tail": 4447,
  "begeistert": 4448,
  "ris@@": 4449,
  "tin@@": 4450,
  "hohen": 4451,
  "necessary": 4452,
  "distance": 4453,
  "opened": 4454,
  "fan@@": 4455,
  "count": 4456,
  "offer": 4457,
  "zusammenarbeit": 4458,
  "präsident": 4459,
  "15@@": 4460,
  "lauf": 4461,
  "factory": 4462,
  "bürger": 4463,
  "demo@@": 4464,
  "studied": 4465,
  "investment": 4466,
  "painting": 4467,
  "ited": 4468,
  "aufnahme": 4469,
  "sport": 4470,
  "ologie": 4471,
  "lets": 4472,
  "übertragen": 4473,
  "chip": 4474,
  "ßen": 4475,
  "fach@@": 4476,
  "mitten": 4477,
  "wisdom": 4478,
  "täglich": 4479,
  "beeinflussen": 4480,
  "entirely": 4481,
  "fore@@": 4482,
  "sse": 4483,
  "mess@@": 4484,
  "ase": 4485,
  "effort": 4486,
  "easier": 4487,
  "karriere": 4488,
  "erzähle": 4489,
  "häuser": 4490,
  "afford": 4491,
  "gefä@@": 4492,
  "sector": 4493,
  "gelöst": 4494,
  "hund": 4495,
  "kü@@": 4496,
  "nen@@": 4497,
  "entwickelte": 4498,
  "fell": 4499,
  "fashion": 4500,
  "ched": 4501,
  "viren": 4502,
  "ultimately": 4503,
  "institution": 4504,
  "wear": 4505,
  "responsible": 4506,
  "3d": 4507,
  "deten": 4508,
  "members": 4509,
  "normally": 4510,
  "brauche": 4511,
  "ßt": 4512,
  "ble@@": 4513,
  "emotions": 4514,
  "post@@": 4515,
  "erwartet": 4516,
  "gem": 4517,
  "bru@@": 4518,
  "bling": 4519,
  "sister": 4520,
  "shop": 4521,
  "brief": 4522,
  "female": 4523,
  "profound": 4524,
  "ends": 4525,
  "bit@@": 4526,
  "tex@@": 4527,
  "pon@@": 4528,
  "opposite": 4529,
  "desert": 4530,
  "geburt": 4531,
  "statistics": 4532,
  "warm": 4533,
  "dete": 4534,
  "adults": 4535,
  "landschaft": 4536,
  "wandel": 4537,
  "stock": 4538,
  "cyber@@": 4539,
  "maus": 4540,
  "ative": 4541,
  "alleine": 4542,
  "knochen": 4543,
  "großteil": 4544,
  "apply": 4545,
  "sm@@": 4546,
  "moder@@": 4547,
  "forscher": 4548,
  "foreign": 4549,
  "2,000": 4550,
  "enjoy": 4551,
  "frank": 4552,
  "verantwortlich": 4553,
  "trend": 4554,
  "u.k.": 4555,
  "gelegt": 4556,
  "tsch@@": 4557,
  "video@@": 4558,
  "27": 4559,
  "absolute": 4560,
  "operating": 4561,
  "herr": 4562,
  "ye@@": 4563,
  "caught": 4564,
  "trained": 4565,
  "ils": 4566,
  "gedanke": 4567,
  "engineer": 4568,
  "leading": 4569,
  "wahr@@": 4570,
  "row": 4571,
  "arts": 4572,
  "cy": 4573,
  "2004": 4574,
  "entsteht": 4575,
  "kümmern": 4576,
  "virtual": 4577,
  "seh@@": 4578,
  "gewissen": 4579,
  "seriously": 4580,
  "morgens": 4581,
  "ele@@": 4582,
  "nannte": 4583,
  "aufhören": 4584,
  "sold": 4585,
  "squ@@": 4586,
  "ghana": 4587,
  "emotion": 4588,
  "bildschirm": 4589,
  "option": 4590,
  "mag@@": 4591,
  "opfer": 4592,
  "las": 4593,
  "verhindern": 4594,
  "fro@@": 4595,
  "ep@@": 4596,
  "principles": 4597,
  "cheap": 4598,
  "produ@@": 4599,
  "betrifft": 4600,
  "versuchten": 4601,
  "influence": 4602,
  "experten": 4603,
  "stoff@@": 4604,
  "clip": 4605,
  "wan@@": 4606,
  "bli@@": 4607,
  "rau@@": 4608,
  "lies": 4609,
  "hydro@@": 4610,
  "fill": 4611,
  "könnt": 4612,
  "peter": 4613,
  "handel": 4614,
  "zer": 4615,
  "rücken": 4616,
  "according": 4617,
  "sh": 4618,
  "loss": 4619,
  "identity": 4620,
  "oxford": 4621,
  "brachten": 4622,
  "neuer": 4623,
  "steps": 4624,
  "gens": 4625,
  "16@@": 4626,
  "sick": 4627,
  "ed@@": 4628,
  "boot": 4629,
  "respect": 4630,
  "dinner": 4631,
  "ziele": 4632,
  "adam": 4633,
  "leb@@": 4634,
  "schwimmen": 4635,
  "galaxies": 4636,
  "gefahr": 4637,
  "engage": 4638,
  "ank@@": 4639,
  "poly@@": 4640,
  "12@@": 4641,
  "hen@@": 4642,
  "gespielt": 4643,
  "limited": 4644,
  "lernt": 4645,
  "airplane": 4646,
  "erster": 4647,
  "zung": 4648,
  "65": 4649,
  "fall@@": 4650,
  "handy": 4651,
  "stuck": 4652,
  "wars": 4653,
  "mexico": 4654,
  "commercial": 4655,
  "rief": 4656,
  "normale": 4657,
  "shouldn": 4658,
  "tin": 4659,
  "elten": 4660,
  "verbreitet": 4661,
  "blut": 4662,
  "ana": 4663,
  "ktion": 4664,
  "texas": 4665,
  "zählen": 4666,
  "schrift": 4667,
  "attack": 4668,
  "normalen": 4669,
  "schla@@": 4670,
  "angeles": 4671,
  "west@@": 4672,
  "tiefe": 4673,
  "iphone": 4674,
  "fighting": 4675,
  "besseren": 4676,
  "van": 4677,
  "analy@@": 4678,
  "lä@@": 4679,
  "lieber": 4680,
  "industri@@": 4681,
  "dur@@": 4682,
  "cla@@": 4683,
  "oceans": 4684,
  "ined": 4685,
  "aktiv": 4686,
  "getötet": 4687,
  "wisst": 4688,
  "glück@@": 4689,
  "regi@@": 4690,
  "spirit": 4691,
  "wil@@": 4692,
  "constantly": 4693,
  "fourth": 4694,
  "halt": 4695,
  "vergleichen": 4696,
  "trau@@": 4697,
  "argue": 4698,
  "denk@@": 4699,
  "thinks": 4700,
  "failed": 4701,
  "passt": 4702,
  "consumption": 4703,
  "2006": 4704,
  "flies": 4705,
  "wissenschaftlichen": 4706,
  "beat": 4707,
  "baut": 4708,
  "filled": 4709,
  "hang": 4710,
  "zeitalter": 4711,
  "shoes": 4712,
  "lady": 4713,
  "tz": 4714,
  "random": 4715,
  "q@@": 4716,
  "vorteil": 4717,
  "ales": 4718,
  "alized": 4719,
  "werbung": 4720,
  "raus@@": 4721,
  "brother": 4722,
  "hopefully": 4723,
  "wealth": 4724,
  "anderem": 4725,
  "miss": 4726,
  "sozial@@": 4727,
  "uner@@": 4728,
  "wunder@@": 4729,
  "herr@@": 4730,
  "sequence": 4731,
  "mach": 4732,
  "crime": 4733,
  "kam@@": 4734,
  "capable": 4735,
  "dynamic": 4736,
  "regen@@": 4737,
  "raised": 4738,
  "mengen": 4739,
  "vögel": 4740,
  "chi@@": 4741,
  "metaphor": 4742,
  "verlangen": 4743,
  "kenya": 4744,
  "transform": 4745,
  "babys": 4746,
  "ching": 4747,
  "sil@@": 4748,
  "eng@@": 4749,
  "werke": 4750,
  "passen": 4751,
  "followed": 4752,
  "kontext": 4753,
  "gän@@": 4754,
  "ähnliche": 4755,
  "klein@@": 4756,
  "elte": 4757,
  "due": 4758,
  "22": 4759,
  "husband": 4760,
  "predict": 4761,
  "que": 4762,
  "camp": 4763,
  "tab@@": 4764,
  "prevent": 4765,
  "praktisch": 4766,
  "universal": 4767,
  "fel@@": 4768,
  "hintergrund": 4769,
  "agriculture": 4770,
  "tives": 4771,
  "nä@@": 4772,
  "tue": 4773,
  "respond": 4774,
  "church": 4775,
  "dreams": 4776,
  "tan": 4777,
  "lebewesen": 4778,
  "überzeugen": 4779,
  "ly@@": 4780,
  "beach": 4781,
  "insel": 4782,
  "background": 4783,
  "leaving": 4784,
  "invest": 4785,
  "interessieren": 4786,
  "schicht": 4787,
  "stan@@": 4788,
  "standen": 4789,
  "tomorrow": 4790,
  "tungs@@": 4791,
  "kalifornien": 4792,
  "sorge": 4793,
  "unge@@": 4794,
  "harder": 4795,
  "bemerkt": 4796,
  "führten": 4797,
  "distribution": 4798,
  "equal": 4799,
  "sches": 4800,
  "creation": 4801,
  "erstaunliche": 4802,
  "spüren": 4803,
  "relativ": 4804,
  "fascinating": 4805,
  "linien": 4806,
  "mach@@": 4807,
  "ases": 4808,
  "arbeiteten": 4809,
  "importantly": 4810,
  "separate": 4811,
  "spi@@": 4812,
  "three-@@": 4813,
  "landwirtschaft": 4814,
  "article": 4815,
  "bereiche": 4816,
  "gehabt": 4817,
  "kri@@": 4818,
  "kürzlich": 4819,
  "diabetes": 4820,
  "spezi@@": 4821,
  "trip": 4822,
  "justice": 4823,
  "stellung": 4824,
  "affen": 4825,
  "equivalent": 4826,
  "economics": 4827,
  "wired": 4828,
  "spaces": 4829,
  "stisch": 4830,
  "hate": 4831,
  "believed": 4832,
  "erkannte": 4833,
  "schei@@": 4834,
  "sauerstoff": 4835,
  "brauchten": 4836,
  "tough": 4837,
  "hinweg": 4838,
  "damage": 4839,
  "organized": 4840,
  "überzeugt": 4841,
  "existieren": 4842,
  "fiel": 4843,
  "markt@@": 4844,
  "tau@@": 4845,
  "fährt": 4846,
  "kb": 4847,
  "invisible": 4848,
  "inneren": 4849,
  "vollen": 4850,
  "desire": 4851,
  "gefähr@@": 4852,
  "werten": 4853,
  "languages": 4854,
  "drin": 4855,
  "cer@@": 4856,
  "wat@@": 4857,
  "0.000": 4858,
  "bees": 4859,
  "analysis": 4860,
  "gehirne": 4861,
  "weißen": 4862,
  "stands": 4863,
  "hab@@": 4864,
  "ität": 4865,
  "träume": 4866,
  "13@@": 4867,
  "geschickt": 4868,
  "tä@@": 4869,
  "viruses": 4870,
  "magne@@": 4871,
  "glas": 4872,
  "schnitt": 4873,
  "tischer": 4874,
  "sphere": 4875,
  "belief": 4876,
  "stein@@": 4877,
  "uganda": 4878,
  "majority": 4879,
  "pages": 4880,
  "enz@@": 4881,
  "pounds": 4882,
  "blogs": 4883,
  "garden": 4884,
  "eure": 4885,
  "geln": 4886,
  "advantage": 4887,
  "yesterday": 4888,
  "fängt": 4889,
  "starke": 4890,
  "moderne": 4891,
  "schn@@": 4892,
  "irak": 4893,
  "galaxien": 4894,
  "schönen": 4895,
  "grün": 4896,
  "schaute": 4897,
  "20th": 4898,
  "raten": 4899,
  "grand": 4900,
  "paint": 4901,
  "speech": 4902,
  "weird": 4903,
  "bietet": 4904,
  "fuß@@": 4905,
  "weile": 4906,
  "lagen": 4907,
  "bright": 4908,
  "verschwinden": 4909,
  "tons": 4910,
  "plane": 4911,
  ".com": 4912,
  "whenever": 4913,
  "ted@@": 4914,
  "player": 4915,
  "caused": 4916,
  "gelassen": 4917,
  "bauern": 4918,
  "forschungs@@": 4919,
  "survival": 4920,
  "bon@@": 4921,
  "finanz@@": 4922,
  "derek": 4923,
  "sad": 4924,
  "nord@@": 4925,
  "acts": 4926,
  "fire@@": 4927,
  "überrascht": 4928,
  "molecule": 4929,
  "driven": 4930,
  "ehr@@": 4931,
  "hon@@": 4932,
  "letter": 4933,
  "ansicht": 4934,
  "seitdem": 4935,
  "erhält": 4936,
  "microsoft": 4937,
  "pur@@": 4938,
  "rid": 4939,
  "spr@@": 4940,
  "außen@@": 4941,
  "leg@@": 4942,
  "10.000": 4943,
  "malen": 4944,
  "weißt": 4945,
  "wirk@@": 4946,
  "obje@@": 4947,
  "interagieren": 4948,
  "gestorben": 4949,
  "dischen": 4950,
  "tricks": 4951,
  "failure": 4952,
  "wearing": 4953,
  "2003": 4954,
  "bauten": 4955,
  "principle": 4956,
  "genauer": 4957,
  "kel@@": 4958,
  "asien": 4959,
  "photos": 4960,
  "steel": 4961,
  "treated": 4962,
  "älter": 4963,
  "ur": 4964,
  "mus": 4965,
  "spot": 4966,
  "glaubt": 4967,
  "flü@@": 4968,
  "compare": 4969,
  "galaxy": 4970,
  "hed": 4971,
  "wahl@@": 4972,
  "klima@@": 4973,
  "motivation": 4974,
  "rätsel": 4975,
  "druck@@": 4976,
  "ras@@": 4977,
  "annehmen": 4978,
  "childhood": 4979,
  "komplexe": 4980,
  "bildungs@@": 4981,
  "erfinden": 4982,
  ".000": 4983,
  "früh@@": 4984,
  "schmerz": 4985,
  "gelesen": 4986,
  "dimensions": 4987,
  "195@@": 4988,
  "rat@@": 4989,
  "electrical": 4990,
  "starten": 4991,
  "bedeuten": 4992,
  "verwandeln": 4993,
  "hes": 4994,
  "plat@@": 4995,
  "bezahlt": 4996,
  "bing": 4997,
  "poster": 4998,
  "sowie": 4999,
  "herausforderungen": 5000,
  "managed": 5001,
  "aner": 5002,
  "drüben": 5003,
  "neighborhood": 5004,
  "meiste": 5005,
  "unless": 5006,
  "illusion": 5007,
  "gue": 5008,
  "lack": 5009,
  "tze": 5010,
  "händen": 5011,
  "garten": 5012,
  "construction": 5013,
  "wave": 5014,
  "wen": 5015,
  "deeply": 5016,
  "ah@@": 5017,
  "mindestens": 5018,
  "leaves": 5019,
  "opening": 5020,
  "deinen": 5021,
  "gehören": 5022,
  "angel@@": 5023,
  "nest": 5024,
  "leiten": 5025,
  "hör@@": 5026,
  "ler@@": 5027,
  "tiven": 5028,
  "tiges": 5029,
  "ray": 5030,
  "mortality": 5031,
  "bloß": 5032,
  "unterscheiden": 5033,
  "fisch@@": 5034,
  "kulturen": 5035,
  "sions": 5036,
  "proud": 5037,
  "musst": 5038,
  "library": 5039,
  "institutionen": 5040,
  "soil": 5041,
  "warming": 5042,
  "null": 5043,
  "pol@@": 5044,
  "dinosaurs": 5045,
  "bekamen": 5046,
  "verbreiten": 5047,
  "gespräch": 5048,
  "95": 5049,
  "lunch": 5050,
  "new@@": 5051,
  "worried": 5052,
  "gefährlich": 5053,
  "wahrnehmung": 5054,
  "kop@@": 5055,
  "wald": 5056,
  "abhängig": 5057,
  "erscheinen": 5058,
  "tt": 5059,
  "aufnahmen": 5060,
  "kre@@": 5061,
  "hur@@": 5062,
  "echten": 5063,
  "wirken": 5064,
  "cked": 5065,
  "pfen": 5066,
  "märkte": 5067,
  "2001": 5068,
  "heisst": 5069,
  "puts": 5070,
  "anwenden": 5071,
  "paying": 5072,
  "unternehmer": 5073,
  "pole": 5074,
  "ky": 5075,
  "shapes": 5076,
  "concerned": 5077,
  "lon@@": 5078,
  "traditionellen": 5079,
  "gay": 5080,
  "lager": 5081,
  "email": 5082,
  "surprise": 5083,
  "bear": 5084,
  "mol@@": 5085,
  "represent": 5086,
  "kul@@": 5087,
  "dürfen": 5088,
  "gram": 5089,
  "einheit": 5090,
  "psycho@@": 5091,
  "everyday": 5092,
  "section": 5093,
  "gezogen": 5094,
  "wu@@": 5095,
  "sexual": 5096,
  "covered": 5097,
  "ss@@": 5098,
  "körpers": 5099,
  "muscle": 5100,
  "ast@@": 5101,
  "voices": 5102,
  "cat@@": 5103,
  "expression": 5104,
  "ming": 5105,
  "ctors": 5106,
  "eingesetzt": 5107,
  "emotionen": 5108,
  "vehicle": 5109,
  "krank": 5110,
  "bo": 5111,
  "einsetzen": 5112,
  "schalten": 5113,
  "holes": 5114,
  "drawing": 5115,
  "zier@@": 5116,
  "schlimmer": 5117,
  "mund": 5118,
  "mentioned": 5119,
  "leadership": 5120,
  "netzwerke": 5121,
  "independent": 5122,
  "dige": 5123,
  "gates": 5124,
  "collect": 5125,
  "ig": 5126,
  "teste": 5127,
  "versorgung": 5128,
  "geld@@": 5129,
  "schlüssel": 5130,
  "fern@@": 5131,
  "houses": 5132,
  "launched": 5133,
  "hidden": 5134,
  "soci@@": 5135,
  "increasingly": 5136,
  "telefon": 5137,
  "weapons": 5138,
  "hängen": 5139,
  "erkenntnis": 5140,
  "non@@": 5141,
  "öffentliche": 5142,
  "direct": 5143,
  "bürger@@": 5144,
  "suppose": 5145,
  "mittleren": 5146,
  "european": 5147,
  "ak": 5148,
  "transition": 5149,
  "ette": 5150,
  "pre-@@": 5151,
  "army": 5152,
  "hing": 5153,
  "appear": 5154,
  "bieten": 5155,
  "richten": 5156,
  "fä@@": 5157,
  "bedarf": 5158,
  "26": 5159,
  "professional": 5160,
  "einiger": 5161,
  "fantastisch": 5162,
  "rote": 5163,
  "sum@@": 5164,
  "super": 5165,
  "stes": 5166,
  "classroom": 5167,
  "ingly": 5168,
  "wechsel@@": 5169,
  "sudden": 5170,
  "regionen": 5171,
  "civilization": 5172,
  "described": 5173,
  "ward": 5174,
  "ade": 5175,
  "grundlegende": 5176,
  "arbeit@@": 5177,
  "graduate": 5178,
  "sper@@": 5179,
  "fellow": 5180,
  "wä@@": 5181,
  "bares": 5182,
  "joy": 5183,
  "slo@@": 5184,
  "gefahren": 5185,
  "multiple": 5186,
  "currently": 5187,
  "wunder": 5188,
  "worldwide": 5189,
  "roughly": 5190,
  "entdeckung": 5191,
  "dach": 5192,
  "ige": 5193,
  "copy": 5194,
  "rahmen": 5195,
  "mod@@": 5196,
  "ehe@@": 5197,
  "designing": 5198,
  "westlichen": 5199,
  "wichtigen": 5200,
  "tzt": 5201,
  "züge": 5202,
  "kurzen": 5203,
  "vast": 5204,
  "schuhe": 5205,
  "dungen": 5206,
  "wenden": 5207,
  "deliver": 5208,
  "rechts@@": 5209,
  "gegenteil": 5210,
  "spielte": 5211,
  "lang@@": 5212,
  "hörten": 5213,
  "head@@": 5214,
  "leader": 5215,
  "affect": 5216,
  "rand": 5217,
  "losing": 5218,
  "chair": 5219,
  "threat": 5220,
  "tively": 5221,
  "signals": 5222,
  "debate": 5223,
  "mid@@": 5224,
  "strategie": 5225,
  "horse": 5226,
  "mes@@": 5227,
  "wenigen": 5228,
  "unbe@@": 5229,
  "schlechten": 5230,
  "coral": 5231,
  "prime": 5232,
  "japanese": 5233,
  "angenommen": 5234,
  "invited": 5235,
  "stoffen": 5236,
  "identität": 5237,
  "by@@": 5238,
  "toward": 5239,
  "grandmother": 5240,
  "an-@@": 5241,
  "acting": 5242,
  "gain": 5243,
  "blau": 5244,
  "mus@@": 5245,
  "smell": 5246,
  "collective": 5247,
  "seat": 5248,
  "besondere": 5249,
  "sprach@@": 5250,
  "bereichen": 5251,
  "stanford": 5252,
  "exists": 5253,
  "heavy": 5254,
  "mile": 5255,
  "programme": 5256,
  "ordinary": 5257,
  "spring": 5258,
  "für@@": 5259,
  "selten": 5260,
  "bung": 5261,
  "gegensatz": 5262,
  "polizei": 5263,
  "abstra@@": 5264,
  "ear@@": 5265,
  "marine": 5266,
  "continent": 5267,
  "eindruck": 5268,
  "nachbarn": 5269,
  "di": 5270,
  "häufig": 5271,
  "23": 5272,
  "leg": 5273,
  "honest": 5274,
  "alisieren": 5275,
  "notes": 5276,
  "ty@@": 5277,
  "awful": 5278,
  "cure": 5279,
  "teeth": 5280,
  "notwendig": 5281,
  "pel": 5282,
  "interaction": 5283,
  "250": 5284,
  "holz": 5285,
  "ppe": 5286,
  "öffentlichkeit": 5287,
  "gegend": 5288,
  "zeitung": 5289,
  "streben": 5290,
  "verhältnis": 5291,
  "human@@": 5292,
  "chicken": 5293,
  "kla@@": 5294,
  "gewisse": 5295,
  "lehren": 5296,
  "bienen": 5297,
  "bestimmen": 5298,
  "sy": 5299,
  "natürlichen": 5300,
  "scan": 5301,
  "finish": 5302,
  "hoffen": 5303,
  "vir@@": 5304,
  "ours": 5305,
  "ful@@": 5306,
  "rie@@": 5307,
  "double": 5308,
  "nationen": 5309,
  "chtet": 5310,
  "jump": 5311,
  "associated": 5312,
  "solar@@": 5313,
  "rio": 5314,
  "soviel": 5315,
  "bes": 5316,
  "grün@@": 5317,
  "fernseh@@": 5318,
  "strategy": 5319,
  "zerstören": 5320,
  "kurs": 5321,
  "producing": 5322,
  "cents": 5323,
  "flug": 5324,
  "iger": 5325,
  "100,000": 5326,
  "ologen": 5327,
  "surprised": 5328,
  "evil": 5329,
  "equipment": 5330,
  "schau@@": 5331,
  "individuen": 5332,
  "hasn": 5333,
  "studieren": 5334,
  "fahrer": 5335,
  "blatt": 5336,
  "solch": 5337,
  "graben": 5338,
  "0ern": 5339,
  "küste": 5340,
  "beantworten": 5341,
  "planning": 5342,
  "erklärung": 5343,
  "nutzt": 5344,
  "cambridge": 5345,
  "sa": 5346,
  "ore": 5347,
  "dinosaurier": 5348,
  "definitely": 5349,
  "pet@@": 5350,
  "roll@@": 5351,
  "ckte": 5352,
  "aspekt": 5353,
  "blocks": 5354,
  "sugar": 5355,
  "swe@@": 5356,
  "well-@@": 5357,
  "grand@@": 5358,
  "newspaper": 5359,
  "charakter": 5360,
  "teilt": 5361,
  "schien": 5362,
  "au": 5363,
  "stammt": 5364,
  "teuer": 5365,
  "resource": 5366,
  "atten@@": 5367,
  "compared": 5368,
  "intuition": 5369,
  "800": 5370,
  "abschluss": 5371,
  "martin": 5372,
  "keeping": 5373,
  "club": 5374,
  "gemein@@": 5375,
  "fat": 5376,
  "fassen": 5377,
  "ey": 5378,
  "lieblings@@": 5379,
  "erter": 5380,
  "underneath": 5381,
  "wechseln": 5382,
  "cam@@": 5383,
  "schwarzen": 5384,
  "höher": 5385,
  "experts": 5386,
  "ics": 5387,
  "früh": 5388,
  "augenblick": 5389,
  "ville": 5390,
  "bell": 5391,
  "taste": 5392,
  "signale": 5393,
  "schafts@@": 5394,
  "rural": 5395,
  "rational": 5396,
  "vorfahren": 5397,
  "kerl": 5398,
  "&apos;@@": 5399,
  "entspricht": 5400,
  "erscheint": 5401,
  "dogs": 5402,
  "grundsätzlich": 5403,
  "verbrachte": 5404,
  "demand": 5405,
  "rufen": 5406,
  "gore": 5407,
  "saturn": 5408,
  "maps": 5409,
  "unterricht": 5410,
  "uns@@": 5411,
  "letters": 5412,
  "grünen": 5413,
  "eric": 5414,
  "sat@@": 5415,
  "durchschnittliche": 5416,
  "ack": 5417,
  "match": 5418,
  "verfügbar": 5419,
  "stet": 5420,
  "feelings": 5421,
  "interview": 5422,
  "tically": 5423,
  "spen@@": 5424,
  "heim@@": 5425,
  "nte": 5426,
  "entstanden": 5427,
  "soldiers": 5428,
  "bla@@": 5429,
  "dimension": 5430,
  "ical": 5431,
  "trends": 5432,
  "chemicals": 5433,
  "display": 5434,
  "probe": 5435,
  "accident": 5436,
  "ory": 5437,
  "todes@@": 5438,
  "c.": 5439,
  "cen@@": 5440,
  "fabrik": 5441,
  "viel@@": 5442,
  "mountains": 5443,
  "hren": 5444,
  "essential": 5445,
  "gene@@": 5446,
  "mei@@": 5447,
  "talent": 5448,
  "grown": 5449,
  "quasi": 5450,
  "hallo": 5451,
  "wire": 5452,
  "süd@@": 5453,
  "arm@@": 5454,
  "filter": 5455,
  "visu@@": 5456,
  "u.n.": 5457,
  "mau@@": 5458,
  "usw.": 5459,
  "cortex": 5460,
  "recht@@": 5461,
  "generationen": 5462,
  "angesehen": 5463,
  "b.": 5464,
  "wn": 5465,
  "inner": 5466,
  "pause": 5467,
  "user": 5468,
  "sides": 5469,
  "zerstört": 5470,
  "organs": 5471,
  "inspiriert": 5472,
  "staat@@": 5473,
  "fördern": 5474,
  "conscious": 5475,
  "domin@@": 5476,
  "bestand": 5477,
  "genom": 5478,
  "trinken": 5479,
  "berührt": 5480,
  "beweise": 5481,
  "bang": 5482,
  "alisiert": 5483,
  "daily": 5484,
  "haltung": 5485,
  "sites": 5486,
  "architekten": 5487,
  "brothers": 5488,
  "consequences": 5489,
  "sche@@": 5490,
  "protection": 5491,
  "bus@@": 5492,
  "department": 5493,
  "ii": 5494,
  "müsste": 5495,
  "low-@@": 5496,
  "beschlossen": 5497,
  "physi@@": 5498,
  "illegal": 5499,
  "killing": 5500,
  "closed": 5501,
  "entworfen": 5502,
  "geändert": 5503,
  "generations": 5504,
  "corruption": 5505,
  "wa": 5506,
  "chemistry": 5507,
  "konflikt": 5508,
  "h-@@": 5509,
  "highest": 5510,
  "controlled": 5511,
  "gefallen": 5512,
  "glas@@": 5513,
  "facing": 5514,
  "emerging": 5515,
  "artificial": 5516,
  "folie": 5517,
  "cognitive": 5518,
  "swa@@": 5519,
  "entwicklungs@@": 5520,
  "diagramm": 5521,
  "married": 5522,
  "elektro@@": 5523,
  "stat@@": 5524,
  "contact": 5525,
  "ki": 5526,
  "joe": 5527,
  "hero": 5528,
  "dry": 5529,
  "erungen": 5530,
  "komplex": 5531,
  "halbe": 5532,
  "hinsicht": 5533,
  "ladies": 5534,
  "rock@@": 5535,
  "kti@@": 5536,
  "australia": 5537,
  "gäbe": 5538,
  "gefällt": 5539,
  "importance": 5540,
  "stuhl": 5541,
  "aufregend": 5542,
  "dran": 5543,
  "mul@@": 5544,
  "apo@@": 5545,
  "fund": 5546,
  "selling": 5547,
  "weiße": 5548,
  "ought": 5549,
  "quellen": 5550,
  "tony": 5551,
  "drink": 5552,
  "ol": 5553,
  "inner@@": 5554,
  "northern": 5555,
  "regen": 5556,
  "nervous": 5557,
  "layer": 5558,
  "definieren": 5559,
  "whom": 5560,
  "cultures": 5561,
  "hän@@": 5562,
  "dots": 5563,
  "ration": 5564,
  "aufbauen": 5565,
  "elektrizität": 5566,
  "blei@@": 5567,
  "addition": 5568,
  "standards": 5569,
  "glamour": 5570,
  "essen@@": 5571,
  "afrikanischen": 5572,
  "gebeten": 5573,
  "vote": 5574,
  "account": 5575,
  "silicon": 5576,
  "tausenden": 5577,
  "witz": 5578,
  "property": 5579,
  "spoke": 5580,
  "richtungen": 5581,
  "inhalt": 5582,
  "ctor": 5583,
  "formed": 5584,
  "empty": 5585,
  "stand@@": 5586,
  "sicherheits@@": 5587,
  "hot@@": 5588,
  "hol@@": 5589,
  "verbessert": 5590,
  "tritt": 5591,
  "tter@@": 5592,
  "beobachtet": 5593,
  "stood": 5594,
  "unterrichten": 5595,
  "technical": 5596,
  "theit": 5597,
  "wirtschaftlichen": 5598,
  "medien@@": 5599,
  "p-@@": 5600,
  "drücken": 5601,
  "tour": 5602,
  "patent": 5603,
  "billi@@": 5604,
  "n-@@": 5605,
  "typically": 5606,
  "ots": 5607,
  "faktor": 5608,
  "verbindet": 5609,
  "molecular": 5610,
  "mä@@": 5611,
  "falten": 5612,
  "humor": 5613,
  "ths": 5614,
  "müll": 5615,
  "geographic": 5616,
  "schlag@@": 5617,
  "anten": 5618,
  "hö@@": 5619,
  "breath": 5620,
  "gh": 5621,
  "blieb": 5622,
  "spectrum": 5623,
  "reduzieren": 5624,
  "verfahren": 5625,
  "vermitteln": 5626,
  "rever@@": 5627,
  "ße": 5628,
  "folks": 5629,
  "kochen": 5630,
  "kindheit": 5631,
  "verteilt": 5632,
  "dom@@": 5633,
  "viertel": 5634,
  "aufgebaut": 5635,
  "tran@@": 5636,
  "tered": 5637,
  "schaden": 5638,
  "kilometers": 5639,
  "deli@@": 5640,
  "journalist": 5641,
  "forced": 5642,
  "pos@@": 5643,
  "canada": 5644,
  "herren": 5645,
  "dat@@": 5646,
  "deeper": 5647,
  "isi@@": 5648,
  "statistiken": 5649,
  "2,@@": 5650,
  "flat": 5651,
  "strom@@": 5652,
  "ple@@": 5653,
  "rain": 5654,
  "brian": 5655,
  "relatively": 5656,
  "vari@@": 5657,
  "eg@@": 5658,
  "cru@@": 5659,
  "zierte": 5660,
  "solved": 5661,
  "stam@@": 5662,
  "700": 5663,
  "atoms": 5664,
  "tö@@": 5665,
  "weather": 5666,
  "gs@@": 5667,
  "avoid": 5668,
  "kitchen": 5669,
  "tlich": 5670,
  "erlebt": 5671,
  "32": 5672,
  "picked": 5673,
  "atmen": 5674,
  "pit@@": 5675,
  "pop": 5676,
  "curious": 5677,
  "bende": 5678,
  "disaster": 5679,
  "proteins": 5680,
  "regular": 5681,
  "ernährung": 5682,
  "5.000": 5683,
  "achse": 5684,
  "efficiency": 5685,
  "mathematical": 5686,
  "posi@@": 5687,
  "tot": 5688,
  "adult": 5689,
  "lektion": 5690,
  "digitalen": 5691,
  "users": 5692,
  "round": 5693,
  "zurückzu@@": 5694,
  "wirtschaftliche": 5695,
  "violent": 5696,
  "zierten": 5697,
  "blauen": 5698,
  "explosion": 5699,
  "kampagne": 5700,
  "practical": 5701,
  "soli@@": 5702,
  "gab@@": 5703,
  "britain": 5704,
  "gy": 5705,
  "bruder": 5706,
  "prove": 5707,
  "tun@@": 5708,
  "essi@@": 5709,
  "thoughts": 5710,
  "sharks": 5711,
  "langer": 5712,
  "fac@@": 5713,
  "characters": 5714,
  "pt@@": 5715,
  "dlich": 5716,
  "intellectual": 5717,
  "entdeckte": 5718,
  "homes": 5719,
  "senses": 5720,
  "dische": 5721,
  "seltsam": 5722,
  "wobei": 5723,
  "online-@@": 5724,
  "clinical": 5725,
  "medizinische": 5726,
  "mati@@": 5727,
  "suggest": 5728,
  "politiker": 5729,
  "wesentlich": 5730,
  "pleasure": 5731,
  "free@@": 5732,
  "nützlich": 5733,
  "remote": 5734,
  "gemeinden": 5735,
  "fresh": 5736,
  "chain": 5737,
  "120": 5738,
  "erd@@": 5739,
  "calling": 5740,
  "lustig": 5741,
  "prakti@@": 5742,
  "erende": 5743,
  "gras@@": 5744,
  "rü@@": 5745,
  "derzeit": 5746,
  "kit@@": 5747,
  "tical": 5748,
  "grosse": 5749,
  "führer": 5750,
  "fossil": 5751,
  "mexiko": 5752,
  "invention": 5753,
  "coal": 5754,
  "diet": 5755,
  "bronx": 5756,
  "persönlich": 5757,
  "jack": 5758,
  "junger": 5759,
  "are@@": 5760,
  "berichten": 5761,
  "mutter@@": 5762,
  "transport": 5763,
  "aff@@": 5764,
  "reaction": 5765,
  "bab@@": 5766,
  "att@@": 5767,
  "express": 5768,
  "beweisen": 5769,
  "cards": 5770,
  "sw@@": 5771,
  "movies": 5772,
  "bot": 5773,
  "achten": 5774,
  "waves": 5775,
  "damen": 5776,
  "tot@@": 5777,
  "erwähnt": 5778,
  "tigkeit": 5779,
  "wake": 5780,
  "stoßen": 5781,
  "folgt": 5782,
  "beinahe": 5783,
  "spiegel": 5784,
  "experienced": 5785,
  "southern": 5786,
  "medikament": 5787,
  "fs": 5788,
  "helden": 5789,
  "kompliziert": 5790,
  "bein": 5791,
  "dest": 5792,
  "zweck": 5793,
  "nis": 5794,
  "fünf@@": 5795,
  "baute": 5796,
  "nose": 5797,
  "herunter@@": 5798,
  "feststellen": 5799,
  "method": 5800,
  "lasse": 5801,
  "ir": 5802,
  "sätze": 5803,
  "erfindung": 5804,
  "straßen@@": 5805,
  "einrichtungen": 5806,
  "korruption": 5807,
  "verlust": 5808,
  "sees": 5809,
  "dunkle": 5810,
  "zit@@": 5811,
  "lessons": 5812,
  "affected": 5813,
  "photographs": 5814,
  "fishing": 5815,
  "possibilities": 5816,
  "ationen": 5817,
  "brazil": 5818,
  "0-@@": 5819,
  "zü@@": 5820,
  "schlafen": 5821,
  "absor@@": 5822,
  "m-@@": 5823,
  "howard": 5824,
  "gravity": 5825,
  "krebs@@": 5826,
  "vely": 5827,
  "effe@@": 5828,
  "nutzung": 5829,
  "wüste": 5830,
  "gesundheitswesen": 5831,
  "lediglich": 5832,
  "sky@@": 5833,
  "manhattan": 5834,
  "survey": 5835,
  "axis": 5836,
  "mama": 5837,
  "yer": 5838,
  "orbit": 5839,
  "momente": 5840,
  "persönlichen": 5841,
  "innovative": 5842,
  "erstellt": 5843,
  "sla@@": 5844,
  "iled": 5845,
  "eastern": 5846,
  "1960": 5847,
  "heißen": 5848,
  "radiation": 5849,
  "kers": 5850,
  "long-term": 5851,
  "unterstützt": 5852,
  "d.": 5853,
  "mitarbeiter": 5854,
  "mate": 5855,
  "persönliche": 5856,
  "scene": 5857,
  "florida": 5858,
  "introduced": 5859,
  "3,000": 5860,
  "chter@@": 5861,
  "vorstellungen": 5862,
  "see@@": 5863,
  "cross": 5864,
  "kriege": 5865,
  "arrived": 5866,
  "passi@@": 5867,
  "cha@@": 5868,
  "dungs@@": 5869,
  "tim": 5870,
  "effectively": 5871,
  "galaxie": 5872,
  "alzheimer": 5873,
  "dealing": 5874,
  "ignor@@": 5875,
  "sentence": 5876,
  "considered": 5877,
  "penguins": 5878,
  "radical": 5879,
  "rollen": 5880,
  "anteil": 5881,
  "unabhängig": 5882,
  "relative": 5883,
  "enorme": 5884,
  "wissenschaften": 5885,
  "überlegen": 5886,
  "metapher": 5887,
  "schrecklich": 5888,
  "mix": 5889,
  "großmutter": 5890,
  "zte": 5891,
  "black@@": 5892,
  "tat@@": 5893,
  "peak": 5894,
  "selbstverständlich": 5895,
  "kle@@": 5896,
  "milk": 5897,
  "liert": 5898,
  "anz": 5899,
  "systemen": 5900,
  "mitteln": 5901,
  "nötig": 5902,
  "präsentation": 5903,
  "lands": 5904,
  "windows": 5905,
  "players": 5906,
  "fischen": 5907,
  "bekannten": 5908,
  "bedürfnisse": 5909,
  "springen": 5910,
  "predi@@": 5911,
  "vorher@@": 5912,
  "crash": 5913,
  "miss@@": 5914,
  "metal": 5915,
  "maßstab": 5916,
  "bildet": 5917,
  "alism": 5918,
  "faktoren": 5919,
  "kriegs@@": 5920,
  "grüne": 5921,
  "load": 5922,
  "vorne": 5923,
  "löcher": 5924,
  "sowas": 5925,
  "digitale": 5926,
  "saved": 5927,
  "ersetzen": 5928,
  "capture": 5929,
  "nachts": 5930,
  "molekül": 5931,
  "kaffee": 5932,
  "igkeit": 5933,
  "zauber@@": 5934,
  "beweis": 5935,
  "liebte": 5936,
  "national@@": 5937,
  "moralische": 5938,
  "wofür": 5939,
  "buying": 5940,
  "übrig": 5941,
  "tac@@": 5942,
  "büchern": 5943,
  "location": 5944,
  "seht": 5945,
  "freundin": 5946,
  "specifically": 5947,
  "wettbewerb": 5948,
  "effektiv": 5949,
  "afrikas": 5950,
  "lichkeiten": 5951,
  "diert": 5952,
  "brücke": 5953,
  "mitglieder": 5954,
  "brand@@": 5955,
  "sü@@": 5956,
  "webseite": 5957,
  "germany": 5958,
  "setting": 5959,
  "tar@@": 5960,
  "vorzu@@": 5961,
  "hadn": 5962,
  "employees": 5963,
  "taliban": 5964,
  "gerechtigkeit": 5965,
  "glei@@": 5966,
  "teenager": 5967,
  "ball@@": 5968,
  "finger@@": 5969,
  "lar@@": 5970,
  "kö@@": 5971,
  "jim": 5972,
  "menschlicher": 5973,
  "nas@@": 5974,
  "innere": 5975,
  "received": 5976,
  "former": 5977,
  "außen": 5978,
  "rad": 5979,
  "tauchen": 5980,
  "scha@@": 5981,
  "besuchen": 5982,
  "nett": 5983,
  "geheimnis": 5984,
  "nete": 5985,
  "flie@@": 5986,
  "cin@@": 5987,
  "struggle": 5988,
  "cooking": 5989,
  "fern": 5990,
  "test@@": 5991,
  "simulation": 5992,
  "inen": 5993,
  "epidemic": 5994,
  "productive": 5995,
  "tic@@": 5996,
  "grafik": 5997,
  "poetry": 5998,
  "alize": 5999,
  "schen@@": 6000,
  "liefer@@": 6001,
  "fahrt": 6002,
  "mand@@": 6003,
  "fügen": 6004,
  "schimpansen": 6005,
  "kopf@@": 6006,
  "singen": 6007,
  "mistake": 6008,
  "cutting": 6009,
  "businesses": 6010,
  "lokalen": 6011,
  "digit@@": 6012,
  "testing": 6013,
  "gramm": 6014,
  "initi@@": 6015,
  "requires": 6016,
  "leistungs@@": 6017,
  "angle": 6018,
  "trials": 6019,
  "silk": 6020,
  "beinhaltet": 6021,
  "jedenfalls": 6022,
  "target": 6023,
  "exc@@": 6024,
  "hier@@": 6025,
  "halb": 6026,
  "switch": 6027,
  "burn": 6028,
  "beschloss": 6029,
  "liked": 6030,
  "zuhören": 6031,
  "fail": 6032,
  "identi@@": 6033,
  "bank@@": 6034,
  "situationen": 6035,
  "australien": 6036,
  "stärker": 6037,
  "valuable": 6038,
  "gap": 6039,
  "geri@@": 6040,
  "roots": 6041,
  "ech@@": 6042,
  "gebraucht": 6043,
  "democratic": 6044,
  "hinzu@@": 6045,
  "mensch@@": 6046,
  "bogen": 6047,
  "zä@@": 6048,
  "verkehr": 6049,
  "mention": 6050,
  "exercise": 6051,
  "maß@@": 6052,
  "wellen": 6053,
  "gesichter": 6054,
  "sitz": 6055,
  "naturally": 6056,
  "clever": 6057,
  "appropriate": 6058,
  "landen": 6059,
  "rob@@": 6060,
  "herstellung": 6061,
  "chern": 6062,
  "dire@@": 6063,
  "mistakes": 6064,
  "ecosystem": 6065,
  "tag@@": 6066,
  "erwachsene": 6067,
  "internet@@": 6068,
  "schaften": 6069,
  "erer": 6070,
  "verteilung": 6071,
  "introduce": 6072,
  "broke": 6073,
  "irgendjemand": 6074,
  "ens@@": 6075,
  "privat@@": 6076,
  "hinten": 6077,
  "stü@@": 6078,
  "nden": 6079,
  "stärke": 6080,
  "consumer": 6081,
  "erkennt": 6082,
  "üb@@": 6083,
  "gesund": 6084,
  "samen": 6085,
  "ruf": 6086,
  "agenda": 6087,
  "strahlung": 6088,
  "click": 6089,
  "lea@@": 6090,
  "wed": 6091,
  "sets": 6092,
  "dieren": 6093,
  "hollywood": 6094,
  "wirkliche": 6095,
  "heim": 6096,
  "wieviel": 6097,
  "ining": 6098,
  "reward": 6099,
  "zahn@@": 6100,
  "dru@@": 6101,
  "lichem": 6102,
  "folgende": 6103,
  "safety": 6104,
  "telescope": 6105,
  "she@@": 6106,
  "ür@@": 6107,
  "channel": 6108,
  "proben": 6109,
  "pilot": 6110,
  "gor@@": 6111,
  "sektor": 6112,
  "watt": 6113,
  "versteht": 6114,
  "films": 6115,
  "ished": 6116,
  "platform": 6117,
  "0,000": 6118,
  "existence": 6119,
  "temp@@": 6120,
  "val": 6121,
  "generate": 6122,
  "barer": 6123,
  "mode": 6124,
  "theme": 6125,
  "components": 6126,
  "unlike": 6127,
  "fan": 6128,
  "rou@@": 6129,
  "properties": 6130,
  "style": 6131,
  "lake": 6132,
  "alien": 6133,
  "inseln": 6134,
  "factor": 6135,
  "arab": 6136,
  "transparent": 6137,
  "prepared": 6138,
  "är": 6139,
  "zur@@": 6140,
  "chemikalien": 6141,
  "bubble": 6142,
  "string": 6143,
  "nei@@": 6144,
  "anwendung": 6145,
  "islam@@": 6146,
  "nie@@": 6147,
  "credit": 6148,
  "süden": 6149,
  "jährigen": 6150,
  "mern": 6151,
  "rb": 6152,
  "brach": 6153,
  "bol@@": 6154,
  "wär@@": 6155,
  "pm": 6156,
  "cle@@": 6157,
  "21.": 6158,
  "cho@@": 6159,
  "fication": 6160,
  "initiative": 6161,
  "manage": 6162,
  "schwierigkeiten": 6163,
  "tigt": 6164,
  "roman@@": 6165,
  "behaviors": 6166,
  "spa@@": 6167,
  "ungsk@@": 6168,
  "psychology": 6169,
  "unusual": 6170,
  "smith": 6171,
  "chti@@": 6172,
  "five-@@": 6173,
  "reser@@": 6174,
  "quantum": 6175,
  "writer": 6176,
  "primary": 6177,
  "techniques": 6178,
  "allgemeinen": 6179,
  "forsch@@": 6180,
  "lifetime": 6181,
  "kreieren": 6182,
  "kannte": 6183,
  "venti@@": 6184,
  "water@@": 6185,
  "evolutionary": 6186,
  "geräusch": 6187,
  "liquid": 6188,
  "unterhaltung": 6189,
  "sal": 6190,
  "bekomme": 6191,
  "honor": 6192,
  "schlechter": 6193,
  "unfall": 6194,
  "internationalen": 6195,
  "gele@@": 6196,
  "aufzubauen": 6197,
  "suit": 6198,
  "plans": 6199,
  "diskussion": 6200,
  "acht@@": 6201,
  "lincoln": 6202,
  "lying": 6203,
  "wein@@": 6204,
  "auen": 6205,
  "rennen": 6206,
  "carrying": 6207,
  "infected": 6208,
  "einiges": 6209,
  "militär@@": 6210,
  "increasing": 6211,
  "teure": 6212,
  "überraschend": 6213,
  "de-@@": 6214,
  "hat@@": 6215,
  "runs": 6216,
  "henry": 6217,
  "laptops": 6218,
  "regel@@": 6219,
  "höre": 6220,
  "zitat": 6221,
  "rare": 6222,
  "represents": 6223,
  "fewer": 6224,
  "beispielsweise": 6225,
  "whereas": 6226,
  "schritte": 6227,
  "generally": 6228,
  "dü@@": 6229,
  "entstand": 6230,
  "ierte": 6231,
  "visible": 6232,
  "ph": 6233,
  "cat": 6234,
  "meist": 6235,
  "pollution": 6236,
  "accept": 6237,
  "anhand": 6238,
  "analyse": 6239,
  "matic": 6240,
  "lay": 6241,
  "bottle": 6242,
  "politicians": 6243,
  "makers": 6244,
  "prinzipien": 6245,
  "freien": 6246,
  "ausmaß": 6247,
  "cop@@": 6248,
  "sicht@@": 6249,
  "grossen": 6250,
  "roof": 6251,
  "geber": 6252,
  "füllen": 6253,
  "birthday": 6254,
  "neighbors": 6255,
  "processes": 6256,
  "log@@": 6257,
  "mut": 6258,
  "ohren": 6259,
  "pay@@": 6260,
  "setzten": 6261,
  "ga": 6262,
  "wirkt": 6263,
  "identify": 6264,
  "pack": 6265,
  "variety": 6266,
  "swim": 6267,
  "jährige": 6268,
  "grab": 6269,
  "dam@@": 6270,
  "müll@@": 6271,
  "gur@@": 6272,
  "connections": 6273,
  "telefon@@": 6274,
  "vorhersagen": 6275,
  "erkannt": 6276,
  "has@@": 6277,
  "untersuchung": 6278,
  "oran@@": 6279,
  "innen@@": 6280,
  "willst": 6281,
  "gold@@": 6282,
  "therapy": 6283,
  "photo@@": 6284,
  "gegründet": 6285,
  "watched": 6286,
  "versagen": 6287,
  "chemie": 6288,
  "größ@@": 6289,
  "bob": 6290,
  "queen": 6291,
  "hne": 6292,
  "error": 6293,
  "speziellen": 6294,
  "presse": 6295,
  "unit": 6296,
  "restaurants": 6297,
  "schauten": 6298,
  "kenia": 6299,
  "define": 6300,
  "faith": 6301,
  "ero@@": 6302,
  "advanced": 6303,
  "hielten": 6304,
  "sher@@": 6305,
  "dose": 6306,
  "gebieten": 6307,
  "gekauft": 6308,
  "pacific": 6309,
  "schuld": 6310,
  "rechnen": 6311,
  "dauerte": 6312,
  "serve": 6313,
  "solange": 6314,
  "convince": 6315,
  "voraus@@": 6316,
  "ll": 6317,
  "zivilisation": 6318,
  "mirror": 6319,
  "gran@@": 6320,
  "driver": 6321,
  "pulled": 6322,
  "bility": 6323,
  "pfund": 6324,
  "anstelle": 6325,
  "shanghai": 6326,
  "tor": 6327,
  "interessantes": 6328,
  "novel": 6329,
  "milli@@": 6330,
  "op": 6331,
  "hung": 6332,
  "battle": 6333,
  "schte": 6334,
  "satellite": 6335,
  "teri@@": 6336,
  "anfing": 6337,
  "dün@@": 6338,
  "tiver": 6339,
  "zähne": 6340,
  "personally": 6341,
  "vertraut": 6342,
  "kurve": 6343,
  "ancestors": 6344,
  "sl@@": 6345,
  "alist": 6346,
  "kapital": 6347,
  "umge@@": 6348,
  "hnen": 6349,
  "vorzustellen": 6350,
  "000-@@": 6351,
  "laboratory": 6352,
  "applied": 6353,
  "bedenken": 6354,
  "neuron": 6355,
  "serie": 6356,
  "exchange": 6357,
  "shor@@": 6358,
  "ozeane": 6359,
  "ot": 6360,
  "holz@@": 6361,
  "green@@": 6362,
  "jahr@@": 6363,
  "fake": 6364,
  "untersucht": 6365,
  "anischen": 6366,
  "tasche": 6367,
  "researchers": 6368,
  "2050": 6369,
  "derer": 6370,
  "saal": 6371,
  "situations": 6372,
  "verbreitung": 6373,
  "ams": 6374,
  "toten": 6375,
  "unglaublichen": 6376,
  "rates": 6377,
  "za": 6378,
  "se-@@": 6379,
  "blut@@": 6380,
  "blase": 6381,
  "gegenwart": 6382,
  "interpretation": 6383,
  "perception": 6384,
  "fusion": 6385,
  "hr": 6386,
  "work@@": 6387,
  "member": 6388,
  "islands": 6389,
  "oll@@": 6390,
  "continued": 6391,
  "expected": 6392,
  "hn": 6393,
  "comfortable": 6394,
  "sticks": 6395,
  "solcher": 6396,
  "thin": 6397,
  "geräusche": 6398,
  "ures": 6399,
  "südafrika": 6400,
  "demon@@": 6401,
  "co-@@": 6402,
  "stammzellen": 6403,
  "pig@@": 6404,
  "chef": 6405,
  "äußerst": 6406,
  "homo": 6407,
  "lichste": 6408,
  "kombination": 6409,
  "gun": 6410,
  "klar@@": 6411,
  "ama@@": 6412,
  "unterschiedlich": 6413,
  "cry": 6414,
  "-up": 6415,
  "reached": 6416,
  "genetische": 6417,
  "marriage": 6418,
  "erwachsenen": 6419,
  "sicher@@": 6420,
  "placed": 6421,
  "pau@@": 6422,
  "bahn": 6423,
  "graphy": 6424,
  "deutschland": 6425,
  "orange": 6426,
  "weltweiten": 6427,
  "risks": 6428,
  "depends": 6429,
  "freund@@": 6430,
  "recorded": 6431,
  "bemerken": 6432,
  "vorhanden": 6433,
  "här@@": 6434,
  "kab@@": 6435,
  "amounts": 6436,
  "digt": 6437,
  "computing": 6438,
  "stigen": 6439,
  "post-@@": 6440,
  "gelebt": 6441,
  "refer@@": 6442,
  "woran": 6443,
  "colle@@": 6444,
  "burning": 6445,
  "may@@": 6446,
  "ites": 6447,
  "heran@@": 6448,
  "bezüglich": 6449,
  "goods": 6450,
  "sw": 6451,
  "linear": 6452,
  "medizin@@": 6453,
  "gemeinsame": 6454,
  "freie": 6455,
  "kirche": 6456,
  "verstehe": 6457,
  "defined": 6458,
  "battery": 6459,
  "frame": 6460,
  "instin@@": 6461,
  "mo": 6462,
  "closely": 6463,
  "centers": 6464,
  "sensitive": 6465,
  "grundlage": 6466,
  "stehe": 6467,
  "gulf": 6468,
  "sources": 6469,
  "exploration": 6470,
  "rum@@": 6471,
  "resultat": 6472,
  "conver@@": 6473,
  "spro@@": 6474,
  "kanada": 6475,
  "beschäftigen": 6476,
  "meinte": 6477,
  "willen": 6478,
  "goals": 6479,
  "hierher": 6480,
  "mmen": 6481,
  "county": 6482,
  "absicht": 6483,
  "sunlight": 6484,
  "ride": 6485,
  "50@@": 6486,
  "gemeinschaften": 6487,
  "kevin": 6488,
  "jung": 6489,
  "reputation": 6490,
  "bun@@": 6491,
  "geschenk": 6492,
  "fran@@": 6493,
  "tape": 6494,
  "1990": 6495,
  "jac@@": 6496,
  "shall": 6497,
  "ears": 6498,
  "require": 6499,
  "pure": 6500,
  "kapitel": 6501,
  "nah@@": 6502,
  "parallel": 6503,
  "pfer@@": 6504,
  "nan@@": 6505,
  "gste": 6506,
  "promise": 6507,
  "schreibt": 6508,
  "28": 6509,
  "momentan": 6510,
  "entwicklungsländern": 6511,
  "dna-@@": 6512,
  "entfernen": 6513,
  "tät": 6514,
  "oxytocin": 6515,
  "ausstellung": 6516,
  "auff@@": 6517,
  "hun@@": 6518,
  "nicht@@": 6519,
  "healthcare": 6520,
  "correct": 6521,
  "sms": 6522,
  "relate": 6523,
  "felder": 6524,
  "perfe@@": 6525,
  "stupid": 6526,
  "quar@@": 6527,
  "flasche": 6528,
  "prin@@": 6529,
  "müssten": 6530,
  "tonnen": 6531,
  "architect": 6532,
  "vieles": 6533,
  "stoffe": 6534,
  "vaccine": 6535,
  "joke": 6536,
  "aufnehmen": 6537,
  "zeichnung": 6538,
  "nase": 6539,
  "bag": 6540,
  "hardware": 6541,
  "seid": 6542,
  "19.": 6543,
  "religionen": 6544,
  "schild": 6545,
  "gentlemen": 6546,
  "lebe": 6547,
  "dest@@": 6548,
  "shi@@": 6549,
  "schlüssel@@": 6550,
  "schwarz@@": 6551,
  "zin@@": 6552,
  "aspect": 6553,
  "zugänglich": 6554,
  "hle": 6555,
  "inje@@": 6556,
  "menschliches": 6557,
  "proje@@": 6558,
  "destruction": 6559,
  "inzwischen": 6560,
  "zucker": 6561,
  "fying": 6562,
  "comics": 6563,
  "welchem": 6564,
  "schaue": 6565,
  "alismus": 6566,
  "sum": 6567,
  "gli@@": 6568,
  "emissions": 6569,
  "einfaches": 6570,
  "jesus": 6571,
  "ann": 6572,
  "environments": 6573,
  "akzeptieren": 6574,
  "movements": 6575,
  "collaboration": 6576,
  "ierten": 6577,
  "3.@@": 6578,
  "algorithms": 6579,
  "quiet": 6580,
  "el-@@": 6581,
  "halb@@": 6582,
  "discussion": 6583,
  "kleidung": 6584,
  "ering": 6585,
  "mö@@": 6586,
  "liefern": 6587,
  "tiv": 6588,
  "percentage": 6589,
  "dienst": 6590,
  "hoping": 6591,
  "empathy": 6592,
  "gegenseitig": 6593,
  "plastik": 6594,
  "sul@@": 6595,
  "aufs": 6596,
  "grau@@": 6597,
  "kä@@": 6598,
  "shake": 6599,
  "tanzen": 6600,
  "atory": 6601,
  "ultimate": 6602,
  "solving": 6603,
  "traveling": 6604,
  "nat@@": 6605,
  "brust": 6606,
  "wovon": 6607,
  "tam@@": 6608,
  "zus@@": 6609,
  "pes": 6610,
  "mitglied": 6611,
  "supp@@": 6612,
  "risiken": 6613,
  "beibringen": 6614,
  "inten@@": 6615,
  "fingen": 6616,
  "stor@@": 6617,
  "glaubte": 6618,
  "konzentriert": 6619,
  "partners": 6620,
  "ya": 6621,
  "gere@@": 6622,
  "änderungen": 6623,
  "proteine": 6624,
  "tanz": 6625,
  "top@@": 6626,
  "ences": 6627,
  "sty": 6628,
  "pinguine": 6629,
  "stag": 6630,
  "input": 6631,
  "fach": 6632,
  "frag@@": 6633,
  "bele@@": 6634,
  "replace": 6635,
  "zeichnet": 6636,
  "brasilien": 6637,
  "merken": 6638,
  "physiker": 6639,
  "immer@@": 6640,
  "ausgeben": 6641,
  "schwieriger": 6642,
  "ski@@": 6643,
  "hinzu": 6644,
  "crowd": 6645,
  "three-dimensional": 6646,
  "eth@@": 6647,
  "carefully": 6648,
  "vermeiden": 6649,
  "erweitern": 6650,
  "hafte": 6651,
  "besessen": 6652,
  "trat": 6653,
  "sex@@": 6654,
  "é@@": 6655,
  "arbei@@": 6656,
  "audi@@": 6657,
  "automatisch": 6658,
  "funktion@@": 6659,
  "geni@@": 6660,
  "fasziniert": 6661,
  "wine": 6662,
  "remain": 6663,
  "bomb": 6664,
  "dramatic": 6665,
  "figures": 6666,
  "schönes": 6667,
  "29": 6668,
  "tech": 6669,
  "schiff": 6670,
  "enz": 6671,
  "topic": 6672,
  "hill": 6673,
  "engagement": 6674,
  "schl@@": 6675,
  "shaped": 6676,
  "soweit": 6677,
  "geholfen": 6678,
  "shark": 6679,
  "sou@@": 6680,
  "berg@@": 6681,
  "grei@@": 6682,
  "dichte": 6683,
  "psychologie": 6684,
  "upper": 6685,
  "inse@@": 6686,
  "weiterer": 6687,
  "sending": 6688,
  "erhöhen": 6689,
  "interests": 6690,
  "tracking": 6691,
  "opinion": 6692,
  "aring": 6693,
  "wondering": 6694,
  "lehre": 6695,
  "del": 6696,
  "entertainment": 6697,
  "bran@@": 6698,
  "darstellen": 6699,
  "chung": 6700,
  "aufre@@": 6701,
  "ame": 6702,
  "mechanical": 6703,
  "ized": 6704,
  "besitzt": 6705,
  "schlu@@": 6706,
  "jan@@": 6707,
  "hits": 6708,
  "skill": 6709,
  "schneiden": 6710,
  "impli@@": 6711,
  "realen": 6712,
  "lü@@": 6713,
  "äuß@@": 6714,
  "positiv": 6715,
  "hydrogen": 6716,
  "verlauf": 6717,
  "bay": 6718,
  ",@@": 6719,
  "schmerzen": 6720,
  "mittels": 6721,
  "zuzu@@": 6722,
  "convinced": 6723,
  "chinesische": 6724,
  "defini@@": 6725,
  "ec@@": 6726,
  "shoot": 6727,
  "collection": 6728,
  "froh": 6729,
  "vulnerable": 6730,
  "autor": 6731,
  "individu@@": 6732,
  "glücklicherweise": 6733,
  "puzzle": 6734,
  "twi@@": 6735,
  "durchführen": 6736,
  "fakten": 6737,
  "übernehmen": 6738,
  "internationale": 6739,
  "lebensmittel": 6740,
  "signs": 6741,
  "publi@@": 6742,
  "awareness": 6743,
  "speci@@": 6744,
  "insbesondere": 6745,
  "trillion": 6746,
  "schatten": 6747,
  "zählt": 6748,
  "drucken": 6749,
  "facts": 6750,
  "annahme": 6751,
  "faszinierend": 6752,
  "manufacturing": 6753,
  "christ@@": 6754,
  "uss": 6755,
  "vagina": 6756,
  "2002": 6757,
  "all-@@": 6758,
  "manchen": 6759,
  "leiter": 6760,
  "dieselben": 6761,
  "curve": 6762,
  "dge": 6763,
  "darunter": 6764,
  "protected": 6765,
  "wünschte": 6766,
  "krei@@": 6767,
  "steven": 6768,
  "elektrische": 6769,
  "gru@@": 6770,
  "soft": 6771,
  "meetings": 6772,
  "zweimal": 6773,
  "ological": 6774,
  "transportation": 6775,
  "piano": 6776,
  "alter@@": 6777,
  "netz@@": 6778,
  "clay": 6779,
  "fres@@": 6780,
  "bones": 6781,
  "marke": 6782,
  "haften": 6783,
  "dropped": 6784,
  "logic": 6785,
  "länge": 6786,
  "bul@@": 6787,
  "algorithmen": 6788,
  "glücklicher": 6789,
  "schließt": 6790,
  "debatte": 6791,
  "confidence": 6792,
  "falling": 6793,
  "kn@@": 6794,
  "smile": 6795,
  "mung": 6796,
  "technological": 6797,
  "dun@@": 6798,
  "irgendeine": 6799,
  "sis": 6800,
  "tube": 6801,
  "hip": 6802,
  "existing": 6803,
  "explanation": 6804,
  "durchschnitt": 6805,
  "gdp": 6806,
  "materi@@": 6807,
  "kap@@": 6808,
  "sweet": 6809,
  "ge-@@": 6810,
  "stock@@": 6811,
  "oned": 6812,
  "court": 6813,
  "ernsthaft": 6814,
  "include": 6815,
  "kontinent": 6816,
  "will@@": 6817,
  "fet@@": 6818,
  "sophisticated": 6819,
  "ideal": 6820,
  "gps": 6821,
  "grid": 6822,
  "shu@@": 6823,
  "betrieben": 6824,
  "regierungs@@": 6825,
  "ize": 6826,
  "manager": 6827,
  "religions": 6828,
  "zunehmen": 6829,
  "drückt": 6830,
  "added": 6831,
  "existenz": 6832,
  "85": 6833,
  "effizienz": 6834,
  "director": 6835,
  "strength": 6836,
  "super-@@": 6837,
  "app": 6838,
  "blicken": 6839,
  "electronic": 6840,
  "100.000": 6841,
  "kontrolliert": 6842,
  "feeding": 6843,
  "reg@@": 6844,
  "fehlt": 6845,
  "gendes": 6846,
  "applications": 6847,
  "risiko@@": 6848,
  "neten": 6849,
  "noten": 6850,
  "bericht": 6851,
  "fortschritte": 6852,
  "stieg": 6853,
  "alt@@": 6854,
  "überwinden": 6855,
  "folgenden": 6856,
  "fingers": 6857,
  "yed": 6858,
  "remains": 6859,
  "fed": 6860,
  "ai": 6861,
  "economists": 6862,
  "increased": 6863,
  "mehrheit": 6864,
  "1.000": 6865,
  "veränderte": 6866,
  "fürs": 6867,
  "ins@@": 6868,
  "ads": 6869,
  "mad": 6870,
  "strand": 6871,
  "dene": 6872,
  "ash": 6873,
  "konsequenzen": 6874,
  "zie@@": 6875,
  "boxes": 6876,
  "spektrum": 6877,
  "komm": 6878,
  "garage": 6879,
  "hoben": 6880,
  "perfekte": 6881,
  "interaktion": 6882,
  "abraham": 6883,
  "literatur": 6884,
  "aussage": 6885,
  "lieb@@": 6886,
  "t.": 6887,
  "organisieren": 6888,
  "pose": 6889,
  "encourage": 6890,
  "gefangen": 6891,
  "besseres": 6892,
  "kommen@@": 6893,
  "kamer@@": 6894,
  "singing": 6895,
  "welten": 6896,
  "brei@@": 6897,
  "digung": 6898,
  "wirft": 6899,
  "ket@@": 6900,
  "inn@@": 6901,
  "kreb@@": 6902,
  "ek": 6903,
  "sample": 6904,
  "verwandelt": 6905,
  "songs": 6906,
  "therapie": 6907,
  "wohlstand": 6908,
  "farmer": 6909,
  "ells": 6910,
  "solid": 6911,
  "reverse": 6912,
  "claim": 6913,
  "breaking": 6914,
  "conventional": 6915,
  "gebäuden": 6916,
  "lab@@": 6917,
  "kni@@": 6918,
  "dimensionen": 6919,
  "april": 6920,
  "syste@@": 6921,
  "literature": 6922,
  "hurt": 6923,
  "beu@@": 6924,
  "wü@@": 6925,
  "mittlerweile": 6926,
  "insight": 6927,
  "graphi@@": 6928,
  "button": 6929,
  "linked": 6930,
  "combination": 6931,
  "flowers": 6932,
  "kabel": 6933,
  "erlebnis": 6934,
  "fortune": 6935,
  "nation@@": 6936,
  "cameras": 6937,
  "tiefen": 6938,
  "ursprünglich": 6939,
  "ergibt": 6940,
  "ffen": 6941,
  "dul@@": 6942,
  "sight": 6943,
  "ingenieure": 6944,
  "glich": 6945,
  "hl": 6946,
  "nahrungs@@": 6947,
  "irgend@@": 6948,
  "keeps": 6949,
  "verbrechen": 6950,
  "schli@@": 6951,
  "armee": 6952,
  "funding": 6953,
  "tea": 6954,
  "musik@@": 6955,
  "0.@@": 6956,
  "enthält": 6957,
  "sichtbar": 6958,
  "lg": 6959,
  "regime": 6960,
  "advice": 6961,
  "path@@": 6962,
  "smo@@": 6963,
  "ausgaben": 6964,
  "dame": 6965,
  "tho@@": 6966,
  "johnson": 6967,
  "presence": 6968,
  "accurate": 6969,
  "fundamentally": 6970,
  "kugel": 6971,
  "voraus": 6972,
  "baseball": 6973,
  "rel@@": 6974,
  "lig": 6975,
  "selb@@": 6976,
  "blaue": 6977,
  "kaufte": 6978,
  "th-@@": 6979,
  "lächeln": 6980,
  "implan@@": 6981,
  "schau": 6982,
  "wireless": 6983,
  "aufgewachsen": 6984,
  "combined": 6985,
  "unteren": 6986,
  "retro@@": 6987,
  "worauf": 6988,
  "golden": 6989,
  "hunde": 6990,
  "wers": 6991,
  "gebrochen": 6992,
  "fantastische": 6993,
  "11.": 6994,
  "3,@@": 6995,
  "sauce": 6996,
  "gewinn": 6997,
  "qui@@": 6998,
  "beenden": 6999,
  "besagt": 7000,
  "statement": 7001,
  "recording": 7002,
  "got@@": 7003,
  "hervor": 7004,
  "previous": 7005,
  "hof": 7006,
  "ick": 7007,
  "aden": 7008,
  "seltsame": 7009,
  "großartigen": 7010,
  "dilemma": 7011,
  "20-@@": 7012,
  "bö@@": 7013,
  "odd": 7014,
  "rocket": 7015,
  "führ@@": 7016,
  "neither": 7017,
  "newton": 7018,
  "cow": 7019,
  "graphie": 7020,
  "cia": 7021,
  "origin@@": 7022,
  "jener": 7023,
  "corporate": 7024,
  "tors": 7025,
  "tja": 7026,
  "stil": 7027,
  "ater": 7028,
  "redu@@": 7029,
  "mall": 7030,
  "outcome": 7031,
  "ware": 7032,
  "route": 7033,
  "architects": 7034,
  "lügen": 7035,
  "leuchten": 7036,
  "virginia": 7037,
  "title": 7038,
  "hiv-@@": 7039,
  "mathemati@@": 7040,
  "adi@@": 7041,
  "entfernung": 7042,
  "medizinischen": 7043,
  "lifestyle": 7044,
  "i-@@": 7045,
  "sle@@": 7046,
  "pool": 7047,
  "enorm": 7048,
  "worum": 7049,
  "volk": 7050,
  "factors": 7051,
  "dec@@": 7052,
  "gespräche": 7053,
  "ered": 7054,
  "33": 7055,
  "vorbei@@": 7056,
  "bir@@": 7057,
  "nes@@": 7058,
  "kun@@": 7059,
  "instruments": 7060,
  "etc.": 7061,
  "monkeys": 7062,
  "horrible": 7063,
  "funk@@": 7064,
  "seri@@": 7065,
  "epidemie": 7066,
  "starben": 7067,
  "chter": 7068,
  "kultur@@": 7069,
  "rela@@": 7070,
  "handle": 7071,
  "tiv@@": 7072,
  "geschäfte": 7073,
  "session": 7074,
  "rooms": 7075,
  "contra@@": 7076,
  "gross@@": 7077,
  "zusätzlich": 7078,
  "organe": 7079,
  "behaupten": 7080,
  "ertes": 7081,
  "thr@@": 7082,
  "benjamin": 7083,
  "musiker": 7084,
  "microbes": 7085,
  "expedition": 7086,
  "hm": 7087,
  "shares": 7088,
  "lebenden": 7089,
  "high@@": 7090,
  "mel": 7091,
  "f-@@": 7092,
  "stin": 7093,
  "spät": 7094,
  "length": 7095,
  "sus@@": 7096,
  "roads": 7097,
  "ko": 7098,
  "niedri@@": 7099,
  "feynman": 7100,
  "tale": 7101,
  "gemeinsamen": 7102,
  "presentation": 7103,
  "muskeln": 7104,
  "sac@@": 7105,
  "gui@@": 7106,
  "musical": 7107,
  "diger": 7108,
  "comfort": 7109,
  "suggests": 7110,
  "dauern": 7111,
  "operate": 7112,
  "collapse": 7113,
  "dä@@": 7114,
  "wahrnehmen": 7115,
  "funktionierte": 7116,
  "tü@@": 7117,
  "symmetry": 7118,
  "nde": 7119,
  "nor": 7120,
  "schu@@": 7121,
  "techni@@": 7122,
  "shame": 7123,
  "equation": 7124,
  "nachgedacht": 7125,
  "killer": 7126,
  "authority": 7127,
  "zy@@": 7128,
  "circumstances": 7129,
  "entrepreneurs": 7130,
  "trei@@": 7131,
  "by-@@": 7132,
  "staff": 7133,
  "expand": 7134,
  "unver@@": 7135,
  "tert": 7136,
  "böse": 7137,
  "explains": 7138,
  "ähnlichen": 7139,
  "vogel": 7140,
  "betreiben": 7141,
  "auseinander": 7142,
  "vierte": 7143,
  "hlte": 7144,
  "intuitive": 7145,
  "framework": 7146,
  "wie@@": 7147,
  "counter@@": 7148,
  "chancen": 7149,
  "finance": 7150,
  "gst": 7151,
  "darstellung": 7152,
  "farb@@": 7153,
  "pair": 7154,
  "options": 7155,
  "spor@@": 7156,
  "gottes": 7157,
  "das@@": 7158,
  "ik": 7159,
  "off@@": 7160,
  "nelson": 7161,
  "gewisser": 7162,
  "schäd@@": 7163,
  "phy@@": 7164,
  "auseinander@@": 7165,
  "gos": 7166,
  "bike": 7167,
  "afrikaner": 7168,
  "waffe": 7169,
  "verschmutzung": 7170,
  "younger": 7171,
  "kel": 7172,
  "graphic": 7173,
  "wartet": 7174,
  "0,@@": 7175,
  "genius": 7176,
  "feature": 7177,
  "component": 7178,
  "occur": 7179,
  "larry": 7180,
  "foie": 7181,
  "heit@@": 7182,
  "ped": 7183,
  "illness": 7184,
  "amy": 7185,
  "magie": 7186,
  "fokus": 7187,
  "macht@@": 7188,
  "boring": 7189,
  "zehn@@": 7190,
  "quarter": 7191,
  "hospitals": 7192,
  "hong": 7193,
  "addi@@": 7194,
  "buchstaben": 7195,
  "remind": 7196,
  "worlds": 7197,
  "surgeon": 7198,
  "poll@@": 7199,
  "mic": 7200,
  "amazon": 7201,
  "magnetic": 7202,
  "hinaus@@": 7203,
  "fir@@": 7204,
  "branche": 7205,
  "behavioral": 7206,
  "activities": 7207,
  "installation": 7208,
  "philosophy": 7209,
  "mystery": 7210,
  "zeigten": 7211,
  "gewählt": 7212,
  "55": 7213,
  "enthalten": 7214,
  "kilo@@": 7215,
  "detect": 7216,
  "küche": 7217,
  "flew": 7218,
  "japan@@": 7219,
  "gall@@": 7220,
  "musi@@": 7221,
  "ular": 7222,
  "krieges": 7223,
  "simplicity": 7224,
  "electro@@": 7225,
  "gedicht": 7226,
  "räumen": 7227,
  "span@@": 7228,
  "grain": 7229,
  "rapidly": 7230,
  "gesamt@@": 7231,
  "un-@@": 7232,
  "48": 7233,
  "wheel": 7234,
  "genetischen": 7235,
  "mid-@@": 7236,
  "tank": 7237,
  "ere@@": 7238,
  "änderung": 7239,
  "pizza": 7240,
  "ane": 7241,
  "einstellung": 7242,
  "dirty": 7243,
  "rie": 7244,
  "mikroben": 7245,
  "educational": 7246,
  "ands": 7247,
  "pferd": 7248,
  "doubt": 7249,
  "w-@@": 7250,
  "dancing": 7251,
  "tonight": 7252,
  "popul@@": 7253,
  "titan": 7254,
  "milch": 7255,
  "deaths": 7256,
  "büro@@": 7257,
  "bibel": 7258,
  "anschaut": 7259,
  "schlei@@": 7260,
  "features": 7261,
  "hmen": 7262,
  "verse": 7263,
  "gle@@": 7264,
  "fron@@": 7265,
  "signed": 7266,
  "weshalb": 7267,
  "well-being": 7268,
  "variation": 7269,
  "anten@@": 7270,
  "tes@@": 7271,
  "besorgt": 7272,
  "diff@@": 7273,
  "ate@@": 7274,
  "eingeladen": 7275,
  "ehe": 7276,
  "sozi@@": 7277,
  "vehicles": 7278,
  "ans@@": 7279,
  "clouds": 7280,
  "nachzu@@": 7281,
  "jun@@": 7282,
  "organism": 7283,
  "schie@@": 7284,
  "determine": 7285,
  "such@@": 7286,
  "emissionen": 7287,
  "angeht": 7288,
  "sculpture": 7289,
  "mischen": 7290,
  "höhere": 7291,
  "ansieht": 7292,
  "ration@@": 7293,
  "lokale": 7294,
  "capit@@": 7295,
  "selection": 7296,
  "40@@": 7297,
  "nahen": 7298,
  "tested": 7299,
  "vin": 7300,
  "sende": 7301,
  "dick": 7302,
  "dete@@": 7303,
  "ium": 7304,
  "träumen": 7305,
  "un": 7306,
  "internal": 7307,
  "programmieren": 7308,
  "stop@@": 7309,
  "keln": 7310,
  "wondered": 7311,
  "release": 7312,
  "mathematiker": 7313,
  "den-@@": 7314,
  "rö@@": 7315,
  "kostenlos": 7316,
  "kameras": 7317,
  "allo@@": 7318,
  "bekann@@": 7319,
  "walks": 7320,
  "swimming": 7321,
  "ain": 7322,
  "schwe@@": 7323,
  "climb": 7324,
  "laser": 7325,
  "wurzeln": 7326,
  "maßen": 7327,
  "ungspro@@": 7328,
  "rin@@": 7329,
  "sport@@": 7330,
  "feiern": 7331,
  "dou@@": 7332,
  "abel": 7333,
  "heroes": 7334,
  "gemälde": 7335,
  "ora": 7336,
  "treating": 7337,
  "schä@@": 7338,
  "campus": 7339,
  "wenigstens": 7340,
  "deck@@": 7341,
  "spei@@": 7342,
  "aufgeregt": 7343,
  "cm": 7344,
  "preise": 7345,
  "printing": 7346,
  "starken": 7347,
  "eig@@": 7348,
  "steine": 7349,
  "indischen": 7350,
  "ökosystem": 7351,
  "0er": 7352,
  "pocket": 7353,
  "zahl@@": 7354,
  "performing": 7355,
  "miert": 7356,
  "iron": 7357,
  "anische": 7358,
  "subjects": 7359,
  "formation": 7360,
  "chinesen": 7361,
  "vielmehr": 7362,
  "kümmert": 7363,
  "arab@@": 7364,
  "gent": 7365,
  "blau@@": 7366,
  "lebende": 7367,
  "stal@@": 7368,
  "aktion": 7369,
  "messages": 7370,
  "innovationen": 7371,
  "lock": 7372,
  "optimi@@": 7373,
  "agency": 7374,
  "nowhere": 7375,
  "respe@@": 7376,
  "fein@@": 7377,
  "dem@@": 7378,
  "vorbereitet": 7379,
  "daniel": 7380,
  "decline": 7381,
  "säu@@": 7382,
  "cook": 7383,
  "ereignisse": 7384,
  "erstaun@@": 7385,
  "anthropolo@@": 7386,
  "nten": 7387,
  "abstract": 7388,
  "seele": 7389,
  "particle": 7390,
  "comedy": 7391,
  "hut": 7392,
  "unexpected": 7393,
  "tom@@": 7394,
  "obsessed": 7395,
  "stronger": 7396,
  "paradigm": 7397,
  "explained": 7398,
  "zeich@@": 7399,
  "regions": 7400,
  "foot@@": 7401,
  "bart": 7402,
  "teren": 7403,
  "letzter": 7404,
  "muslim": 7405,
  "verhaltens@@": 7406,
  "verschwunden": 7407,
  "proto@@": 7408,
  "ologists": 7409,
  "katastrophe": 7410,
  "blumen": 7411,
  "mieren": 7412,
  "ägypten": 7413,
  "ischem": 7414,
  "reduziert": 7415,
  "inti@@": 7416,
  "stän@@": 7417,
  "parks": 7418,
  "vorteile": 7419,
  "nung": 7420,
  "verglichen": 7421,
  "beschrieben": 7422,
  "sonder@@": 7423,
  "weisheit": 7424,
  "heits@@": 7425,
  "mri": 7426,
  "occurred": 7427,
  "wechsel": 7428,
  "decken": 7429,
  "unclear": 7430,
  "feuer@@": 7431,
  "brau@@": 7432,
  "demonstration": 7433,
  "schwarz": 7434,
  "ini@@": 7435,
  "virtu@@": 7436,
  "fiction": 7437,
  "tisches": 7438,
  "computern": 7439,
  "technique": 7440,
  "bibliothek": 7441,
  "prices": 7442,
  "seln": 7443,
  "touched": 7444,
  "männchen": 7445,
  "fung": 7446,
  "afternoon": 7447,
  "arctic": 7448,
  "bemerkte": 7449,
  "globe": 7450,
  "distributed": 7451,
  "bet@@": 7452,
  "entdeckungen": 7453,
  "älteren": 7454,
  "compla@@": 7455,
  "ink": 7456,
  "victims": 7457,
  "potenzial": 7458,
  "aktivitäten": 7459,
  "passionate": 7460,
  "spuren": 7461,
  "ereignis": 7462,
  "defense": 7463,
  "mechanism": 7464,
  "legte": 7465,
  "develop@@": 7466,
  "zerstörung": 7467,
  "ander@@": 7468,
  "vessels": 7469,
  "mi": 7470,
  "arabischen": 7471,
  "chose": 7472,
  "teufel": 7473,
  "haie": 7474,
  "bedrohung": 7475,
  "transplan@@": 7476,
  "koran": 7477,
  "kung": 7478,
  "exact": 7479,
  "beachten": 7480,
  "könig": 7481,
  "geschlagen": 7482,
  "metern": 7483,
  "william": 7484,
  "cats": 7485,
  "schlug": 7486,
  "eindeutig": 7487,
  "celebrate": 7488,
  "eggs": 7489,
  "lebendig": 7490,
  "functional": 7491,
  "stephen": 7492,
  "gesammelt": 7493,
  "jones": 7494,
  "konta@@": 7495,
  "intense": 7496,
  "bible": 7497,
  "voneinander": 7498,
  "schlägt": 7499,
  "gewi@@": 7500,
  "actions": 7501,
  "womit": 7502,
  "patri@@": 7503,
  "jahrzehnt": 7504,
  "africans": 7505,
  "trage": 7506,
  "st.": 7507,
  "creature": 7508,
  "pel@@": 7509,
  "attra@@": 7510,
  "vermögen": 7511,
  "verliert": 7512,
  "greenhouse": 7513,
  "bias": 7514,
  "launch": 7515,
  "kingdom": 7516,
  "conclusion": 7517,
  "dauer": 7518,
  "hinterlassen": 7519,
  "trafen": 7520,
  "france": 7521,
  "lighting": 7522,
  "ank": 7523,
  "interviews": 7524,
  "hans": 7525,
  "reli@@": 7526,
  "neben@@": 7527,
  "langsamer": 7528,
  "kulturelle": 7529,
  "german": 7530,
  "author": 7531,
  "oten": 7532,
  "lee": 7533,
  "wherever": 7534,
  "linge": 7535,
  "raw": 7536,
  "score": 7537,
  "sustainability": 7538,
  "brust@@": 7539,
  "para@@": 7540,
  "required": 7541,
  "eten": 7542,
  "mechan@@": 7543,
  "ther": 7544,
  "divide": 7545,
  "combine": 7546,
  "dot": 7547,
  "hnt": 7548,
  "vation": 7549,
  "resultate": 7550,
  "2.@@": 7551,
  "mitnehmen": 7552,
  "meaningful": 7553,
  "congress": 7554,
  "wichtiges": 7555,
  "scheinbar": 7556,
  "niveau": 7557,
  "eye@@": 7558,
  "schwierige": 7559,
  "jeff": 7560,
  "genügend": 7561,
  "embrace": 7562,
  "pir@@": 7563,
  "hinzufügen": 7564,
  "3d-@@": 7565,
  "wise": 7566,
  "aw@@": 7567,
  "dargestellt": 7568,
  "mike": 7569,
  "mobil@@": 7570,
  "subje@@": 7571,
  "ologist": 7572,
  "stahl": 7573,
  "co2-@@": 7574,
  "schrieben": 7575,
  "erinnerung": 7576,
  "underwater": 7577,
  "phrase": 7578,
  "slums": 7579,
  "tas@@": 7580,
  "parti@@": 7581,
  "ün@@": 7582,
  "gif@@": 7583,
  "v-@@": 7584,
  "engaged": 7585,
  "asteroid": 7586,
  "processing": 7587,
  "informations@@": 7588,
  "ral": 7589,
  "kühl@@": 7590,
  "grundlegenden": 7591,
  "wärme": 7592,
  "august": 7593,
  "sequ@@": 7594,
  "egypt": 7595,
  "spiegel@@": 7596,
  "delhi": 7597,
  "clothes": 7598,
  "art.": 7599,
  "careful": 7600,
  "eingeführt": 7601,
  "verfolgt": 7602,
  "chips": 7603,
  "drives": 7604,
  "frankly": 7605,
  "mandela": 7606,
  "tsunami": 7607,
  "ships": 7608,
  "nebenbei": 7609,
  "wem": 7610,
  "potentially": 7611,
  "verursachen": 7612,
  "suchte": 7613,
  "aro@@": 7614,
  "attempt": 7615,
  "funktionen": 7616,
  "transformed": 7617,
  "collected": 7618,
  "schweden": 7619,
  "gat@@": 7620,
  "inv@@": 7621,
  "instrumente": 7622,
  "regul@@": 7623,
  "largely": 7624,
  "carolina": 7625,
  "finan@@": 7626,
  "21st": 7627,
  "mächtig": 7628,
  "schichten": 7629,
  "potenti@@": 7630,
  "unds": 7631,
  "radio@@": 7632,
  "matrix": 7633,
  "interessanter": 7634,
  "bom@@": 7635,
  "schießen": 7636,
  "vertrau@@": 7637,
  "hlen": 7638,
  "fur@@": 7639,
  "election": 7640,
  "bio-@@": 7641,
  "gerü@@": 7642,
  "poin@@": 7643,
  "gate": 7644,
  "süß@@": 7645,
  "evening": 7646,
  "bel": 7647,
  "darstellt": 7648,
  "ähnliches": 7649,
  "sechs@@": 7650,
  "welcome": 7651,
  "erhielt": 7652,
  "bundes@@": 7653,
  "journal": 7654,
  "nahme": 7655,
  "umfeld": 7656,
  "bein@@": 7657,
  "genom@@": 7658,
  "directions": 7659,
  "proof": 7660,
  "investitionen": 7661,
  "generated": 7662,
  "klu@@": 7663,
  "koordin@@": 7664,
  "nac@@": 7665,
  "gleichung": 7666,
  "aspekte": 7667,
  "pharma@@": 7668,
  "jahrzehnten": 7669,
  "heu@@": 7670,
  "surely": 7671,
  "basierend": 7672,
  "drogen": 7673,
  "mangel": 7674,
  "ination": 7675,
  "klo@@": 7676,
  "brenn@@": 7677,
  "197@@": 7678,
  "participate": 7679,
  "grows": 7680,
  "zufrieden": 7681,
  "i.@@": 7682,
  "50,000": 7683,
  "charlie": 7684,
  "laugh": 7685,
  "opti@@": 7686,
  "scared": 7687,
  "verdi@@": 7688,
  "anscheinend": 7689,
  "zten": 7690,
  "begrenzt": 7691,
  "economies": 7692,
  "sely": 7693,
  "gien": 7694,
  "anwendungen": 7695,
  "lovely": 7696,
  "portrait": 7697,
  "measured": 7698,
  "47": 7699,
  "wander@@": 7700,
  "anger": 7701,
  "released": 7702,
  "wolken": 7703,
  "intensi@@": 7704,
  "biologische": 7705,
  "ingen": 7706,
  "nets": 7707,
  "fliege": 7708,
  "bricht": 7709,
  "zufall": 7710,
  "oma": 7711,
  "beschreibt": 7712,
  "stabili@@": 7713,
  "actor": 7714,
  "revolution@@": 7715,
  "severe": 7716,
  "thri@@": 7717,
  "meme": 7718,
  "drittens": 7719,
  "cricket": 7720,
  "plate": 7721,
  "everest": 7722,
  "winzig": 7723,
  "execu@@": 7724,
  "10-@@": 7725,
  "admit": 7726,
  "stayed": 7727,
  "dynamik": 7728,
  "täuschung": 7729,
  "doppelt": 7730,
  "20,000": 7731,
  "cau@@": 7732,
  "fliegt": 7733,
  "ists": 7734,
  "hop@@": 7735,
  "skraft": 7736,
  "symboli@@": 7737,
  "respekt": 7738,
  "identical": 7739,
  "bergen": 7740,
  "idi@@": 7741,
  "gray": 7742,
  "liefert": 7743,
  "tower": 7744,
  "erforscht": 7745,
  "ktiv": 7746,
  "ältere": 7747,
  "kno@@": 7748,
  "stift": 7749,
  "abo@@": 7750,
  "planen": 7751,
  "kong": 7752,
  "dense": 7753,
  "welle": 7754,
  "bewohner": 7755,
  "hit@@": 7756,
  "te-@@": 7757,
  "gabe": 7758,
  "poem": 7759,
  "via": 7760,
  "clinic": 7761,
  "anstieg": 7762,
  "60s": 7763,
  "usual": 7764,
  "teilweise": 7765,
  "somewhat": 7766,
  "paintings": 7767,
  "komponenten": 7768,
  "cham@@": 7769,
  "flower": 7770,
  "flächen": 7771,
  "equally": 7772,
  "sons": 7773,
  "joshua": 7774,
  "klei@@": 7775,
  "ologe": 7776,
  "bert": 7777,
  "bee": 7778,
  "onal": 7779,
  "dien@@": 7780,
  "19th": 7781,
  "ausrüstung": 7782,
  "berechnen": 7783,
  "bles": 7784,
  "gesichts@@": 7785,
  "gewe@@": 7786,
  "seti": 7787,
  "ack@@": 7788,
  "techniken": 7789,
  "anzusehen": 7790,
  "ppt": 7791,
  "kins": 7792,
  "definiert": 7793,
  "schicksal": 7794,
  "derselben": 7795,
  "overall": 7796,
  "fehlen": 7797,
  "mie@@": 7798,
  "beln": 7799,
  "ron": 7800,
  "danken": 7801,
  "sweden": 7802,
  "moore": 7803,
  "physically": 7804,
  "cken@@": 7805,
  "deiner": 7806,
  "berühren": 7807,
  "plattform": 7808,
  "resistance": 7809,
  "militär": 7810,
  "ligen": 7811,
  "antwortete": 7812,
  "chocolate": 7813,
  "fit@@": 7814,
  "flügel": 7815,
  "verb@@": 7816,
  "dent": 7817,
  "gericht": 7818,
  "geteilt": 7819,
  "berge": 7820,
  "haup@@": 7821,
  "sele@@": 7822,
  "lot@@": 7823,
  "wände": 7824,
  "schrei@@": 7825,
  "machst": 7826,
  "busy": 7827,
  "tee": 7828,
  "fahrzeuge": 7829,
  "isieren": 7830,
  "erkrankungen": 7831,
  "apartment": 7832,
  "sitz@@": 7833,
  "evolution@@": 7834,
  "neuigkeiten": 7835,
  "schle@@": 7836,
  "urban@@": 7837,
  "röntgen@@": 7838,
  "split": 7839,
  "kas@@": 7840,
  "batterie": 7841,
  "vorgang": 7842,
  "operationen": 7843,
  "mm": 7844,
  "cool@@": 7845,
  "terror": 7846,
  "four-@@": 7847,
  "christmas": 7848,
  "volume": 7849,
  "gesundheit@@": 7850,
  "eigenschaft": 7851,
  "million@@": 7852,
  "echtzeit": 7853,
  "weak": 7854,
  "univers@@": 7855,
  "fuels": 7856,
  "hello": 7857,
  "geburtstag": 7858,
  "neutr@@": 7859,
  "edu@@": 7860,
  "bü@@": 7861,
  "speziell": 7862,
  "bak@@": 7863,
  "ue": 7864,
  "pile": 7865,
  "überraschung": 7866,
  "stadt@@": 7867,
  "housing": 7868,
  "loses": 7869,
  "dinger": 7870,
  "+": 7871,
  "tiefer": 7872,
  "visuelle": 7873,
  "chapter": 7874,
  "einfachheit": 7875,
  "kohle": 7876,
  "unknown": 7877,
  "erhöht": 7878,
  "benden": 7879,
  "auswahl": 7880,
  "root": 7881,
  "bedeutete": 7882,
  "betroffen": 7883,
  "sonnenlicht": 7884,
  "umständen": 7885,
  "ziel@@": 7886,
  "geleitet": 7887,
  "zusammenarbeiten": 7888,
  "divided": 7889,
  "chemi@@": 7890,
  "sion@@": 7891,
  "inch": 7892,
  "abed": 7893,
  "astro@@": 7894,
  "ented": 7895,
  "false": 7896,
  "kapit@@": 7897,
  "ktes": 7898,
  "bahn@@": 7899,
  "cour@@": 7900,
  "palm": 7901,
  "anlagen": 7902,
  "cies": 7903,
  "oc@@": 7904,
  "eier": 7905,
  "trieb": 7906,
  "lenken": 7907,
  "infinite": 7908,
  "atlantic": 7909,
  "energi@@": 7910,
  "artigen": 7911,
  "spider": 7912,
  "ernähren": 7913,
  "umgeben": 7914,
  "streiten": 7915,
  "pläne": 7916,
  "zentrale": 7917,
  "resi@@": 7918,
  "fordert": 7919,
  "latin": 7920,
  "jazz": 7921,
  "obesity": 7922,
  "vorstellungskraft": 7923,
  "passing": 7924,
  "atem@@": 7925,
  "ktivität": 7926,
  "soul": 7927,
  "cell@@": 7928,
  "ursache": 7929,
  "incentives": 7930,
  "1000": 7931,
  "courage": 7932,
  "higgs": 7933,
  "zoom": 7934,
  "besie@@": 7935,
  "faced": 7936,
  "scanner": 7937,
  "36": 7938,
  "niemanden": 7939,
  "plastik@@": 7940,
  "billionen": 7941,
  "chron@@": 7942,
  "weltraum": 7943,
  "immune": 7944,
  "dness": 7945,
  "nationale": 7946,
  "stiftung": 7947,
  "measuring": 7948,
  "kation": 7949,
  "ära": 7950,
  "shock": 7951,
  "nachbarschaft": 7952,
  "krab@@": 7953,
  "moralischen": 7954,
  "circa": 7955,
  "ear": 7956,
  "burg": 7957,
  "grass": 7958,
  "fordern": 7959,
  "persi@@": 7960,
  "phil@@": 7961,
  "syn@@": 7962,
  "alpha": 7963,
  "mon": 7964,
  "classic": 7965,
  "hieß": 7966,
  "aku@@": 7967,
  "prototype": 7968,
  "hre": 7969,
  "ace": 7970,
  "komplexen": 7971,
  "archi@@": 7972,
  "whales": 7973,
  "offenen": 7974,
  "perform": 7975,
  "joined": 7976,
  "lige": 7977,
  "posing": 7978,
  "grab@@": 7979,
  "lungen": 7980,
  "hall@@": 7981,
  "weite": 7982,
  "erwä@@": 7983,
  "zusammenzu@@": 7984,
  "begegnen": 7985,
  "decke": 7986,
  "dringen": 7987,
  "negoti@@": 7988,
  "epidemi@@": 7989,
  "besonderen": 7990,
  "savings": 7991,
  "ergeben": 7992,
  "rose": 7993,
  "ome": 7994,
  "l.a.": 7995,
  "trug": 7996,
  "meister@@": 7997,
  "tie": 7998,
  "investig@@": 7999,
  "besucht": 8000,
  "forming": 8001,
  "schil@@": 8002,
  "conf@@": 8003,
  "comm@@": 8004,
  "klinik": 8005,
  "andrew": 8006,
  "dn@@": 8007,
  "schwere": 8008,
  "consumers": 8009,
  "flexi@@": 8010,
  "struck": 8011,
  "narrative": 8012,
  "furniture": 8013,
  "kreativen": 8014,
  "gleichgewicht": 8015,
  "sheep": 8016,
  "arity": 8017,
  "wider": 8018,
  "feu@@": 8019,
  "empfin@@": 8020,
  "pregnant": 8021,
  "ffe": 8022,
  "synthetic": 8023,
  "shut": 8024,
  "bezeichnen": 8025,
  "depend": 8026,
  "mani@@": 8027,
  "moral@@": 8028,
  "ssi@@": 8029,
  "copyright": 8030,
  "nick": 8031,
  "mobili@@": 8032,
  "zufriedenheit": 8033,
  "instru@@": 8034,
  "silence": 8035,
  "boom": 8036,
  "interactive": 8037,
  "automatically": 8038,
  "schein": 8039,
  "probability": 8040,
  "tured": 8041,
  "records": 8042,
  "alization": 8043,
  "agreed": 8044,
  "pig": 8045,
  "spreading": 8046,
  "treibt": 8047,
  "ture": 8048,
  "golf@@": 8049,
  "existed": 8050,
  "abgesehen": 8051,
  "offered": 8052,
  "mehreren": 8053,
  "traurig": 8054,
  "economist": 8055,
  "carried": 8056,
  "drehte": 8057,
  "highway": 8058,
  "reform": 8059,
  "klassenzimmer": 8060,
  "tall": 8061,
  "connecting": 8062,
  "kurz@@": 8063,
  "dunkelheit": 8064,
  "fressen": 8065,
  "blick@@": 8066,
  "dunkel": 8067,
  "maß": 8068,
  "commitment": 8069,
  "lebenserwartung": 8070,
  "py@@": 8071,
  "powered": 8072,
  "reaching": 8073,
  "invent": 8074,
  "boards": 8075,
  "bemerkenswert": 8076,
  "git@@": 8077,
  "30-@@": 8078,
  "script": 8079,
  "tate": 8080,
  "leichter": 8081,
  "riesen@@": 8082,
  "iges": 8083,
  "permanent": 8084,
  "secondly": 8085,
  "ney": 8086,
  "snow": 8087,
  "disappeared": 8088,
  "vie@@": 8089,
  "wur@@": 8090,
  "inspirieren": 8091,
  "neh@@": 8092,
  "stoppen": 8093,
  "happier": 8094,
  "wunderbaren": 8095,
  "infiziert": 8096,
  "philosophie": 8097,
  "einst": 8098,
  "density": 8099,
  "dens": 8100,
  "memor@@": 8101,
  "köpfe": 8102,
  "web@@": 8103,
  "broad@@": 8104,
  "mark@@": 8105,
  "anwen@@": 8106,
  "flüssi@@": 8107,
  "it-@@": 8108,
  "übersetzen": 8109,
  "vorge@@": 8110,
  "joseph": 8111,
  "conservation": 8112,
  "chart": 8113,
  "long-@@": 8114,
  "ktiven": 8115,
  "parking": 8116,
  "ama": 8117,
  "irgendwelche": 8118,
  "dolphins": 8119,
  "sexy": 8120,
  "dean": 8121,
  "fasst": 8122,
  "wirtschaft@@": 8123,
  "bezeichnet": 8124,
  "elektrischen": 8125,
  "hai@@": 8126,
  "30@@": 8127,
  "diver@@": 8128,
  "alisierung": 8129,
  "play@@": 8130,
  "chil@@": 8131,
  "theore@@": 8132,
  "späten": 8133,
  "powers": 8134,
  "awesome": 8135,
  "b-@@": 8136,
  "romantic": 8137,
  "tür@@": 8138,
  "bären": 8139,
  "circuit": 8140,
  "skali@@": 8141,
  "esses": 8142,
  "lewis": 8143,
  "onic": 8144,
  "ursprung": 8145,
  "ländlichen": 8146,
  "border": 8147,
  "mentation": 8148,
  "raub@@": 8149,
  "schlussendlich": 8150,
  "anpassen": 8151,
  "exploring": 8152,
  "teu@@": 8153,
  "trock@@": 8154,
  "aries": 8155,
  "expor@@": 8156,
  "berühm@@": 8157,
  "ski": 8158,
  "drauf": 8159,
  "mier@@": 8160,
  "half-@@": 8161,
  "scheitern": 8162,
  "ony": 8163,
  "frie@@": 8164,
  "hm@@": 8165,
  "tiker": 8166,
  "mitzu@@": 8167,
  "yorker": 8168,
  "shell": 8169,
  "veröffentlichen": 8170,
  "ately": 8171,
  "ruhe": 8172,
  "1950": 8173,
  "monitor": 8174,
  "dür@@": 8175,
  "cer": 8176,
  "helium": 8177,
  "pflanze": 8178,
  "ased": 8179,
  "suffer": 8180,
  "desk": 8181,
  "vorhin": 8182,
  "geruch": 8183,
  "beteiligt": 8184,
  "nannten": 8185,
  "erneut": 8186,
  "ökonomen": 8187,
  "präsidenten": 8188,
  "stations": 8189,
  "stab@@": 8190,
  "studium": 8191,
  "implications": 8192,
  "cartoon": 8193,
  "connectome": 8194,
  "elephant": 8195,
  "lehnen": 8196,
  "march": 8197,
  "functions": 8198,
  "kei@@": 8199,
  "danger": 8200,
  "our@@": 8201,
  "villages": 8202,
  "knapp": 8203,
  "altern": 8204,
  "dahinter": 8205,
  "meer@@": 8206,
  "teilnehmer": 8207,
  "granted": 8208,
  "sech@@": 8209,
  "vergangenen": 8210,
  "1998": 8211,
  "geistes@@": 8212,
  "riesiges": 8213,
  "paradox": 8214,
  "wünsche": 8215,
  "arguments": 8216,
  "steuer@@": 8217,
  "slides": 8218,
  "binden": 8219,
  "dliche": 8220,
  "tures": 8221,
  "application": 8222,
  "bene": 8223,
  "störungen": 8224,
  "ör@@": 8225,
  "causing": 8226,
  "translate": 8227,
  "sprech@@": 8228,
  "griff": 8229,
  "flüssigkeit": 8230,
  "dienst@@": 8231,
  "bizarre": 8232,
  "interpre@@": 8233,
  "spezielle": 8234,
  "int": 8235,
  "verwand@@": 8236,
  "1999": 8237,
  "experiment@@": 8238,
  "best@@": 8239,
  "shar@@": 8240,
  "sandwich": 8241,
  "anlage": 8242,
  "organismus": 8243,
  "enable": 8244,
  "sahara": 8245,
  "ai@@": 8246,
  "frucht@@": 8247,
  "symptoms": 8248,
  "öffnet": 8249,
  "wolke": 8250,
  "flugzeuge": 8251,
  "prophe@@": 8252,
  "tumors": 8253,
  "eres": 8254,
  "marks": 8255,
  "aktu@@": 8256,
  "verdient": 8257,
  "gigan@@": 8258,
  "x-ray": 8259,
  "fün@@": 8260,
  "vas@@": 8261,
  "till": 8262,
  "depending": 8263,
  "technischen": 8264,
  "biologen": 8265,
  "hus@@": 8266,
  "extinct": 8267,
  "weltkrieg": 8268,
  "katze": 8269,
  "isierung": 8270,
  "bie": 8271,
  "organisiert": 8272,
  "wahlen": 8273,
  "estimate": 8274,
  "whale": 8275,
  "handys": 8276,
  "sprin@@": 8277,
  "bend": 8278,
  "rice": 8279,
  "clock": 8280,
  "zuschauer": 8281,
  "wähl@@": 8282,
  "gebrauch": 8283,
  "akt": 8284,
  "fau@@": 8285,
  "wet@@": 8286,
  "zig": 8287,
  "interestingly": 8288,
  "rush": 8289,
  "year-olds": 8290,
  "appreciate": 8291,
  "fließen": 8292,
  "ids": 8293,
  "unterwegs": 8294,
  "sym@@": 8295,
  "hea@@": 8296,
  "hir@@": 8297,
  "dienen": 8298,
  "furcht@@": 8299,
  "ooh": 8300,
  "stamm": 8301,
  "falschen": 8302,
  "apparently": 8303,
  "gesetz@@": 8304,
  "inspiring": 8305,
  "cations": 8306,
  "alle@@": 8307,
  "biologischen": 8308,
  "sig@@": 8309,
  "painful": 8310,
  "height": 8311,
  "zentr@@": 8312,
  "tedtalks": 8313,
  "pet": 8314,
  "breathe": 8315,
  "besuchte": 8316,
  "erinnerungen": 8317,
  "schwi@@": 8318,
  "genießen": 8319,
  "minus": 8320,
  "microscope": 8321,
  "trä@@": 8322,
  "prot@@": 8323,
  "bet": 8324,
  "attacks": 8325,
  "z.": 8326,
  "greif@@": 8327,
  "werbe@@": 8328,
  "umzugehen": 8329,
  "neulich": 8330,
  "habitat": 8331,
  "gy@@": 8332,
  "milo": 8333,
  "bombe": 8334,
  "selbe": 8335,
  "wozu": 8336,
  "heran": 8337,
  "teilte": 8338,
  "cont@@": 8339,
  "bewahren": 8340,
  "mutation": 8341,
  "fabri@@": 8342,
  "bewe@@": 8343,
  "zunehmend": 8344,
  "latest": 8345,
  "trennen": 8346,
  "konfrontiert": 8347,
  "jahrzehnte": 8348,
  "pfei@@": 8349,
  "constant": 8350,
  "run@@": 8351,
  "ham": 8352,
  "dunklen": 8353,
  "rising": 8354,
  "concrete": 8355,
  "properly": 8356,
  "elling": 8357,
  "geworfen": 8358,
  "tied": 8359,
  "weiß@@": 8360,
  "sab@@": 8361,
  "charity": 8362,
  "beruf": 8363,
  "secure": 8364,
  "jur@@": 8365,
  "sensi@@": 8366,
  "reference": 8367,
  "islamic": 8368,
  "views": 8369,
  "sender": 8370,
  "disorder": 8371,
  "kationen": 8372,
  "konsu@@": 8373,
  "verwendung": 8374,
  "elektr@@": 8375,
  "chinesischen": 8376,
  "thro@@": 8377,
  "ktive": 8378,
  "uren": 8379,
  "computer-@@": 8380,
  "weiten": 8381,
  "fließt": 8382,
  "tte": 8383,
  "nütz@@": 8384,
  "samples": 8385,
  "toxic": 8386,
  "stum@@": 8387,
  "zustellen": 8388,
  "schwan@@": 8389,
  ",000": 8390,
  "gewöhnt": 8391,
  "recovery": 8392,
  "beigebracht": 8393,
  "samkeit": 8394,
  "betr@@": 8395,
  "herunter": 8396,
  "bekämpfen": 8397,
  "interessanten": 8398,
  "tenden": 8399,
  "fortunately": 8400,
  "ehre": 8401,
  "obser@@": 8402,
  "gross": 8403,
  "cement": 8404,
  "aufbau": 8405,
  "wanting": 8406,
  "scho@@": 8407,
  "dient": 8408,
  "nisse": 8409,
  "oberen": 8410,
  "tasks": 8411,
  "legacy": 8412,
  "trucks": 8413,
  "spoken": 8414,
  "verkehrs@@": 8415,
  "kosten@@": 8416,
  "boo@@": 8417,
  "calculate": 8418,
  "mess": 8419,
  "entered": 8420,
  "heiß": 8421,
  "friendly": 8422,
  "bers": 8423,
  "teilung": 8424,
  "balloon": 8425,
  "belohnung": 8426,
  "judge": 8427,
  "assume": 8428,
  "wright": 8429,
  "fei@@": 8430,
  "wards": 8431,
  "skep@@": 8432,
  "vorschlag": 8433,
  "anführer": 8434,
  "fuhren": 8435,
  "voran@@": 8436,
  "scott": 8437,
  "schiff@@": 8438,
  "curiosity": 8439,
  "empfinden": 8440,
  "mumbai": 8441,
  "determined": 8442,
  "vel@@": 8443,
  "frankreich": 8444,
  "ong": 8445,
  "ep": 8446,
  "versorgen": 8447,
  "altes": 8448,
  "ind": 8449,
  "pink": 8450,
  "gegenden": 8451,
  "bars": 8452,
  "diges": 8453,
  "haf@@": 8454,
  "ausgesetzt": 8455,
  "ger-@@": 8456,
  "bern": 8457,
  "shoulder": 8458,
  "breathing": 8459,
  "ferti@@": 8460,
  "dependent": 8461,
  "teilten": 8462,
  "geschlossen": 8463,
  "bewirken": 8464,
  "meister": 8465,
  "dig@@": 8466,
  "restri@@": 8467,
  "epi@@": 8468,
  "schlechtes": 8469,
  "stür@@": 8470,
  "reflect": 8471,
  "wissenschaftlern": 8472,
  "jay": 8473,
  "congo": 8474,
  "c-@@": 8475,
  "remove": 8476,
  "diagnose": 8477,
  "tiles": 8478,
  "kette": 8479,
  "foods": 8480,
  "letztlich": 8481,
  "angriff": 8482,
  "prefer": 8483,
  "codes": 8484,
  "output": 8485,
  "thir@@": 8486,
  "wunderschöne": 8487,
  "centuries": 8488,
  "gged": 8489,
  "arian": 8490,
  "animation": 8491,
  "cker@@": 8492,
  "net@@": 8493,
  "scra@@": 8494,
  "dozen": 8495,
  "chest": 8496,
  "ax@@": 8497,
  "behave": 8498,
  "verein@@": 8499,
  "hide": 8500,
  "volles": 8501,
  "kontroll@@": 8502,
  "aside": 8503,
  "arthur": 8504,
  "dynamics": 8505,
  "taucht": 8506,
  "inspire": 8507,
  "optimistic": 8508,
  "lou@@": 8509,
  "fluid": 8510,
  "capitalism": 8511,
  "cup": 8512,
  "gemüse": 8513,
  "kolle@@": 8514,
  "blätter": 8515,
  "70s": 8516,
  "wale": 8517,
  "chtes": 8518,
  "stärken": 8519,
  "leonardo": 8520,
  "wol@@": 8521,
  "motors": 8522,
  "gefüllt": 8523,
  "symmetrie": 8524,
  "beides": 8525,
  "sm": 8526,
  "liver": 8527,
  "stille": 8528,
  "artige": 8529,
  "magazin": 8530,
  "ener": 8531,
  "irgendeinem": 8532,
  "physische": 8533,
  "maxi@@": 8534,
  "gesucht": 8535,
  "cious": 8536,
  "strafe": 8537,
  "whit@@": 8538,
  "dramatically": 8539,
  "kindes": 8540,
  "hs": 8541,
  "stige": 8542,
  "gerufen": 8543,
  "mail": 8544,
  "logo": 8545,
  "chemische": 8546,
  "ck-@@": 8547,
  "spiritu@@": 8548,
  "robust": 8549,
  "tum": 8550,
  "elimin@@": 8551,
  "m.": 8552,
  "ter-@@": 8553,
  "stru@@": 8554,
  "insgesamt": 8555,
  "begreifen": 8556,
  "bow": 8557,
  "oli@@": 8558,
  "cially": 8559,
  "six-@@": 8560,
  "sionen": 8561,
  "zugeben": 8562,
  "insulin": 8563,
  "maße": 8564,
  "reaktionen": 8565,
  "üben": 8566,
  "defen@@": 8567,
  "fähi@@": 8568,
  "stly": 8569,
  "zentral@@": 8570,
  "gandhi": 8571,
  "afrikanische": 8572,
  "könne": 8573,
  "abhängigkeit": 8574,
  "ston": 8575,
  "vielfäl@@": 8576,
  "lebensmittel@@": 8577,
  "facial": 8578,
  "productivity": 8579,
  "ten-@@": 8580,
  "resolution": 8581,
  "argu@@": 8582,
  "tigung": 8583,
  "plätze": 8584,
  "russia": 8585,
  "side@@": 8586,
  "beg@@": 8587,
  "diplo@@": 8588,
  "zent@@": 8589,
  "classes": 8590,
  "tunnel": 8591,
  "imagin@@": 8592,
  "klima": 8593,
  "rab@@": 8594,
  "floating": 8595,
  "cir@@": 8596,
  "mono@@": 8597,
  "katastrophen": 8598,
  "wild@@": 8599,
  "ignore": 8600,
  "relation": 8601,
  "offene": 8602,
  "faszinier@@": 8603,
  "ala": 8604,
  "allgemein@@": 8605,
  "scary": 8606,
  "mainly": 8607,
  "packt": 8608,
  "alex": 8609,
  "gation": 8610,
  "distant": 8611,
  "iron@@": 8612,
  "blasen": 8613,
  "spur": 8614,
  "concepts": 8615,
  "freu@@": 8616,
  "crea@@": 8617,
  "ath@@": 8618,
  "neigen": 8619,
  "ambi@@": 8620,
  "kasten": 8621,
  "deln": 8622,
  "cute": 8623,
  "exhibition": 8624,
  "identifizieren": 8625,
  "stan": 8626,
  "november": 8627,
  "heaven": 8628,
  "roman": 8629,
  "dish": 8630,
  "massi@@": 8631,
  "aling": 8632,
  "ont@@": 8633,
  "truck": 8634,
  "inst@@": 8635,
  "lens": 8636,
  "advertising": 8637,
  "transparency": 8638,
  "kohlenstoff@@": 8639,
  "drinking": 8640,
  "breaks": 8641,
  "außergewöhnlich": 8642,
  "e-mail": 8643,
  "gerung": 8644,
  "tent@@": 8645,
  "fahrzeug": 8646,
  "sop@@": 8647,
  "artig": 8648,
  "winkel": 8649,
  "ef@@": 8650,
  "neur@@": 8651,
  "langweilig": 8652,
  "units": 8653,
  "ausmachen": 8654,
  "packen": 8655,
  "experim@@": 8656,
  "versteckt": 8657,
  "studiert": 8658,
  "disorders": 8659,
  "bevölkerungs@@": 8660,
  "zeitraum": 8661,
  "disappear": 8662,
  "brü@@": 8663,
  "käfer": 8664,
  "transi@@": 8665,
  "kalt": 8666,
  "diagno@@": 8667,
  "stewart": 8668,
  "populations": 8669,
  "pc": 8670,
  "sheet": 8671,
  "organize": 8672,
  "füße": 8673,
  "memories": 8674,
  "lift": 8675,
  "auftrag": 8676,
  "mot@@": 8677,
  "positiven": 8678,
  "aktuelle": 8679,
  "lic": 8680,
  "ric": 8681,
  "sichtweise": 8682,
  "tour@@": 8683,
  "ao": 8684,
  "visuellen": 8685,
  "berechnungen": 8686,
  "reef": 8687,
  "virtually": 8688,
  "kan": 8689,
  "interak@@": 8690,
  "sing@@": 8691,
  "getrennt": 8692,
  "entgegen@@": 8693,
  "00@@": 8694,
  "tain": 8695,
  "sty@@": 8696,
  "tting": 8697,
  "shed": 8698,
  "tragedy": 8699,
  "knee": 8700,
  "spenden": 8701,
  "educated": 8702,
  "bi": 8703,
  "extent": 8704,
  "rt": 8705,
  "reich@@": 8706,
  "lac@@": 8707,
  "stimmung": 8708,
  "gelt": 8709,
  "kreative": 8710,
  "kreu@@": 8711,
  "appears": 8712,
  "attached": 8713,
  "wr@@": 8714,
  "enemy": 8715,
  "stadium": 8716,
  "proble@@": 8717,
  "divi@@": 8718,
  "thrown": 8719,
  "erwärmung": 8720,
  "liest": 8721,
  "communications": 8722,
  "stry": 8723,
  "verschieden": 8724,
  "tech@@": 8725,
  "erwähnen": 8726,
  "spra@@": 8727,
  "um-@@": 8728,
  "fett": 8729,
  "parent": 8730,
  "afterwards": 8731,
  "seed": 8732,
  "tren@@": 8733,
  "fixed": 8734,
  "zeu@@": 8735,
  "physischen": 8736,
  "hawaii": 8737,
  "worker": 8738,
  "vorträge": 8739,
  "telephone": 8740,
  "yu@@": 8741,
  "rech@@": 8742,
  "deu@@": 8743,
  "bedro@@": 8744,
  "beglei@@": 8745,
  "stig": 8746,
  "erei": 8747,
  "blow": 8748,
  "index": 8749,
  "od@@": 8750,
  "kol@@": 8751,
  "destroyed": 8752,
  "terin": 8753,
  "adapt": 8754,
  "vorsichtig": 8755,
  "darkness": 8756,
  "yle": 8757,
  "zeug@@": 8758,
  "esen": 8759,
  "knopf": 8760,
  "mar": 8761,
  "destroy": 8762,
  "physicist": 8763,
  "zweifel": 8764,
  "reduction": 8765,
  "cus": 8766,
  "hte": 8767,
  "jet@@": 8768,
  "gically": 8769,
  "sports": 8770,
  "outcomes": 8771,
  "dioxide": 8772,
  "papier@@": 8773,
  "information@@": 8774,
  "é": 8775,
  "72": 8776,
  "fifth": 8777,
  "rep@@": 8778,
  "mysteri@@": 8779,
  "tal": 8780,
  "gewann": 8781,
  "bösen": 8782,
  "autism": 8783,
  "lion": 8784,
  "locked": 8785,
  "handlung": 8786,
  "interessen": 8787,
  "season": 8788,
  "ktionen": 8789,
  "positions": 8790,
  "37": 8791,
  "höhepunkt": 8792,
  "institut": 8793,
  "chimpanzees": 8794,
  "naked": 8795,
  "projekten": 8796,
  "herself": 8797,
  "holi@@": 8798,
  "ema@@": 8799,
  "conversations": 8800,
  "maker": 8801,
  "ential": 8802,
  "videospiele": 8803,
  "thin@@": 8804,
  "cycles": 8805,
  "orchestra": 8806,
  "hinblick": 8807,
  "historical": 8808,
  "silent": 8809,
  "193@@": 8810,
  "ffer": 8811,
  "zentren": 8812,
  "headed": 8813,
  "punkten": 8814,
  "vieren": 8815,
  "ust": 8816,
  "iling": 8817,
  "ghts": 8818,
  "appeared": 8819,
  "erklärte": 8820,
  "january": 8821,
  "dere": 8822,
  "höchsten": 8823,
  "produces": 8824,
  "hardly": 8825,
  "review": 8826,
  "din": 8827,
  "98": 8828,
  "wälder": 8829,
  "wirklichen": 8830,
  "embedded": 8831,
  "gerä@@": 8832,
  "traveled": 8833,
  "sions@@": 8834,
  "prozesse": 8835,
  "veness": 8836,
  "seide": 8837,
  "2011": 8838,
  "open-@@": 8839,
  "pp": 8840,
  "seats": 8841,
  "traditionelle": 8842,
  "maßnahmen": 8843,
  "papers": 8844,
  "bly": 8845,
  "ners": 8846,
  "verschwindet": 8847,
  "verk@@": 8848,
  "spots": 8849,
  "l-@@": 8850,
  "migr@@": 8851,
  "irgendwas": 8852,
  "aero@@": 8853,
  "währ@@": 8854,
  "erfol@@": 8855,
  "gebunden": 8856,
  "mechanismus": 8857,
  "fotografiert": 8858,
  "sprung": 8859,
  "verschiedener": 8860,
  "port@@": 8861,
  "mmer": 8862,
  "challenging": 8863,
  "tags@@": 8864,
  "rich@@": 8865,
  "monkey": 8866,
  "doors": 8867,
  "dialog": 8868,
  "verrückte": 8869,
  "bb@@": 8870,
  "ual": 8871,
  "ruft": 8872,
  "dele@@": 8873,
  "vulnerability": 8874,
  "june": 8875,
  "figur": 8876,
  "bens": 8877,
  "nurses": 8878,
  "gestartet": 8879,
  "red@@": 8880,
  "jenseits": 8881,
  "stirbt": 8882,
  "grippe": 8883,
  "entstehung": 8884,
  "winzigen": 8885,
  "pot": 8886,
  "vietnam": 8887,
  "nam@@": 8888,
  "ugly": 8889,
  "resul@@": 8890,
  "sogenannte": 8891,
  "ridiculous": 8892,
  "194@@": 8893,
  "saßen": 8894,
  "flog": 8895,
  "tax": 8896,
  "dichter": 8897,
  "scratch": 8898,
  "geschmack": 8899,
  "ow@@": 8900,
  "backwards": 8901,
  "colony": 8902,
  "gging": 8903,
  "frequenz": 8904,
  "contrast": 8905,
  "surrounded": 8906,
  "poet": 8907,
  "ngos": 8908,
  "anfän@@": 8909,
  "uni": 8910,
  "stamm@@": 8911,
  "wein": 8912,
  "airport": 8913,
  "hassen": 8914,
  "kuchen": 8915,
  "zurückgehen": 8916,
  "excuse": 8917,
  "kir@@": 8918,
  "band@@": 8919,
  "greift": 8920,
  "umzu@@": 8921,
  "jh": 8922,
  "andererseits": 8923,
  "teleskop": 8924,
  "tierten": 8925,
  "limits": 8926,
  "kanal": 8927,
  "wetter": 8928,
  "monster": 8929,
  "accessible": 8930,
  "erhe@@": 8931,
  "viol@@": 8932,
  "gedächtnis": 8933,
  "presented": 8934,
  "eti@@": 8935,
  "näch@@": 8936,
  "heilen": 8937,
  "intensive": 8938,
  "spiritual": 8939,
  "imp@@": 8940,
  "parall@@": 8941,
  "willkommen": 8942,
  "cap": 8943,
  "pers": 8944,
  "kongo": 8945,
  "einheiten": 8946,
  "stufen": 8947,
  "morality": 8948,
  "gentleman": 8949,
  "dynam@@": 8950,
  "commun@@": 8951,
  "so-called": 8952,
  "empire": 8953,
  "fiber": 8954,
  "spannung": 8955,
  "bekannte": 8956,
  "reiche": 8957,
  "eit": 8958,
  "blü@@": 8959,
  "tags": 8960,
  "emergency": 8961,
  "diverse": 8962,
  "ine@@": 8963,
  "inging": 8964,
  "investiert": 8965,
  "mäch@@": 8966,
  "academic": 8967,
  "beitrag": 8968,
  "cent@@": 8969,
  "controlling": 8970,
  "städ@@": 8971,
  "host": 8972,
  "ausgegeben": 8973,
  "frequency": 8974,
  "muscles": 8975,
  "rä@@": 8976,
  "sub-@@": 8977,
  "min": 8978,
  "photography": 8979,
  "cheaper": 8980,
  "übung": 8981,
  "top-@@": 8982,
  "kohlenstoff": 8983,
  "still@@": 8984,
  "seattle": 8985,
  "landed": 8986,
  "umso": 8987,
  "increases": 8988,
  "stad@@": 8989,
  "mein@@": 8990,
  "tende": 8991,
  "isch@@": 8992,
  "weltbevölkerung": 8993,
  "jeweils": 8994,
  "britischen": 8995,
  "echtes": 8996,
  "opens": 8997,
  "hoher": 8998,
  "stable": 8999,
  "weibliche": 9000,
  "harm": 9001,
  "zwischen@@": 9002,
  "denselben": 9003,
  "benutze": 9004,
  "symptome": 9005,
  "smoke": 9006,
  "ending": 9007,
  "zukünftigen": 9008,
  "schickte": 9009,
  "emotionale": 9010,
  "streit@@": 9011,
  "80s": 9012,
  "matische": 9013,
  "zukommen": 9014,
  "tik": 9015,
  "inklusive": 9016,
  "polar": 9017,
  "rob": 9018,
  "design@@": 9019,
  "oldest": 9020,
  "utili@@": 9021,
  "navi@@": 9022,
  "keyboard": 9023,
  "soviet": 9024,
  "involves": 9025,
  "rwanda": 9026,
  "denkweise": 9027,
  "erfüllen": 9028,
  "currency": 9029,
  "cash": 9030,
  "overcome": 9031,
  "que@@": 9032,
  "lim@@": 9033,
  "aber@@": 9034,
  "exakt": 9035,
  "haare": 9036,
  "jerusalem": 9037,
  "logical": 9038,
  "stämme": 9039,
  "erenden": 9040,
  "impf@@": 9041,
  "gebildet": 9042,
  "boom@@": 9043,
  "tired": 9044,
  "macher": 9045,
  "eigentliche": 9046,
  "ausdrücken": 9047,
  "photographed": 9048,
  "lecture": 9049,
  "zeichnete": 9050,
  "craig": 9051,
  "expert": 9052,
  "ticket": 9053,
  "ktoren": 9054,
  "pflege": 9055,
  "psychological": 9056,
  "rats": 9057,
  "ignorieren": 9058,
  "schwerer": 9059,
  "higgs-@@": 9060,
  "nervös": 9061,
  "feind": 9062,
  "logik": 9063,
  "clinton": 9064,
  "nobel": 9065,
  "ations@@": 9066,
  "50.000": 9067,
  "25@@": 9068,
  "zeitungen": 9069,
  "brain@@": 9070,
  "globalisierung": 9071,
  "sylvia": 9072,
  "repräsentiert": 9073,
  "plenty": 9074,
  "prü@@": 9075,
  "schwar@@": 9076,
  "verbrauch": 9077,
  "une": 9078,
  "pis@@": 9079,
  "chosen": 9080,
  "endet": 9081,
  "kehr@@": 9082,
  "maintain": 9083,
  "weist": 9084,
  "1900": 9085,
  "gelb": 9086,
  "sitze": 9087,
  "spre@@": 9088,
  "gedanken@@": 9089,
  "plays": 9090,
  "volunteers": 9091,
  "peri@@": 9092,
  "oper@@": 9093,
  "influ@@": 9094,
  "schätzung": 9095,
  "0": 9096,
  "gegenüber@@": 9097,
  "official": 9098,
  "power@@": 9099,
  "achieved": 9100,
  "johnny": 9101,
  "gerettet": 9102,
  "berichtet": 9103,
  "favor@@": 9104,
  "football": 9105,
  "hitze": 9106,
  "ingenieur": 9107,
  "erfassen": 9108,
  "komplizierte": 9109,
  "zucker@@": 9110,
  "hinunter": 9111,
  "personality": 9112,
  "quer@@": 9113,
  "toilet": 9114,
  "1-@@": 9115,
  "wundervolle": 9116,
  "pushing": 9117,
  "kris@@": 9118,
  "roh@@": 9119,
  "adding": 9120,
  "expres@@": 9121,
  "millimeter": 9122,
  "stimm@@": 9123,
  "tere": 9124,
  "eng": 9125,
  "sett@@": 9126,
  "eien": 9127,
  "grundlegend": 9128,
  "smallpox": 9129,
  "filmen": 9130,
  "schri@@": 9131,
  "drill": 9132,
  "entation": 9133,
  "frozen": 9134,
  "atoren": 9135,
  "wieviele": 9136,
  "includes": 9137,
  "benutzte": 9138,
  "muslims": 9139,
  "ce-@@": 9140,
  "provides": 9141,
  "lehrern": 9142,
  "santa": 9143,
  "knochen@@": 9144,
  "uten": 9145,
  "atom": 9146,
  "krie@@": 9147,
  "kranken@@": 9148,
  "pier@@": 9149,
  "geraten": 9150,
  "funded": 9151,
  "ek@@": 9152,
  "rum": 9153,
  "drawn": 9154,
  "kriti@@": 9155,
  "kün@@": 9156,
  "shirt": 9157,
  "wiederholt": 9158,
  "holt": 9159,
  "static": 9160,
  "kapitalismus": 9161,
  "poorest": 9162,
  "dow@@": 9163,
  "ibm": 9164,
  "verletzungen": 9165,
  "sammlung": 9166,
  "3-@@": 9167,
  "pace": 9168,
  "mation": 9169,
  "with@@": 9170,
  "mende": 9171,
  "bewegungs@@": 9172,
  "gewöhnlich": 9173,
  "geschnitten": 9174,
  "gründete": 9175,
  "effizient": 9176,
  "struc@@": 9177,
  "raising": 9178,
  "demonstrate": 9179,
  "figuring": 9180,
  "cti@@": 9181,
  "ang": 9182,
  "zeichnungen": 9183,
  "weltall": 9184,
  "discoveries": 9185,
  "persönlichkeit": 9186,
  "gige": 9187,
  "wk": 9188,
  "shooting": 9189,
  "unterstütz@@": 9190,
  "til@@": 9191,
  "köpfen": 9192,
  "vergnügen": 9193,
  "asks": 9194,
  "nachrichten@@": 9195,
  "continues": 9196,
  "aufstieg": 9197,
  "patho@@": 9198,
  "phi@@": 9199,
  "shopping": 9200,
  "shakespeare": 9201,
  "excellent": 9202,
  "gib": 9203,
  "diagram": 9204,
  "thick": 9205,
  "met@@": 9206,
  "sign@@": 9207,
  "blickwinkel": 9208,
  "balls": 9209,
  "entscheidende": 9210,
  "boss": 9211,
  "130": 9212,
  "fördert": 9213,
  "cartoons": 9214,
  "writers": 9215,
  "allowing": 9216,
  "sequenz": 9217,
  "diesmal": 9218,
  "universitäten": 9219,
  "pper": 9220,
  "ries": 9221,
  "geno@@": 9222,
  "angry": 9223,
  "tedtalk": 9224,
  "likes": 9225,
  "theorien": 9226,
  "dollar-@@": 9227,
  "reduced": 9228,
  "billig": 9229,
  "expansion": 9230,
  "gieren": 9231,
  "sogenannten": 9232,
  "stör@@": 9233,
  "scans": 9234,
  "profitieren": 9235,
  "baby@@": 9236,
  "dazwischen": 9237,
  "practices": 9238,
  "anbieten": 9239,
  "1994": 9240,
  "schwanz": 9241,
  "erfinder": 9242,
  "lernten": 9243,
  "ausnahme": 9244,
  "1.": 9245,
  "geh@@": 9246,
  "schar@@": 9247,
  "yours": 9248,
  "2020": 9249,
  "beer": 9250,
  "falle": 9251,
  "holte": 9252,
  "doppel@@": 9253,
  "kreisen": 9254,
  "krat@@": 9255,
  "flexible": 9256,
  "spä@@": 9257,
  "hypothe@@": 9258,
  "sprecher": 9259,
  "effekte": 9260,
  "vo": 9261,
  "umgang": 9262,
  "fertig@@": 9263,
  "planung": 9264,
  "herauszu@@": 9265,
  "streit": 9266,
  "versprechen": 9267,
  "bren@@": 9268,
  "audio": 9269,
  "ery": 9270,
  "globalization": 9271,
  "43": 9272,
  "kreislauf": 9273,
  "summe": 9274,
  "gesunde": 9275,
  "staats@@": 9276,
  "open-source": 9277,
  "watts": 9278,
  "lichter": 9279,
  "stö@@": 9280,
  "treib@@": 9281,
  "clu@@": 9282,
  "ewi@@": 9283,
  "interessanterweise": 9284,
  "fears": 9285,
  "rarely": 9286,
  "laid": 9287,
  "entscheidend": 9288,
  "großzü@@": 9289,
  "gering@@": 9290,
  "missed": 9291,
  "benutzten": 9292,
  "34": 9293,
  "messer": 9294,
  "glichen": 9295,
  "precisely": 9296,
  "elegan@@": 9297,
  "hearts": 9298,
  "seas": 9299,
  "licherweise": 9300,
  "kommunikations@@": 9301,
  "strecken": 9302,
  "kaputt": 9303,
  "witness": 9304,
  "studi@@": 9305,
  "neuroscience": 9306,
  "elefanten": 9307,
  "kulturellen": 9308,
  "storm": 9309,
  "earthquake": 9310,
  "license": 9311,
  "pris@@": 9312,
  "hell@@": 9313,
  "fi": 9314,
  "überzeu@@": 9315,
  "graphics": 9316,
  "belieb@@": 9317,
  "eve": 9318,
  "gucken": 9319,
  "extract": 9320,
  "wick@@": 9321,
  "der-@@": 9322,
  "backs": 9323,
  "doktor": 9324,
  "speakers": 9325,
  "grun@@": 9326,
  "mammo@@": 9327,
  "letting": 9328,
  "-jährige": 9329,
  "searching": 9330,
  "schnelle": 9331,
  "belie@@": 9332,
  "chile": 9333,
  "mmer@@": 9334,
  "ordnet": 9335,
  "umstände": 9336,
  "integrated": 9337,
  "harte": 9338,
  "imagined": 9339,
  "elite": 9340,
  "lieder": 9341,
  "finanzi@@": 9342,
  "oning": 9343,
  "cky": 9344,
  "glamorous": 9345,
  "drogen@@": 9346,
  "güter": 9347,
  "wahren": 9348,
  "mary": 9349,
  "bicycle": 9350,
  "quest": 9351,
  "astonishing": 9352,
  "geheim@@": 9353,
  "leu@@": 9354,
  "wasserstoff": 9355,
  "hacker": 9356,
  "schlimm": 9357,
  "architectural": 9358,
  "sternen": 9359,
  "cable": 9360,
  "sieb@@": 9361,
  "glaubten": 9362,
  "statistik": 9363,
  "besitz": 9364,
  "berry": 9365,
  "thailand": 9366,
  "issen": 9367,
  "reis": 9368,
  "190@@": 9369,
  "pointed": 9370,
  "schreck@@": 9371,
  "recognition": 9372,
  "infe@@": 9373,
  "hinauf": 9374,
  "deser@@": 9375,
  "cast": 9376,
  "fache": 9377,
  "native": 9378,
  "fascinated": 9379,
  "hmm": 9380,
  "terrorism": 9381,
  "provided": 9382,
  "höchste": 9383,
  "rad@@": 9384,
  "banken": 9385,
  "träge": 9386,
  "4,000": 9387,
  "zuver@@": 9388,
  "stimulation": 9389,
  "sierra": 9390,
  "tolles": 9391,
  "gie@@": 9392,
  "dedicated": 9393,
  "ausschließlich": 9394,
  "lers": 9395,
  "tribes": 9396,
  "facility": 9397,
  "szene": 9398,
  "ethiopia": 9399,
  "folgte": 9400,
  "pli@@": 9401,
  "respon@@": 9402,
  "schöner": 9403,
  "erb@@": 9404,
  "ances": 9405,
  "ore@@": 9406,
  "technische": 9407,
  "chief": 9408,
  "ruhig": 9409,
  "nachdenkt": 9410,
  "dist@@": 9411,
  "capita": 9412,
  "expli@@": 9413,
  "ante": 9414,
  "tlichen": 9415,
  "strecke": 9416,
  "crying": 9417,
  "loud": 9418,
  "pled": 9419,
  "teils": 9420,
  "zugleich": 9421,
  "removed": 9422,
  "konflikte": 9423,
  "hungry": 9424,
  "finds": 9425,
  "ozean@@": 9426,
  "plot": 9427,
  "kür@@": 9428,
  "gad@@": 9429,
  "association": 9430,
  "stück@@": 9431,
  "beweg@@": 9432,
  "fabulous": 9433,
  "beijing": 9434,
  "frem@@": 9435,
  "sag": 9436,
  "höheren": 9437,
  "güte": 9438,
  "mr@@": 9439,
  "condu@@": 9440,
  "vibra@@": 9441,
  "nachhaltige": 9442,
  "kiste": 9443,
  "opposed": 9444,
  "fabriken": 9445,
  "veran@@": 9446,
  "rechen@@": 9447,
  "chts@@": 9448,
  "strategien": 9449,
  "tile": 9450,
  "reporter": 9451,
  "ny@@": 9452,
  "sang": 9453,
  "transparenz": 9454,
  "1997": 9455,
  "qualities": 9456,
  "clients": 9457,
  "dot@@": 9458,
  "klassen@@": 9459,
  "cated": 9460,
  "künstliche": 9461,
  "sozialer": 9462,
  "schein@@": 9463,
  "20.000": 9464,
  "skull": 9465,
  "som@@": 9466,
  "explaining": 9467,
  "insu@@": 9468,
  "loser": 9469,
  "350": 9470,
  "tu": 9471,
  "comic": 9472,
  "tliche": 9473,
  "kolonie": 9474,
  "entwicklungsländer": 9475,
  "escape": 9476,
  "wellen@@": 9477,
  "jupiter": 9478,
  "196@@": 9479,
  "reicher": 9480,
  "früheren": 9481,
  "sach@@": 9482,
  "males": 9483,
  "stün@@": 9484,
  "affordable": 9485,
  "admi@@": 9486,
  "appe@@": 9487,
  "ausmacht": 9488,
  "berühmt": 9489,
  "conclude": 9490,
  "dlichen": 9491,
  "pyramid": 9492,
  "erwartungen": 9493,
  "psych@@": 9494,
  "leistungen": 9495,
  "rain@@": 9496,
  "jugend": 9497,
  "väter": 9498,
  "recognized": 9499,
  "jenen": 9500,
  "drove": 9501,
  "weitermachen": 9502,
  "verkün@@": 9503,
  "gebung": 9504,
  "allgemein": 9505,
  "ay": 9506,
  "harry": 9507,
  "angetrieben": 9508,
  "beschä@@": 9509,
  "korallen": 9510,
  "24@@": 9511,
  "januar": 9512,
  "cian": 9513,
  "gegessen": 9514,
  "glasses": 9515,
  "honey": 9516,
  "council": 9517,
  "portraits": 9518,
  "viral": 9519,
  "matischen": 9520,
  "athle@@": 9521,
  "angesichts": 9522,
  "ttert": 9523,
  "reichtum": 9524,
  "dust": 9525,
  "nurse": 9526,
  "surfaces": 9527,
  "intui@@": 9528,
  "erdbeben": 9529,
  "han": 9530,
  "schten": 9531,
  "werdet": 9532,
  "holds": 9533,
  "zurückkehren": 9534,
  "erre@@": 9535,
  "parties": 9536,
  "elsewhere": 9537,
  "krea@@": 9538,
  "z-@@": 9539,
  "ali": 9540,
  "port": 9541,
  "beizu@@": 9542,
  "motoren": 9543,
  "controls": 9544,
  "grandfather": 9545,
  "cate": 9546,
  "brustkrebs": 9547,
  "ires": 9548,
  "pflanzen@@": 9549,
  "schlimmsten": 9550,
  "ethical": 9551,
  "fasern": 9552,
  "react": 9553,
  "jet": 9554,
  "observation": 9555,
  "alan": 9556,
  "dert": 9557,
  "integration": 9558,
  "jane": 9559,
  "tries": 9560,
  "rechner": 9561,
  "footprint": 9562,
  "multi-@@": 9563,
  "anruf": 9564,
  "gewä@@": 9565,
  "biolumines@@": 9566,
  "begriffen": 9567,
  "origin": 9568,
  "konsum": 9569,
  "profession@@": 9570,
  "forschungen": 9571,
  "täten": 9572,
  "nachhal@@": 9573,
  "keinem": 9574,
  "analysieren": 9575,
  "eisen@@": 9576,
  "sensor": 9577,
  "jail": 9578,
  "u-@@": 9579,
  "defi@@": 9580,
  "schulter": 9581,
  "dumm": 9582,
  "argent@@": 9583,
  "schreib@@": 9584,
  "aircraft": 9585,
  "störung": 9586,
  "hormone": 9587,
  "…": 9588,
  "bescheid": 9589,
  "barrel": 9590,
  "simpli@@": 9591,
  "phantom": 9592,
  "consume": 9593,
  "propaganda": 9594,
  "limb": 9595,
  "elev@@": 9596,
  "dring@@": 9597,
  "biologists": 9598,
  "monterey": 9599,
  "haut@@": 9600,
  "dr": 9601,
  "corn": 9602,
  "collecting": 9603,
  "bag@@": 9604,
  "liter@@": 9605,
  "halben": 9606,
  "agricultural": 9607,
  "schnei@@": 9608,
  "sharp": 9609,
  "succeed": 9610,
  "wahrschein@@": 9611,
  "kennen@@": 9612,
  "aufrecht": 9613,
  "wiederholen": 9614,
  "jung@@": 9615,
  "fahrrad": 9616,
  "verbesserung": 9617,
  "ständen": 9618,
  "russland": 9619,
  "tode": 9620,
  "glob@@": 9621,
  "reparieren": 9622,
  "underground": 9623,
  "wundervoll": 9624,
  "omen": 9625,
  "nerven": 9626,
  "firm": 9627,
  "bigen": 9628,
  "dienstleistungen": 9629,
  "tly": 9630,
  "bangladesh": 9631,
  "bears": 9632,
  "gegenstand": 9633,
  "flaschen": 9634,
  "crossing": 9635,
  "primitive": 9636,
  "suicide": 9637,
  "häu@@": 9638,
  "i.": 9639,
  "contains": 9640,
  "waschen": 9641,
  "archie": 9642,
  "vitamin": 9643,
  "fruit": 9644,
  "customers": 9645,
  "diskutieren": 9646,
  "consequence": 9647,
  "frontal": 9648,
  "dignity": 9649,
  "vin@@": 9650,
  "letz@@": 9651,
  "infi@@": 9652,
  "emerge": 9653,
  "ältesten": 9654,
  "essing": 9655,
  "picking": 9656,
  "fließ@@": 9657,
  "erlangen": 9658,
  "preis@@": 9659,
  "construct": 9660,
  "kts": 9661,
  "electronics": 9662,
  "aded": 9663,
  "geh": 9664,
  "kelly": 9665,
  "eröffnet": 9666,
  "suggesting": 9667,
  "umfas@@": 9668,
  "kore@@": 9669,
  "blan@@": 9670,
  "gert": 9671,
  "degra@@": 9672,
  "vogel@@": 9673,
  "ganz@@": 9674,
  "ausser@@": 9675,
  "sarah": 9676,
  "bip": 9677,
  "entschuldigung": 9678,
  "58": 9679,
  "warf": 9680,
  "gezwungen": 9681,
  "lord": 9682,
  "sung": 9683,
  "homosexu@@": 9684,
  "liberal": 9685,
  "alisierten": 9686,
  "liter": 9687,
  "klas@@": 9688,
  "neugierig": 9689,
  "figuren": 9690,
  "returned": 9691,
  "hirn": 9692,
  "autismus": 9693,
  "realm": 9694,
  "multipli@@": 9695,
  "habit@@": 9696,
  "informed": 9697,
  "schna@@": 9698,
  "würdest": 9699,
  "sey": 9700,
  "architekt": 9701,
  "anzeige": 9702,
  "zwingen": 9703,
  "computation": 9704,
  "coloni@@": 9705,
  "assen": 9706,
  "dating": 9707,
  "nin@@": 9708,
  "lations": 9709,
  "schritten": 9710,
  "bewegte": 9711,
  "opera": 9712,
  "cluster": 9713,
  "drew": 9714,
  "aspi@@": 9715,
  "integri@@": 9716,
  "gipfel": 9717,
  "handlungen": 9718,
  "probieren": 9719,
  "dimensional": 9720,
  "mp": 9721,
  "rick": 9722,
  "vul@@": 9723,
  "übertragung": 9724,
  "protecting": 9725,
  "circles": 9726,
  "bug": 9727,
  "auslö@@": 9728,
  "defe@@": 9729,
  "2030": 9730,
  "nano@@": 9731,
  "unfair": 9732,
  "kämp@@": 9733,
  "linke": 9734,
  "angebot": 9735,
  "verließ": 9736,
  "intelligente": 9737,
  "artistic": 9738,
  "hilfs@@": 9739,
  "tanz@@": 9740,
  "verliebt": 9741,
  "receive": 9742,
  "redwood": 9743,
  "englischen": 9744,
  "mapping": 9745,
  "berühr@@": 9746,
  "scre@@": 9747,
  "stages": 9748,
  "pie@@": 9749,
  "zug@@": 9750,
  "sales": 9751,
  "chines@@": 9752,
  "heiraten": 9753,
  "ops": 9754,
  "kalten": 9755,
  "simu@@": 9756,
  "ent-@@": 9757,
  "guide": 9758,
  "tempo": 9759,
  "mari@@": 9760,
  "anima@@": 9761,
  "optimismus": 9762,
  "rebuild": 9763,
  "elli@@": 9764,
  "stammen": 9765,
  "landete": 9766,
  "durchzuführen": 9767,
  "matik": 9768,
  "festgestellt": 9769,
  "aims": 9770,
  "schöpf@@": 9771,
  "smooth": 9772,
  "privaten": 9773,
  "asse": 9774,
  "initial": 9775,
  "jewish": 9776,
  "dictionary": 9777,
  "cave": 9778,
  "ctu@@": 9779,
  "europäischen": 9780,
  "horn": 9781,
  "gehei@@": 9782,
  "mcdonald": 9783,
  "pakistan@@": 9784,
  "entwurf": 9785,
  "gesunden": 9786,
  "fathers": 9787,
  "trick@@": 9788,
  "precise": 9789,
  "wea@@": 9790,
  "depri@@": 9791,
  "climbing": 9792,
  "becken": 9793,
  "kauft": 9794,
  "albert": 9795,
  "providing": 9796,
  "photographer": 9797,
  "mikroskop": 9798,
  "mut@@": 9799,
  "deckt": 9800,
  "inches": 9801,
  "regu@@": 9802,
  "wohnen": 9803,
  "dia": 9804,
  "kreiert": 9805,
  "fortunate": 9806,
  "aut": 9807,
  "mammals": 9808,
  "westliche": 9809,
  "represented": 9810,
  "feld@@": 9811,
  "überrasch@@": 9812,
  "admini@@": 9813,
  "stischer": 9814,
  "anderson": 9815,
  "abendessen": 9816,
  "deinem": 9817,
  "ratten": 9818,
  "elled": 9819,
  "stellungen": 9820,
  "blicke": 9821,
  "offers": 9822,
  "enes": 9823,
  "schreibe": 9824,
  "phot@@": 9825,
  "ebenen": 9826,
  "38": 9827,
  "dress": 9828,
  "wissen@@": 9829,
  "hinsichtlich": 9830,
  "rescue": 9831,
  "standpunkt": 9832,
  "proper": 9833,
  "nerven@@": 9834,
  "buff@@": 9835,
  "hire": 9836,
  "mining": 9837,
  "accidents": 9838,
  "alice": 9839,
  "verbrauchen": 9840,
  "pants": 9841,
  "chirurg": 9842,
  "sicherer": 9843,
  "predictions": 9844,
  "acy": 9845,
  "jährlich": 9846,
  "sible": 9847,
  "garbage": 9848,
  "jagen": 9849,
  "flip": 9850,
  "gesam@@": 9851,
  "hh": 9852,
  "beri@@": 9853,
  "separated": 9854,
  "verletz@@": 9855,
  "quanten@@": 9856,
  "civili@@": 9857,
  "fon@@": 9858,
  "keits@@": 9859,
  "speicher": 9860,
  "überprüfen": 9861,
  "nahezu": 9862,
  "berlin": 9863,
  "chirurgen": 9864,
  "technolog@@": 9865,
  "borders": 9866,
  "devil": 9867,
  "encounter": 9868,
  "regret": 9869,
  "dauer@@": 9870,
  "neural": 9871,
  "clin@@": 9872,
  "layers": 9873,
  "stag@@": 9874,
  "focusing": 9875,
  "dienste": 9876,
  "mega@@": 9877,
  "neighbor": 9878,
  "organ@@": 9879,
  "schlech@@": 9880,
  "unt": 9881,
  "vorder@@": 9882,
  "repair": 9883,
  "vable": 9884,
  "spin": 9885,
  "musicians": 9886,
  "tote": 9887,
  "reports": 9888,
  "scales": 9889,
  "isten": 9890,
  "ories": 9891,
  "31": 9892,
  "openness": 9893,
  "rocks": 9894,
  "wandern": 9895,
  "thre@@": 9896,
  "nachhaltigkeit": 9897,
  "refle@@": 9898,
  "design-@@": 9899,
  "life-@@": 9900,
  "federal": 9901,
  "seil": 9902,
  "mice": 9903,
  "ire": 9904,
  "llt": 9905,
  "lego": 9906,
  "bord": 9907,
  "sensory": 9908,
  "tesla": 9909,
  "einziges": 9910,
  "injury": 9911,
  "mines": 9912,
  "winning": 9913,
  "pesti@@": 9914,
  "detection": 9915,
  "2.000": 9916,
  "einzigartig": 9917,
  "bedeckt": 9918,
  "zurückkommen": 9919,
  "vieler": 9920,
  "vorn": 9921,
  "sierung": 9922,
  "real@@": 9923,
  "glückliche": 9924,
  "biop@@": 9925,
  "industries": 9926,
  "politisch": 9927,
  "dinosaur": 9928,
  "r.": 9929,
  "prototypen": 9930,
  "bia": 9931,
  "mochte": 9932,
  "gere": 9933,
  "crack": 9934,
  "v.": 9935,
  "unterhalb": 9936,
  "ffs": 9937,
  "weapon": 9938,
  "optimism": 9939,
  "barely": 9940,
  "vacuum": 9941,
  "gangen": 9942,
  "chert": 9943,
  "pulling": 9944,
  "angehen": 9945,
  "behörde": 9946,
  "frog": 9947,
  "alizing": 9948,
  "mount": 9949,
  "kongress": 9950,
  "strategies": 9951,
  "allgemeine": 9952,
  "rand@@": 9953,
  "marathon": 9954,
  "baum@@": 9955,
  "boundaries": 9956,
  "mates": 9957,
  "rul@@": 9958,
  "erzeu@@": 9959,
  "ministerium": 9960,
  "interactions": 9961,
  "abends": 9962,
  "konsumenten": 9963,
  "benen": 9964,
  "durfte": 9965,
  "constructed": 9966,
  "aliens": 9967,
  "graph@@": 9968,
  "indiens": 9969,
  "symbols": 9970,
  "digte": 9971,
  "ag": 9972,
  "pump": 9973,
  "appar@@": 9974,
  "fotografie": 9975,
  "psychiat@@": 9976,
  "shadow": 9977,
  "cock@@": 9978,
  "bestra@@": 9979,
  "frustration": 9980,
  "stores": 9981,
  "shelf": 9982,
  "verbraucht": 9983,
  "inge": 9984,
  "festival": 9985,
  "analo@@": 9986,
  "heiß@@": 9987,
  "dacht": 9988,
  "unbelievable": 9989,
  "tempor@@": 9990,
  "gefängnis@@": 9991,
  "owned": 9992,
  "konstruieren": 9993,
  "ballon": 9994,
  "vertical": 9995,
  "infra@@": 9996,
  "ite@@": 9997,
  "beginn@@": 9998,
  "kg": 9999,
  "advan@@": 10000,
  "reagiert": 10001,
  "budgets": 10002,
  "beinen": 10003,
  "pad": 10004,
  "ups": 10005,
  "bond": 10006,
  "kind@@": 10007,
  "pation": 10008,
  "october": 10009,
  "rover": 10010,
  "geblieben": 10011,
  "clever@@": 10012,
  "unterhalten": 10013,
  "someday": 10014,
  "stern@@": 10015,
  "betrieb": 10016,
  "concern": 10017,
  "kick": 10018,
  "shrimp": 10019,
  "tauschen": 10020,
  "schlau": 10021,
  "ängste": 10022,
  "organis@@": 10023,
  "antrieb": 10024,
  "ecosystems": 10025,
  "nuklear@@": 10026,
  "migration": 10027,
  "schwarzes": 10028,
  "block@@": 10029,
  "pupp@@": 10030,
  "nimm": 10031,
  "iness": 10032,
  "intelle@@": 10033,
  "praxis": 10034,
  "gles": 10035,
  "seeds": 10036,
  "komm@@": 10037,
  "lebensqualität": 10038,
  "characteristics": 10039,
  "gerichtet": 10040,
  "dutzend": 10041,
  "elf": 10042,
  "öko@@": 10043,
  "than@@": 10044,
  "kum@@": 10045,
  "kehrt": 10046,
  "diagnosed": 10047,
  "gathering": 10048,
  "fremden": 10049,
  "enormen": 10050,
  "42": 10051,
  "übersetzt": 10052,
  "brüder": 10053,
  "amongst": 10054,
  "portion": 10055,
  "kran@@": 10056,
  "stim@@": 10057,
  "historic": 10058,
  "sin": 10059,
  "ier@@": 10060,
  "loop": 10061,
  "operations": 10062,
  "gan": 10063,
  "profile": 10064,
  "rechnung": 10065,
  "woll@@": 10066,
  "thi@@": 10067,
  "coke": 10068,
  "hai": 10069,
  "buried": 10070,
  "master@@": 10071,
  "innova@@": 10072,
  "hoff@@": 10073,
  "natasha": 10074,
  "bedienen": 10075,
  "1990s": 10076,
  "knie": 10077,
  "befreien": 10078,
  "gestaltung": 10079,
  "kleinere": 10080,
  "emerged": 10081,
  "failing": 10082,
  "gebäudes": 10083,
  "elen": 10084,
  "rays": 10085,
  "schreckliche": 10086,
  "alexander": 10087,
  "errichten": 10088,
  "silly": 10089,
  "shots": 10090,
  "tisch@@": 10091,
  "50-@@": 10092,
  "variable": 10093,
  "start@@": 10094,
  "ingredients": 10095,
  "typ@@": 10096,
  "favor": 10097,
  "wach@@": 10098,
  "losigkeit": 10099,
  "zusätzliche": 10100,
  "aufregende": 10101,
  "interviewer": 10102,
  "ersetzt": 10103,
  "-like": 10104,
  "rolling": 10105,
  "ausgebildet": 10106,
  "kämpft": 10107,
  "hingehen": 10108,
  "trieben": 10109,
  "preserve": 10110,
  "teenagers": 10111,
  "alli@@": 10112,
  "lehrerin": 10113,
  "christian": 10114,
  "acc@@": 10115,
  "agent": 10116,
  "klingen": 10117,
  "brush": 10118,
  "ush": 10119,
  "ener@@": 10120,
  "team@@": 10121,
  "auswirkung": 10122,
  "seek": 10123,
  "harvest": 10124,
  "selektion": 10125,
  "sprü@@": 10126,
  "toes": 10127,
  "wohlbefinden": 10128,
  "einrichtung": 10129,
  "stin@@": 10130,
  "insurance": 10131,
  "zun@@": 10132,
  "brilli@@": 10133,
  "dramatisch": 10134,
  "enten@@": 10135,
  "policies": 10136,
  "ansichten": 10137,
  "wünschen": 10138,
  "essence": 10139,
  "stones": 10140,
  "damn": 10141,
  "classical": 10142,
  "kohle@@": 10143,
  "buil@@": 10144,
  "privilege": 10145,
  "stir@@": 10146,
  "rop@@": 10147,
  "halten@@": 10148,
  "onkel": 10149,
  "..": 10150,
  "exposed": 10151,
  "mittelpunkt": 10152,
  "einhalb": 10153,
  "efforts": 10154,
  "revenue": 10155,
  "tension": 10156,
  "impfstoff": 10157,
  "schwestern": 10158,
  "jün@@": 10159,
  "alities": 10160,
  "wut": 10161,
  "treatments": 10162,
  "2.": 10163,
  "verlangt": 10164,
  "dominant": 10165,
  "eingehen": 10166,
  "geöffnet": 10167,
  "taschen": 10168,
  "dent@@": 10169,
  "außergewöhnliche": 10170,
  "speaker": 10171,
  "plum@@": 10172,
  "anfängt": 10173,
  "nerve": 10174,
  "legten": 10175,
  "com": 10176,
  "pointing": 10177,
  "rely": 10178,
  "oktober": 10179,
  "berkeley": 10180,
  "katzen": 10181,
  "desig@@": 10182,
  "atome": 10183,
  "fat@@": 10184,
  "memes": 10185,
  "dder": 10186,
  "bereit@@": 10187,
  "drucker": 10188,
  "senior": 10189,
  "nachfrage": 10190,
  "scri@@": 10191,
  "eless": 10192,
  "atlanta": 10193,
  "inger": 10194,
  "knoten": 10195,
  "apps": 10196,
  "bandbreite": 10197,
  "no-@@": 10198,
  "mixed": 10199,
  "spinal": 10200,
  "bottles": 10201,
  "spieler@@": 10202,
  "interacting": 10203,
  "räum@@": 10204,
  "d.c.": 10205,
  "mill": 10206,
  "obli@@": 10207,
  "bier": 10208,
  "ares": 10209,
  "flücht@@": 10210,
  "pushed": 10211,
  "schaff@@": 10212,
  "unternehmer@@": 10213,
  "hanging": 10214,
  "unlikely": 10215,
  "änderte": 10216,
  "zyklus": 10217,
  "zweites": 10218,
  "lo": 10219,
  "dreimal": 10220,
  "ridge": 10221,
  "ceo": 10222,
  "meditation": 10223,
  "erledigt": 10224,
  "grä@@": 10225,
  "grafie": 10226,
  "hard@@": 10227,
  "dolphin": 10228,
  "wes@@": 10229,
  "wildlife": 10230,
  "innovations": 10231,
  "bemerkenswerte": 10232,
  "vital": 10233,
  "fertili@@": 10234,
  "hinweise": 10235,
  "reported": 10236,
  "ban": 10237,
  "unterscheidet": 10238,
  "governance": 10239,
  "loy@@": 10240,
  "richer": 10241,
  "wash": 10242,
  "euer": 10243,
  "crops": 10244,
  "tax@@": 10245,
  "uh": 10246,
  "tations": 10247,
  "schuf": 10248,
  "mannes": 10249,
  "besides": 10250,
  "löst": 10251,
  "erkenn@@": 10252,
  "richter": 10253,
  "limit": 10254,
  "contemporary": 10255,
  "ky@@": 10256,
  "schlange": 10257,
  "robotics": 10258,
  "cake": 10259,
  "ple": 10260,
  "schaffte": 10261,
  "ross": 10262,
  "forma@@": 10263,
  "imaging": 10264,
  "vietnam@@": 10265,
  "domain": 10266,
  "tracks": 10267,
  "schafften": 10268,
  "schienen": 10269,
  "ulen": 10270,
  "beschreibung": 10271,
  "thy": 10272,
  "gewal@@": 10273,
  "wunderschönen": 10274,
  "robotic": 10275,
  "hauses": 10276,
  "getestet": 10277,
  "requ@@": 10278,
  "evolve": 10279,
  "streifen": 10280,
  "exten@@": 10281,
  "vorgestellt": 10282,
  "banks": 10283,
  "religiöse": 10284,
  "dive": 10285,
  "gkeiten": 10286,
  "wunderschön": 10287,
  "prei@@": 10288,
  "transfer": 10289,
  "fda": 10290,
  "stens": 10291,
  "besonderes": 10292,
  "sentences": 10293,
  "ausgehen": 10294,
  "beitragen": 10295,
  "weltweite": 10296,
  "globally": 10297,
  "glücklichen": 10298,
  "kis@@": 10299,
  "domestic": 10300,
  "erfahr@@": 10301,
  "quot@@": 10302,
  "format": 10303,
  "meal": 10304,
  "beginne": 10305,
  "neutral": 10306,
  "erinnerte": 10307,
  "anreize": 10308,
  "komisch": 10309,
  "ologische": 10310,
  "moun@@": 10311,
  "micro-@@": 10312,
  "nel@@": 10313,
  "großartiger": 10314,
  "deuten": 10315,
  "skulptur": 10316,
  "cotton": 10317,
  "lungen@@": 10318,
  "fts": 10319,
  "autor@@": 10320,
  "ital": 10321,
  "symbio@@": 10322,
  "sudan": 10323,
  "identifi@@": 10324,
  "herein": 10325,
  "originally": 10326,
  "skeleton": 10327,
  "forests": 10328,
  "thou@@": 10329,
  "geräten": 10330,
  "subway": 10331,
  "sent@@": 10332,
  "sleeping": 10333,
  "irr@@": 10334,
  "butter@@": 10335,
  "jonathan": 10336,
  "salt": 10337,
  "trainieren": 10338,
  "ements": 10339,
  "spielten": 10340,
  "bahnen": 10341,
  "papa": 10342,
  "bohr@@": 10343,
  "schnell@@": 10344,
  "gemessen": 10345,
  "teen": 10346,
  "ausgabe": 10347,
  "wolfram": 10348,
  "cheese": 10349,
  "nochmals": 10350,
  "internets": 10351,
  "euro": 10352,
  "successfully": 10353,
  "served": 10354,
  "engaging": 10355,
  "tauch@@": 10356,
  "96": 10357,
  "alists": 10358,
  "durchschnitt@@": 10359,
  "ica": 10360,
  "texts": 10361,
  "struggling": 10362,
  "committed": 10363,
  "aktuellen": 10364,
  "yo": 10365,
  "gewinnt": 10366,
  "ami": 10367,
  "nationalen": 10368,
  "insi@@": 10369,
  "engli@@": 10370,
  "beru@@": 10371,
  "hersteller": 10372,
  "joy@@": 10373,
  "kombinieren": 10374,
  "cooperation": 10375,
  "conflicts": 10376,
  "investition": 10377,
  "berechnung": 10378,
  "tägliche": 10379,
  "document": 10380,
  "kindergarten": 10381,
  "chteten": 10382,
  "zentimeter": 10383,
  "grams": 10384,
  "stau@@": 10385,
  "julian": 10386,
  "durchmesser": 10387,
  "ritual": 10388,
  "auszudrücken": 10389,
  "bam@@": 10390,
  "verwal@@": 10391,
  "kommst": 10392,
  "anstellen": 10393,
  "intervention": 10394,
  "atem": 10395,
  "gewalt@@": 10396,
  "pittsburgh": 10397,
  "dence": 10398,
  "depressed": 10399,
  "distra@@": 10400,
  "ored": 10401,
  "consistent": 10402,
  "methods": 10403,
  "öffnete": 10404,
  "entdeckten": 10405,
  "diplomat": 10406,
  "amerikas": 10407,
  "kant": 10408,
  "bags": 10409,
  "tap": 10410,
  "schlimmste": 10411,
  "sn@@": 10412,
  "kennedy": 10413,
  "bie@@": 10414,
  "lock@@": 10415,
  "announced": 10416,
  "bedürfnis": 10417,
  "advis@@": 10418,
  "rus@@": 10419,
  "folding": 10420,
  "dood@@": 10421,
  "procedure": 10422,
  "hinweis": 10423,
  "predicted": 10424,
  "gefolgt": 10425,
  "ples": 10426,
  "nungen": 10427,
  "prints": 10428,
  "mischung": 10429,
  "bauer": 10430,
  "uncle": 10431,
  "verarbeitung": 10432,
  "blame": 10433,
  "polar@@": 10434,
  "rufe": 10435,
  "vierten": 10436,
  "unterwasser@@": 10437,
  "prozesses": 10438,
  "carl": 10439,
  "thers": 10440,
  "kindersterblichkeit": 10441,
  "e.": 10442,
  "perceive": 10443,
  "überlebt": 10444,
  "tip": 10445,
  "ungskraft": 10446,
  "übt": 10447,
  "formu@@": 10448,
  "schnee": 10449,
  "mische": 10450,
  "tages@@": 10451,
  "affects": 10452,
  "wissens": 10453,
  "aspects": 10454,
  "actors": 10455,
  "coca-cola": 10456,
  "vermu@@": 10457,
  "verab@@": 10458,
  "briefly": 10459,
  "dies@@": 10460,
  "invite": 10461,
  "provo@@": 10462,
  "thus": 10463,
  "tig@@": 10464,
  "suchten": 10465,
  "verbrennen": 10466,
  "sensoren": 10467,
  "ght": 10468,
  "depressi@@": 10469,
  "eted": 10470,
  "dents": 10471,
  "translation": 10472,
  "-jährigen": 10473,
  "adap@@": 10474,
  "academy": 10475,
  "ling@@": 10476,
  "hebt": 10477,
  "february": 10478,
  "elegant": 10479,
  "banjo": 10480,
  "lawyers": 10481,
  "geschü@@": 10482,
  "recycling": 10483,
  "schwei@@": 10484,
  "drum": 10485,
  "luck": 10486,
  "abenteuer": 10487,
  "gon@@": 10488,
  "era@@": 10489,
  "meta@@": 10490,
  "geomet@@": 10491,
  "ut": 10492,
  "erfindungen": 10493,
  "identified": 10494,
  "egg": 10495,
  "gig": 10496,
  "lum@@": 10497,
  "überein@@": 10498,
  "acci@@": 10499,
  "grateful": 10500,
  "weibchen": 10501,
  "förder@@": 10502,
  "mics": 10503,
  "senken": 10504,
  "visited": 10505,
  "stahl@@": 10506,
  "spectacular": 10507,
  "imm@@": 10508,
  "francis": 10509,
  "1995": 10510,
  "ima@@": 10511,
  "verdammt": 10512,
  "proportion": 10513,
  "cians": 10514,
  "kopieren": 10515,
  "geschützt": 10516,
  "häusern": 10517,
  "occasionally": 10518,
  "compli@@": 10519,
  "hör": 10520,
  "gemeinschaft@@": 10521,
  "negativ": 10522,
  "psychologen": 10523,
  "alisi@@": 10524,
  "3.000": 10525,
  "ash@@": 10526,
  "führenden": 10527,
  "unendlich": 10528,
  "armed": 10529,
  "kräf@@": 10530,
  "myth@@": 10531,
  "whatsoever": 10532,
  "schnitt@@": 10533,
  "contain": 10534,
  "füßen": 10535,
  "hypo@@": 10536,
  "orchester": 10537,
  "ursprüngliche": 10538,
  "indu@@": 10539,
  "articles": 10540,
  "erfüllt": 10541,
  "reserve": 10542,
  "dopamine": 10543,
  "aster": 10544,
  "var@@": 10545,
  "shit": 10546,
  "stets": 10547,
  "terrorismus": 10548,
  "komple@@": 10549,
  "merkmale": 10550,
  "ungewöhnlich": 10551,
  "leit@@": 10552,
  "kosovo": 10553,
  "underlying": 10554,
  "dio@@": 10555,
  "syndrome": 10556,
  "mayor": 10557,
  "ebay": 10558,
  "founded": 10559,
  "anhänger": 10560,
  "konkre@@": 10561,
  "toy": 10562,
  "definitiv": 10563,
  "wollt": 10564,
  "zierung": 10565,
  "fits": 10566,
  "konzepte": 10567,
  "demographic": 10568,
  "lined": 10569,
  "stics": 10570,
  "vorwärts": 10571,
  "ungeheuer": 10572,
  "brett": 10573,
  "finanziert": 10574,
  "jefferson": 10575,
  "großartiges": 10576,
  "1980": 10577,
  "hilfsmittel": 10578,
  "stä@@": 10579,
  "ttern": 10580,
  "90s": 10581,
  "kuh": 10582,
  "quadrat@@": 10583,
  "veränder@@": 10584,
  "pro-@@": 10585,
  "elections": 10586,
  "inhalte": 10587,
  "scher@@": 10588,
  "upset": 10589,
  "meere": 10590,
  "fantastischen": 10591,
  "contribu@@": 10592,
  "kredit@@": 10593,
  "rupt": 10594,
  "stren@@": 10595,
  "liebt": 10596,
  "befür@@": 10597,
  "trash": 10598,
  "transplant": 10599,
  "wacht": 10600,
  "künstler@@": 10601,
  "setzung": 10602,
  "dow": 10603,
  "gleichheit": 10604,
  "stande": 10605,
  "diving": 10606,
  "dende": 10607,
  "indische": 10608,
  "serving": 10609,
  "gelaufen": 10610,
  "stände": 10611,
  "warning": 10612,
  "hydr@@": 10613,
  "wütend": 10614,
  "bach": 10615,
  "tragödie": 10616,
  "chtung": 10617,
  "pest": 10618,
  "exam@@": 10619,
  "attract": 10620,
  "quadrat": 10621,
  "neun@@": 10622,
  "optimistisch": 10623,
  "schufen": 10624,
  "describes": 10625,
  "chat@@": 10626,
  "gelände": 10627,
  "chemischen": 10628,
  "av": 10629,
  "reson@@": 10630,
  "allzu": 10631,
  "sisters": 10632,
  "sich@@": 10633,
  "angepasst": 10634,
  "gewöhnliche": 10635,
  "tetes": 10636,
  "verbrei@@": 10637,
  "pound": 10638,
  "besit@@": 10639,
  "huh": 10640,
  "alb@@": 10641,
  "relations": 10642,
  "regelmäßig": 10643,
  "übergang": 10644,
  "spiels": 10645,
  "potent": 10646,
  "handelte": 10647,
  "kills": 10648,
  "colleague": 10649,
  "administration": 10650,
  "luckily": 10651,
  "lawyer": 10652,
  "bedauern": 10653,
  "rebel@@": 10654,
  "jamie": 10655,
  "tibet": 10656,
  "spü@@": 10657,
  "winds": 10658,
  "lossen@@": 10659,
  "gend@@": 10660,
  "passive": 10661,
  "ohr": 10662,
  "fischer": 10663,
  "nähr@@": 10664,
  "februar": 10665,
  "industrie@@": 10666,
  "planet@@": 10667,
  "erschien": 10668,
  "besitzer": 10669,
  "plastics": 10670,
  "nes": 10671,
  "autoren": 10672,
  "heil@@": 10673,
  "körpern": 10674,
  "lärm": 10675,
  "glu@@": 10676,
  "puzzles": 10677,
  "improvement": 10678,
  "ch-@@": 10679,
  "erstaunlichen": 10680,
  "footage": 10681,
  "light@@": 10682,
  "kopie": 10683,
  "zel@@": 10684,
  "belast@@": 10685,
  "ti": 10686,
  "ktion@@": 10687,
  "cousins": 10688,
  "seu@@": 10689,
  "server": 10690,
  "anony@@": 10691,
  "heli@@": 10692,
  "genetics": 10693,
  "ington": 10694,
  "amen": 10695,
  "subtle": 10696,
  "raff@@": 10697,
  "erfuhr": 10698,
  "involviert": 10699,
  "2-@@": 10700,
  "produkten": 10701,
  "passage": 10702,
  "erfordert": 10703,
  "fair@@": 10704,
  "ola": 10705,
  "floo@@": 10706,
  "sensors": 10707,
  "wodurch": 10708,
  "irgendeiner": 10709,
  "yor@@": 10710,
  "nd": 10711,
  "ruanda": 10712,
  "nike": 10713,
  "kilo": 10714,
  "tubes": 10715,
  "gerüst": 10716,
  "sieben@@": 10717,
  "asthma": 10718,
  "zusammenge@@": 10719,
  "michigan": 10720,
  "blog@@": 10721,
  "boy@@": 10722,
  "sj": 10723,
  "ement": 10724,
  "entrepreneur": 10725,
  "flows": 10726,
  "vermute": 10727,
  "curriculum": 10728,
  "bereiten": 10729,
  "großvater": 10730,
  "blö@@": 10731,
  "collaborative": 10732,
  "hunt": 10733,
  "märkten": 10734,
  "signature": 10735,
  "hig@@": 10736,
  "amed": 10737,
  "bedeutend": 10738,
  "reminded": 10739,
  "ärmsten": 10740,
  "verteilen": 10741,
  "inmitten": 10742,
  "schülern": 10743,
  "chin@@": 10744,
  "lationen": 10745,
  "verfügen": 10746,
  "kapazität": 10747,
  "worthy": 10748,
  "standard@@": 10749,
  "schädel": 10750,
  "aged": 10751,
  "beträgt": 10752,
  "verarbeiten": 10753,
  "ater@@": 10754,
  "washing": 10755,
  "grades": 10756,
  "delph@@": 10757,
  "futter": 10758,
  "surprisingly": 10759,
  "schot@@": 10760,
  "abteilung": 10761,
  "gather": 10762,
  "lay@@": 10763,
  "exclu@@": 10764,
  "contract": 10765,
  "bäumen": 10766,
  "nü@@": 10767,
  "sauerstoff@@": 10768,
  "delivered": 10769,
  "schall@@": 10770,
  "öfter": 10771,
  "brüche": 10772,
  "vat@@": 10773,
  "toilette": 10774,
  "echter": 10775,
  "instructions": 10776,
  "tum@@": 10777,
  "draussen": 10778,
  "rosling": 10779,
  "zahlt": 10780,
  "üsse": 10781,
  "2.0": 10782,
  "endete": 10783,
  "2012": 10784,
  "häl@@": 10785,
  "jähr@@": 10786,
  "gallery": 10787,
  "minen": 10788,
  "dp": 10789,
  "menschlichkeit": 10790,
  "metall@@": 10791,
  "runter@@": 10792,
  "ungleichheit": 10793,
  "coordin@@": 10794,
  "array": 10795,
  "permission": 10796,
  "oth@@": 10797,
  "dbar": 10798,
  "robo@@": 10799,
  "hef@@": 10800,
  "kreativ": 10801,
  "disney": 10802,
  "fragile": 10803,
  "beliefs": 10804,
  "mechanisms": 10805,
  "bungen": 10806,
  "lle": 10807,
  "bomben": 10808,
  "vielmals": 10809,
  "kin": 10810,
  "pump@@": 10811,
  "box@@": 10812,
  "verwandten": 10813,
  "dom": 10814,
  "sebastian": 10815,
  "funktionier@@": 10816,
  "reducing": 10817,
  "cord": 10818,
  "emails": 10819,
  "scham": 10820,
  "1970": 10821,
  "platte": 10822,
  "königin": 10823,
  "nachhaltig": 10824,
  "emplo@@": 10825,
  "auftreten": 10826,
  "cross-@@": 10827,
  "arrange@@": 10828,
  "rekor@@": 10829,
  "nathan": 10830,
  "ativen": 10831,
  "misst": 10832,
  "rope": 10833,
  "wüssten": 10834,
  "begun": 10835,
  "plu@@": 10836,
  "erzielen": 10837,
  "glad": 10838,
  "nowadays": 10839,
  "massen": 10840,
  "sciences": 10841,
  "verkauf": 10842,
  "anhalten": 10843,
  "ameise": 10844,
  "powerpoint": 10845,
  "vent@@": 10846,
  "mittagessen": 10847,
  "discus@@": 10848,
  "basierte": 10849,
  "stel": 10850,
  "moment@@": 10851,
  "konvention@@": 10852,
  "ück@@": 10853,
  "essed": 10854,
  "gläu@@": 10855,
  "dump@@": 10856,
  "klassische": 10857,
  "weinen": 10858,
  "exponential": 10859,
  "97": 10860,
  "penet@@": 10861,
  "methane": 10862,
  "motiv@@": 10863,
  "ena": 10864,
  "schmerz@@": 10865,
  "mac@@": 10866,
  "überqueren": 10867,
  "spri@@": 10868,
  "rhyth@@": 10869,
  "leverage": 10870,
  "restor@@": 10871,
  "zeugs": 10872,
  "klin@@": 10873,
  "crew": 10874,
  "theories": 10875,
  "stairs": 10876,
  "shifting": 10877,
  "erfand": 10878,
  "initially": 10879,
  "rett@@": 10880,
  "suspect": 10881,
  "staying": 10882,
  "ord@@": 10883,
  "leather": 10884,
  "sits": 10885,
  "seli@@": 10886,
  "gerei@@": 10887,
  "zerstör@@": 10888,
  "universities": 10889,
  "fires": 10890,
  "grace": 10891,
  "währung": 10892,
  "reliable": 10893,
  "poesie": 10894,
  "dex": 10895,
  "lese": 10896,
  "beziehen": 10897,
  "ordnen": 10898,
  "technologi@@": 10899,
  "ausgewählt": 10900,
  "offenheit": 10901,
  "contribute": 10902,
  "kro@@": 10903,
  "inhab@@": 10904,
  "aming": 10905,
  "add@@": 10906,
  "motto": 10907,
  "classi@@": 10908,
  "chor": 10909,
  "abilities": 10910,
  "levi@@": 10911,
  "annahmen": 10912,
  "vielzahl": 10913,
  "debt": 10914,
  "partei": 10915,
  "anzuschauen": 10916,
  "miracle": 10917,
  "perpet@@": 10918,
  "law@@": 10919,
  "weh": 10920,
  "finanzieren": 10921,
  "slavery": 10922,
  "conductor": 10923,
  "erkunden": 10924,
  "vereinten": 10925,
  "voraussagen": 10926,
  "ressed": 10927,
  "advo@@": 10928,
  "hypothese": 10929,
  "schieben": 10930,
  "tize": 10931,
  "schläge": 10932,
  "kehrte": 10933,
  "zuletzt": 10934,
  "sound@@": 10935,
  "sorgt": 10936,
  "barry": 10937,
  "consi@@": 10938,
  "sixth": 10939,
[...]
