{
  "<PAD>": 0,
  "<SOS>": 1,
  "<EOS>": 2,
  "<UNK>": 3,
  ",": 4,
  ".": 5,
  "und": 6,
  "die": 7,
  "sie": 8,
  "das": 9,
  "ich": 10,
  "der": 11,
  "ist": 12,
  "es": 13,
  "wir": 14,
  "in": 15,
  "zu": 16,
  "&quot;": 17,
  "ein": 18,
  "eine": 19,
  "von": 20,
  "nicht": 21,
  "dass": 22,
  "den": 23,
  "mit": 24,
  "wie": 25,
  "auf": 26,
  "sich": 27,
  "sind": 28,
  "aber": 29,
  "?": 30,
  ":": 31,
  "haben": 32,
  "man": 33,
  "für": 34,
  "was": 35,
  "wenn": 36,
  "er": 37,
  "als": 38,
  "so": 39,
  "an": 40,
  "diese": 41,
  "war": 42,
  "um": 43,
  "im": 44,
  "also": 45,
  "dem": 46,
  "einen": 47,
  "uns": 48,
  "können": 49,
  "hier": 50,
  "werden": 51,
  "hat": 52,
  "aus": 53,
  "oder": 54,
  "des": 55,
  "über": 56,
  "auch": 57,
  "kann": 58,
  "einer": 59,
  "sehr": 60,
  "dann": 61,
  "einem": 62,
  "nur": 63,
  "wird": 64,
  "–": 65,
  "gibt": 66,
  "ihnen": 67,
  "mich": 68,
  "menschen": 69,
  "sehen": 70,
  "sein": 71,
  "etwas": 72,
  "noch": 73,
  "dieser": 74,
  "habe": 75,
  "nach": 76,
  "mir": 77,
  "--": 78,
  "mehr": 79,
  "alle": 80,
  "vor": 81,
  "bei": 82,
  "welt": 83,
  "meine": 84,
  "nun": 85,
  "machen": 86,
  "leben": 87,
  "ihre": 88,
  "-": 89,
  "zum": 90,
  "weil": 91,
  "wirklich": 92,
  "wurde": 93,
  "dies": 94,
  "dieses": 95,
  "ver@@": 96,
  "da": 97,
  "-@@": 98,
  "tun": 99,
  "immer": 100,
  "jetzt": 101,
  "am": 102,
  "wissen": 103,
  "durch": 104,
  "ihr": 105,
  "unsere": 106,
  "hatte": 107,
  "keine": 108,
  "zeit": 109,
  "er@@": 110,
  "leute": 111,
  "viel": 112,
  "sagte": 113,
  "viele": 114,
  "diesem": 115,
  "du": 116,
  "einfach": 117,
  "denn": 118,
  "sagen": 119,
  "zwei": 120,
  "eines": 121,
  "dinge": 122,
  "diesen": 123,
  "alles": 124,
  "waren": 125,
  "bin": 126,
  "müssen": 127,
  "ge@@": 128,
  "jahren": 129,
  "andere": 130,
  "an@@": 131,
  "art": 132,
  "wo": 133,
  "würde": 134,
  "anderen": 135,
  "mein": 136,
  "damit": 137,
  "geht": 138,
  "vielleicht": 139,
  "bis": 140,
  "gut": 141,
  "ab@@": 142,
  "zur": 143,
  "selbst": 144,
  "mal": 145,
  "ein@@": 146,
  "be@@": 147,
  "aus@@": 148,
  "jahre": 149,
  "muss": 150,
  "heute": 151,
  "ten": 152,
  "warum": 153,
  "schon": 154,
  "te": 155,
  "un@@": 156,
  "ja": 157,
  "geschichte": 158,
  "möchte": 159,
  "einige": 160,
  "auf@@": 161,
  "tatsächlich": 162,
  "all": 163,
  "macht": 164,
  "gehen": 165,
  "wieder": 166,
  "denken": 167,
  "dort": 168,
  "davon": 169,
  "ganz": 170,
  "genau": 171,
  "lassen": 172,
  "kinder": 173,
  "&apos;": 174,
  "drei": 175,
  "hatten": 176,
  "ihn": 177,
  "paar": 178,
  "jahr": 179,
  "kommen": 180,
  "seine": 181,
  "könnte": 182,
  "darüber": 183,
  "werde": 184,
  "wollen": 185,
  "meiner": 186,
  "vor@@": 187,
  "ob": 188,
  "ende": 189,
  "über@@": 190,
  "wurden": 191,
  "gab": 192,
  "ihren": 193,
  "problem": 194,
  "geben": 195,
  "weg": 196,
  "gemacht": 197,
  "teil": 198,
  "beispiel": 199,
  "jeder": 200,
  "denke": 201,
  "!": 202,
  "s": 203,
  "frage": 204,
  "während": 205,
  "en": 206,
  "kein": 207,
  "glaube": 208,
  "finden": 209,
  "kommt": 210,
  "natürlich": 211,
  "doch": 212,
  "en@@": 213,
  "dazu": 214,
  "wäre": 215,
  "neue": 216,
  ";": 217,
  "unser": 218,
  "unserer": 219,
  "vom": 220,
  "sogar": 221,
  "tag": 222,
  "nichts": 223,
  "stellen": 224,
  "einmal": 225,
  "weiß": 226,
  "arbeit": 227,
  "weiter": 228,
  "ohne": 229,
  "gerade": 230,
  "denen": 231,
  "zwischen": 232,
  "zeigen": 233,
  "erste": 234,
  "sondern": 235,
  "ihrer": 236,
  "dafür": 237,
  "sieht": 238,
  "land": 239,
  "passiert": 240,
  "prozent": 241,
  "würden": 242,
  "nie": 243,
  "k@@": 244,
  "vielen": 245,
  "zurück": 246,
  "verstehen": 247,
  "ent@@": 248,
  "unter": 249,
  "ersten": 250,
  "will": 251,
  "millionen": 252,
  "große": 253,
  "sch@@": 254,
  "daran": 255,
  "bild": 256,
  "ganze": 257,
  "gen": 258,
  "s@@": 259,
  "konnte": 260,
  "nehmen": 261,
  "etwa": 262,
  "fragen": 263,
  "idee": 264,
  "zu@@": 265,
  "ung": 266,
  "bekommen": 267,
  "sagt": 268,
  "sollte": 269,
  "ziemlich": 270,
  "sprechen": 271,
  "arbeiten": 272,
  "letzten": 273,
  "kam": 274,
  "ging": 275,
  "dabei": 276,
  "wollte": 277,
  "meisten": 278,
  "sollten": 279,
  "geld": 280,
  "könnten": 281,
  "seite": 282,
  "meinem": 283,
  "frauen": 284,
  "bringen": 285,
  "wasser": 286,
  "wichtig": 287,
  "meinen": 288,
  "welche": 289,
  "sache": 290,
  "sten": 291,
  "weise": 292,
  "system": 293,
  "kleinen": 294,
  "daten": 295,
  "danke": 296,
  "technologie": 297,
  "zusammen": 298,
  "darauf": 299,
  "besser": 300,
  "eigentlich": 301,
  "weniger": 302,
  "um@@": 303,
  "dollar": 304,
  "gesehen": 305,
  "lernen": 306,
  "menge": 307,
  "t@@": 308,
  "dachte": 309,
  "brauchen": 310,
  "kleine": 311,
  "vier": 312,
  "ganzen": 313,
  "bedeutet": 314,
  "ter": 315,
  "glauben": 316,
  "a": 317,
  "ihm": 318,
  "jemand": 319,
  "großen": 320,
  "ge": 321,
  "mann": 322,
  "nein": 323,
  "raum": 324,
  "unseren": 325,
  "t": 326,
  "jedes": 327,
  "unter@@": 328,
  "versuchen": 329,
  "ihrem": 330,
  "gehirn": 331,
  "ins": 332,
  "ungen": 333,
  "schauen": 334,
  "grund": 335,
  "fall": 336,
  "ab": 337,
  "frau": 338,
  "jeden": 339,
  "wer": 340,
  "z@@": 341,
  "essen": 342,
  "g@@": 343,
  "10": 344,
  "gute": 345,
  "gesagt": 346,
  "ort": 347,
  "keinen": 348,
  "in@@": 349,
  "seit": 350,
  "lich": 351,
  "nutzen": 352,
  "spielen": 353,
  "zukunft": 354,
  "zeigt": 355,
  "fast": 356,
  "ischen": 357,
  "...": 358,
  "o@@": 359,
  "liche": 360,
  "später": 361,
  "ische": 362,
  "fünf": 363,
  "ch@@": 364,
  "indem": 365,
  "eigenen": 366,
  "erde": 367,
  "ungefähr": 368,
  "beim": 369,
  "gegen": 370,
  "heraus": 371,
  "kind": 372,
  "allen": 373,
  "person": 374,
  "halten": 375,
  "funktioniert": 376,
  "se@@": 377,
  "schaffen": 378,
  "bauen": 379,
  "hätte": 380,
  "wahrscheinlich": 381,
  "seiner": 382,
  "i": 383,
  "de": 384,
  "richtig": 385,
  "mutter": 386,
  "los": 387,
  "20": 388,
  "jede": 389,
  "d@@": 390,
  "wenig": 391,
  "e@@": 392,
  "probleme": 393,
  "arten": 394,
  "pro": 395,
  "form": 396,
  "re@@": 397,
  "eren": 398,
  "erzählen": 399,
  "ungs@@": 400,
  "ern": 401,
  "enden": 402,
  "chen": 403,
  "sicher": 404,
  "ere": 405,
  "heißt": 406,
  "dank": 407,
  "konnten": 408,
  "sah": 409,
  "bisschen": 410,
  "lichen": 411,
  "i@@": 412,
  "liebe": 413,
  "punkt": 414,
  "helfen": 415,
  "n@@": 416,
  "end": 417,
  "el@@": 418,
  "schule": 419,
  "oft": 420,
  "schnell": 421,
  "st": 422,
  "al@@": 423,
  "teilen": 424,
  "stehen": 425,
  "begann": 426,
  "lange": 427,
  "licht": 428,
  "neuen": 429,
  "moment": 430,
  "genug": 431,
  "ert": 432,
  "p@@": 433,
  "m@@": 434,
  "afrika": 435,
  "reden": 436,
  "de@@": 437,
  "körper": 438,
  "nächsten": 439,
  "möglich": 440,
  "ideen": 441,
  "durch@@": 442,
  "stadt": 443,
  "überall": 444,
  "erst": 445,
  "okay": 446,
  "lang": 447,
  "e": 448,
  "manchmal": 449,
  "nach@@": 450,
  "unserem": 451,
  "buch": 452,
  "projekt": 453,
  "%": 454,
  "gruppe": 455,
  "darum": 456,
  "euch": 457,
  "li@@": 458,
  "seinen": 459,
  "liegt": 460,
  "anders": 461,
  "milliarden": 462,
  "ste": 463,
  "f@@": 464,
  "leuten": 465,
  "je": 466,
  "gehört": 467,
  "hin": 468,
  "b@@": 469,
  "ok": 470,
  "bevor": 471,
  "hören": 472,
  "sagten": 473,
  "planeten": 474,
  "computer": 475,
  "ar@@": 476,
  "anderes": 477,
  "tes": 478,
  "st@@": 479,
  "energie": 480,
  "kennen": 481,
  "isch": 482,
  "hin@@": 483,
  "nennen": 484,
  "machte": 485,
  "tat": 486,
  "a@@": 487,
  "unternehmen": 488,
  "sei": 489,
  "g": 490,
  "r@@": 491,
  "verändern": 492,
  "führen": 493,
  "mädchen": 494,
  "entwickelt": 495,
  "di@@": 496,
  "ro@@": 497,
  "ma@@": 498,
  "deshalb": 499,
  "besonders": 500,
  "m": 501,
  "h@@": 502,
  "weit": 503,
  "steht": 504,
  "minuten": 505,
  "informationen": 506,
  "oben": 507,
  "usa": 508,
  "bilder": 509,
  "natur": 510,
  "seinem": 511,
  "wissenschaft": 512,
  "bereits": 513,
  "le@@": 514,
  "sprache": 515,
  "namens": 516,
  "erreichen": 517,
  "familie": 518,
  "verschiedene": 519,
  "30": 520,
  "antwort": 521,
  "benutzen": 522,
  "gar": 523,
  "recht": 524,
  "ti@@": 525,
  "u@@": 526,
  "gerne": 527,
  "braucht": 528,
  "musste": 529,
  "haus": 530,
  "or@@": 531,
  "50": 532,
  "sechs": 533,
  "o": 534,
  "zusammen@@": 535,
  "indien": 536,
  "gen@@": 537,
  "lebens": 538,
  "lage": 539,
  "geschichten": 540,
  "ger": 541,
  "klar": 542,
  "wert": 543,
  "mit@@": 544,
  "musik": 545,
  "dich": 546,
  "gleich": 547,
  "100": 548,
  "gefühl": 549,
  "l@@": 550,
  "wegen": 551,
  "oh": 552,
  "gt": 553,
  "eins": 554,
  "zurück@@": 555,
  "new": 556,
  "darin": 557,
  "erkennen": 558,
  "hand": 559,
  "spiel": 560,
  "stellt": 561,
  "design": 562,
  "ei@@": 563,
  "niemand": 564,
  "möglichkeit": 565,
  "einzige": 566,
  "hätten": 567,
  "zellen": 568,
  "augen": 569,
  "ger@@": 570,
  "verhalten": 571,
  "irgendwie": 572,
  "stück": 573,
  "besten": 574,
  "treffen": 575,
  "innerhalb": 576,
  "bewegen": 577,
  "soll": 578,
  "gott": 579,
  "kopf": 580,
  "ken": 581,
  "vorstellen": 582,
  "vater": 583,
  "sage": 584,
  "ändern": 585,
  "gebäude": 586,
  "stunden": 587,
  "internet": 588,
  "setzen": 589,
  "gesellschaft": 590,
  "patienten": 591,
  "schreiben": 592,
  "hoch@@": 593,
  "sachen": 594,
  "sen": 595,
  "ko@@": 596,
  "jedem": 597,
  "k": 598,
  "erten": 599,
  "beiden": 600,
  "erte": 601,
  "tiere": 602,
  "kindern": 603,
  "regierung": 604,
  "ziehen": 605,
  "wollten": 606,
  "bar": 607,
  "bitte": 608,
  "licher": 609,
  "führt": 610,
  "erhalten": 611,
  "alen": 612,
  "gleiche": 613,
  "länder": 614,
  "am@@": 615,
  "menschlichen": 616,
  "schwer": 617,
  "la@@": 618,
  "unglaublich": 619,
  "entwickeln": 620,
  "glück": 621,
  "herum": 622,
  "es@@": 623,
  "einigen": 624,
  "daher": 625,
  "obwohl": 626,
  "beginnen": 627,
  "bringt": 628,
  "gern": 629,
  "verschiedenen": 630,
  "ausge@@": 631,
  "film": 632,
  "china": 633,
  "dir": 634,
  "alt": 635,
  "nächste": 636,
  "verändert": 637,
  "überhaupt": 638,
  "hoch": 639,
  "lässt": 640,
  "kunst": 641,
  "damals": 642,
  "stand": 643,
  "universum": 644,
  "her@@": 645,
  "männer": 646,
  "ra@@": 647,
  "zer@@": 648,
  "wohl": 649,
  "verwenden": 650,
  "gleichen": 651,
  "lesen": 652,
  "fahren": 653,
  "kt": 654,
  "hause": 655,
  "nen": 656,
  "ni@@": 657,
  "versucht": 658,
  "lebens@@": 659,
  "angst": 660,
  "fühlen": 661,
  "aller": 662,
  "tut": 663,
  "bewegung": 664,
  "fand": 665,
  "wirtschaft": 666,
  "eltern": 667,
  "staaten": 668,
  "nämlich": 669,
  "unten": 670,
  "kamen": 671,
  "getan": 672,
  "ange@@": 673,
  "zahlen": 674,
  "junge": 675,
  "15": 676,
  "falls": 677,
  "auto": 678,
  "fähigkeit": 679,
  "zen": 680,
  "ter@@": 681,
  "ä@@": 682,
  "se": 683,
  "ben": 684,
  "entwicklung": 685,
  "ne": 686,
  "weitere": 687,
  "wort": 688,
  "sinn": 689,
  "ie": 690,
  "letzte": 691,
  "groß": 692,
  "hilfe": 693,
  "kurz": 694,
  "teile": 695,
  "möglichkeiten": 696,
  "em": 697,
  "stelle": 698,
  "nimmt": 699,
  "z": 700,
  "au@@": 701,
  "menschliche": 702,
  "kultur": 703,
  "tage": 704,
  "unterschied": 705,
  "kraft": 706,
  "jedoch": 707,
  "her": 708,
  "lösen": 709,
  "laufen": 710,
  "worden": 711,
  "y@@": 712,
  "on": 713,
  "schön": 714,
  "krebs": 715,
  "nachdem": 716,
  "sa@@": 717,
  "den@@": 718,
  "zwar": 719,
  "stellte": 720,
  "lösung": 721,
  "dingen": 722,
  "roboter": 723,
  "maschine": 724,
  "tragen": 725,
  "sen@@": 726,
  "ri@@": 727,
  "dessen": 728,
  "allem": 729,
  "ischer": 730,
  "erfahrung": 731,
  "genommen": 732,
  "te@@": 733,
  "ted": 734,
  "eher": 735,
  "richtung": 736,
  "modell": 737,
  "betrachten": 738,
  "eigene": 739,
  "ale": 740,
  "meines": 741,
  "muster": 742,
  "l": 743,
  "fliegen": 744,
  "der@@": 745,
  "si@@": 746,
  "nahm": 747,
  "lehrer": 748,
  "falsch": 749,
  "mag": 750,
  "york": 751,
  "zweite": 752,
  "interessant": 753,
  "ziel": 754,
  "anfang": 755,
  "kosten": 756,
  "on@@": 757,
  "prozess": 758,
  "beste": 759,
  "deren": 760,
  "2": 761,
  "alten": 762,
  "guten": 763,
  "wahr": 764,
  "erinnern": 765,
  "wasser@@": 766,
  "woche": 767,
  "mi@@": 768,
  "bi@@": 769,
  "neu": 770,
  "jungen": 771,
  "größte": 772,
  "schul@@": 773,
  "kaufen": 774,
  "bleiben": 775,
  "grunde": 776,
  "liches": 777,
  "sp@@": 778,
  "boden": 779,
  "kon@@": 780,
  "genauso": 781,
  "publikum": 782,
  "welches": 783,
  "solche": 784,
  "mussten": 785,
  "thema": 786,
  "hinter": 787,
  "tieren": 788,
  "sieben": 789,
  "s-@@": 790,
  "schließlich": 791,
  "fragte": 792,
  "wissenschaftler": 793,
  "ten@@": 794,
  "zahl": 795,
  "formen": 796,
  "bau@@": 797,
  "sollen": 798,
  "ak@@": 799,
  "bereich": 800,
  "direkt": 801,
  "d": 802,
  "video": 803,
  "lo@@": 804,
  "danach": 805,
  "verbindung": 806,
  "hand@@": 807,
  "wei@@": 808,
  "sk@@": 809,
  "namen": 810,
  "40": 811,
  "be": 812,
  "alter": 813,
  "sterben": 814,
  "ens": 815,
  "ta@@": 816,
  "wären": 817,
  "ck@@": 818,
  "chten": 819,
  "platz": 820,
  "hast": 821,
  "zuvor": 822,
  "zi@@": 823,
  "struktur": 824,
  "&#91;": 825,
  "bildung": 826,
  "wusste": 827,
  "mo@@": 828,
  "neues": 829,
  "&#93;": 830,
  "monate": 831,
  "auszu@@": 832,
  "gedanken": 833,
  "gebaut": 834,
  "autos": 835,
  "anderer": 836,
  "le": 837,
  "b": 838,
  "ur@@": 839,
  "gene": 840,
  "schen": 841,
  "me@@": 842,
  "welt@@": 843,
  "zuerst": 844,
  "plötzlich": 845,
  "mache": 846,
  "freunde": 847,
  "manche": 848,
  "besteht": 849,
  "wochen": 850,
  "zehn": 851,
  "findet": 852,
  "mon@@": 853,
  "scheint": 854,
  "reise": 855,
  "gesch@@": 856,
  "men": 857,
  "größe": 858,
  "ihres": 859,
  "beginnt": 860,
  "rei@@": 861,
  "genannt": 862,
  "as": 863,
  "gewesen": 864,
  "at@@": 865,
  "men@@": 866,
  "luft": 867,
  "ku@@": 868,
  "wachsen": 869,
  "funktionieren": 870,
  "möchten": 871,
  "technologien": 872,
  "gefunden": 873,
  "sehe": 874,
  "n": 875,
  "bereit": 876,
  "stimmt": 877,
  "erschaffen": 878,
  "völlig": 879,
  "suchen": 880,
  "anzu@@": 881,
  "schwierig": 882,
  "aussehen": 883,
  "theorie": 884,
  "legen": 885,
  "fanden": 886,
  "material": 887,
  "draußen": 888,
  "technik": 889,
  "en-@@": 890,
  "ster": 891,
  "fest": 892,
  "ell": 893,
  "tisch": 894,
  "anfangen": 895,
  "schritt": 896,
  "isches": 897,
  "reihe": 898,
  "bist": 899,
  "wer@@": 900,
  "geworden": 901,
  "tages": 902,
  "markt": 903,
  "1": 904,
  "ha@@": 905,
  "ne@@": 906,
  "passieren": 907,
  "jahrhundert": 908,
  "krieg": 909,
  "v@@": 910,
  "kom@@": 911,
  "th@@": 912,
  "brachte": 913,
  "bo@@": 914,
  "eln": 915,
  "5": 916,
  "niemals": 917,
  "u": 918,
  "bücher": 919,
  "team": 920,
  "acht": 921,
  "ländern": 922,
  "stimme": 923,
  "wieder@@": 924,
  "ka@@": 925,
  "beide": 926,
  "forschung": 927,
  "firma": 928,
  "studenten": 929,
  "mittel": 930,
  "glücklich": 931,
  "ts": 932,
  "kleines": 933,
  "zeit@@": 934,
  "gebracht": 935,
  "gingen": 936,
  "situation": 937,
  "tet": 938,
  "3": 939,
  "jemals": 940,
  "anzahl": 941,
  "h": 942,
  "egal": 943,
  "amerika": 944,
  "daraus": 945,
  "ges@@": 946,
  "mensch": 947,
  "gemeinschaft": 948,
  "miteinander": 949,
  "ellen": 950,
  "bekommt": 951,
  "ene": 952,
  "morgen": 953,
  "gruppen": 954,
  "erklären": 955,
  "nachdenken": 956,
  "bekannt": 957,
  "aufgabe": 958,
  "da@@": 959,
  "unseres": 960,
  "aufge@@": 961,
  "erung": 962,
  "ru@@": 963,
  "ges": 964,
  "hei@@": 965,
  "tatsache": 966,
  "gegeben": 967,
  "verwendet": 968,
  "foto": 969,
  "schrieb": 970,
  "wahrheit": 971,
  "gesundheit": 972,
  "grund@@": 973,
  "größten": 974,
  "fen": 975,
  "he@@": 976,
  "gelernt": 977,
  "tiert": 978,
  "tigen": 979,
  "ke": 980,
  "krankheit": 981,
  "gezeigt": 982,
  "gi@@": 983,
  "karte": 984,
  "geboren": 985,
  "pa@@": 986,
  "so@@": 987,
  "gel@@": 988,
  "che": 989,
  "oberfläche": 990,
  "aufzu@@": 991,
  "tische": 992,
  "leicht": 993,
  "kontrolle": 994,
  "is": 995,
  "ber@@": 996,
  "weg@@": 997,
  "gte": 998,
  "bare": 999,
  "interessiert": 1000,
  "gerät": 1001,
  "hälfte": 1002,
  "testen": 1003,
  "richtige": 1004,
  "soziale": 1005,
  "bewusst": 1006,
  "schlecht": 1007,
  "voll": 1008,
  "me": 1009,
  "na@@": 1010,
  "rolle": 1011,
  "entfernt": 1012,
  "einge@@": 1013,
  "allein": 1014,
  "blick": 1015,
  "geschrieben": 1016,
  "bei@@": 1017,
  "heraus@@": 1018,
  "vortrag": 1019,
  "vorstellung": 1020,
  "umgebung": 1021,
  "gebiet": 1022,
  "städte": 1023,
  "cht": 1024,
  "kan@@": 1025,
  "mar@@": 1026,
  "verbunden": 1027,
  "haupt@@": 1028,
  "sicht": 1029,
  "regeln": 1030,
  "nacht": 1031,
  "kleiner": 1032,
  "tischen": 1033,
  "ding": 1034,
  "anstatt": 1035,
  "systeme": 1036,
  "schulen": 1037,
  "ho@@": 1038,
  "generation": 1039,
  "benutzt": 1040,
  "meinung": 1041,
  "finde": 1042,
  "veränderung": 1043,
  "selbst@@": 1044,
  "erreicht": 1045,
  "jemanden": 1046,
  "elle": 1047,
  "straße": 1048,
  "bedeutung": 1049,
  "mitte": 1050,
  "meter": 1051,
  "heutzutage": 1052,
  "stark": 1053,
  "ständig": 1054,
  "einfache": 1055,
  "fehler": 1056,
  "pflanzen": 1057,
  "offensichtlich": 1058,
  "al": 1059,
  "labor": 1060,
  "neu@@": 1061,
  "links": 1062,
  "mögen": 1063,
  "freund": 1064,
  "hoffe": 1065,
  "revolution": 1066,
  "absolut": 1067,
  "komplett": 1068,
  "bewegt": 1069,
  "machten": 1070,
  "25": 1071,
  "sicherheit": 1072,
  "beziehung": 1073,
  "lei@@": 1074,
  "politik": 1075,
  "fangen": 1076,
  "versuche": 1077,
  "bekam": 1078,
  "verloren": 1079,
  "gekommen": 1080,
  "all@@": 1081,
  "dachten": 1082,
  "erzählt": 1083,
  "ch": 1084,
  "zeige": 1085,
  "hal@@": 1086,
  "fähigkeiten": 1087,
  "bilden": 1088,
  "ö@@": 1089,
  "spricht": 1090,
  "wann": 1091,
  "ordnung": 1092,
  "tier": 1093,
  "preis": 1094,
  "linie": 1095,
  "nennt": 1096,
  "chte": 1097,
  "rest": 1098,
  "du@@": 1099,
  "vereinigten": 1100,
  "gegenüber": 1101,
  "seiten": 1102,
  "tier@@": 1103,
  "ansehen": 1104,
  "trotzdem": 1105,
  "folgen": 1106,
  "denkt": 1107,
  "tige": 1108,
  "einander": 1109,
  "ker": 1110,
  "spiel@@": 1111,
  "gearbeitet": 1112,
  "sofort": 1113,
  "arbeitet": 1114,
  "lieben": 1115,
  "gu@@": 1116,
  "liegen": 1117,
  "normalerweise": 1118,
  "gesicht": 1119,
  "gesamte": 1120,
  "einzelne": 1121,
  "sonst": 1122,
  "sonne": 1123,
  "r": 1124,
  "e-@@": 1125,
  "herausforderung": 1126,
  "wichtige": 1127,
  "dar@@": 1128,
  "sorgen": 1129,
  "abzu@@": 1130,
  "do@@": 1131,
  "bar@@": 1132,
  "ähnlich": 1133,
  "geschieht": 1134,
  "studie": 1135,
  "us": 1136,
  "gten": 1137,
  "gewinnen": 1138,
  "statt": 1139,
  "tz@@": 1140,
  "zwei@@": 1141,
  "t-@@": 1142,
  "frei@@": 1143,
  "sahen": 1144,
  "fa@@": 1145,
  "erfolg": 1146,
  "gestellt": 1147,
  "cken": 1148,
  "mitgefühl": 1149,
  "ster@@": 1150,
  "punkte": 1151,
  "man@@": 1152,
  "we@@": 1153,
  "programm": 1154,
  "op@@": 1155,
  "fallen": 1156,
  "passierte": 1157,
  "taten": 1158,
  "realität": 1159,
  "begannen": 1160,
  "lichkeit": 1161,
  "information": 1162,
  "bu@@": 1163,
  "j@@": 1164,
  "hoffnung": 1165,
  "vi@@": 1166,
  "kannst": 1167,
  "voller": 1168,
  "alte": 1169,
  "ergebnis": 1170,
  "rück@@": 1171,
  "pro@@": 1172,
  "mu@@": 1173,
  "monaten": 1174,
  "zieren": 1175,
  "größer": 1176,
  "gung": 1177,
  "entscheidungen": 1178,
  "sprach": 1179,
  "bevölkerung": 1180,
  "tagen": 1181,
  "möglichen": 1182,
  "aufmerksamkeit": 1183,
  "bald": 1184,
  "spiele": 1185,
  "na": 1186,
  "hält": 1187,
  "deine": 1188,
  "v": 1189,
  "richtigen": 1190,
  "ot@@": 1191,
  "fort@@": 1192,
  "übrigens": 1193,
  "ben@@": 1194,
  "gemeinsam": 1195,
  "ung@@": 1196,
  "grenzen": 1197,
  "4": 1198,
  "ber": 1199,
  "vergessen": 1200,
  "tt@@": 1201,
  "spaß": 1202,
  "vorher": 1203,
  "schneller": 1204,
  "wussten": 1205,
  "überleben": 1206,
  "verlieren": 1207,
  "sobald": 1208,
  "langsam": 1209,
  "umwelt@@": 1210,
  "tung": 1211,
  "tod": 1212,
  "et@@": 1213,
  "lebt": 1214,
  "länger": 1215,
  "großer": 1216,
  "experiment": 1217,
  "sche": 1218,
  "ft": 1219,
  "weltweit": 1220,
  "po@@": 1221,
  "tausende": 1222,
  "—": 1223,
  "arm": 1224,
  "bewusstsein": 1225,
  "to@@": 1226,
  "zeiten": 1227,
  "c@@": 1228,
  "sitzen": 1229,
  "wi@@": 1230,
  "einzu@@": 1231,
  "nachrichten": 1232,
  "200": 1233,
  "außer": 1234,
  "80": 1235,
  "öl": 1236,
  "at": 1237,
  "heit": 1238,
  "wesen": 1239,
  "ebene": 1240,
  "industrie": 1241,
  "el": 1242,
  "orte": 1243,
  "europa": 1244,
  "computer@@": 1245,
  "bestimmt": 1246,
  "gutes": 1247,
  "produkt": 1248,
  "hinter@@": 1249,
  "voll@@": 1250,
  "ß@@": 1251,
  "gesprochen": 1252,
  "ser@@": 1253,
  "nahmen": 1254,
  "herauszufinden": 1255,
  "anschauen": 1256,
  "großes": 1257,
  "wahl": 1258,
  "beispiele": 1259,
  "künstler": 1260,
  "cher": 1261,
  "beobachten": 1262,
  "det": 1263,
  "klasse": 1264,
  "elt": 1265,
  "versch@@": 1266,
  "feld": 1267,
  "führte": 1268,
  "gleichzeitig": 1269,
  "evolution": 1270,
  "f": 1271,
  "mittel@@": 1272,
  "is@@": 1273,
  "medien": 1274,
  "w@@": 1275,
  "job": 1276,
  "geschehen": 1277,
  "außerdem": 1278,
  "än@@": 1279,
  "interessante": 1280,
  "gang": 1281,
  "12": 1282,
  "aussieht": 1283,
  "wieso": 1284,
  "messen": 1285,
  "sti@@": 1286,
  "wichtiger": 1287,
  "weiter@@": 1288,
  "bessere": 1289,
  "zweiten": 1290,
  "umwelt": 1291,
  "3@@": 1292,
  "farbe": 1293,
  "sozialen": 1294,
  "d-@@": 1295,
  "zelle": 1296,
  "arbeitete": 1297,
  "versuchte": 1298,
  "bestimmten": 1299,
  "medizin": 1300,
  "bleibt": 1301,
  "produzieren": 1302,
  "gegangen": 1303,
  "handelt": 1304,
  "mü@@": 1305,
  "hört": 1306,
  "orten": 1307,
  "hen": 1308,
  "sekunden": 1309,
  "fer@@": 1310,
  "baren": 1311,
  "fe@@": 1312,
  "zentrum": 1313,
  "kl@@": 1314,
  "firmen": 1315,
  "holen": 1316,
  "60": 1317,
  "einzelnen": 1318,
  "hab": 1319,
  "500": 1320,
  "demokratie": 1321,
  "drei@@": 1322,
  "sprachen": 1323,
  "besch@@": 1324,
  "fest@@": 1325,
  "/": 1326,
  "tig": 1327,
  "2@@": 1328,
  "ers": 1329,
  "methode": 1330,
  "einfluss": 1331,
  "war@@": 1332,
  "nachricht": 1333,
  "amerikaner": 1334,
  "arzt": 1335,
  "krankheiten": 1336,
  "vier@@": 1337,
  "konzept": 1338,
  "ste@@": 1339,
  "frei": 1340,
  "laden": 1341,
  "schaut": 1342,
  "universität": 1343,
  "verbessern": 1344,
  "wider@@": 1345,
  "werte": 1346,
  "warten": 1347,
  "papier": 1348,
  "großartige": 1349,
  "entdecken": 1350,
  "fällt": 1351,
  "amerikanischen": 1352,
  "rede": 1353,
  "läuft": 1354,
  "designer": 1355,
  "ton": 1356,
  "spezies": 1357,
  "gende": 1358,
  "öl@@": 1359,
  "zustand": 1360,
  "sowohl": 1361,
  "fahr@@": 1362,
  "klein": 1363,
  "körper@@": 1364,
  "nenne": 1365,
  "dna": 1366,
  "personen": 1367,
  "dadurch": 1368,
  "arbeits@@": 1369,
  "befinden": 1370,
  "haut": 1371,
  "mikro@@": 1372,
  "wirklichkeit": 1373,
  "lich@@": 1374,
  "dorf": 1375,
  "eben": 1376,
  "nachzudenken": 1377,
  "per@@": 1378,
  "innovation": 1379,
  "nummer": 1380,
  "wand": 1381,
  "toll": 1382,
  "schicken": 1383,
  "vergangenheit": 1384,
  "zeug": 1385,
  "zumindest": 1386,
  "ler": 1387,
  "kar@@": 1388,
  "david": 1389,
  "kli@@": 1390,
  "pi@@": 1391,
  "strom": 1392,
  "wa@@": 1393,
  "suche": 1394,
  "fing": 1395,
  "typ": 1396,
  "prinzip": 1397,
  "organisation": 1398,
  "erlaubt": 1399,
  "werfen": 1400,
  "bühne": 1401,
  "abge@@": 1402,
  "monat": 1403,
  "grad": 1404,
  "hinaus": 1405,
  "herstellen": 1406,
  "solchen": 1407,
  "inter@@": 1408,
  "fe": 1409,
  "verlassen": 1410,
  "ses": 1411,
  "mathematik": 1412,
  "of": 1413,
  "menschheit": 1414,
  "rechts": 1415,
  "früher": 1416,
  "version": 1417,
  "6": 1418,
  "herum@@": 1419,
  "fotos": 1420,
  "name": 1421,
  "worte": 1422,
  "setzt": 1423,
  "erzeugen": 1424,
  "gründen": 1425,
  "dritte": 1426,
  "diejenigen": 1427,
  "stellten": 1428,
  "tete": 1429,
  "ozean": 1430,
  "behandlung": 1431,
  "par@@": 1432,
  "gründe": 1433,
  "aufgrund": 1434,
  "tion@@": 1435,
  "irgendwo": 1436,
  "arbeite": 1437,
  "dasselbe": 1438,
  "geist": 1439,
  "ki@@": 1440,
  "interesse": 1441,
  "gkeit": 1442,
  "as@@": 1443,
  "gewalt": 1444,
  "pu@@": 1445,
  "ck": 1446,
  "super@@": 1447,
  "neben": 1448,
  "befindet": 1449,
  "artikel": 1450,
  "spielt": 1451,
  "verstand": 1452,
  "stre@@": 1453,
  "sh@@": 1454,
  "sammeln": 1455,
  "»": 1456,
  "materialien": 1457,
  "antworten": 1458,
  "unmöglich": 1459,
  "ff@@": 1460,
  "verstanden": 1461,
  "google": 1462,
  "welcher": 1463,
  "entdeckt": 1464,
  "schüler": 1465,
  "18": 1466,
  "bt": 1467,
  "satz": 1468,
  "kinder@@": 1469,
  "gleich@@": 1470,
  "globalen": 1471,
  "zugang": 1472,
  "gefragt": 1473,
  "liste": 1474,
  "us@@": 1475,
  "stunde": 1476,
  "studien": 1477,
  "land@@": 1478,
  "selben": 1479,
  "qu@@": 1480,
  "traf": 1481,
  "mer": 1482,
  "oren": 1483,
  "ziert": 1484,
  "the": 1485,
  "sohn": 1486,
  "hervor@@": 1487,
  "8": 1488,
  "naja": 1489,
  "kte": 1490,
  "ften": 1491,
  "nahrung": 1492,
  "entschieden": 1493,
  "«": 1494,
  "innen": 1495,
  "br@@": 1496,
  "ner": 1497,
  "betrachtet": 1498,
  "to": 1499,
  "architektur": 1500,
  "einfachen": 1501,
  "a-@@": 1502,
  "test": 1503,
  "kor@@": 1504,
  "ze": 1505,
  "geschäft": 1506,
  "iert": 1507,
  "wachstum": 1508,
  "dern": 1509,
  "riesige": 1510,
  "gend": 1511,
  "geschwindigkeit": 1512,
  "neun": 1513,
  "sinne": 1514,
  "eller": 1515,
  "leisten": 1516,
  "fi@@": 1517,
  "familien": 1518,
  "maschinen": 1519,
  "geb@@": 1520,
  "lösungen": 1521,
  "ja@@": 1522,
  "hilft": 1523,
  "biologie": 1524,
  "leider": 1525,
  "x": 1526,
  "großartig": 1527,
  "produkte": 1528,
  "region": 1529,
  "kt@@": 1530,
  "armut": 1531,
  "reichen": 1532,
  "c": 1533,
  "ü@@": 1534,
  "kollegen": 1535,
  "himmel": 1536,
  "entweder": 1537,
  "ds": 1538,
  "handeln": 1539,
  "eis": 1540,
  "ieren": 1541,
  "kunst@@": 1542,
  "netz": 1543,
  "plan": 1544,
  "versuch": 1545,
  "pf@@": 1546,
  "re": 1547,
  "ergebnisse": 1548,
  "kaum": 1549,
  "treten": 1550,
  "stimmen": 1551,
  "zeigte": 1552,
  "zunächst": 1553,
  "extrem": 1554,
  "ebenso": 1555,
  "kten": 1556,
  "freiheit": 1557,
  "verständnis": 1558,
  "untersuchen": 1559,
  "verbinden": 1560,
  "keiner": 1561,
  "fällen": 1562,
  "tr@@": 1563,
  "enen": 1564,
  "hiv": 1565,
  "fisch": 1566,
  "pp@@": 1567,
  "spitze": 1568,
  "million": 1569,
  "tief@@": 1570,
  "erstens": 1571,
  "vertrauen": 1572,
  "bestimmte": 1573,
  "ckt": 1574,
  "beginn": 1575,
  "aler": 1576,
  "näher": 1577,
  "schlechte": 1578,
  "onen": 1579,
  "schönheit": 1580,
  "digen": 1581,
  "mp@@": 1582,
  "hörte": 1583,
  "verkaufen": 1584,
  "schlagen": 1585,
  "gra@@": 1586,
  "deswegen": 1587,
  "ca.": 1588,
  "energie@@": 1589,
  "ir@@": 1590,
  "hielt": 1591,
  "dein": 1592,
  "bisher": 1593,
  "ebenfalls": 1594,
  "reaktion": 1595,
  "ermöglicht": 1596,
  "ms": 1597,
  "fertig": 1598,
  "raus": 1599,
  "wichtigste": 1600,
  "entscheiden": 1601,
  "ressourcen": 1602,
  "uhr": 1603,
  "chance": 1604,
  "bio@@": 1605,
  "komme": 1606,
  "ließ": 1607,
  "teten": 1608,
  "bedingungen": 1609,
  "tionen": 1610,
  "herz": 1611,
  "objekt": 1612,
  "18@@": 1613,
  "hände": 1614,
  "ine": 1615,
  "hundert": 1616,
  "ar": 1617,
  "tiger": 1618,
  "außerhalb": 1619,
  "kal@@": 1620,
  "gesamten": 1621,
  "x@@": 1622,
  "virus": 1623,
  "kampf": 1624,
  "unglaubliche": 1625,
  "for@@": 1626,
  "lasst": 1627,
  "lag": 1628,
  "meer": 1629,
  "retten": 1630,
  "bakterien": 1631,
  "rechten": 1632,
  "auto@@": 1633,
  "drehen": 1634,
  "kamera": 1635,
  "ern@@": 1636,
  "tem": 1637,
  "getroffen": 1638,
  "projekte": 1639,
  "trifft": 1640,
  "eigen@@": 1641,
  "rechte": 1642,
  "druck": 1643,
  "letztes": 1644,
  "herz@@": 1645,
  "dreht": 1646,
  "steigen": 1647,
  "verrückt": 1648,
  "and": 1649,
  "ehrlich": 1650,
  "gl@@": 1651,
  "endlich": 1652,
  "000": 1653,
  "daten@@": 1654,
  "unterschiede": 1655,
  "erzählte": 1656,
  "nehme": 1657,
  "tzen": 1658,
  "är@@": 1659,
  "krankenhaus": 1660,
  "schließen": 1661,
  "gegen@@": 1662,
  "genen": 1663,
  "luft@@": 1664,
  "gesetz": 1665,
  ".@@": 1666,
  "sch": 1667,
  "gesundheits@@": 1668,
  "gel": 1669,
  "erwarten": 1670,
  "chen@@": 1671,
  "groß@@": 1672,
  "wohn@@": 1673,
  "licht@@": 1674,
  "km": 1675,
  "90": 1676,
  "halte": 1677,
  "unterschiedliche": 1678,
  "fälle": 1679,
  "gehirn@@": 1680,
  "us-@@": 1681,
  "bau": 1682,
  "einzigen": 1683,
  "erfolgreich": 1684,
  "armen": 1685,
  "it@@": 1686,
  "y": 1687,
  "zeitpunkt": 1688,
  "cht@@": 1689,
  "geschaffen": 1690,
  "kr@@": 1691,
  "erklärt": 1692,
  "wege": 1693,
  "län@@": 1694,
  "ke@@": 1695,
  "werk": 1696,
  "erinnere": 1697,
  "eigenschaften": 1698,
  "lernte": 1699,
  "zeichen": 1700,
  "sei@@": 1701,
  "leidenschaft": 1702,
  "auge": 1703,
  "tions@@": 1704,
  "wür@@": 1705,
  "landes": 1706,
  "worten": 1707,
  "ex@@": 1708,
  "software": 1709,
  "natur@@": 1710,
  "schützen": 1711,
  "zweitens": 1712,
  "rund": 1713,
  "gehe": 1714,
  "strukturen": 1715,
  "erfahren": 1716,
  "traum": 1717,
  "straßen": 1718,
  "typen": 1719,
  "su@@": 1720,
  "freude": 1721,
  "zei@@": 1722,
  "masse": 1723,
  "ser": 1724,
  "herausfinden": 1725,
  "john": 1726,
  "ahnung": 1727,
  "seines": 1728,
  "organisationen": 1729,
  "bin@@": 1730,
  "hr@@": 1731,
  "ker@@": 1732,
  "hunderte": 1733,
  "abend": 1734,
  "ans": 1735,
  "beziehungen": 1736,
  "englisch": 1737,
  "regel": 1738,
  "geräte": 1739,
  "cke": 1740,
  "bezug": 1741,
  "osten": 1742,
  "stische": 1743,
  "om@@": 1744,
  "kern": 1745,
  "are": 1746,
  "schutz": 1747,
  "brauchte": 1748,
  "gedacht": 1749,
  "westen": 1750,
  "mal@@": 1751,
  "öffentlichen": 1752,
  "dung": 1753,
  "langen": 1754,
  "finger": 1755,
  "netzwerk": 1756,
  "tief": 1757,
  "stern": 1758,
  "san@@": 1759,
  "je@@": 1760,
  "produktion": 1761,
  "konferenz": 1762,
  "wohin": 1763,
  "gehirns": 1764,
  "flugzeug": 1765,
  "erfunden": 1766,
  "angefangen": 1767,
  "tten": 1768,
  "ig@@": 1769,
  "globale": 1770,
  "leiden": 1771,
  "auswirkungen": 1772,
  "führung": 1773,
  "leistung": 1774,
  "hängt": 1775,
  "mehrere": 1776,
  "bäume": 1777,
  "im@@": 1778,
  "erleben": 1779,
  "lö@@": 1780,
  "äu@@": 1781,
  "sta@@": 1782,
  "behandeln": 1783,
  "ad@@": 1784,
  "desto": 1785,
  "os": 1786,
  "verantwortung": 1787,
  "schw@@": 1788,
  "co@@": 1789,
  "ner@@": 1790,
  "z.b.": 1791,
  "geschah": 1792,
  "gebe": 1793,
  "tri@@": 1794,
  "zug": 1795,
  "4@@": 1796,
  "fehl@@": 1797,
  "erfahrungen": 1798,
  "ärzte": 1799,
  "ts@@": 1800,
  "seien": 1801,
  "nahe": 1802,
  "gesellschaften": 1803,
  "regierungen": 1804,
  "elles": 1805,
  "entschied": 1806,
  "karten": 1807,
  "sekunde": 1808,
  "schluss": 1809,
  "büro": 1810,
  "religion": 1811,
  "ssen": 1812,
  "wählen": 1813,
  "go@@": 1814,
  "echt": 1815,
  "lie@@": 1816,
  "farben": 1817,
  "stoff": 1818,
  "genden": 1819,
  "sal@@": 1820,
  "mor@@": 1821,
  "weisen": 1822,
  "stecken": 1823,
  "runter": 1824,
  "systems": 1825,
  "ganzes": 1826,
  "er-@@": 1827,
  "raum@@": 1828,
  "nieder@@": 1829,
  "weiss": 1830,
  "hn@@": 1831,
  "chris": 1832,
  "wichtigsten": 1833,
  "fragt": 1834,
  "lief": 1835,
  "medikamente": 1836,
  "online": 1837,
  "herzustellen": 1838,
  "endes": 1839,
  "gaben": 1840,
  "verbindungen": 1841,
  "hinein": 1842,
  "bel@@": 1843,
  "jahrhunderts": 1844,
  "sicherlich": 1845,
  "öffnen": 1846,
  "menschen@@": 1847,
  "neuronen": 1848,
  "fühlte": 1849,
  "geführt": 1850,
  "tern": 1851,
  "fen@@": 1852,
  "em@@": 1853,
  "lu@@": 1854,
  "hey": 1855,
  "ums": 1856,
  "echte": 1857,
  "zen@@": 1858,
  "erstaunlich": 1859,
  "stattdessen": 1860,
  "guter": 1861,
  "kostet": 1862,
  "tra@@": 1863,
  "dr.": 1864,
  "werkzeuge": 1865,
  "tre@@": 1866,
  "größeren": 1867,
  "one": 1868,
  "son": 1869,
  "jemandem": 1870,
  "loch": 1871,
  "teil@@": 1872,
  "jene": 1873,
  "herzen": 1874,
  "waffen": 1875,
  "veränderungen": 1876,
  "geschafft": 1877,
  "wunsch": 1878,
  "größere": 1879,
  "begonnen": 1880,
  "fähig": 1881,
  "sonnen@@": 1882,
  "erstes": 1883,
  "konzentrieren": 1884,
  "äre": 1885,
  "ismus": 1886,
  "nt": 1887,
  "fuß": 1888,
  "produziert": 1889,
  "los@@": 1890,
  "tochter": 1891,
  "nor@@": 1892,
  "spreche": 1893,
  "kilometer": 1894,
  "existiert": 1895,
  "fühlt": 1896,
  "modelle": 1897,
  "schöne": 1898,
  "gefühle": 1899,
  "ph@@": 1900,
  "höhe": 1901,
  "verbringen": 1902,
  "fluss": 1903,
  "verursacht": 1904,
  "wenige": 1905,
  "genutzt": 1906,
  "ppen": 1907,
  "beeinflusst": 1908,
  "alität": 1909,
  "mm@@": 1910,
  "heutigen": 1911,
  "brot": 1912,
  "tür": 1913,
  "schaft": 1914,
  "spieler": 1915,
  "frühen": 1916,
  "fin@@": 1917,
  "komplexität": 1918,
  "infrastruktur": 1919,
  "freunden": 1920,
  "pri@@": 1921,
  "p": 1922,
  "qualität": 1923,
  "schätzen": 1924,
  "aktivität": 1925,
  "stein": 1926,
  "reich": 1927,
  "wagen": 1928,
  "fü@@": 1929,
  "amerikanische": 1930,
  "staat": 1931,
  "position": 1932,
  "greifen": 1933,
  "no@@": 1934,
  "mis@@": 1935,
  "flug@@": 1936,
  "lehr@@": 1937,
  "reisen": 1938,
  "ernst": 1939,
  "eigenes": 1940,
  "fleisch": 1941,
  "einkommen": 1942,
  "schafft": 1943,
  "fühle": 1944,
  "dorthin": 1945,
  "300": 1946,
  "vorbei": 1947,
  "folgendes": 1948,
  "ell@@": 1949,
  "erzeugt": 1950,
  "fernsehen": 1951,
  "schutz@@": 1952,
  "senden": 1953,
  "kommunikation": 1954,
  "wind": 1955,
  "unterstützen": 1956,
  "wörter": 1957,
  "nächstes": 1958,
  "lose": 1959,
  "wirtschafts@@": 1960,
  "krise": 1961,
  "folge": 1962,
  "erlauben": 1963,
  "hu@@": 1964,
  "pen@@": 1965,
  "16": 1966,
  "len": 1967,
  "fer": 1968,
  "nutz@@": 1969,
  "zusammenhang": 1970,
  "ment@@": 1971,
  "funktion": 1972,
  "bri@@": 1973,
  "linken": 1974,
  "har@@": 1975,
  "ien": 1976,
  "augen@@": 1977,
  "ken@@": 1978,
  "physik": 1979,
  "brechen": 1980,
  "kriegen": 1981,
  "ausdruck": 1982,
  "gewebe": 1983,
  "tolle": 1984,
  "dr@@": 1985,
  "ren": 1986,
  "arme": 1987,
  "end@@": 1988,
  "stücke": 1989,
  "por@@": 1990,
  "sucht": 1991,
  "mer@@": 1992,
  "gewicht": 1993,
  "prä@@": 1994,
  "enten": 1995,
  "somit": 1996,
  "rate": 1997,
  "entscheidung": 1998,
  "weiterhin": 1999,
  "7": 2000,
  "chs": 2001,
  "nicht-@@": 2002,
  "str@@": 2003,
  "kra@@": 2004,
  "museum": 2005,
  "begriff": 2006,
  "roten": 2007,
  "stolz": 2008,
  "ju@@": 2009,
  "kreativität": 2010,
  "allerdings": 2011,
  "gelegenheit": 2012,
  "zog": 2013,
  "mars": 2014,
  "fenster": 2015,
  "einzel@@": 2016,
  "losen": 2017,
  "emp@@": 2018,
  "steckt": 2019,
  "lau@@": 2020,
  "partner": 2021,
  "quelle": 2022,
  "aufgenommen": 2023,
  "lin@@": 2024,
  "des@@": 2025,
  "hä@@": 2026,
  "ausbildung": 2027,
  "trägt": 2028,
  "feuer": 2029,
  "afghanistan": 2030,
  "ären": 2031,
  "gew@@": 2032,
  "familien@@": 2033,
  "materie": 2034,
  "hü@@": 2035,
  "klingt": 2036,
  "atom@@": 2037,
  "ted-@@": 2038,
  "zimmer": 2039,
  "schü@@": 2040,
  "the@@": 2041,
  "entstehen": 2042,
  "win@@": 2043,
  "wirst": 2044,
  "city": 2045,
  "benötigt": 2046,
  "scher": 2047,
  "del@@": 2048,
  "vergleich": 2049,
  "sex": 2050,
  "heiten": 2051,
  "trotz": 2052,
  "dis@@": 2053,
  "sozusagen": 2054,
  "botschaft": 2055,
  "irgendwann": 2056,
  "bestehen": 2057,
  "hart": 2058,
  "fische": 2059,
  "tungen": 2060,
  "filme": 2061,
  "universums": 2062,
  "beine": 2063,
  "stell@@": 2064,
  "habt": 2065,
  "band": 2066,
  "ma": 2067,
  "selber": 2068,
  "nochmal": 2069,
  "leid": 2070,
  "kraft@@": 2071,
  "ches": 2072,
  "sterne": 2073,
  "scheinen": 2074,
  "zieht": 2075,
  "min@@": 2076,
  "70": 2077,
  "schwer@@": 2078,
  "einsatz": 2079,
  "sodass": 2080,
  "massen@@": 2081,
  "einfacher": 2082,
  "aller@@": 2083,
  "ober@@": 2084,
  "ecke": 2085,
  "berei@@": 2086,
  "ga@@": 2087,
  "scht": 2088,
  "laut": 2089,
  "heben": 2090,
  "perspektive": 2091,
  "sam@@": 2092,
  "effekt": 2093,
  "ender": 2094,
  "soldaten": 2095,
  "lan@@": 2096,
  "nähe": 2097,
  "wahrscheinlichkeit": 2098,
  "offen": 2099,
  "mt": 2100,
  "baby": 2101,
  "7@@": 2102,
  "fläche": 2103,
  "lautet": 2104,
  "natürliche": 2105,
  "modernen": 2106,
  "politischen": 2107,
  "vielfalt": 2108,
  "ton@@": 2109,
  "wert@@": 2110,
  "kämpfen": 2111,
  "großbritannien": 2112,
  "darf": 2113,
  "bes@@": 2114,
  "politische": 2115,
  "ation": 2116,
  "benötigen": 2117,
  "sieren": 2118,
  "töten": 2119,
  "videos": 2120,
  "frieden": 2121,
  "bitten": 2122,
  "bezahlen": 2123,
  "daß": 2124,
  "weiteres": 2125,
  "schlag": 2126,
  "stra@@": 2127,
  "bildern": 2128,
  "wal@@": 2129,
  "cker": 2130,
  "erforschen": 2131,
  "aufgaben": 2132,
  "zell@@": 2133,
  "dagegen": 2134,
  "verfügung": 2135,
  "kontrollieren": 2136,
  "tan@@": 2137,
  "haufen": 2138,
  "investieren": 2139,
  "städten": 2140,
  "kunden": 2141,
  "hi@@": 2142,
  "haft": 2143,
  "dritten": 2144,
  "fortschritt": 2145,
  "berg": 2146,
  "kenne": 2147,
  "meeres@@": 2148,
  "treiben": 2149,
  "fte": 2150,
  "y-@@": 2151,
  "erinnert": 2152,
  "sparen": 2153,
  "gesetze": 2154,
  "bra@@": 2155,
  "zogen": 2156,
  "räume": 2157,
  "vermutlich": 2158,
  "steigt": 2159,
  "gilt": 2160,
  "flu@@": 2161,
  "sitzt": 2162,
  "männern": 2163,
  "ach@@": 2164,
  "mögliche": 2165,
  "wissenschaftliche": 2166,
  "kräfte": 2167,
  "code": 2168,
  "weiteren": 2169,
  "ze@@": 2170,
  "mond": 2171,
  "gan@@": 2172,
  "ansatz": 2173,
  "ändert": 2174,
  "werkzeug": 2175,
  "dennoch": 2176,
  "ol@@": 2177,
  "london": 2178,
  "il@@": 2179,
  "ess@@": 2180,
  "zuhause": 2181,
  "verkauft": 2182,
  "intelligenz": 2183,
  "legt": 2184,
  "organismen": 2185,
  "wand@@": 2186,
  "les@@": 2187,
  "fort": 2188,
  "objekte": 2189,
  "vollkommen": 2190,
  "gsten": 2191,
  "welchen": 2192,
  "wesentlichen": 2193,
  "klang": 2194,
  "verdienen": 2195,
  "20.": 2196,
  "verfolgen": 2197,
  "perfekt": 2198,
  "vollständig": 2199,
  "form@@": 2200,
  "bewegungen": 2201,
  "hinein@@": 2202,
  "starb": 2203,
  "tro@@": 2204,
  "entlang": 2205,
  "richard": 2206,
  "ht": 2207,
  "tausend": 2208,
  "gestern": 2209,
  "reagieren": 2210,
  "wiederum": 2211,
  "ba@@": 2212,
  "entwickelten": 2213,
  "kontakt": 2214,
  "gewonnen": 2215,
  "teilchen": 2216,
  "behalten": 2217,
  "problemen": 2218,
  "kurzem": 2219,
  "kur@@": 2220,
  "titel": 2221,
  "entwerfen": 2222,
  "hirn@@": 2223,
  "methoden": 2224,
  "möglicherweise": 2225,
  "saß": 2226,
  "volle": 2227,
  "and@@": 2228,
  "ermöglichen": 2229,
  "cool": 2230,
  "besitzen": 2231,
  "phänomen": 2232,
  "kin@@": 2233,
  "atmosphäre": 2234,
  "6@@": 2235,
  "bl@@": 2236,
  "beschäftigt": 2237,
  "steuern": 2238,
  "moleküle": 2239,
  "ließen": 2240,
  "risiko": 2241,
  "durchgeführt": 2242,
  "fragten": 2243,
  "ing@@": 2244,
  "gei@@": 2245,
  "meistens": 2246,
  "strei@@": 2247,
  "behandelt": 2248,
  "gemeinde": 2249,
  "beschreiben": 2250,
  "unbedingt": 2251,
  "ah": 2252,
  "riesigen": 2253,
  "herausgefunden": 2254,
  "wächst": 2255,
  "s.": 2256,
  "mission": 2257,
  "grenze": 2258,
  "or": 2259,
  "gestalten": 2260,
  "k-@@": 2261,
  "car@@": 2262,
  "dieselbe": 2263,
  "11": 2264,
  "gebiete": 2265,
  "fuhr": 2266,
  "bild@@": 2267,
  "lebte": 2268,
  "mel@@": 2269,
  "leben@@": 2270,
  "vision": 2271,
  "eis@@": 2272,
  "lachen": 2273,
  "fal@@": 2274,
  "lieren": 2275,
  "cher@@": 2276,
  "igen": 2277,
  "basis": 2278,
  "schwester": 2279,
  "arbeiter": 2280,
  "geschäfts@@": 2281,
  "veröffentlicht": 2282,
  "hel@@": 2283,
  "unterschiedlichen": 2284,
  "wirkung": 2285,
  "zufällig": 2286,
  "ang@@": 2287,
  "hergestellt": 2288,
  "wahre": 2289,
  "gelangen": 2290,
  "lass": 2291,
  "milliarde": 2292,
  "zeichnen": 2293,
  "davor": 2294,
  "elemente": 2295,
  "mehr@@": 2296,
  "kern@@": 2297,
  "19@@": 2298,
  "hoffentlich": 2299,
  "hauptsächlich": 2300,
  "sä@@": 2301,
  "woher": 2302,
  "hrt": 2303,
  "setzte": 2304,
  "kennt": 2305,
  "ban@@": 2306,
  "mütter": 2307,
  "barkeit": 2308,
  "unterstützung": 2309,
  "pe@@": 2310,
  "drittel": 2311,
  "kommunizieren": 2312,
  "9": 2313,
  "gefängnis": 2314,
  "lichsten": 2315,
  "wunderbare": 2316,
  "letztendlich": 2317,
  "schi@@": 2318,
  "gehalten": 2319,
  "jo@@": 2320,
  "jahres": 2321,
  "sel": 2322,
  "wohl@@": 2323,
  "temperatur": 2324,
  "ul@@": 2325,
  "basiert": 2326,
  "meilen": 2327,
  "stufe": 2328,
  "wuchs": 2329,
  "lern@@": 2330,
  "deutlich": 2331,
  "siert": 2332,
  "rein": 2333,
  "ente": 2334,
  "irgendetwas": 2335,
  "dauert": 2336,
  "bett": 2337,
  "dahin": 2338,
  "buchstäblich": 2339,
  "trag@@": 2340,
  "sommer": 2341,
  "falsche": 2342,
  "themen": 2343,
  "laufe": 2344,
  "stei@@": 2345,
  "insekten": 2346,
  "tierte": 2347,
  "kreis": 2348,
  "ameisen": 2349,
  "umgehen": 2350,
  "erstellen": 2351,
  "reicht": 2352,
  "worüber": 2353,
  "experimente": 2354,
  "tur@@": 2355,
  "sau@@": 2356,
  "lauf@@": 2357,
  "verbracht": 2358,
  "ka": 2359,
  "weder": 2360,
  "jungs": 2361,
  "lebten": 2362,
  "ant@@": 2363,
  "stischen": 2364,
  "wunderbar": 2365,
  "park": 2366,
  "ei": 2367,
  "14": 2368,
  "ß": 2369,
  "sin@@": 2370,
  "gesetzt": 2371,
  "baum": 2372,
  "klimawandel": 2373,
  "anti@@": 2374,
  "schwarze": 2375,
  "hohe": 2376,
  "kurze": 2377,
  "llen": 2378,
  "fach@@": 2379,
  "ologie": 2380,
  "aufnahme": 2381,
  "see": 2382,
  "wo@@": 2383,
  "beeinflussen": 2384,
  "täglich": 2385,
  "hohen": 2386,
  "begeistert": 2387,
  "9@@": 2388,
  "übertragen": 2389,
  "bürger": 2390,
  "zusammenarbeit": 2391,
  "ßen": 2392,
  "präsident": 2393,
  "zt": 2394,
  "lauf": 2395,
  "erin": 2396,
  "karriere": 2397,
  "gelöst": 2398,
  "brauche": 2399,
  "sinn@@": 2400,
  "fl@@": 2401,
  "fu@@": 2402,
  "ßt": 2403,
  "kü@@": 2404,
  "entwickelte": 2405,
  "gefä@@": 2406,
  "deten": 2407,
  "stri@@": 2408,
  "erzähle": 2409,
  "hund": 2410,
  "len@@": 2411,
  "häuser": 2412,
  "erwartet": 2413,
  "viren": 2414,
  "wandel": 2415,
  "landschaft": 2416,
  "dete": 2417,
  "gelegt": 2418,
  "verantwortlich": 2419,
  "ob@@": 2420,
  "großteil": 2421,
  "forscher": 2422,
  "blu@@": 2423,
  "geburt": 2424,
  "alleine": 2425,
  "star@@": 2426,
  "knochen": 2427,
  "sse": 2428,
  "gest@@": 2429,
  "entsteht": 2430,
  "film@@": 2431,
  "ven": 2432,
  "maus": 2433,
  "seh@@": 2434,
  "ran@@": 2435,
  "gedanke": 2436,
  "nen@@": 2437,
  "he": 2438,
  "tel": 2439,
  "haus@@": 2440,
  "kümmern": 2441,
  "dro@@": 2442,
  "aufhören": 2443,
  "offen@@": 2444,
  "morgens": 2445,
  "gewissen": 2446,
  "wahr@@": 2447,
  "nannte": 2448,
  "stoff@@": 2449,
  "tsch@@": 2450,
  "bildschirm": 2451,
  "könnt": 2452,
  "experten": 2453,
  "ziele": 2454,
  "schwimmen": 2455,
  "bal@@": 2456,
  "brachten": 2457,
  "verhindern": 2458,
  "neuer": 2459,
  "400": 2460,
  "versuchten": 2461,
  "betrifft": 2462,
  "opfer": 2463,
  "rücken": 2464,
  "gefahr": 2465,
  "jobs": 2466,
  "handel": 2467,
  "2000": 2468,
  "mitten": 2469,
  "herr": 2470,
  "verbreitet": 2471,
  "zählen": 2472,
  "lernt": 2473,
  "elten": 2474,
  "erster": 2475,
  "gem": 2476,
  "schrift": 2477,
  "rat": 2478,
  "wow": 2479,
  "gie": 2480,
  "ktion": 2481,
  "gespielt": 2482,
  "blut": 2483,
  "normale": 2484,
  "buch@@": 2485,
  "rief": 2486,
  "zung": 2487,
  "tiefe": 2488,
  "tal@@": 2489,
  "aktiv": 2490,
  "lieber": 2491,
  "getötet": 2492,
  "wisst": 2493,
  "24": 2494,
  "schla@@": 2495,
  "denk@@": 2496,
  "japan": 2497,
  "eu@@": 2498,
  "glück@@": 2499,
  "lä@@": 2500,
  "vergleichen": 2501,
  "passt": 2502,
  "normalen": 2503,
  "wel@@": 2504,
  "besseren": 2505,
  "mengen": 2506,
  "vorteil": 2507,
  "wunder@@": 2508,
  "aids": 2509,
  "wissenschaftlichen": 2510,
  "anderem": 2511,
  "vögel": 2512,
  "don@@": 2513,
  "baut": 2514,
  "werbung": 2515,
  "sozial@@": 2516,
  "it": 2517,
  "gs": 2518,
  "zeitalter": 2519,
  "per": 2520,
  "total": 2521,
  "praktisch": 2522,
  "babys": 2523,
  "nä@@": 2524,
  "elte": 2525,
  "gän@@": 2526,
  "überzeugen": 2527,
  "werke": 2528,
  "klein@@": 2529,
  "hintergrund": 2530,
  "regen@@": 2531,
  "raus@@": 2532,
  "kontext": 2533,
  "lebewesen": 2534,
  "ähnliche": 2535,
  "verlangen": 2536,
  "passen": 2537,
  "tue": 2538,
  "spüren": 2539,
  "führten": 2540,
  "bur@@": 2541,
  "sches": 2542,
  "unge@@": 2543,
  "affen": 2544,
  "sorge": 2545,
  "erstaunliche": 2546,
  "bereiche": 2547,
  "schicht": 2548,
  "kalifornien": 2549,
  "ie@@": 2550,
  "kat@@": 2551,
  "bemerkt": 2552,
  "landwirtschaft": 2553,
  "relativ": 2554,
  "spezi@@": 2555,
  "nis@@": 2556,
  "kürzlich": 2557,
  "linien": 2558,
  "arbeiteten": 2559,
  "interessieren": 2560,
  "tungs@@": 2561,
  "stellung": 2562,
  "standen": 2563,
  "gehabt": 2564,
  "video@@": 2565,
  "gefähr@@": 2566,
  "hinweg": 2567,
  "washington": 2568,
  "fiel": 2569,
  "werten": 2570,
  "markt@@": 2571,
  "schei@@": 2572,
  "vollen": 2573,
  "uner@@": 2574,
  "brauchten": 2575,
  "sauerstoff": 2576,
  "fährt": 2577,
  "0.000": 2578,
  "erkannte": 2579,
  "inneren": 2580,
  "rein@@": 2581,
  "rau@@": 2582,
  "überzeugt": 2583,
  "13": 2584,
  "existieren": 2585,
  "tu@@": 2586,
  "stisch": 2587,
  "ität": 2588,
  "moderne": 2589,
  "nation": 2590,
  "school": 2591,
  "irak": 2592,
  "sub@@": 2593,
  "träume": 2594,
  "pan@@": 2595,
  "ales": 2596,
  "insel": 2597,
  "starke": 2598,
  "weißen": 2599,
  "geschickt": 2600,
  "gehirne": 2601,
  "fängt": 2602,
  "5@@": 2603,
  "dar": 2604,
  "geln": 2605,
  "za@@": 2606,
  "schnitt": 2607,
  "eure": 2608,
  "tä@@": 2609,
  "tischer": 2610,
  "ate": 2611,
  "ehr@@": 2612,
  "verschwinden": 2613,
  "finanz@@": 2614,
  "schönen": 2615,
  "raten": 2616,
  "nord@@": 2617,
  "bietet": 2618,
  "weile": 2619,
  "überrascht": 2620,
  "bauern": 2621,
  "son@@": 2622,
  "drin": 2623,
  "normal": 2624,
  "fuß@@": 2625,
  "forschungs@@": 2626,
  "gelassen": 2627,
  "galaxien": 2628,
  "schaute": 2629,
  "grün": 2630,
  "malen": 2631,
  "my@@": 2632,
  "flü@@": 2633,
  "seitdem": 2634,
  "gestorben": 2635,
  "aten": 2636,
  "bauten": 2637,
  "interagieren": 2638,
  "weißt": 2639,
  "wen@@": 2640,
  "rätsel": 2641,
  "druck@@": 2642,
  "schn@@": 2643,
  "10.000": 2644,
  "tau@@": 2645,
  "außen@@": 2646,
  "älter": 2647,
  "fol@@": 2648,
  "ansicht": 2649,
  "wirk@@": 2650,
  "klima@@": 2651,
  "asien": 2652,
  "wahl@@": 2653,
  "pal@@": 2654,
  "erhält": 2655,
  "dischen": 2656,
  "genauer": 2657,
  "glaubt": 2658,
  "komplexe": 2659,
  "san": 2660,
  "plan@@": 2661,
  "erfinden": 2662,
  "mindestens": 2663,
  "herausforderungen": 2664,
  "händen": 2665,
  "sowie": 2666,
  "bezahlt": 2667,
  "bildungs@@": 2668,
  "bedeuten": 2669,
  "starten": 2670,
  "lied": 2671,
  "gelesen": 2672,
  "meiste": 2673,
  ".000": 2674,
  "verwandeln": 2675,
  "drüben": 2676,
  "früh@@": 2677,
  "schmerz": 2678,
  "annehmen": 2679,
  "gehören": 2680,
  "tiven": 2681,
  "ant": 2682,
  "gespräch": 2683,
  "wahrnehmung": 2684,
  "35": 2685,
  "deinen": 2686,
  "leb@@": 2687,
  "leiten": 2688,
  "operation": 2689,
  "gefährlich": 2690,
  "null": 2691,
  "tze": 2692,
  "hör@@": 2693,
  "unterscheiden": 2694,
  "bloß": 2695,
  "eli@@": 2696,
  "institutionen": 2697,
  "kulturen": 2698,
  "far@@": 2699,
  "musst": 2700,
  "verbreiten": 2701,
  "bekamen": 2702,
  "minute": 2703,
  "bre@@": 2704,
  "$": 2705,
  "tiges": 2706,
  "wir@@": 2707,
  "märkte": 2708,
  "ide@@": 2709,
  "heisst": 2710,
  "ss": 2711,
  "flo@@": 2712,
  "einheit": 2713,
  "wirken": 2714,
  "nah": 2715,
  "garten": 2716,
  "erscheinen": 2717,
  "herr@@": 2718,
  "dürfen": 2719,
  "150": 2720,
  "fla@@": 2721,
  "pfen": 2722,
  "paul": 2723,
  "aufnahmen": 2724,
  "anwenden": 2725,
  "fr@@": 2726,
  "co2": 2727,
  "ali@@": 2728,
  "ag@@": 2729,
  "abhängig": 2730,
  "traditionellen": 2731,
  "echten": 2732,
  "körpers": 2733,
  "gezogen": 2734,
  "fra@@": 2735,
  "unternehmer": 2736,
  "einsetzen": 2737,
  "eingesetzt": 2738,
  "hau@@": 2739,
  "dige": 2740,
  "mittleren": 2741,
  "telefon": 2742,
  "öffentliche": 2743,
  "fas@@": 2744,
  "bürger@@": 2745,
  "hängen": 2746,
  "schlüssel": 2747,
  "emotionen": 2748,
  "erkenntnis": 2749,
  "zier@@": 2750,
  "netzwerke": 2751,
  "schlimmer": 2752,
  "schalten": 2753,
  "stein@@": 2754,
  "versorgung": 2755,
  "krank": 2756,
  "teste": 2757,
  "gr@@": 2758,
  "wunder": 2759,
  "mach": 2760,
  "bank": 2761,
  "sor@@": 2762,
  "wor@@": 2763,
  "geld@@": 2764,
  "wechsel@@": 2765,
  "patient": 2766,
  "ehe@@": 2767,
  "ac@@": 2768,
  "dach": 2769,
  "richten": 2770,
  "fisch@@": 2771,
  "fantastisch": 2772,
  "west@@": 2773,
  "fä@@": 2774,
  "details": 2775,
  "las": 2776,
  "bieten": 2777,
  "entdeckung": 2778,
  "trau@@": 2779,
  "regionen": 2780,
  "einiger": 2781,
  "arbeit@@": 2782,
  "gefahren": 2783,
  "bedarf": 2784,
  "bares": 2785,
  "wä@@": 2786,
  "grundlegende": 2787,
  "rahmen": 2788,
  "tzt": 2789,
  "dungen": 2790,
  "westlichen": 2791,
  "99": 2792,
  "wichtigen": 2793,
  "spielte": 2794,
  "schlechten": 2795,
  "angenommen": 2796,
  "kurzen": 2797,
  "wenden": 2798,
  "rechts@@": 2799,
  "strategie": 2800,
  "schuhe": 2801,
  "bat": 2802,
  "sto@@": 2803,
  "boot": 2804,
  "hörten": 2805,
  "kri@@": 2806,
  "kop@@": 2807,
  "züge": 2808,
  "wenigen": 2809,
  "gegenteil": 2810,
  "wald": 2811,
  "professor": 2812,
  "bil@@": 2813,
  "sprach@@": 2814,
  "pla@@": 2815,
  "blau": 2816,
  "bung": 2817,
  "polizei": 2818,
  "september": 2819,
  "kre@@": 2820,
  "nachbarn": 2821,
  "ft@@": 2822,
  "holz": 2823,
  "besondere": 2824,
  "eindruck": 2825,
  "wen": 2826,
  "ige": 2827,
  "ks": 2828,
  "bereichen": 2829,
  "selten": 2830,
  "alisieren": 2831,
  "notwendig": 2832,
  "rote": 2833,
  "öffentlichkeit": 2834,
  "für@@": 2835,
  "identität": 2836,
  "häufig": 2837,
  "gegensatz": 2838,
  "sie@@": 2839,
  "stoffen": 2840,
  "ani@@": 2841,
  "charles": 2842,
  "streben": 2843,
  "fernseh@@": 2844,
  "kurs": 2845,
  "lang@@": 2846,
  "nationen": 2847,
  "bienen": 2848,
  "gewisse": 2849,
  "zeitung": 2850,
  "sand@@": 2851,
  "handy": 2852,
  "zerstören": 2853,
  "grün@@": 2854,
  "bill": 2855,
  "gegend": 2856,
  "kul@@": 2857,
  "kla@@": 2858,
  "natürlichen": 2859,
  "bestimmen": 2860,
  "verhältnis": 2861,
  "soviel": 2862,
  "mund": 2863,
  "ll@@": 2864,
  "chtet": 2865,
  "national": 2866,
  "lehren": 2867,
  "hoffen": 2868,
  "fel@@": 2869,
  "solch": 2870,
  "höher": 2871,
  "beantworten": 2872,
  "ckte": 2873,
  "ons": 2874,
  "schien": 2875,
  "ley": 2876,
  "studieren": 2877,
  "charakter": 2878,
  "fahrer": 2879,
  "teilt": 2880,
  "graben": 2881,
  "aspekt": 2882,
  "abschluss": 2883,
  "programme": 2884,
  "lung": 2885,
  "ologen": 2886,
  "teuer": 2887,
  "flug": 2888,
  "dinosaurier": 2889,
  "planet": 2890,
  "0ern": 2891,
  "lager": 2892,
  "lieblings@@": 2893,
  "schwarzen": 2894,
  "küste": 2895,
  "stammt": 2896,
  "erklärung": 2897,
  "nutzt": 2898,
  "früh": 2899,
  "fassen": 2900,
  "wechseln": 2901,
  "produ@@": 2902,
  "erter": 2903,
  "gemein@@": 2904,
  "ppe": 2905,
  "individuen": 2906,
  "grundsätzlich": 2907,
  "erscheint": 2908,
  "sand": 2909,
  "verfügbar": 2910,
  "fo@@": 2911,
  "verbrachte": 2912,
  "times": 2913,
  "glas": 2914,
  "not@@": 2915,
  "ven@@": 2916,
  "website": 2917,
  "rufen": 2918,
  "todes@@": 2919,
  "entstanden": 2920,
  "schau@@": 2921,
  "vorfahren": 2922,
  "augenblick": 2923,
  "unterricht": 2924,
  "grünen": 2925,
  "ing-@@": 2926,
  "nte": 2927,
  "dra@@": 2928,
  "signale": 2929,
  "stet": 2930,
  "gas@@": 2931,
  "entspricht": 2932,
  "kerl": 2933,
  "halt": 2934,
  "mus": 2935,
  "schafts@@": 2936,
  "durchschnittliche": 2937,
  "fun@@": 2938,
  "lagen": 2939,
  "quasi": 2940,
  "fabrik": 2941,
  "süd@@": 2942,
  "kam@@": 2943,
  "hallo": 2944,
  "generationen": 2945,
  "hren": 2946,
  "sam": 2947,
  "alisiert": 2948,
  "berührt": 2949,
  "els": 2950,
  "usw.": 2951,
  "rot": 2952,
  "zerstört": 2953,
  "heim@@": 2954,
  "iger": 2955,
  "staat@@": 2956,
  "nu@@": 2957,
  "angesehen": 2958,
  "trinken": 2959,
  "blatt": 2960,
  "haltung": 2961,
  "bestand": 2962,
  "fördern": 2963,
  "beweise": 2964,
  "england": 2965,
  "genom": 2966,
  "inspiriert": 2967,
  "big": 2968,
  "diagramm": 2969,
  "kti@@": 2970,
  "komplex": 2971,
  "konflikt": 2972,
  "fall@@": 2973,
  "entwicklungs@@": 2974,
  "beschlossen": 2975,
  "müsste": 2976,
  "elektro@@": 2977,
  "geändert": 2978,
  "architekten": 2979,
  "erungen": 2980,
  "17": 2981,
  "mil@@": 2982,
  "folie": 2983,
  "viel@@": 2984,
  "1@@": 2985,
  "sten@@": 2986,
  "20@@": 2987,
  "recht@@": 2988,
  "halbe": 2989,
  "hinsicht": 2990,
  "gefallen": 2991,
  "entworfen": 2992,
  "college": 2993,
  "hän@@": 2994,
  "norden": 2995,
  "weiße": 2996,
  "w": 2997,
  "quellen": 2998,
  "aufbauen": 2999,
  "wind@@": 3000,
  "blei@@": 3001,
  "afrikanischen": 3002,
  "ach": 3003,
  "elektrizität": 3004,
  "gäbe": 3005,
  "mini@@": 3006,
  "stuhl": 3007,
  "600": 3008,
  "bro@@": 3009,
  "solar@@": 3010,
  "definieren": 3011,
  "aufregend": 3012,
  "lli@@": 3013,
  "gebeten": 3014,
  "gefällt": 3015,
  "dran": 3016,
  "han@@": 3017,
  "verbindet": 3018,
  "george": 3019,
  "ig": 3020,
  "medien@@": 3021,
  "regen": 3022,
  "schlag@@": 3023,
  "drücken": 3024,
  "unterrichten": 3025,
  "richtungen": 3026,
  "phase": 3027,
  "tel@@": 3028,
  "falten": 3029,
  "geo@@": 3030,
  "verbessert": 3031,
  "anten": 3032,
  "beobachtet": 3033,
  "tausenden": 3034,
  "inhalt": 3035,
  "theit": 3036,
  "bis@@": 3037,
  "tritt": 3038,
  "hö@@": 3039,
  "show": 3040,
  "definition": 3041,
  "din@@": 3042,
  "müll": 3043,
  "faktor": 3044,
  "web": 3045,
  "sicherheits@@": 3046,
  "blieb": 3047,
  "wirtschaftlichen": 3048,
  "zierte": 3049,
  "statistiken": 3050,
  "g-@@": 3051,
  "ele@@": 3052,
  "vermitteln": 3053,
  "indi@@": 3054,
  "tö@@": 3055,
  "strom@@": 3056,
  "atmen": 3057,
  "kindheit": 3058,
  "ters": 3059,
  "kochen": 3060,
  "male": 3061,
  "aufgebaut": 3062,
  "verteilt": 3063,
  "erlebt": 3064,
  "fern@@": 3065,
  "schaden": 3066,
  "ße": 3067,
  "reduzieren": 3068,
  "mä@@": 3069,
  "viertel": 3070,
  "gar@@": 3071,
  "verfahren": 3072,
  "potential": 3073,
  "motor": 3074,
  "herren": 3075,
  "hy@@": 3076,
  "tlich": 3077,
  "5.000": 3078,
  "langer": 3079,
  "bende": 3080,
  "dlich": 3081,
  "digitalen": 3082,
  "kampagne": 3083,
  "ank@@": 3084,
  "wirtschaftliche": 3085,
  "theater": 3086,
  "lektion": 3087,
  "tests": 3088,
  "zurückzu@@": 3089,
  "bruder": 3090,
  "zierten": 3091,
  "achse": 3092,
  "blauen": 3093,
  "ernährung": 3094,
  "dig": 3095,
  "führer": 3096,
  "hl@@": 3097,
  "grosse": 3098,
  "entdeckte": 3099,
  "level": 3100,
  "persönlich": 3101,
  "seltsam": 3102,
  "wesentlich": 3103,
  "dische": 3104,
  "regi@@": 3105,
  "gemeinden": 3106,
  "wobei": 3107,
  "prakti@@": 3108,
  "erende": 3109,
  "politiker": 3110,
  "erd@@": 3111,
  "wu@@": 3112,
  "essen@@": 3113,
  "gh@@": 3114,
  "nützlich": 3115,
  "berichten": 3116,
  "o-@@": 3117,
  "tot": 3118,
  "motor@@": 3119,
  "medizinische": 3120,
  "lustig": 3121,
  "junger": 3122,
  "stes": 3123,
  "rie@@": 3124,
  "facebook": 3125,
  "derzeit": 3126,
  "rü@@": 3127,
  "mexiko": 3128,
  "korruption": 3129,
  "lasse": 3130,
  "helden": 3131,
  "medikament": 3132,
  "fünf@@": 3133,
  "ationen": 3134,
  "dunkle": 3135,
  "ori@@": 3136,
  "feststellen": 3137,
  "baute": 3138,
  "herunter@@": 3139,
  "pen": 3140,
  "mess@@": 3141,
  "straßen@@": 3142,
  "erfindung": 3143,
  "tigkeit": 3144,
  "nis": 3145,
  "verlust": 3146,
  "einrichtungen": 3147,
  "beweisen": 3148,
  "ver": 3149,
  "erwähnt": 3150,
  "folgt": 3151,
  "gender": 3152,
  "achten": 3153,
  "zweck": 3154,
  "online-@@": 3155,
  "plat@@": 3156,
  "damen": 3157,
  "beinahe": 3158,
  "stoßen": 3159,
  "kompliziert": 3160,
  "sätze": 3161,
  "kriege": 3162,
  "michael": 3163,
  "nutzung": 3164,
  "krebs@@": 3165,
  "text": 3166,
  "dungs@@": 3167,
  "gesundheitswesen": 3168,
  "spen@@": 3169,
  "mitarbeiter": 3170,
  "unbe@@": 3171,
  "mei@@": 3172,
  "unterstützt": 3173,
  "chter@@": 3174,
  "heißen": 3175,
  "45": 3176,
  "wüste": 3177,
  "cks": 3178,
  "erstellt": 3179,
  "vorstellungen": 3180,
  "lediglich": 3181,
  "aren": 3182,
  "schlafen": 3183,
  "momente": 3184,
  "persönliche": 3185,
  "james": 3186,
  "persönlichen": 3187,
  "zü@@": 3188,
  "ras@@": 3189,
  "bein": 3190,
  "selbstverständlich": 3191,
  "unabhängig": 3192,
  "bedürfnisse": 3193,
  "che@@": 3194,
  "nar@@": 3195,
  "ur": 3196,
  "nötig": 3197,
  "enz@@": 3198,
  "maßstab": 3199,
  "spiegel": 3200,
  "systemen": 3201,
  "fischen": 3202,
  "grüne": 3203,
  "großmutter": 3204,
  "lt": 3205,
  "rollen": 3206,
  "löcher": 3207,
  "anz": 3208,
  "galaxie": 3209,
  "ther@@": 3210,
  "stan@@": 3211,
  "1,@@": 3212,
  "sowas": 3213,
  "wissenschaften": 3214,
  "anteil": 3215,
  "bekannten": 3216,
  "digitale": 3217,
  "ersetzen": 3218,
  "2008": 3219,
  "mitteln": 3220,
  "kriegs@@": 3221,
  "zte": 3222,
  "nachts": 3223,
  "liert": 3224,
  "faktoren": 3225,
  "metapher": 3226,
  "vorher@@": 3227,
  "überlegen": 3228,
  "bildet": 3229,
  "präsentation": 3230,
  "vorne": 3231,
  "springen": 3232,
  "enorme": 3233,
  "schrecklich": 3234,
  "zauber@@": 3235,
  "molekül": 3236,
  "seht": 3237,
  "afrikas": 3238,
  "moralische": 3239,
  "igkeit": 3240,
  "sü@@": 3241,
  "effektiv": 3242,
  "büchern": 3243,
  "nete": 3244,
  "tauchen": 3245,
  "gerechtigkeit": 3246,
  "wofür": 3247,
  "kaffee": 3248,
  "innere": 3249,
  "beweis": 3250,
  "glei@@": 3251,
  "lichkeiten": 3252,
  "brücke": 3253,
  "freundin": 3254,
  "fern": 3255,
  "wettbewerb": 3256,
  "8@@": 3257,
  "flie@@": 3258,
  "menschlicher": 3259,
  "übrig": 3260,
  "inen": 3261,
  "iran": 3262,
  "webseite": 3263,
  "diert": 3264,
  "vorzu@@": 3265,
  "besuchen": 3266,
  "geheimnis": 3267,
  "außen": 3268,
  "liebte": 3269,
  "mitglieder": 3270,
  "einstein": 3271,
  "schimpansen": 3272,
  "sche@@": 3273,
  "singen": 3274,
  "neuro@@": 3275,
  "zuhören": 3276,
  "lokalen": 3277,
  "verkehr": 3278,
  "ent": 3279,
  "witz": 3280,
  "australien": 3281,
  "beschloss": 3282,
  "grafik": 3283,
  "aner": 3284,
  "rand": 3285,
  "maß@@": 3286,
  "fri@@": 3287,
  "miss@@": 3288,
  "bogen": 3289,
  "fahrt": 3290,
  "ball": 3291,
  "fügen": 3292,
  "hinzu@@": 3293,
  "beinhaltet": 3294,
  "jedenfalls": 3295,
  "mach@@": 3296,
  "zit@@": 3297,
  "leistungs@@": 3298,
  "zä@@": 3299,
  "kö@@": 3300,
  "liefer@@": 3301,
  "national@@": 3302,
  "kopf@@": 3303,
  "stärker": 3304,
  "situationen": 3305,
  "blo@@": 3306,
  "gramm": 3307,
  "halb": 3308,
  "gebraucht": 3309,
  "gesund": 3310,
  "gs@@": 3311,
  "bus": 3312,
  "dieren": 3313,
  "gesichter": 3314,
  "chern": 3315,
  "sektor": 3316,
  "irgendjemand": 3317,
  "stärke": 3318,
  "erkennt": 3319,
  "wieviel": 3320,
  "lichem": 3321,
  "internet@@": 3322,
  "erwachsene": 3323,
  "wellen": 3324,
  "fli@@": 3325,
  "malaria": 3326,
  "folgende": 3327,
  "herstellung": 3328,
  "nigeria": 3329,
  "zahn@@": 3330,
  "proben": 3331,
  "nden": 3332,
  "versteht": 3333,
  "mensch@@": 3334,
  "hinten": 3335,
  "schen@@": 3336,
  "strahlung": 3337,
  "üb@@": 3338,
  "wirkliche": 3339,
  "ür@@": 3340,
  "ruf": 3341,
  "sitz": 3342,
  "schaften": 3343,
  "gas": 3344,
  "gras": 3345,
  "ha": 3346,
  "landen": 3347,
  "stü@@": 3348,
  "verteilung": 3349,
  "samen": 3350,
  "jährigen": 3351,
  "1.@@": 3352,
  "forsch@@": 3353,
  "pul@@": 3354,
  "mutter@@": 3355,
  "wär@@": 3356,
  "schwierigkeiten": 3357,
  "10@@": 3358,
  "ungsk@@": 3359,
  "inseln": 3360,
  "süden": 3361,
  "kreieren": 3362,
  "tigt": 3363,
  "21.": 3364,
  "anwendung": 3365,
  "är": 3366,
  "barer": 3367,
  "dor@@": 3368,
  "brach": 3369,
  "tt": 3370,
  "tex@@": 3371,
  "mern": 3372,
  "hen@@": 3373,
  "hil@@": 3374,
  "chemikalien": 3375,
  "ys": 3376,
  "zitat": 3377,
  "geräusch": 3378,
  "auen": 3379,
  "meist": 3380,
  "mas@@": 3381,
  "dü@@": 3382,
  "multi@@": 3383,
  "entstand": 3384,
  "beispielsweise": 3385,
  "überraschend": 3386,
  "ierte": 3387,
  "unterhaltung": 3388,
  "teure": 3389,
  "ap@@": 3390,
  "diskussion": 3391,
  "schritte": 3392,
  "internationalen": 3393,
  "bru@@": 3394,
  "prinzipien": 3395,
  "unfall": 3396,
  "chti@@": 3397,
  "acht@@": 3398,
  "kannte": 3399,
  "höre": 3400,
  "bekomme": 3401,
  "militär@@": 3402,
  "einiges": 3403,
  "sicht@@": 3404,
  "aufzubauen": 3405,
  "kel@@": 3406,
  "anhand": 3407,
  "schlechter": 3408,
  "analyse": 3409,
  "rennen": 3410,
  "ausmaß": 3411,
  "grossen": 3412,
  "gri@@": 3413,
  "allgemeinen": 3414,
  "freien": 3415,
  "presse": 3416,
  "la": 3417,
  "schauten": 3418,
  "tter": 3419,
  "innen@@": 3420,
  "versagen": 3421,
  "ohren": 3422,
  "ca": 3423,
  "telefon@@": 3424,
  "chemie": 3425,
  "rechnen": 3426,
  "voraus@@": 3427,
  "pel": 3428,
  "hne": 3429,
  "vorhersagen": 3430,
  "erkannt": 3431,
  "geber": 3432,
  "gegründet": 3433,
  "dauerte": 3434,
  "schuld": 3435,
  "untersuchung": 3436,
  "gebieten": 3437,
  "gekauft": 3438,
  "solange": 3439,
  "wirkt": 3440,
  "füllen": 3441,
  "hielten": 3442,
  "größ@@": 3443,
  "stu@@": 3444,
  "speziellen": 3445,
  "kenia": 3446,
  "element": 3447,
  "müll@@": 3448,
  "regel@@": 3449,
  "setzten": 3450,
  "jährige": 3451,
  "willst": 3452,
  "gegenwart": 3453,
  "untersucht": 3454,
  "jahr@@": 3455,
  "verbreitung": 3456,
  "zivilisation": 3457,
  "bedenken": 3458,
  "dün@@": 3459,
  "kurve": 3460,
  "mut": 3461,
  "rad": 3462,
  "anischen": 3463,
  "interessantes": 3464,
  "unglaublichen": 3465,
  "station": 3466,
  "ren@@": 3467,
  "saal": 3468,
  "serie": 3469,
  "stro@@": 3470,
  "vertraut": 3471,
  "blut@@": 3472,
  "hnen": 3473,
  "positive": 3474,
  "anstelle": 3475,
  "dan@@": 3476,
  "zähne": 3477,
  "blase": 3478,
  "umge@@": 3479,
  "israel": 3480,
  "tasche": 3481,
  "anfing": 3482,
  "ozeane": 3483,
  "pfund": 3484,
  "vorzustellen": 3485,
  "pr@@": 3486,
  "tiver": 3487,
  "schte": 3488,
  "genetische": 3489,
  "äußerst": 3490,
  "kombination": 3491,
  "lichste": 3492,
  "gemeinsame": 3493,
  "ca@@": 3494,
  "kapital": 3495,
  "fan@@": 3496,
  "holz@@": 3497,
  "grundlage": 3498,
  "klar@@": 3499,
  "scha@@": 3500,
  "unterschiedlich": 3501,
  "toten": 3502,
  "las@@": 3503,
  "studio": 3504,
  "solcher": 3505,
  "här@@": 3506,
  "75": 3507,
  "stammzellen": 3508,
  "freund@@": 3509,
  "heran@@": 3510,
  "bemerken": 3511,
  "digt": 3512,
  "südafrika": 3513,
  "bahn": 3514,
  "deutschland": 3515,
  "bezüglich": 3516,
  "geräusche": 3517,
  "vorhanden": 3518,
  "erwachsenen": 3519,
  "ler@@": 3520,
  "verstehe": 3521,
  "stigen": 3522,
  "gelebt": 3523,
  "kle@@": 3524,
  "privat@@": 3525,
  "sicher@@": 3526,
  "woran": 3527,
  "stehe": 3528,
  "wikipedia": 3529,
  "weltweiten": 3530,
  "medizin@@": 3531,
  "kirche": 3532,
  "meinte": 3533,
  "zeichnung": 3534,
  "ausstellung": 3535,
  "schreibt": 3536,
  "gol@@": 3537,
  "entfernen": 3538,
  "tonnen": 3539,
  "kanada": 3540,
  "mmen": 3541,
  "aufnehmen": 3542,
  "kapitel": 3543,
  "pfer@@": 3544,
  "hierher": 3545,
  "geschenk": 3546,
  "freie": 3547,
  "wein@@": 3548,
  "ator": 3549,
  "vo@@": 3550,
  "momentan": 3551,
  "2007": 3552,
  "absicht": 3553,
  "beschäftigen": 3554,
  "dna-@@": 3555,
  "resultat": 3556,
  "mau@@": 3557,
  "center": 3558,
  "gste": 3559,
  "gele@@": 3560,
  "glas@@": 3561,
  "tät": 3562,
  "entwicklungsländern": 3563,
  "vieles": 3564,
  "spr@@": 3565,
  "mes": 3566,
  "flasche": 3567,
  "darwin": 3568,
  "willen": 3569,
  "fil@@": 3570,
  "sat@@": 3571,
  "müssten": 3572,
  "pas@@": 3573,
  "nicht@@": 3574,
  "stoffe": 3575,
  "bor@@": 3576,
  "tor@@": 3577,
  "spro@@": 3578,
  "gemeinschaften": 3579,
  "tin": 3580,
  "aufs": 3581,
  "brust": 3582,
  "seid": 3583,
  "menschliches": 3584,
  "halb@@": 3585,
  "wovon": 3586,
  "sper@@": 3587,
  "nase": 3588,
  "proteine": 3589,
  "steve": 3590,
  "fingen": 3591,
  "religionen": 3592,
  "risiken": 3593,
  "hier@@": 3594,
  "akzeptieren": 3595,
  "beibringen": 3596,
  "zugänglich": 3597,
  "lebe": 3598,
  "zus@@": 3599,
  "dienst": 3600,
  "plastik": 3601,
  "konzentriert": 3602,
  "tumor": 3603,
  "industri@@": 3604,
  "19.": 3605,
  "schlüssel@@": 3606,
  "mitglied": 3607,
  "mö@@": 3608,
  "medi@@": 3609,
  "0@@": 3610,
  "alismus": 3611,
  "einfaches": 3612,
  "kleidung": 3613,
  "eri@@": 3614,
  "tiv": 3615,
  "dan": 3616,
  "inzwischen": 3617,
  "felder": 3618,
  "ierten": 3619,
  "tanzen": 3620,
  "änderungen": 3621,
  "nasa": 3622,
  "ette": 3623,
  "zucker": 3624,
  "15@@": 3625,
  "schaue": 3626,
  "grau@@": 3627,
  "nah@@": 3628,
  "welchem": 3629,
  "glaubte": 3630,
  "liefern": 3631,
  "kä@@": 3632,
  "gegenseitig": 3633,
  "soweit": 3634,
  "status": 3635,
  "weiterer": 3636,
  "signal": 3637,
  "tz": 3638,
  "besessen": 3639,
  "physiker": 3640,
  "hafte": 3641,
  "fach": 3642,
  "geholfen": 3643,
  "zeichnet": 3644,
  "tanz": 3645,
  "fasziniert": 3646,
  "trat": 3647,
  "thomas": 3648,
  "automatisch": 3649,
  "dichte": 3650,
  "nei@@": 3651,
  "erweitern": 3652,
  "funktion@@": 3653,
  "pinguine": 3654,
  "schönes": 3655,
  "grei@@": 3656,
  "teams": 3657,
  "arbei@@": 3658,
  "ari@@": 3659,
  "hinzu": 3660,
  "gere@@": 3661,
  "psychologie": 3662,
  "brasilien": 3663,
  "ausgeben": 3664,
  "merken": 3665,
  "erhöhen": 3666,
  "schwieriger": 3667,
  "vermeiden": 3668,
  "person@@": 3669,
  "instrument": 3670,
  "twitter": 3671,
  "schiff": 3672,
  "explo@@": 3673,
  "realen": 3674,
  "drucken": 3675,
  "annahme": 3676,
  "verlauf": 3677,
  "glücklicherweise": 3678,
  "manchen": 3679,
  "darstellen": 3680,
  "schl@@": 3681,
  "wünschte": 3682,
  "zählt": 3683,
  "lebensmittel": 3684,
  "auff@@": 3685,
  "bele@@": 3686,
  "schneiden": 3687,
  "schmerzen": 3688,
  "fakten": 3689,
  "froh": 3690,
  "golf": 3691,
  "stag": 3692,
  "lehre": 3693,
  "schlu@@": 3694,
  "zuzu@@": 3695,
  "erer": 3696,
  "mittels": 3697,
  "dri@@": 3698,
  "aufre@@": 3699,
  "dieselben": 3700,
  "chung": 3701,
  "chinesische": 3702,
  "äuß@@": 3703,
  "autor": 3704,
  "übernehmen": 3705,
  "schatten": 3706,
  "darunter": 3707,
  "hle": 3708,
  "rat@@": 3709,
  "faszinierend": 3710,
  "positiv": 3711,
  "lü@@": 3712,
  "besitzt": 3713,
  "insbesondere": 3714,
  "durchführen": 3715,
  "radi@@": 3716,
  "gens": 3717,
  "existenz": 3718,
  "debatte": 3719,
  "stand@@": 3720,
  "eng@@": 3721,
  "sar@@": 3722,
  "kontrolliert": 3723,
  "nett": 3724,
  "ernsthaft": 3725,
  "laptop": 3726,
  "zweimal": 3727,
  "haften": 3728,
  "mung": 3729,
  "glücklicher": 3730,
  "kontinent": 3731,
  "drückt": 3732,
  "länge": 3733,
  "tradition": 3734,
  "effizienz": 3735,
  "100.000": 3736,
  "mark": 3737,
  "durchschnitt": 3738,
  "fehlt": 3739,
  "marke": 3740,
  "zunehmen": 3741,
  "blicken": 3742,
  "gendes": 3743,
  "krei@@": 3744,
  "netz@@": 3745,
  "betrieben": 3746,
  "regierungs@@": 3747,
  "kab@@": 3748,
  "tive": 3749,
  "algorithmen": 3750,
  "elektrische": 3751,
  "risiko@@": 3752,
  "irgendeine": 3753,
  "internationale": 3754,
  "inner@@": 3755,
  "schließt": 3756,
  "pl@@": 3757,
  "erlebnis": 3758,
  "heim": 3759,
  "verwandelt": 3760,
  "noten": 3761,
  "dene": 3762,
  "beu@@": 3763,
  "hoben": 3764,
  "high": 3765,
  "stieg": 3766,
  "gebäuden": 3767,
  "tag@@": 3768,
  "folgenden": 3769,
  "digung": 3770,
  "veränderte": 3771,
  "kabel": 3772,
  "aussage": 3773,
  "bericht": 3774,
  "interaktion": 3775,
  "student": 3776,
  "neten": 3777,
  "mehrheit": 3778,
  "kreb@@": 3779,
  "berg@@": 3780,
  "enz": 3781,
  "zie@@": 3782,
  "wohlstand": 3783,
  "dimensionen": 3784,
  "gefangen": 3785,
  "mittlerweile": 3786,
  "kommen@@": 3787,
  "fürs": 3788,
  "komm": 3789,
  "wirft": 3790,
  "organisieren": 3791,
  "perfekte": 3792,
  "sel@@": 3793,
  "spektrum": 3794,
  "lieb@@": 3795,
  "1.000": 3796,
  "welten": 3797,
  "wü@@": 3798,
  "konsequenzen": 3799,
  "therapie": 3800,
  "besseres": 3801,
  "fortschritte": 3802,
  "überwinden": 3803,
  "bus@@": 3804,
  "leiter": 3805,
  "literatur": 3806,
  "fantastische": 3807,
  "verbrechen": 3808,
  "sichtbar": 3809,
  "großartigen": 3810,
  "ingenieure": 3811,
  "blaue": 3812,
  "11.": 3813,
  "voraus": 3814,
  "führ@@": 3815,
  "hor@@": 3816,
  "ursprünglich": 3817,
  "moral": 3818,
  "selb@@": 3819,
  "zur@@": 3820,
  "gebrochen": 3821,
  "abstra@@": 3822,
  "bö@@": 3823,
  "nahrungs@@": 3824,
  "tiefen": 3825,
  "musik@@": 3826,
  "irgend@@": 3827,
  "lächeln": 3828,
  "hunde": 3829,
  "worauf": 3830,
  "pres@@": 3831,
  "test@@": 3832,
  "armee": 3833,
  "gewinn": 3834,
  "aufgewachsen": 3835,
  "glich": 3836,
  "seltsame": 3837,
  "schau": 3838,
  "unteren": 3839,
  "restaurant": 3840,
  "ergibt": 3841,
  "ci@@": 3842,
  "kaufte": 3843,
  "enthält": 3844,
  "beenden": 3845,
  "hof": 3846,
  "ta": 3847,
  "schli@@": 3848,
  "arm@@": 3849,
  "ausgaben": 3850,
  "hervor": 3851,
  "besagt": 3852,
  "kugel": 3853,
  "lig": 3854,
  "starben": 3855,
  "ss@@": 3856,
  "vorbei@@": 3857,
  "jung": 3858,
  "gespräche": 3859,
  "tab@@": 3860,
  "kultur@@": 3861,
  "bli@@": 3862,
  "graphie": 3863,
  "tja": 3864,
  "geschäfte": 3865,
  "mathemati@@": 3866,
  "musiker": 3867,
  "epidemie": 3868,
  "ass": 3869,
  "jener": 3870,
  "tot@@": 3871,
  "kap@@": 3872,
  "worum": 3873,
  "pakistan": 3874,
  "ertes": 3875,
  "gemeinsamen": 3876,
  "medizinischen": 3877,
  "zusätzlich": 3878,
  "behaupten": 3879,
  "lügen": 3880,
  "spät": 3881,
  "kamer@@": 3882,
  "muskeln": 3883,
  "niedri@@": 3884,
  "entfernung": 3885,
  "geri@@": 3886,
  "volk": 3887,
  "ps": 3888,
  "leuchten": 3889,
  "enorm": 3890,
  "lebenden": 3891,
  "organe": 3892,
  "heit@@": 3893,
  "unver@@": 3894,
  "macht@@": 3895,
  "chancen": 3896,
  "vogel": 3897,
  "afrikaner": 3898,
  "magie": 3899,
  "gottes": 3900,
  "wahrnehmen": 3901,
  "trei@@": 3902,
  "nde": 3903,
  "dauern": 3904,
  "tü@@": 3905,
  "waffe": 3906,
  "wartet": 3907,
  "auseinander@@": 3908,
  "farb@@": 3909,
  "ve@@": 3910,
  "böse": 3911,
  "tert": 3912,
  "bas@@": 3913,
  "vierte": 3914,
  "gab@@": 3915,
  "gewisser": 3916,
  "chaos": 3917,
  "ffen": 3918,
  "darstellung": 3919,
  "dä@@": 3920,
  "verschmutzung": 3921,
  "hlte": 3922,
  "diger": 3923,
  "brei@@": 3924,
  "betreiben": 3925,
  "zo@@": 3926,
  "nachgedacht": 3927,
  "sm@@": 3928,
  "ähnlichen": 3929,
  "schäd@@": 3930,
  "gst": 3931,
  "funktionierte": 3932,
  "fokus": 3933,
  "hn": 3934,
  "auseinander": 3935,
  "university": 3936,
  "medium": 3937,
  "büro@@": 3938,
  "besorgt": 3939,
  "räumen": 3940,
  "bibel": 3941,
  "enthalten": 3942,
  "gesamt@@": 3943,
  "hinaus@@": 3944,
  "gal@@": 3945,
  "gedicht": 3946,
  "weshalb": 3947,
  "mikroben": 3948,
  "buchstaben": 3949,
  "chter": 3950,
  "zeigten": 3951,
  "krieges": 3952,
  "zes": 3953,
  "hr": 3954,
  "einstellung": 3955,
  "pferd": 3956,
  "branche": 3957,
  "zehn@@": 3958,
  "mati@@": 3959,
  "gewählt": 3960,
  "genetischen": 3961,
  "designs": 3962,
  "robert": 3963,
  "hunger": 3964,
  "küche": 3965,
  "alternative": 3966,
  "effe@@": 3967,
  "anschaut": 3968,
  "tis": 3969,
  "änderung": 3970,
  "arti@@": 3971,
  "nahen": 3972,
  "ökosystem": 3973,
  "innovationen": 3974,
  "sozi@@": 3975,
  "ehe": 3976,
  "milch": 3977,
  "fis@@": 3978,
  "gross@@": 3979,
  "schlei@@": 3980,
  "blau@@": 3981,
  "starken": 3982,
  "sende": 3983,
  "wurzeln": 3984,
  "mathematiker": 3985,
  "bot": 3986,
  "nie@@": 3987,
  "träumen": 3988,
  "aufgeregt": 3989,
  "world": 3990,
  "inspiration": 3991,
  "kameras": 3992,
  "gro@@": 3993,
  "feiern": 3994,
  "keln": 3995,
  "hl": 3996,
  "bekann@@": 3997,
  "japan@@": 3998,
  "zahl@@": 3999,
  "schä@@": 4000,
  "kostenlos": 4001,
  "etc.": 4002,
  "aktion": 4003,
  "bot@@": 4004,
  "wenigstens": 4005,
  "angeht": 4006,
  "emissionen": 4007,
  "gemälde": 4008,
  "ris@@": 4009,
  "francisco": 4010,
  "spei@@": 4011,
  "eig@@": 4012,
  "programmieren": 4013,
  "nachzu@@": 4014,
  "x-@@": 4015,
  "chinesen": 4016,
  "lebende": 4017,
  "stil": 4018,
  "indischen": 4019,
  "ungspro@@": 4020,
  "preise": 4021,
  "cyber@@": 4022,
  "spar@@": 4023,
  "vielmehr": 4024,
  "lokale": 4025,
  "schie@@": 4026,
  "miert": 4027,
  "anische": 4028,
  "ansieht": 4029,
  "do": 4030,
  "steine": 4031,
  "0er": 4032,
  "kümmert": 4033,
  "mischen": 4034,
  "höhere": 4035,
  "derer": 4036,
  "eingeladen": 4037,
  "bs": 4038,
  "schu@@": 4039,
  "maßen": 4040,
  "b.": 4041,
  "zerstörung": 4042,
  "bank@@": 4043,
  "vir@@": 4044,
  "fein@@": 4045,
  "ägypten": 4046,
  "wechsel": 4047,
  "heits@@": 4048,
  "youtube": 4049,
  "stän@@": 4050,
  "sonder@@": 4051,
  "erstaun@@": 4052,
  "sport": 4053,
  "entdeckungen": 4054,
  "schwarz": 4055,
  "ast": 4056,
  "bibliothek": 4057,
  "zeich@@": 4058,
  "verglichen": 4059,
  "bemerkte": 4060,
  "seln": 4061,
  "fung": 4062,
  "demo@@": 4063,
  "potenzial": 4064,
  "computern": 4065,
  "reduziert": 4066,
  "legte": 4067,
  "pol@@": 4068,
  "blumen": 4069,
  "mieren": 4070,
  "ling": 4071,
  "decken": 4072,
  "weisheit": 4073,
  "katastrophe": 4074,
  "männchen": 4075,
  "teren": 4076,
  "deck@@": 4077,
  "2010": 4078,
  "beschrieben": 4079,
  "ischem": 4080,
  "ereignisse": 4081,
  "aktivitäten": 4082,
  "spuren": 4083,
  "brau@@": 4084,
  "verschwunden": 4085,
  "vorbereitet": 4086,
  "verhaltens@@": 4087,
  "ereignis": 4088,
  "seele": 4089,
  "magne@@": 4090,
  "vorteile": 4091,
  "schwe@@": 4092,
  "letzter": 4093,
  "cm": 4094,
  "tisches": 4095,
  "nten": 4096,
  "tion": 4097,
  "säu@@": 4098,
  "älteren": 4099,
  "roll@@": 4100,
  "könig": 4101,
  "ik": 4102,
  "hnt": 4103,
  "hinzufügen": 4104,
  "lebendig": 4105,
  "digit@@": 4106,
  "bedrohung": 4107,
  "boston": 4108,
  "arabischen": 4109,
  "schlug": 4110,
  "dargestellt": 4111,
  "genügend": 4112,
  "feuer@@": 4113,
  "scheinbar": 4114,
  "wichtiges": 4115,
  "sport@@": 4116,
  "womit": 4117,
  "voneinander": 4118,
  "ra": 4119,
  "hinterlassen": 4120,
  "eten": 4121,
  "verliert": 4122,
  "lat@@": 4123,
  "leg@@": 4124,
  "geschlagen": 4125,
  "brust@@": 4126,
  "winter": 4127,
  "jahrzehnt": 4128,
  "linge": 4129,
  "nung": 4130,
  "gesammelt": 4131,
  "oten": 4132,
  "2005": 4133,
  "haie": 4134,
  "harvard": 4135,
  "on-@@": 4136,
  "langsamer": 4137,
  "resultate": 4138,
  "trafen": 4139,
  "fre@@": 4140,
  "co2-@@": 4141,
  "schlägt": 4142,
  "mitnehmen": 4143,
  "eindeutig": 4144,
  "schwierige": 4145,
  "dy": 4146,
  "gewi@@": 4147,
  "beachten": 4148,
  "dauer": 4149,
  "kulturelle": 4150,
  "neben@@": 4151,
  "metern": 4152,
  "niveau": 4153,
  "vermögen": 4154,
  "teufel": 4155,
  "konta@@": 4156,
  "dre@@": 4157,
  "et": 4158,
  "drogen": 4159,
  "wie@@": 4160,
  "investitionen": 4161,
  "hlen": 4162,
  "suchte": 4163,
  "gener@@": 4164,
  "hm": 4165,
  "verfolgt": 4166,
  "schießen": 4167,
  "gerü@@": 4168,
  "basierend": 4169,
  "interessanter": 4170,
  "nebenbei": 4171,
  "wärme": 4172,
  "stin": 4173,
  "kühl@@": 4174,
  "koordin@@": 4175,
  "darstellt": 4176,
  "nahme": 4177,
  "eingeführt": 4178,
  "mel": 4179,
  "bundes@@": 4180,
  "sechs@@": 4181,
  "aspekte": 4182,
  "island": 4183,
  "schichten": 4184,
  "stahl": 4185,
  "informations@@": 4186,
  "schweden": 4187,
  "schild": 4188,
  "islam": 4189,
  "wem": 4190,
  "jahrzehnten": 4191,
  "umfeld": 4192,
  "funktionen": 4193,
  "paris": 4194,
  "grundlegenden": 4195,
  "vertrau@@": 4196,
  "erhielt": 4197,
  "art.": 4198,
  "anti-@@": 4199,
  "erinnerung": 4200,
  "probe": 4201,
  "mama": 4202,
  "ähnliches": 4203,
  "süß@@": 4204,
  "spiegel@@": 4205,
  "pat@@": 4206,
  "mächtig": 4207,
  "verursachen": 4208,
  "yp@@": 4209,
  "instrumente": 4210,
  "mangel": 4211,
  "gleichung": 4212,
  "ün@@": 4213,
  "schrieben": 4214,
  "zer": 4215,
  "berechnen": 4216,
  "ausrüstung": 4217,
  "pra@@": 4218,
  "ed@@": 4219,
  "hyper@@": 4220,
  "drittens": 4221,
  "live": 4222,
  "dat@@": 4223,
  "zten": 4224,
  "dynamik": 4225,
  "zufrieden": 4226,
  "täuschung": 4227,
  "bewohner": 4228,
  "stift": 4229,
  "obje@@": 4230,
  "winzig": 4231,
  "gien": 4232,
  "rö@@": 4233,
  "ford": 4234,
  "anwendungen": 4235,
  "tru@@": 4236,
  "begrenzt": 4237,
  "mag@@": 4238,
  "techniken": 4239,
  "biologische": 4240,
  "uss": 4241,
  "kel": 4242,
  "3d-@@": 4243,
  "skraft": 4244,
  "teilweise": 4245,
  "schwarz@@": 4246,
  "ktiv": 4247,
  "hon@@": 4248,
  "dien@@": 4249,
  "bein@@": 4250,
  "anscheinend": 4251,
  "co": 4252,
  "planen": 4253,
  "respekt": 4254,
  "anstieg": 4255,
  "erforscht": 4256,
  "wolken": 4257,
  "doppelt": 4258,
  "ältere": 4259,
  "xi@@": 4260,
  "bricht": 4261,
  "gesichts@@": 4262,
  "kun@@": 4263,
  "liefert": 4264,
  "dh": 4265,
  "gewe@@": 4266,
  "komponenten": 4267,
  "ologe": 4268,
  "aden": 4269,
  "fliegt": 4270,
  "beschreibt": 4271,
  "zufall": 4272,
  "fliege": 4273,
  "funk@@": 4274,
  "flächen": 4275,
  "17@@": 4276,
  "verdi@@": 4277,
  "log@@": 4278,
  "geleitet": 4279,
  "bedeutete": 4280,
  "isieren": 4281,
  "antwortete": 4282,
  "beln": 4283,
  "population": 4284,
  "erhöht": 4285,
  "af@@": 4286,
  "ard": 4287,
  "umständen": 4288,
  "gericht": 4289,
  "plattform": 4290,
  "kapit@@": 4291,
  "flügel": 4292,
  "tiefer": 4293,
  "röntgen@@": 4294,
  "haup@@": 4295,
  "bergen": 4296,
  "machst": 4297,
  "eigenschaft": 4298,
  "batterie": 4299,
  "roman@@": 4300,
  "wände": 4301,
  "schicksal": 4302,
  "den-@@": 4303,
  "militär": 4304,
  "fle@@": 4305,
  "sitz@@": 4306,
  "alt@@": 4307,
  "derselben": 4308,
  "ingen": 4309,
  "korea": 4310,
  "blin@@": 4311,
  "zusammenarbeiten": 4312,
  "einfachheit": 4313,
  "danken": 4314,
  "erkrankungen": 4315,
  "bü@@": 4316,
  "neuigkeiten": 4317,
  "ppt": 4318,
  "schrei@@": 4319,
  "fahrzeuge": 4320,
  "sonnenlicht": 4321,
  "kohle": 4322,
  "anzusehen": 4323,
  "welle": 4324,
  "stadt@@": 4325,
  "ziel@@": 4326,
  "benden": 4327,
  "speziell": 4328,
  "geburtstag": 4329,
  "gesundheit@@": 4330,
  "angel@@": 4331,
  "operationen": 4332,
  "zin@@": 4333,
  "bahn@@": 4334,
  "überraschung": 4335,
  "echtzeit": 4336,
  "berühren": 4337,
  "berge": 4338,
  "geteilt": 4339,
  "auswahl": 4340,
  "ktes": 4341,
  "ligen": 4342,
  "definiert": 4343,
  "visuelle": 4344,
  "mc@@": 4345,
  "hotel": 4346,
  "vorgang": 4347,
  "betroffen": 4348,
  "fehlen": 4349,
  "deiner": 4350,
  "oni@@": 4351,
  "billionen": 4352,
  "nachbarschaft": 4353,
  "stiftung": 4354,
  "heu@@": 4355,
  "zusammenzu@@": 4356,
  "depression": 4357,
  "nationale": 4358,
  "klo@@": 4359,
  "artigen": 4360,
  "tens": 4361,
  "lungen": 4362,
  "dame": 4363,
  "ära": 4364,
  "zentrale": 4365,
  "king": 4366,
  "vorstellungskraft": 4367,
  "hieß": 4368,
  "bit@@": 4369,
  "meister@@": 4370,
  "besucht": 4371,
  "box": 4372,
  "kation": 4373,
  "mobil@@": 4374,
  "streiten": 4375,
  "cent": 4376,
  "besonderen": 4377,
  "such@@": 4378,
  "ursache": 4379,
  "mat@@": 4380,
  "offenen": 4381,
  "trug": 4382,
  "weite": 4383,
  "pläne": 4384,
  "195@@": 4385,
  "wan@@": 4386,
  "ket@@": 4387,
  "trick": 4388,
  "moralischen": 4389,
  "erwä@@": 4390,
  "chicago": 4391,
  "umgeben": 4392,
  "ernähren": 4393,
  "ly@@": 4394,
  "niemanden": 4395,
  "decke": 4396,
  "fordert": 4397,
  "trieb": 4398,
  "ktivität": 4399,
  "hre": 4400,
  "ergeben": 4401,
  "lenken": 4402,
  "dringen": 4403,
  "hab@@": 4404,
  "th": 4405,
  "komplexen": 4406,
  "fordern": 4407,
  "weltraum": 4408,
  "brief": 4409,
  "anlagen": 4410,
  "ou@@": 4411,
  "aku@@": 4412,
  "plastik@@": 4413,
  "cor@@": 4414,
  "kung": 4415,
  "begegnen": 4416,
  "blick@@": 4417,
  "abgesehen": 4418,
  "vorge@@": 4419,
  "spe@@": 4420,
  "bemerkenswert": 4421,
  "mehreren": 4422,
  "potenti@@": 4423,
  "einst": 4424,
  "bf": 4425,
  "implan@@": 4426,
  "köpfe": 4427,
  "kreativen": 4428,
  "schwere": 4429,
  "schein": 4430,
  "traurig": 4431,
  "star": 4432,
  "riesen@@": 4433,
  "wunderbaren": 4434,
  "eier": 4435,
  "bezeichnen": 4436,
  "infiziert": 4437,
  "maß": 4438,
  "ment": 4439,
  "tom": 4440,
  "übersetzen": 4441,
  "mie@@": 4442,
  "ech@@": 4443,
  "anwen@@": 4444,
  "analy@@": 4445,
  "kurz@@": 4446,
  "klinik": 4447,
  "besie@@": 4448,
  "12@@": 4449,
  "hmen": 4450,
  "flüssi@@": 4451,
  "zufriedenheit": 4452,
  "fressen": 4453,
  "philosophie": 4454,
  "dunkel": 4455,
  "span@@": 4456,
  "klassenzimmer": 4457,
  "21": 4458,
  "neh@@": 4459,
  "budget": 4460,
  "lige": 4461,
  "gabe": 4462,
  "brenn@@": 4463,
  "inspirieren": 4464,
  "stoppen": 4465,
  "empfin@@": 4466,
  "leichter": 4467,
  "lebenserwartung": 4468,
  "gleichgewicht": 4469,
  "dunkelheit": 4470,
  "treibt": 4471,
  "drehte": 4472,
  "studium": 4473,
  "lehnen": 4474,
  "ländlichen": 4475,
  "irgendwelche": 4476,
  "präsidenten": 4477,
  "moral@@": 4478,
  "veröffentlichen": 4479,
  "ktiven": 4480,
  "pt": 4481,
  "drauf": 4482,
  "problems": 4483,
  "berühm@@": 4484,
  "abel": 4485,
  "ff": 4486,
  "altern": 4487,
  "tiker": 4488,
  "scheitern": 4489,
  "tür@@": 4490,
  "anpassen": 4491,
  "still": 4492,
  "elektrischen": 4493,
  "nannten": 4494,
  "ruhe": 4495,
  "fro@@": 4496,
  "dür@@": 4497,
  "mitzu@@": 4498,
  "späten": 4499,
  "raub@@": 4500,
  "sex@@": 4501,
  "mier@@": 4502,
  "schlussendlich": 4503,
  "vergangenen": 4504,
  "vorhin": 4505,
  "alisierung": 4506,
  "gur@@": 4507,
  "beteiligt": 4508,
  "sech@@": 4509,
  "erneut": 4510,
  "fasst": 4511,
  "spa@@": 4512,
  "skali@@": 4513,
  "bezeichnet": 4514,
  "teilnehmer": 4515,
  "knapp": 4516,
  "ökonomen": 4517,
  "wirtschaft@@": 4518,
  "meer@@": 4519,
  "dahinter": 4520,
  "bären": 4521,
  "geruch": 4522,
  "res@@": 4523,
  "obama": 4524,
  "pflanze": 4525,
  "net": 4526,
  "hiv-@@": 4527,
  "ball@@": 4528,
  "trock@@": 4529,
  "schil@@": 4530,
  "schle@@": 4531,
  "ursprung": 4532,
  "erinnerungen": 4533,
  "gesetz@@": 4534,
  "weltkrieg": 4535,
  "furcht@@": 4536,
  "iges": 4537,
  "fün@@": 4538,
  "biologen": 4539,
  "spezielle": 4540,
  "unterwegs": 4541,
  "eres": 4542,
  "wünsche": 4543,
  "ed": 4544,
  "zy@@": 4545,
  "ör@@": 4546,
  "dliche": 4547,
  "sprech@@": 4548,
  "yo@@": 4549,
  "zentr@@": 4550,
  "organismus": 4551,
  "haiti": 4552,
  "wahlen": 4553,
  "besuchte": 4554,
  "stamm": 4555,
  "symbol": 4556,
  "0,@@": 4557,
  "störungen": 4558,
  "global": 4559,
  "golf@@": 4560,
  "verwand@@": 4561,
  "greif@@": 4562,
  "geistes@@": 4563,
  "riesiges": 4564,
  "biologischen": 4565,
  "aktu@@": 4566,
  "bel": 4567,
  "dienst@@": 4568,
  "organisiert": 4569,
  "falschen": 4570,
  "dienen": 4571,
  "genießen": 4572,
  "wähl@@": 4573,
  "binden": 4574,
  "wolke": 4575,
  "bene": 4576,
  "flüssigkeit": 4577,
  "handys": 4578,
  "tele@@": 4579,
  "verdient": 4580,
  "stock": 4581,
  "werbe@@": 4582,
  "steuer@@": 4583,
  "griff": 4584,
  "gebrauch": 4585,
  "katze": 4586,
  "illu@@": 4587,
  "j": 4588,
  "flugzeuge": 4589,
  "anlage": 4590,
  "frucht@@": 4591,
  "technischen": 4592,
  "isierung": 4593,
  "fließen": 4594,
  "akt": 4595,
  "trä@@": 4596,
  "zuschauer": 4597,
  "öffnet": 4598,
  "kei@@": 4599,
  "verkehrs@@": 4600,
  "un": 4601,
  "nisse": 4602,
  "kationen": 4603,
  "oll@@": 4604,
  "see@@": 4605,
  "watt": 4606,
  "19": 4607,
  "dunklen": 4608,
  "vorschlag": 4609,
  "geworfen": 4610,
  "reg@@": 4611,
  "konsu@@": 4612,
  "beruf": 4613,
  "musi@@": 4614,
  "opti@@": 4615,
  "chinesischen": 4616,
  "zunehmend": 4617,
  "weiten": 4618,
  "nas@@": 4619,
  "uren": 4620,
  "bombe": 4621,
  "stam@@": 4622,
  "fuhren": 4623,
  "weiß@@": 4624,
  "voran@@": 4625,
  "ktive": 4626,
  "party": 4627,
  "bewahren": 4628,
  "herunter": 4629,
  "selbe": 4630,
  "verb@@": 4631,
  "jahrzehnte": 4632,
  "interessanten": 4633,
  "ted@@": 4634,
  "ehre": 4635,
  "sum@@": 4636,
  "bekämpfen": 4637,
  "samkeit": 4638,
  "beigebracht": 4639,
  "heran": 4640,
  "aufbau": 4641,
  "training": 4642,
  "belohnung": 4643,
  "circa": 4644,
  "nütz@@": 4645,
  "bewe@@": 4646,
  "kosten@@": 4647,
  "teilung": 4648,
  "wozu": 4649,
  "betr@@": 4650,
  "teilte": 4651,
  "gene@@": 4652,
  "verwendung": 4653,
  "heiß": 4654,
  "fließt": 4655,
  "konfrontiert": 4656,
  "pfei@@": 4657,
  "are@@": 4658,
  "hung": 4659,
  "isi@@": 4660,
  "anführer": 4661,
  "elektr@@": 4662,
  "passi@@": 4663,
  "oberen": 4664,
  "tenden": 4665,
  "zustellen": 4666,
  "schwan@@": 4667,
  "gewöhnt": 4668,
  "umzugehen": 4669,
  "neulich": 4670,
  "trennen": 4671,
  "wander@@": 4672,
  "gigan@@": 4673,
  "gefüllt": 4674,
  "teilten": 4675,
  "goo@@": 4676,
  "kette": 4677,
  "insgesamt": 4678,
  "half": 4679,
  "verein@@": 4680,
  "stür@@": 4681,
  "letztlich": 4682,
  "dur@@": 4683,
  "gegenden": 4684,
  "schiff@@": 4685,
  "strafe": 4686,
  "versorgen": 4687,
  "artige": 4688,
  "kontroll@@": 4689,
  "ors": 4690,
  "angriff": 4691,
  "go": 4692,
  "blind": 4693,
  "teu@@": 4694,
  "empfinden": 4695,
  "altes": 4696,
  "chi@@": 4697,
  "symmetrie": 4698,
  "ausgesetzt": 4699,
  "haf@@": 4700,
  "blätter": 4701,
  "ham@@": 4702,
  "physische": 4703,
  "frankreich": 4704,
  "gemüse": 4705,
  "chemische": 4706,
  "ina": 4707,
  "diges": 4708,
  "gold": 4709,
  "wissenschaftlern": 4710,
  "alter@@": 4711,
  "irgendeinem": 4712,
  "dem@@": 4713,
  "begreifen": 4714,
  "kindes": 4715,
  "gesucht": 4716,
  "taucht": 4717,
  "gerufen": 4718,
  "magazin": 4719,
  "tives": 4720,
  "physi@@": 4721,
  "2009": 4722,
  "chtes": 4723,
  "beides": 4724,
  "wunderschöne": 4725,
  "volles": 4726,
  "geschlossen": 4727,
  "bewirken": 4728,
  "dinger": 4729,
  "sender": 4730,
  "meister": 4731,
  "stärken": 4732,
  "schlechtes": 4733,
  "klima": 4734,
  "kolle@@": 4735,
  "brü@@": 4736,
  "sil@@": 4737,
  "va": 4738,
  "ausmachen": 4739,
  "winkel": 4740,
  "vielfäl@@": 4741,
  "hol@@": 4742,
  "lebensmittel@@": 4743,
  "reaktionen": 4744,
  "sionen": 4745,
  "fähi@@": 4746,
  "2006": 4747,
  "zentral@@": 4748,
  "abhängigkeit": 4749,
  "afrikanische": 4750,
  "klei@@": 4751,
  "zugeben": 4752,
  "allgemein@@": 4753,
  "lin": 4754,
  "ens@@": 4755,
  "käfer": 4756,
  "bern": 4757,
  "außergewöhnlich": 4758,
  "langweilig": 4759,
  "blasen": 4760,
  "tigung": 4761,
  "kohlenstoff@@": 4762,
  "pollen": 4763,
  "maße": 4764,
  "fahrzeug": 4765,
  "sol@@": 4766,
  "1000": 4767,
  "kasten": 4768,
  "angeles": 4769,
  "deln": 4770,
  "pil@@": 4771,
  "plätze": 4772,
  "kalt": 4773,
  "hi": 4774,
  "asi@@": 4775,
  "studiert": 4776,
  "üben": 4777,
  "street": 4778,
  "ing": 4779,
  "offene": 4780,
  "char@@": 4781,
  "neigen": 4782,
  "packt": 4783,
  "faszinier@@": 4784,
  "identifizieren": 4785,
  "del": 4786,
  "gerung": 4787,
  "stille": 4788,
  "14@@": 4789,
  "artig": 4790,
  "versteckt": 4791,
  "app@@": 4792,
  "packen": 4793,
  "zeitraum": 4794,
  "katastrophen": 4795,
  "tter@@": 4796,
  "est": 4797,
  "könne": 4798,
  "bevölkerungs@@": 4799,
  "klu@@": 4800,
  "al-@@": 4801,
  "spur": 4802,
  "sichtweise": 4803,
  "füße": 4804,
  "rt": 4805,
  "getrennt": 4806,
  "auftrag": 4807,
  "visuellen": 4808,
  "pin@@": 4809,
  "fett": 4810,
  "interak@@": 4811,
  "stig": 4812,
  "27": 4813,
  "positiven": 4814,
  "stimmung": 4815,
  "vorträge": 4816,
  "physischen": 4817,
  "tan": 4818,
  "aktuelle": 4819,
  "spenden": 4820,
  "repli@@": 4821,
  "blogs": 4822,
  "zweifel": 4823,
  "berechnungen": 4824,
  "zeug@@": 4825,
  "sha@@": 4826,
  "ander@@": 4827,
  "poli@@": 4828,
  "erei": 4829,
  "kreu@@": 4830,
  "beglei@@": 4831,
  "islam@@": 4832,
  "erwärmung": 4833,
  "zeu@@": 4834,
  "has@@": 4835,
  "got@@": 4836,
  "christ@@": 4837,
  "peter": 4838,
  "teenager": 4839,
  "gelt": 4840,
  "vorsichtig": 4841,
  "ack@@": 4842,
  "wale": 4843,
  "entgegen@@": 4844,
  "hte": 4845,
  "trage": 4846,
  "terin": 4847,
  "papier@@": 4848,
  "2004": 4849,
  "esen": 4850,
  "kreative": 4851,
  "erwähnen": 4852,
  "verschieden": 4853,
  "cken@@": 4854,
  "verrückte": 4855,
  "zone": 4856,
  "videospiele": 4857,
  "in-@@": 4858,
  "jenseits": 4859,
  "gewann": 4860,
  "adam": 4861,
  "zig": 4862,
  "hinblick": 4863,
  "bösen": 4864,
  "traditionelle": 4865,
  "irgendwas": 4866,
  "gebunden": 4867,
  "höchsten": 4868,
  "handlung": 4869,
  "verschiedener": 4870,
  "ruft": 4871,
  "frequenz": 4872,
  "d.": 4873,
  "dy@@": 4874,
  "dere": 4875,
  "figur": 4876,
  "wälder": 4877,
  "el-@@": 4878,
  "währ@@": 4879,
  "dichter": 4880,
  "13@@": 4881,
  "interessen": 4882,
  "identi@@": 4883,
  "stirbt": 4884,
  "punkten": 4885,
  "ktionen": 4886,
  "höhepunkt": 4887,
  "fotografiert": 4888,
  "tags@@": 4889,
  "ghana": 4890,
  "verschwindet": 4891,
  "wirklichen": 4892,
  "erfol@@": 4893,
  "flog": 4894,
  "prozesse": 4895,
  "mechanismus": 4896,
  "rech@@": 4897,
  "seide": 4898,
  "65": 4899,
  "information@@": 4900,
  "sions@@": 4901,
  "va@@": 4902,
  "projekten": 4903,
  "maßnahmen": 4904,
  "stamm@@": 4905,
  "kb": 4906,
  "gestartet": 4907,
  "saßen": 4908,
  "gras@@": 4909,
  "entstehung": 4910,
  "winzigen": 4911,
  "mod@@": 4912,
  "geschmack": 4913,
  "institut": 4914,
  "erklärte": 4915,
  "zentren": 4916,
  "grippe": 4917,
  "vieren": 4918,
  "billi@@": 4919,
  "anfän@@": 4920,
  "sogenannte": 4921,
  "reich@@": 4922,
  "stämme": 4923,
  "atem@@": 4924,
  "echtes": 4925,
  "gerä@@": 4926,
  "block": 4927,
  "eigentliche": 4928,
  "weibliche": 4929,
  "texas": 4930,
  "zukünftigen": 4931,
  "inklusive": 4932,
  "ausdrücken": 4933,
  "teleskop": 4934,
  "reiche": 4935,
  "mäch@@": 4936,
  "stufen": 4937,
  "zent@@": 4938,
  "zwischen@@": 4939,
  "haare": 4940,
  "denkweise": 4941,
  "bekannte": 4942,
  "übung": 4943,
  "kanal": 4944,
  "pac@@": 4945,
  "tierten": 4946,
  "erenden": 4947,
  "polio": 4948,
  "tik": 4949,
  "impf@@": 4950,
  "willkommen": 4951,
  "erfüllen": 4952,
  "spannung": 4953,
  "tee": 4954,
  "beitrag": 4955,
  "zukommen": 4956,
  "greift": 4957,
  "isch@@": 4958,
  "bart": 4959,
  "gedächtnis": 4960,
  "matische": 4961,
  "amp": 4962,
  "hassen": 4963,
  "best@@": 4964,
  "individu@@": 4965,
  "schickte": 4966,
  "emotionale": 4967,
  "näch@@": 4968,
  "gebildet": 4969,
  "hoher": 4970,
  "erhe@@": 4971,
  "i-@@": 4972,
  "andererseits": 4973,
  "denselben": 4974,
  "britischen": 4975,
  "kuchen": 4976,
  "oxford": 4977,
  "tes@@": 4978,
  "umso": 4979,
  "diabetes": 4980,
  "krab@@": 4981,
  "eg@@": 4982,
  "macher": 4983,
  "rä@@": 4984,
  "moder@@": 4985,
  "zurückgehen": 4986,
  "heilen": 4987,
  "general": 4988,
  "blü@@": 4989,
  "kohlenstoff": 4990,
  "weltbevölkerung": 4991,
  "tende": 4992,
  "jeweils": 4993,
  "exakt": 4994,
  "umzu@@": 4995,
  "wein": 4996,
  "einheiten": 4997,
  "symptome": 4998,
  "rin@@": 4999,
  "städ@@": 5000,
  "benutze": 5001,
  "investiert": 5002,
  "streit@@": 5003,
  "ausgegeben": 5004,
  "hm@@": 5005,
  "intensi@@": 5006,
  "feu@@": 5007,
  "lam@@": 5008,
  "weist": 5009,
  "wiederholt": 5010,
  "geschnitten": 5011,
  "filmen": 5012,
  "chip": 5013,
  "kongo": 5014,
  "sprung": 5015,
  "ignorieren": 5016,
  "lehrern": 5017,
  "wundervolle": 5018,
  "knochen@@": 5019,
  "berichtet": 5020,
  "frie@@": 5021,
  "ations@@": 5022,
  "nac@@": 5023,
  "poster": 5024,
  "verbrauch": 5025,
  "kriti@@": 5026,
  "stimm@@": 5027,
  "sitze": 5028,
  "gewöhnlich": 5029,
  "nervös": 5030,
  "est@@": 5031,
  "gedanken@@": 5032,
  "kapitalismus": 5033,
  "zeitungen": 5034,
  "geraten": 5035,
  "logik": 5036,
  "gelb": 5037,
  "gründete": 5038,
  "schri@@": 5039,
  "pflege": 5040,
  "wetter": 5041,
  "erfassen": 5042,
  "bewegungs@@": 5043,
  "krie@@": 5044,
  "wieviele": 5045,
  "design@@": 5046,
  "endet": 5047,
  "pause": 5048,
  "kün@@": 5049,
  "parti@@": 5050,
  "rum@@": 5051,
  "babies": 5052,
  "protein": 5053,
  "gegenüber@@": 5054,
  "ktoren": 5055,
  "kehr@@": 5056,
  "zeichnete": 5057,
  "neur@@": 5058,
  "ener": 5059,
  "wur@@": 5060,
  "kranken@@": 5061,
  "grundlegend": 5062,
  "atoren": 5063,
  "50.000": 5064,
  "genom@@": 5065,
  "feind": 5066,
  "verletzungen": 5067,
  "schwerer": 5068,
  "syste@@": 5069,
  "ure": 5070,
  "ingenieur": 5071,
  "repräsentiert": 5072,
  "benutzte": 5073,
  "schätzung": 5074,
  "tere": 5075,
  "au": 5076,
  "gerettet": 5077,
  "komplizierte": 5078,
  "hitze": 5079,
  "hinunter": 5080,
  "eien": 5081,
  "verk@@": 5082,
  "higgs-@@": 5083,
  "real": 5084,
  "globalisierung": 5085,
  "sammlung": 5086,
  "stop@@": 5087,
  "sms": 5088,
  "licherweise": 5089,
  "fördert": 5090,
  "theorien": 5091,
  "profitieren": 5092,
  "stab@@": 5093,
  "lichter": 5094,
  "diesmal": 5095,
  "mein@@": 5096,
  "streit": 5097,
  "summe": 5098,
  "brand@@": 5099,
  "22": 5100,
  "frank": 5101,
  "ten-@@": 5102,
  "krat@@": 5103,
  "staats@@": 5104,
  "benutzten": 5105,
  "umgang": 5106,
  "knopf": 5107,
  "detail": 5108,
  "aufstieg": 5109,
  "sprecher": 5110,
  "universitäten": 5111,
  "kaputt": 5112,
  "kreislauf": 5113,
  "eth@@": 5114,
  "entscheidende": 5115,
  "zeichnungen": 5116,
  "gieren": 5117,
  "glichen": 5118,
  "ewi@@": 5119,
  "wil@@": 5120,
  ".com": 5121,
  "sequenz": 5122,
  "dazwischen": 5123,
  "schar@@": 5124,
  "entscheidend": 5125,
  "blog": 5126,
  "herauszu@@": 5127,
  "effizient": 5128,
  "strecken": 5129,
  "mende": 5130,
  "eng": 5131,
  "poly@@": 5132,
  "messer": 5133,
  "glo@@": 5134,
  "argument": 5135,
  "weltall": 5136,
  "persönlichkeit": 5137,
  "ausnahme": 5138,
  "enti@@": 5139,
  "köpfen": 5140,
  "gige": 5141,
  "sogenannten": 5142,
  "falle": 5143,
  "gib": 5144,
  "stör@@": 5145,
  "vis@@": 5146,
  "fertig@@": 5147,
  "großzü@@": 5148,
  "dient": 5149,
  "rie": 5150,
  "schwanz": 5151,
  "bat@@": 5152,
  "planung": 5153,
  "oran@@": 5154,
  "anbieten": 5155,
  "geh@@": 5156,
  "gesunde": 5157,
  "kommunikations@@": 5158,
  "hang": 5159,
  "erfinder": 5160,
  "uni": 5161,
  "lernten": 5162,
  "gering@@": 5163,
  "treib@@": 5164,
  "holte": 5165,
  "interessanterweise": 5166,
  "dens": 5167,
  "blickwinkel": 5168,
  "unterstütz@@": 5169,
  "vergnügen": 5170,
  "stö@@": 5171,
  "ast@@": 5172,
  "effekte": 5173,
  "nachrichten@@": 5174,
  "motivation": 5175,
  "billig": 5176,
  "f-@@": 5177,
  "versprechen": 5178,
  "1.": 5179,
  "spä@@": 5180,
  "trans@@": 5181,
  "kreisen": 5182,
  "mus@@": 5183,
  "nachdenkt": 5184,
  "kür@@": 5185,
  "doktor": 5186,
  "uganda": 5187,
  "ese": 5188,
  "gru@@": 5189,
  "sternen": 5190,
  "ah@@": 5191,
  "roh@@": 5192,
  "wasserstoff": 5193,
  "ausschließlich": 5194,
  "kiste": 5195,
  "elefanten": 5196,
  "ozean@@": 5197,
  "strategien": 5198,
  "bran@@": 5199,
  "rechen@@": 5200,
  "tolles": 5201,
  "glaubten": 5202,
  "drogen@@": 5203,
  "besitz": 5204,
  "fabriken": 5205,
  "sc@@": 5206,
  "banken": 5207,
  "finanzi@@": 5208,
  "kulturellen": 5209,
  "lieder": 5210,
  "ba": 5211,
  "plus": 5212,
  "geheim@@": 5213,
  "se-@@": 5214,
  "holt": 5215,
  "bens": 5216,
  "q@@": 5217,
  "will@@": 5218,
  "chts@@": 5219,
  "güte": 5220,
  "umstände": 5221,
  "sieb@@": 5222,
  "überzeu@@": 5223,
  "frem@@": 5224,
  "gucken": 5225,
  "tricks": 5226,
  "schlimm": 5227,
  "reis": 5228,
  "hinauf": 5229,
  "zuver@@": 5230,
  "intuition": 5231,
  "2003": 5232,
  "schnelle": 5233,
  "schöner": 5234,
  "gold@@": 5235,
  "folgte": 5236,
  "fache": 5237,
  "technische": 5238,
  "strecke": 5239,
  "ruhig": 5240,
  "szene": 5241,
  "teils": 5242,
  "statistik": 5243,
  "-jährige": 5244,
  "prü@@": 5245,
  "dam@@": 5246,
  "veran@@": 5247,
  "höchste": 5248,
  "stück@@": 5249,
  "beweg@@": 5250,
  "2001": 5251,
  "tran@@": 5252,
  "wat@@": 5253,
  "belieb@@": 5254,
  "konflikte": 5255,
  "ordnet": 5256,
  "nachhaltige": 5257,
  "z.": 5258,
  "güter": 5259,
  "sag": 5260,
  "tlichen": 5261,
  "iphone": 5262,
  "schreck@@": 5263,
  "gie@@": 5264,
  "radio": 5265,
  "träge": 5266,
  "wahren": 5267,
  "höheren": 5268,
  "harte": 5269,
  "mysteri@@": 5270,
  "issen": 5271,
  "zugleich": 5272,
  "doppel@@": 5273,
  "schwi@@": 5274,
  "kolonie": 5275,
  "gewä@@": 5276,
  "fei@@": 5277,
  "250": 5278,
  "hom@@": 5279,
  "sozialer": 5280,
  "nachhal@@": 5281,
  "dlichen": 5282,
  "weitermachen": 5283,
  "allgemein": 5284,
  "lab@@": 5285,
  "korallen": 5286,
  "liest": 5287,
  "strand": 5288,
  "brustkrebs": 5289,
  "ausmacht": 5290,
  "origami": 5291,
  "forschungen": 5292,
  "stün@@": 5293,
  "zurückkehren": 5294,
  "&amp;": 5295,
  "gebung": 5296,
  "west": 5297,
  "reicher": 5298,
  "januar": 5299,
  "erwartungen": 5300,
  "schulter": 5301,
  "leistungen": 5302,
  "entwicklungsländer": 5303,
  "künstliche": 5304,
  "dert": 5305,
  "begriffen": 5306,
  "rechner": 5307,
  "95": 5308,
  "väter": 5309,
  "tiv@@": 5310,
  "früheren": 5311,
  "werdet": 5312,
  "gegessen": 5313,
  "e-mail": 5314,
  "schein@@": 5315,
  "erdbeben": 5316,
  "motoren": 5317,
  "derek": 5318,
  "das@@": 5319,
  "matischen": 5320,
  "ttert": 5321,
  "schten": 5322,
  "jenen": 5323,
  "erre@@": 5324,
  "konsum": 5325,
  "fasern": 5326,
  "tliche": 5327,
  "keinem": 5328,
  "krea@@": 5329,
  "berühmt": 5330,
  "20.000": 5331,
  "ill@@": 5332,
  "angesichts": 5333,
  "täten": 5334,
  "schlimmsten": 5335,
  "pun@@": 5336,
  "beschä@@": 5337,
  "prin@@": 5338,
  "angetrieben": 5339,
  "transparenz": 5340,
  "studi@@": 5341,
  "tum": 5342,
  "wellen@@": 5343,
  "dumm": 5344,
  "pre@@": 5345,
  "verkün@@": 5346,
  "pflanzen@@": 5347,
  "h-@@": 5348,
  "beizu@@": 5349,
  "ans@@": 5350,
  "reichtum": 5351,
  "analysieren": 5352,
  "tat@@": 5353,
  "mmer@@": 5354,
  "anruf": 5355,
  "jugend": 5356,
  "il": 5357,
  "klassen@@": 5358,
  "origin@@": 5359,
  "gegenstand": 5360,
  "scho@@": 5361,
  "verbesserung": 5362,
  "hilfs@@": 5363,
  "wahrschein@@": 5364,
  "intelligente": 5365,
  "trend": 5366,
  "ständen": 5367,
  "bewegte": 5368,
  "gezwungen": 5369,
  "microsoft": 5370,
  "bescheid": 5371,
  "nerven": 5372,
  "halben": 5373,
  "zwingen": 5374,
  "letz@@": 5375,
  "hirn": 5376,
  "waschen": 5377,
  "start": 5378,
  "uni@@": 5379,
  "valley": 5380,
  "gipfel": 5381,
  "entschuldigung": 5382,
  "eröffnet": 5383,
  "linke": 5384,
  "ack": 5385,
  "z-@@": 5386,
  "anzeige": 5387,
  "handlungen": 5388,
  "neugierig": 5389,
  "ausser@@": 5390,
  "schritten": 5391,
  "pau@@": 5392,
  "sy@@": 5393,
  "fahrrad": 5394,
  "figuren": 5395,
  "assen": 5396,
  "wa": 5397,
  "autismus": 5398,
  "flaschen": 5399,
  "geh": 5400,
  "wiederholen": 5401,
  "schreib@@": 5402,
  "auslö@@": 5403,
  "russland": 5404,
  "rum": 5405,
  "übertragung": 5406,
  "kennen@@": 5407,
  "minister": 5408,
  "dienstleistungen": 5409,
  "di": 5410,
  "les": 5411,
  "kämp@@": 5412,
  "integri@@": 5413,
  "umfas@@": 5414,
  "vogel@@": 5415,
  "extra@@": 5416,
  "kts": 5417,
  "dick": 5418,
  "angebot": 5419,
  "bigen": 5420,
  "dollar-@@": 5421,
  "wundervoll": 5422,
  "alisierten": 5423,
  "fließ@@": 5424,
  "erlangen": 5425,
  "störung": 5426,
  "preis@@": 5427,
  "dring@@": 5428,
  "ganz@@": 5429,
  "haut@@": 5430,
  "schna@@": 5431,
  "ältesten": 5432,
  "diskutieren": 5433,
  "architekt": 5434,
  "verließ": 5435,
  "verliebt": 5436,
  "aufrecht": 5437,
  "häu@@": 5438,
  "stock@@": 5439,
  "würdest": 5440,
  "reparieren": 5441,
  "0-@@": 5442,
  "m-@@": 5443,
  "probieren": 5444,
  "gehei@@": 5445,
  "stammen": 5446,
  "ffe": 5447,
  "entwurf": 5448,
  "jährlich": 5449,
  "mikroskop": 5450,
  "psycho@@": 5451,
  "fs": 5452,
  "standpunkt": 5453,
  "festgestellt": 5454,
  "proje@@": 5455,
  "vorder@@": 5456,
  "nachhaltigkeit": 5457,
  "blicke": 5458,
  "dauer@@": 5459,
  "abendessen": 5460,
  "pe": 5461,
  "wandern": 5462,
  "hinsichtlich": 5463,
  "stad@@": 5464,
  "open": 5465,
  "…": 5466,
  "vari@@": 5467,
  "matik": 5468,
  "ebenen": 5469,
  "becken": 5470,
  "speicher": 5471,
  "bip": 5472,
  "durchzuführen": 5473,
  "keits@@": 5474,
  "tote": 5475,
  "privaten": 5476,
  "überprüfen": 5477,
  "wohnen": 5478,
  "westliche": 5479,
  "23": 5480,
  "kauft": 5481,
  "deckt": 5482,
  "stige": 5483,
  "wissen@@": 5484,
  "zug@@": 5485,
  "kas@@": 5486,
  "schöpf@@": 5487,
  "kalten": 5488,
  "chirurgen": 5489,
  "optimismus": 5490,
  "überrasch@@": 5491,
  "landete": 5492,
  "nahezu": 5493,
  "jung@@": 5494,
  "dienste": 5495,
  "gert": 5496,
  "experiment@@": 5497,
  "chirurg": 5498,
  "120": 5499,
  "nerven@@": 5500,
  "attra@@": 5501,
  "schlech@@": 5502,
  "llt": 5503,
  "englischen": 5504,
  "stischer": 5505,
  "sicherer": 5506,
  "verletz@@": 5507,
  "ratten": 5508,
  "deinem": 5509,
  "berühr@@": 5510,
  "jagen": 5511,
  "super": 5512,
  "kan": 5513,
  "quanten@@": 5514,
  "heiraten": 5515,
  "gesam@@": 5516,
  "evolution@@": 5517,
  "schreibe": 5518,
  "freu@@": 5519,
  "gesunden": 5520,
  "materi@@": 5521,
  "ce": 5522,
  "16@@": 5523,
  "verbrauchen": 5524,
  "einziges": 5525,
  "stellungen": 5526,
  "europäischen": 5527,
  "ge-@@": 5528,
  "visu@@": 5529,
  "kreiert": 5530,
  "val@@": 5531,
  "dom@@": 5532,
  "reagiert": 5533,
  "unterhalten": 5534,
  "rechnung": 5535,
  "behörde": 5536,
  "kn@@": 5537,
  "kongress": 5538,
  "einzigartig": 5539,
  "durfte": 5540,
  "gerichtet": 5541,
  "mochte": 5542,
  "öko@@": 5543,
  "mur@@": 5544,
  "nuklear@@": 5545,
  "gefängnis@@": 5546,
  "v-@@": 5547,
  "p-@@": 5548,
  "bedienen": 5549,
  "gangen": 5550,
  "woll@@": 5551,
  "aber@@": 5552,
  "sierung": 5553,
  "gere": 5554,
  "marketing": 5555,
  "antrieb": 5556,
  "zurückkommen": 5557,
  "komm@@": 5558,
  "glückliche": 5559,
  "ns": 5560,
  "st-@@": 5561,
  "beinen": 5562,
  "deu@@": 5563,
  "zucker@@": 5564,
  "fotografie": 5565,
  "dacht": 5566,
  "politisch": 5567,
  "redu@@": 5568,
  "ev@@": 5569,
  "quer@@": 5570,
  "800": 5571,
  "digte": 5572,
  "ängste": 5573,
  "betrieb": 5574,
  "prototypen": 5575,
  "apple": 5576,
  "heiß@@": 5577,
  "benen": 5578,
  "bedeckt": 5579,
  "allgemeine": 5580,
  "ats": 5581,
  "angehen": 5582,
  "schwar@@": 5583,
  "konstruieren": 5584,
  "indiens": 5585,
  "dialog": 5586,
  "abends": 5587,
  "übersetzt": 5588,
  "enormen": 5589,
  "standard": 5590,
  "isten": 5591,
  "konsumenten": 5592,
  "dutzend": 5593,
  "ministerium": 5594,
  "bestra@@": 5595,
  "organis@@": 5596,
  "praxis": 5597,
  "om": 5598,
  "brüder": 5599,
  "te-@@": 5600,
  "tauschen": 5601,
  "erzeu@@": 5602,
  "defini@@": 5603,
  "schlau": 5604,
  "sach@@": 5605,
  "organ": 5606,
  "knie": 5607,
  "design-@@": 5608,
  "rio": 5609,
  "seil": 5610,
  "befreien": 5611,
  "ballon": 5612,
  "bord": 5613,
  "2.000": 5614,
  "geblieben": 5615,
  "vorn": 5616,
  "kehrt": 5617,
  "lebensqualität": 5618,
  "gestaltung": 5619,
  "fremden": 5620,
  "can@@": 5621,
  "schwarzes": 5622,
  "verbraucht": 5623,
  "nimm": 5624,
  "unterhalb": 5625,
  "vieler": 5626,
  "kleinere": 5627,
  "onkel": 5628,
  "post@@": 5629,
  "zusätzliche": 5630,
  "auswirkung": 5631,
  "hingehen": 5632,
  "ce@@": 5633,
  "197@@": 5634,
  "schreckliche": 5635,
  "schwestern": 5636,
  "anfängt": 5637,
  "losigkeit": 5638,
  "oktober": 5639,
  "tation": 5640,
  "bandbreite": 5641,
  "ansichten": 5642,
  "impfstoff": 5643,
  "geöffnet": 5644,
  "gebäudes": 5645,
  "sprü@@": 5646,
  "kohle@@": 5647,
  "hinweise": 5648,
  "drucker": 5649,
  "ersetzt": 5650,
  "flücht@@": 5651,
  "26": 5652,
  "wach@@": 5653,
  "ann": 5654,
  "trieben": 5655,
  "außergewöhnliche": 5656,
  "chert": 5657,
  "dreimal": 5658,
  "symboli@@": 5659,
  "räum@@": 5660,
  "zyklus": 5661,
  "zweites": 5662,
  "klingen": 5663,
  "einrichtung": 5664,
  "wohlbefinden": 5665,
  "verlangt": 5666,
  "pharma@@": 5667,
  "stress": 5668,
  "ier@@": 5669,
  "jün@@": 5670,
  "knoten": 5671,
  "wünschen": 5672,
  "atome": 5673,
  "selektion": 5674,
  "wut": 5675,
  "errichten": 5676,
  "grun@@": 5677,
  "uns@@": 5678,
  "klas@@": 5679,
  "kran@@": 5680,
  "700": 5681,
  "bereit@@": 5682,
  "revolution@@": 5683,
  "stern@@": 5684,
  "con@@": 5685,
  "dramatisch": 5686,
  "einhalb": 5687,
  "dose": 5688,
  "grafie": 5689,
  "sir": 5690,
  "unterscheidet": 5691,
  "kämpft": 5692,
  "..": 5693,
  "ante": 5694,
  "bemerkenswerte": 5695,
  "erledigt": 5696,
  "2.": 5697,
  "uten": 5698,
  "katzen": 5699,
  "tisch@@": 5700,
  "euer": 5701,
  "eingehen": 5702,
  "spieler@@": 5703,
  "tent@@": 5704,
  "unternehmer@@": 5705,
  "chef": 5706,
  "tony": 5707,
  "aufregende": 5708,
  "schaff@@": 5709,
  "institute": 5710,
  "mittelpunkt": 5711,
  "martin": 5712,
  "legten": 5713,
  "änderte": 5714,
  "nachfrage": 5715,
  "fau@@": 5716,
  "bon@@": 5717,
  "lehrerin": 5718,
  "grä@@": 5719,
  "ausgebildet": 5720,
  "innova@@": 5721,
  "großartiger": 5722,
  "schaffte": 5723,
  "song": 5724,
  "gewalt@@": 5725,
  "gam@@": 5726,
  "ate@@": 5727,
  "gewal@@": 5728,
  "taschen": 5729,
  "erinnerte": 5730,
  "gkeiten": 5731,
  "besonderes": 5732,
  "irr@@": 5733,
  "hersteller": 5734,
  "religiöse": 5735,
  "nationalen": 5736,
  "schuf": 5737,
  "zentimeter": 5738,
  "lungen@@": 5739,
  "skulptur": 5740,
  "hinweis": 5741,
  "weltweite": 5742,
  "glücklichen": 5743,
  "anstellen": 5744,
  "enten@@": 5745,
  "illusion": 5746,
  "trainieren": 5747,
  "atem": 5748,
  "bet@@": 5749,
  "schlange": 5750,
  "vorgestellt": 5751,
  "ki": 5752,
  "durchschnitt@@": 5753,
  "beitragen": 5754,
  "wunderschönen": 5755,
  "private": 5756,
  "sur@@": 5757,
  "erfahr@@": 5758,
  "investition": 5759,
  "beginne": 5760,
  "nochmals": 5761,
  "schienen": 5762,
  "elen": 5763,
  "erkenn@@": 5764,
  "kommst": 5765,
  "mannes": 5766,
  "beschreibung": 5767,
  "dimension": 5768,
  "bedürfnis": 5769,
  "öffnete": 5770,
  "stau@@": 5771,
  "amerikas": 5772,
  "manager": 5773,
  "ausgabe": 5774,
  "liber@@": 5775,
  "autor@@": 5776,
  "bohr@@": 5777,
  "kol@@": 5778,
  "beru@@": 5779,
  "durchmesser": 5780,
  "entdeckten": 5781,
  "perfe@@": 5782,
  "ausgehen": 5783,
  "kombinieren": 5784,
  "prot@@": 5785,
  "kg": 5786,
  "auszudrücken": 5787,
  "finger@@": 5788,
  "spielten": 5789,
  "ulen": 5790,
  "schafften": 5791,
  "löst": 5792,
  "schnei@@": 5793,
  "geräten": 5794,
  "gemessen": 5795,
  "schnell@@": 5796,
  "million@@": 5797,
  "bahnen": 5798,
  "tauch@@": 5799,
  "komisch": 5800,
  "aktuellen": 5801,
  "2,@@": 5802,
  "bier": 5803,
  "berechnung": 5804,
  "gewinnt": 5805,
  "tägliche": 5806,
  "met@@": 5807,
  "bo": 5808,
  "zun@@": 5809,
  "deuten": 5810,
  "ville": 5811,
  "olo@@": 5812,
  "mol@@": 5813,
  "hauses": 5814,
  "anreize": 5815,
  "chteten": 5816,
  "ologische": 5817,
  "ferti@@": 5818,
  "getestet": 5819,
  "wunderschön": 5820,
  "streifen": 5821,
  "joe": 5822,
  "schlimmste": 5823,
  "hum@@": 5824,
  "verwal@@": 5825,
  "mark@@": 5826,
  "30@@": 5827,
  "vierten": 5828,
  "gefolgt": 5829,
  "cker@@": 5830,
  "prozesses": 5831,
  "leit@@": 5832,
  "gore": 5833,
  "3.000": 5834,
  "stets": 5835,
  "kum@@": 5836,
  "3,@@": 5837,
  "verbrennen": 5838,
  "pp": 5839,
  "u-@@": 5840,
  "ursprüngliche": 5841,
  "theore@@": 5842,
  "herein": 5843,
  "verab@@": 5844,
  "finanziert": 5845,
  "weibchen": 5846,
  "chines@@": 5847,
  "lot@@": 5848,
  "hör": 5849,
  "verdammt": 5850,
  "git@@": 5851,
  "inhalte": 5852,
  "baum@@": 5853,
  "stä@@": 5854,
  "terrorismus": 5855,
  "cambridge": 5856,
  "geni@@": 5857,
  "hilfsmittel": 5858,
  "zierung": 5859,
  "konkre@@": 5860,
  "nungen": 5861,
  "hebt": 5862,
  "abenteuer": 5863,
  "meere": 5864,
  "orchester": 5865,
  "schnee": 5866,
  "förder@@": 5867,
  "kindersterblichkeit": 5868,
  "trends": 5869,
  "ungeheuer": 5870,
  "kräf@@": 5871,
  "übt": 5872,
  "anhänger": 5873,
  "gran@@": 5874,
  "verarbeitung": 5875,
  "sensoren": 5876,
  "geschü@@": 5877,
  "erfüllt": 5878,
  "alisi@@": 5879,
  "air@@": 5880,
  "rufe": 5881,
  "post": 5882,
  "merkmale": 5883,
  "erfindungen": 5884,
  "tode": 5885,
  "tanz@@": 5886,
  "veränder@@": 5887,
  "füßen": 5888,
  "rela@@": 5889,
  "lar@@": 5890,
  "urban@@": 5891,
  "gat@@": 5892,
  "überein@@": 5893,
  "wollt": 5894,
  "führenden": 5895,
  "tim": 5896,
  "dn@@": 5897,
  "großartiges": 5898,
  "mische": 5899,
  "ungewöhnlich": 5900,
  "wissens": 5901,
  "komple@@": 5902,
  "kuh": 5903,
  "stahl@@": 5904,
  "asse": 5905,
  "mes@@": 5906,
  "kit@@": 5907,
  "hut": 5908,
  "unendlich": 5909,
  "saturn": 5910,
  "ep@@": 5911,
  "-jährigen": 5912,
  "häusern": 5913,
  "unterwasser@@": 5914,
  "schnitt@@": 5915,
  "ssi@@": 5916,
  "mischung": 5917,
  "ttern": 5918,
  "negativ": 5919,
  "überlebt": 5920,
  "tages@@": 5921,
  "ungskraft": 5922,
  "ring": 5923,
  "psychologen": 5924,
  "tte": 5925,
  "definitiv": 5926,
  "att@@": 5927,
  "senken": 5928,
  "bab@@": 5929,
  "vermu@@": 5930,
  "vorwärts": 5931,
  "hell@@": 5932,
  "quadrat@@": 5933,
  "hir@@": 5934,
  "konzepte": 5935,
  "gemeinschaft@@": 5936,
  "scher@@": 5937,
  "kopieren": 5938,
  "suchten": 5939,
  "heil@@": 5940,
  "spiels": 5941,
  "und@@": 5942,
  "künstler@@": 5943,
  "autoren": 5944,
  "erfuhr": 5945,
  "dende": 5946,
  "standard@@": 5947,
  "ohr": 5948,
  "futter": 5949,
  "tragödie": 5950,
  "nähr@@": 5951,
  "tetes": 5952,
  "feld@@": 5953,
  "befür@@": 5954,
  "ute": 5955,
  "rad@@": 5956,
  "verbrei@@": 5957,
  "gelaufen": 5958,
  "wodurch": 5959,
  "bedauern": 5960,
  "brüche": 5961,
  "allzu": 5962,
  "venti@@": 5963,
  "chtung": 5964,
  "ruanda": 5965,
  "bereiten": 5966,
  "yorker": 5967,
  "dest@@": 5968,
  "hydro@@": 5969,
  "32": 5970,
  "humor": 5971,
  "dest": 5972,
  "erschien": 5973,
  "prote@@": 5974,
  "neun@@": 5975,
  "liebt": 5976,
  "bedeutend": 5977,
  "van": 5978,
  "last": 5979,
  "lationen": 5980,
  "chan@@": 5981,
  "setzung": 5982,
  "sab@@": 5983,
  "körpern": 5984,
  "sung": 5985,
  "verarbeiten": 5986,
  "ek@@": 5987,
  "held": 5988,
  "beträgt": 5989,
  "wütend": 5990,
  "indische": 5991,
  "proble@@": 5992,
  "vermute": 5993,
  "graphi@@": 5994,
  "ders": 5995,
  "ärmsten": 5996,
  "chemischen": 5997,
  "bedro@@": 5998,
  "ktion@@": 5999,
  "sieben@@": 6000,
  "erstaunlichen": 6001,
  "industrie@@": 6002,
  "geschützt": 6003,
  "handelte": 6004,
  "ana": 6005,
  "verteilen": 6006,
  "großvater": 6007,
  "besitzer": 6008,
  "wild@@": 6009,
  "quadrat": 6010,
  "relevant": 6011,
  "spü@@": 6012,
  "bac@@": 6013,
  "märkten": 6014,
  "übergang": 6015,
  "kapazität": 6016,
  "toilette": 6017,
  "öfter": 6018,
  "angepasst": 6019,
  "fantastischen": 6020,
  "verfügen": 6021,
  "involviert": 6022,
  "nü@@": 6023,
  "kredit@@": 6024,
  "kris@@": 6025,
  "bäumen": 6026,
  "echter": 6027,
  "tin@@": 6028,
  "gelände": 6029,
  "gleichheit": 6030,
  "irgendeiner": 6031,
  "ins@@": 6032,
  "stande": 6033,
  "laptops": 6034,
  "kni@@": 6035,
  "n-@@": 6036,
  "lärm": 6037,
  "optimistisch": 6038,
  "sauerstoff@@": 6039,
  "ve": 6040,
  "schülern": 6041,
  "explosion": 6042,
  "produkten": 6043,
  "zusammenge@@": 6044,
  "blö@@": 6045,
  "frag@@": 6046,
  "stände": 6047,
  "regelmäßig": 6048,
  "kopie": 6049,
  "ware": 6050,
  "radio@@": 6051,
  "eti@@": 6052,
  "abteilung": 6053,
  "schädel": 6054,
  "schufen": 6055,
  "schall@@": 6056,
  "erfordert": 6057,
  "stanford": 6058,
  "hit@@": 6059,
  "infi@@": 6060,
  "seri@@": 6061,
  "inmitten": 6062,
  "schot@@": 6063,
  "lossen@@": 6064,
  "belast@@": 6065,
  "listen": 6066,
  "februar": 6067,
  "gewöhnliche": 6068,
  "besit@@": 6069,
  "gerüst": 6070,
  "halten@@": 6071,
  "wacht": 6072,
  "tar@@": 6073,
  "hot@@": 6074,
  "schritt@@": 6075,
  "pyramide": 6076,
  "jähr@@": 6077,
  "häl@@": 6078,
  "königin": 6079,
  "annahmen": 6080,
  "farm": 6081,
  "gesellschaft@@": 6082,
  "grenz@@": 6083,
  "währung": 6084,
  "anders@@": 6085,
  "zahlt": 6086,
  "erkunden": 6087,
  "füll@@": 6088,
  "hypothese": 6089,
  "runter@@": 6090,
  "tafel": 6091,
  "bronx": 6092,
  "vielmals": 6093,
  "klassische": 6094,
  "slo@@": 6095,
  "scheibe": 6096,
  "vielzahl": 6097,
  "ungleichheit": 6098,
  "gers": 6099,
  "ase": 6100,
  "brett": 6101,
  "lese": 6102,
  "minen": 6103,
  "dig@@": 6104,
  "anzuschauen": 6105,
  "poesie": 6106,
  "spitzen": 6107,
  "erfand": 6108,
  "emotionalen": 6109,
  "zeugs": 6110,
  "kohlendioxid": 6111,
  "spo@@": 6112,
  "offenheit": 6113,
  "gläu@@": 6114,
  "gegenstände": 6115,
  "kreise": 6116,
  "tumor@@": 6117,
  "kehrte": 6118,
  "graph@@": 6119,
  "front": 6120,
  "ordnen": 6121,
  "eisen@@": 6122,
  "lücke": 6123,
  "mächtige": 6124,
  "moralisch": 6125,
  "international": 6126,
  "zerstör@@": 6127,
  "schieben": 6128,
  "gewissermaßen": 6129,
  "gle@@": 6130,
  "wüssten": 6131,
  "glamour": 6132,
  "bomben": 6133,
  "ück@@": 6134,
  "draussen": 6135,
  "papa": 6136,
  "auftreten": 6137,
  "funktionier@@": 6138,
  "bir@@": 6139,
  "sion": 6140,
  "fet@@": 6141,
  "energi@@": 6142,
  "ativen": 6143,
  "basierte": 6144,
  "verkauf": 6145,
  "dbar": 6146,
  "ko": 6147,
  "ameise": 6148,
  "geno@@": 6149,
  "zuletzt": 6150,
  "nachhaltig": 6151,
  "richter": 6152,
  "ble@@": 6153,
  "hoff@@": 6154,
  "voraussagen": 6155,
  "beziehen": 6156,
  "menschlichkeit": 6157,
  "schmerz@@": 6158,
  "spiritu@@": 6159,
  "üsse": 6160,
  "endete": 6161,
  "rekor@@": 6162,
  "erb@@": 6163,
  "sendung": 6164,
  "van@@": 6165,
  "gerei@@": 6166,
  "sorgt": 6167,
  "mittagessen": 6168,
  "optimi@@": 6169,
  "enes": 6170,
  "schwei@@": 6171,
  "gerissen": 6172,
  "verwandten": 6173,
  "mr.": 6174,
  "kreativ": 6175,
  "partei": 6176,
  "schläge": 6177,
  "finanzieren": 6178,
  "wundervollen": 6179,
  "isst": 6180,
  "überqueren": 6181,
  "zel@@": 6182,
  "anhalten": 6183,
  "ausgewählt": 6184,
  "hai": 6185,
  "platte": 6186,
  "vereinten": 6187,
  "misst": 6188,
  "formel": 6189,
  "rock@@": 6190,
  "pft": 6191,
  "massen": 6192,
  "bungen": 6193,
  "konvention@@": 6194,
  "adi@@": 6195,
  "klin@@": 6196,
  "erledigen": 6197,
  "internets": 6198,
  "scham": 6199,
  "posi@@": 6200,
  "weinen": 6201,
  "einstellen": 6202,
  "eröffnen": 6203,
  "titel@@": 6204,
  "dns": 6205,
  "freuen": 6206,
  "marken": 6207,
  "öst@@": 6208,
  "erziehung": 6209,
  "täuschen": 6210,
  "umher@@": 6211,
  "jet@@": 6212,
  "ly": 6213,
  "isiert": 6214,
  "führungs@@": 6215,
  "florida": 6216,
  "perfekten": 6217,
  "ppte": 6218,
  "rett@@": 6219,
  "bush": 6220,
  "ray": 6221,
  "befassen": 6222,
  "beschränkt": 6223,
  "anpassung": 6224,
  "sicherstellen": 6225,
  "nutzten": 6226,
  "reißen": 6227,
  "disch": 6228,
  "aktiven": 6229,
  "kosm@@": 6230,
  "hindurch": 6231,
  "festhalten": 6232,
  "verbor@@": 6233,
  "städtischen": 6234,
  "programmiert": 6235,
  "wör@@": 6236,
  "unsichtbar": 6237,
  "feln": 6238,
  "tempo": 6239,
  "oberflächen": 6240,
  "sion@@": 6241,
  "ät": 6242,
  "desig@@": 6243,
  "bren@@": 6244,
  "spektakul@@": 6245,
  "elli@@": 6246,
  "kenn@@": 6247,
  "fels": 6248,
  "befrie@@": 6249,
  "media": 6250,
  "beobachtung": 6251,
  "verringern": 6252,
  "stens": 6253,
  "jahres@@": 6254,
  "trauri@@": 6255,
  "lagern": 6256,
  "kontro@@": 6257,
  "bauer": 6258,
  "kannten": 6259,
  "kolonien": 6260,
  "supermarkt": 6261,
  "schluss@@": 6262,
  "betreu@@": 6263,
  "wuchsen": 6264,
  "meln": 6265,
  "verlor": 6266,
  "widerspruch": 6267,
  "delph@@": 6268,
  "pon@@": 6269,
  "präsentiert": 6270,
  "gestaltet": 6271,
  "setze": 6272,
  "nan@@": 6273,
  "unrecht": 6274,
  "inn@@": 6275,
  "gelehrt": 6276,
  "restaurants": 6277,
  "neugier": 6278,
  "institution": 6279,
  "une": 6280,
  "aussterben": 6281,
  "asteroiden": 6282,
  "untersuchungen": 6283,
  "dankbar": 6284,
  "behandlungen": 6285,
  "netzwerken": 6286,
  "mand@@": 6287,
  "soziales": 6288,
  "transplan@@": 6289,
  "option": 6290,
  "tendenz": 6291,
  "faszinierende": 6292,
  "lokal@@": 6293,
  "ord@@": 6294,
  "klettern": 6295,
  "gh": 6296,
  "angeschaut": 6297,
  "ätz@@": 6298,
  "erzielen": 6299,
  "betreten": 6300,
  "schriftsteller": 6301,
  "umgekehrt": 6302,
  "stren@@": 6303,
  "teilnehmen": 6304,
  "howard": 6305,
  "wissenschafts@@": 6306,
  "kter": 6307,
  "anzugehen": 6308,
  "angestellten": 6309,
  "mangel@@": 6310,
  "foundation": 6311,
  "schauspieler": 6312,
  "konzep@@": 6313,
  "bestes": 6314,
  "nest": 6315,
  "doktor@@": 6316,
  "mär@@": 6317,
  "ständige": 6318,
  "zenz": 6319,
  "jim": 6320,
  "erungs@@": 6321,
  "geredet": 6322,
  "verhält": 6323,
  "verbreitete": 6324,
  "tradition@@": 6325,
  "up@@": 6326,
  "brian": 6327,
  "hnte": 6328,
  "beliebt": 6329,
  "kandidaten": 6330,
  "é@@": 6331,
  "warf": 6332,
  "bie@@": 6333,
  "schütteln": 6334,
  "neutr@@": 6335,
  "verzweiflung": 6336,
  "organ@@": 6337,
  "getragen": 6338,
  "projekts": 6339,
  "schokolade": 6340,
  "platten": 6341,
  "science": 6342,
  "ero@@": 6343,
  "dicht": 6344,
  "behörden": 6345,
  "kommuni@@": 6346,
  "3.": 6347,
  "sierte": 6348,
  "komplexer": 6349,
  "improvisi@@": 6350,
  "top@@": 6351,
  "hlten": 6352,
  "bürgermeister": 6353,
  "irgend": 6354,
  "initiative": 6355,
  "tnis@@": 6356,
  "kolli@@": 6357,
  "algorithmus": 6358,
  "zelt": 6359,
  "mr@@": 6360,
  "ws": 6361,
  "plä@@": 6362,
  "beunruhi@@": 6363,
  "ungsprozess": 6364,
  "human@@": 6365,
  "zerbrech@@": 6366,
  "wes@@": 6367,
  "chs@@": 6368,
  "warte": 6369,
  "hierbei": 6370,
  "mün@@": 6371,
  "abfall": 6372,
  "balance": 6373,
  "lächerlich": 6374,
  "reichweite": 6375,
  "individuum": 6376,
  "einzigartige": 6377,
  "buches": 6378,
  "vermittelt": 6379,
  "gelangt": 6380,
  "dezember": 6381,
  "alters@@": 6382,
  "technisch": 6383,
  "predi@@": 6384,
  "vorkommen": 6385,
  "taliban": 6386,
  "unfälle": 6387,
  "mond@@": 6388,
  "industrielle": 6389,
  "energien": 6390,
  "inspiri@@": 6391,
  "äch@@": 6392,
  "stoß": 6393,
  "vol@@": 6394,
  "keit@@": 6395,
  "solarenergie": 6396,
  "kreaturen": 6397,
  "hoffnungs@@": 6398,
  "rücken@@": 6399,
  "zw@@": 6400,
  "initi@@": 6401,
  "mechanismen": 6402,
  "simulation": 6403,
  "kollabor@@": 6404,
  "sicheren": 6405,
  "schnitte": 6406,
  "gehalt": 6407,
  "vortrags": 6408,
  "denkst": 6409,
  "verdoppelt": 6410,
  "schreiten": 6411,
  "polar@@": 6412,
  "korrekt": 6413,
  "ga": 6414,
  "stech@@": 6415,
  "leere": 6416,
  "phy@@": 6417,
  "strahlen": 6418,
  "strasse": 6419,
  "ketten": 6420,
  "wiesen": 6421,
  "pet@@": 6422,
  "frieden@@": 6423,
  "ungsp@@": 6424,
  "zuge@@": 6425,
  "beschei@@": 6426,
  "bewer@@": 6427,
  "roman": 6428,
  "stel": 6429,
  "rhythmus": 6430,
  "beeindruckend": 6431,
  "ungs-@@": 6432,
  "bezieht": 6433,
  "gehör": 6434,
  "virtuellen": 6435,
  "jenem": 6436,
  "heimat": 6437,
  "ladung": 6438,
  "berühmte": 6439,
  "prei@@": 6440,
  "hs": 6441,
  "winzige": 6442,
  "gewähr@@": 6443,
  "ves": 6444,
  "drinnen": 6445,
  "bruch": 6446,
  "kategorien": 6447,
  "netze": 6448,
  "einschließlich": 6449,
  "ration@@": 6450,
  "frühling": 6451,
  "geladen": 6452,
  "coole": 6453,
  "fehler@@": 6454,
  "streckt": 6455,
  "stattfinden": 6456,
  "komponente": 6457,
  "behand@@": 6458,
  "schätze": 6459,
  "unvermei@@": 6460,
  "neuesten": 6461,
  "erst@@": 6462,
  "weh": 6463,
  "pie@@": 6464,
  "zweiter": 6465,
  "urknall": 6466,
  "langwei@@": 6467,
  "rezept": 6468,
  "einwohner": 6469,
  "tale": 6470,
  "discher": 6471,
  "bakterium": 6472,
  "sozial": 6473,
  "ausschnitt": 6474,
  "eric": 6475,
  "waffen@@": 6476,
  "kant": 6477,
  "unglücklicherweise": 6478,
  "wachstums@@": 6479,
  "simu@@": 6480,
  "käl@@": 6481,
  "einkommens@@": 6482,
  "kapital@@": 6483,
  "behälter": 6484,
  "besteh@@": 6485,
  "omen": 6486,
  "talen": 6487,
  "zwan@@": 6488,
  "nation@@": 6489,
  "verletzlichkeit": 6490,
  "treppe": 6491,
  "freut": 6492,
  "tropfen": 6493,
  "rb": 6494,
  "fuer": 6495,
  "fotografi@@": 6496,
  "depressi@@": 6497,
  "still@@": 6498,
  "träger": 6499,
  "auftauchen": 6500,
  "straf@@": 6501,
  "empf@@": 6502,
  "finanziellen": 6503,
  "transport@@": 6504,
  "an-@@": 6505,
  "steigern": 6506,
  "tor": 6507,
  "austausch": 6508,
  "aussah": 6509,
  "wasch@@": 6510,
  "juni": 6511,
  "strahl@@": 6512,
  "anges@@": 6513,
  "direktor": 6514,
  "erweiter@@": 6515,
  "verstän@@": 6516,
  "ignor@@": 6517,
  "nö@@": 6518,
  "überqu@@": 6519,
  "riff": 6520,
  "gates": 6521,
  "schaf@@": 6522,
  "betonen": 6523,
  "dustrie": 6524,
  "ankommt": 6525,
  "äne": 6526,
  "bewusstseins": 6527,
  "stiegen": 6528,
  "auswählen": 6529,
  "besuch": 6530,
  "muskel@@": 6531,
  "interpretation": 6532,
  "time": 6533,
  "wette": 6534,
  "col@@": 6535,
  "nordamerika": 6536,
  "fair": 6537,
  "gedreht": 6538,
  "vat@@": 6539,
  "nachbar@@": 6540,
  "wachstums": 6541,
  "tollen": 6542,
  "gehend": 6543,
  "de-@@": 6544,
  "kurse": 6545,
  "ey": 6546,
  "objekten": 6547,
  "schwierigen": 6548,
  "stor@@": 6549,
  "computer-@@": 6550,
  "weltbank": 6551,
  "up": 6552,
  "zweit@@": 6553,
  "liebten": 6554,
  "gesundheitssystem": 6555,
  "klär@@": 6556,
  "italien": 6557,
  "drücke": 6558,
  "1960": 6559,
  "formt": 6560,
  "high@@": 6561,
  "erwähnte": 6562,
  "staatlichen": 6563,
  "stat@@": 6564,
  "digital": 6565,
  "same": 6566,
  "dire@@": 6567,
  "entsprechend": 6568,
  "metall@@": 6569,
  "deut@@": 6570,
  "sequen@@": 6571,
  "obdach@@": 6572,
  "arbeitern": 6573,
  "werken": 6574,
  "aut": 6575,
  "fischer": 6576,
  "angekommen": 6577,
  "wohnung": 6578,
  "gründer": 6579,
  "alzheimer": 6580,
  "behaupte": 6581,
  "hef@@": 6582,
  "beendet": 6583,
  "leitungen": 6584,
  "zwölf": 6585,
  "sprin@@": 6586,
  "fang": 6587,
  "drüber": 6588,
  "we": 6589,
  "spezifische": 6590,
  "kir@@": 6591,
  "lege": 6592,
  "skala": 6593,
  "ktiver": 6594,
  "brille": 6595,
  "industriellen": 6596,
  "mitteilen": 6597,
  "inge": 6598,
  "pocken": 6599,
  "negative": 6600,
  "milli@@": 6601,
  "jan@@": 6602,
  "mithilfe": 6603,
  "6.": 6604,
  "demokratischen": 6605,
  "terroristen": 6606,
  "krist@@": 6607,
  "oel": 6608,
  "engagi@@": 6609,
  "cool@@": 6610,
  "lappen": 6611,
  "raff@@": 6612,
  "kommenden": 6613,
  "liter": 6614,
  "hten": 6615,
  "diagnostiziert": 6616,
  "richtet": 6617,
  "reale": 6618,
  "intelligenten": 6619,
  "extra": 6620,
  "verfol@@": 6621,
  "rob@@": 6622,
  "comics": 6623,
  "herkunft": 6624,
  "kes": 6625,
  "redet": 6626,
  "mals": 6627,
  "aufzeichnungen": 6628,
  "2050": 6629,
  "ef@@": 6630,
  "verhalten@@": 6631,
  "bienen@@": 6632,
  "grundle@@": 6633,
  "zeile": 6634,
  "tig@@": 6635,
  "zielen": 6636,
  "geometrie": 6637,
  "zueinander": 6638,
  "unmittel@@": 6639,
  "ziem@@": 6640,
  "bedroht": 6641,
  "einzusetzen": 6642,
  "ess": 6643,
  "produk@@": 6644,
  "ade": 6645,
  "feedback": 6646,
  "verrückten": 6647,
  "individuelle": 6648,
  "gewachsen": 6649,
  "kind@@": 6650,
  "fernseher": 6651,
  "gig": 6652,
  "gelbe": 6653,
  "sinken": 6654,
  "ungssystem": 6655,
  "schlaf@@": 6656,
  "smith": 6657,
  "leeren": 6658,
  "vollstän@@": 6659,
  "filter": 6660,
  "entschlossen": 6661,
  "chst": 6662,
  "umzusetzen": 6663,
  "jedesmal": 6664,
  "läch@@": 6665,
  "demokrati@@": 6666,
  "zukünftige": 6667,
  "yeah": 6668,
  "jenige": 6669,
  "abgeschlossen": 6670,
  "wick@@": 6671,
  "dreh@@": 6672,
  "entropie": 6673,
  "bedien@@": 6674,
  "sendet": 6675,
  "manhattan": 6676,
  "service": 6677,
  "sich@@": 6678,
  "wirtschaftswachstum": 6679,
  "verurteilt": 6680,
  "musch@@": 6681,
  "erforschung": 6682,
  "mäß@@": 6683,
  "dorf@@": 6684,
  "sensi@@": 6685,
  "brown": 6686,
  "züchten": 6687,
  "id": 6688,
  "gangs@@": 6689,
  "energieverbrauch": 6690,
  "erhielten": 6691,
  "chron@@": 6692,
  "wertvoll": 6693,
  "spri@@": 6694,
  "ffer": 6695,
  "wirbel@@": 6696,
  "wet@@": 6697,
  "stie@@": 6698,
  "kauf@@": 6699,
  "leidenschaft@@": 6700,
  "reiste": 6701,
  "zentralen": 6702,
  "mm": 6703,
  "türkei": 6704,
  "stete": 6705,
  "ny": 6706,
  "berühmten": 6707,
  "tränen": 6708,
  "pm": 6709,
  "haar": 6710,
  "zwanzig": 6711,
  "gos": 6712,
  "umsetzen": 6713,
  "überlebens@@": 6714,
  "billiger": 6715,
  "produktivität": 6716,
  "elektronische": 6717,
  "cou@@": 6718,
  "kram": 6719,
  "zigar@@": 6720,
  "auslän@@": 6721,
  "selbst-@@": 6722,
  "aufwand": 6723,
  "stru@@": 6724,
  "mode@@": 6725,
  "vermis@@": 6726,
  "kore@@": 6727,
  "staub": 6728,
  "dien": 6729,
  "hall": 6730,
  "bio-@@": 6731,
  "änder": 6732,
  "büros": 6733,
  "kühe": 6734,
  "skelett": 6735,
  "80ern": 6736,
  "homosexu@@": 6737,
  "essi@@": 6738,
  "virtu@@": 6739,
  "technologische": 6740,
  "mustern": 6741,
  "anthropolo@@": 6742,
  "web@@": 6743,
  "spre@@": 6744,
  "gelegenheiten": 6745,
  "bringe": 6746,
  "landschaften": 6747,
  "mmer": 6748,
  "henry": 6749,
  "tötet": 6750,
  "hügel": 6751,
  "berechnet": 6752,
  "metall": 6753,
  "ärm@@": 6754,
  "fühlten": 6755,
  "gor@@": 6756,
  "werben": 6757,
  "apo@@": 6758,
  "it-@@": 6759,
  "durchbruch": 6760,
  "betracht": 6761,
  "sphäre": 6762,
  "anzeichen": 6763,
  "hlt": 6764,
  "fän@@": 6765,
  "verges@@": 6766,
  "süß": 6767,
  "geburts@@": 6768,
  "gemis@@": 6769,
  "nirgendwo": 6770,
  "gefährliche": 6771,
  "mauern": 6772,
  "kluft": 6773,
  "gerin": 6774,
  "satelliten": 6775,
  "net@@": 6776,
  "außergewöhn@@": 6777,
  "schenken": 6778,
  "beri@@": 6779,
  "schmutz@@": 6780,
  "zehen": 6781,
  "läu@@": 6782,
  "freiwilligen": 6783,
  "goldene": 6784,
  "bob": 6785,
  "symbole": 6786,
  "studien@@": 6787,
  "stattfindet": 6788,
  "erbe": 6789,
  "widmen": 6790,
  "komponi@@": 6791,
  "unwahrscheinlich": 6792,
  "einblick": 6793,
  "bewerten": 6794,
  "graphen": 6795,
  "prüfen": 6796,
  "zweieinhalb": 6797,
  "sw": 6798,
  "hilf@@": 6799,
  "ktor": 6800,
  "diktat@@": 6801,
  "niedrig": 6802,
  "gereist": 6803,
  "‹": 6804,
  "heutige": 6805,
  "skulpturen": 6806,
  "urheber@@": 6807,
  "maus@@": 6808,
  "schulden": 6809,
  "ings": 6810,
  "meile": 6811,
  "kevin": 6812,
  "präsentieren": 6813,
  "sexuelle": 6814,
  "leber": 6815,
  "›": 6816,
  "beschützen": 6817,
  "um-@@": 6818,
  "pumpen": 6819,
  "1990": 6820,
  "beacht@@": 6821,
  "balken": 6822,
  "vergleich@@": 6823,
  "mai": 6824,
  "talent": 6825,
  "angeboten": 6826,
  "gre@@": 6827,
  "abschließen": 6828,
  "t.": 6829,
  "zir@@": 6830,
  "raumes": 6831,
  "massi@@": 6832,
  "transport": 6833,
  "hervorra@@": 6834,
  "hunderten": 6835,
  "homo": 6836,
  "öffentlich": 6837,
  "gener": 6838,
  "infektionen": 6839,
  "lincoln": 6840,
  "wissens@@": 6841,
  "analogie": 6842,
  "mauer": 6843,
  "antarktis": 6844,
  "untere": 6845,
  "einnahmen": 6846,
  "hölle": 6847,
  "polizei@@": 6848,
  "chtete": 6849,
  "komplette": 6850,
  "ehemann": 6851,
  "reser@@": 6852,
  "le-@@": 6853,
  "motivieren": 6854,
  "ini@@": 6855,
  "tätigkeit": 6856,
  "klappt": 6857,
  "aufgeben": 6858,
  "meint": 6859,
  "freundlich": 6860,
  "sinni@@": 6861,
  "ang": 6862,
  "zoomen": 6863,
  "schwerkraft": 6864,
  "aufeinander": 6865,
  "marken@@": 6866,
  "anwälte": 6867,
  "repräsentieren": 6868,
  "kombiniert": 6869,
  "wohlhab@@": 6870,
  "mechan@@": 6871,
  "blieben": 6872,
  "seu@@": 6873,
  "freiwillige": 6874,
  "loser": 6875,
  "einziger": 6876,
  "muskel": 6877,
  "ger-@@": 6878,
  "gewöhnlichen": 6879,
  "loses": 6880,
  "beschrän@@": 6881,
  "rauch": 6882,
  "fremde": 6883,
  "28": 6884,
  "gewaltige": 6885,
  "hinweisen": 6886,
  "lon@@": 6887,
  "gelang": 6888,
  "isation": 6889,
  "natürlicher": 6890,
  "breite": 6891,
  "baby@@": 6892,
  "widerstand": 6893,
  "kooperation": 6894,
  "aktiviert": 6895,
  "gend@@": 6896,
  "herrscht": 6897,
  "finanzierung": 6898,
  "effizi@@": 6899,
  "chtern": 6900,
  "räder": 6901,
  "enthü@@": 6902,
  "konzentration": 6903,
  "religiösen": 6904,
  "logisch": 6905,
  "minder@@": 6906,
  "würdig": 6907,
  "schreibtisch": 6908,
  "mität": 6909,
  "langes": 6910,
  "dd@@": 6911,
  "spanne": 6912,
  "hilfreich": 6913,
  "anliegen": 6914,
  "gänge": 6915,
  "kante": 6916,
  "künstlerin": 6917,
  "genie": 6918,
  "halluzinationen": 6919,
  "gä@@": 6920,
  "eingeschlossen": 6921,
  "zukunfts@@": 6922,
  "flächen@@": 6923,
  "spielzeug": 6924,
  "erreichte": 6925,
  "angesicht": 6926,
  "zz@@": 6927,
  "wettbewer@@": 6928,
  "leidet": 6929,
  "bol@@": 6930,
  "schlau@@": 6931,
  "rüber": 6932,
  "chinas": 6933,
  "beza@@": 6934,
  "ere@@": 6935,
  "kilo": 6936,
  "entsetz@@": 6937,
  "betriebs@@": 6938,
  "stabilität": 6939,
  "britische": 6940,
  "unabhängige": 6941,
  "panik": 6942,
  "zusehen": 6943,
  "verbrau@@": 6944,
  "programmier@@": 6945,
  "verbraucher": 6946,
  "konserva@@": 6947,
  "merk@@": 6948,
  "stär@@": 6949,
  "begab@@": 6950,
  "hai@@": 6951,
  "biosphäre": 6952,
  "sammelt": 6953,
  "endste": 6954,
  "vielerlei": 6955,
  "schuss": 6956,
  "prozent@@": 6957,
  "diagnose": 6958,
  "stärk@@": 6959,
  "konzentri@@": 6960,
  "bindung": 6961,
  "werkzeugen": 6962,
  "gesteuert": 6963,
  "griffen": 6964,
  "begleitet": 6965,
  "herein@@": 6966,
  "ktiv@@": 6967,
  "gebor@@": 6968,
  "ernähr@@": 6969,
  "kampf@@": 6970,
  "fie@@": 6971,
  "gemäß": 6972,
  "notwendigkeit": 6973,
  "irgendein": 6974,
  "lle": 6975,
  "gebro@@": 6976,
  "kungen": 6977,
  "geflogen": 6978,
  "flut": 6979,
  "fokussieren": 6980,
  "wunderbares": 6981,
  "intelligent": 6982,
  "auffassung": 6983,
  "entgegen": 6984,
  "stadium": 6985,
  "sungen": 6986,
  "cks@@": 6987,
  "verschieden@@": 6988,
  "atur": 6989,
  "flogen": 6990,
  "halt@@": 6991,
  "antibiotika": 6992,
  "journalist": 6993,
  "aufmerksam": 6994,
  "einführung": 6995,
  "dilemma": 6996,
  "sters": 6997,
  "anerkennung": 6998,
  "schätzt": 6999,
  "psycholog@@": 7000,
  "met": 7001,
  "konsumieren": 7002,
  "17.": 7003,
  "liebsten": 7004,
  "erfasst": 7005,
  "leu@@": 7006,
  "ore": 7007,
  "park@@": 7008,
  "techniker": 7009,
  "mäßig": 7010,
  "landes@@": 7011,
  "sa": 7012,
  "zurzeit": 7013,
  "empathie": 7014,
  "for": 7015,
  "kleineren": 7016,
  "veranstal@@": 7017,
  "iron@@": 7018,
  "heili@@": 7019,
  "bett@@": 7020,
  "haar@@": 7021,
  "muslime": 7022,
  "beschleunigen": 7023,
  "unterrichtet": 7024,
  "genetisch": 7025,
  "ernten": 7026,
  "ehren": 7027,
  "grab@@": 7028,
  "durcheinander": 7029,
  "töchter": 7030,
  "orienti@@": 7031,
  "gelingt": 7032,
  "zit": 7033,
  "programmierer": 7034,
  "riesiger": 7035,
  "ome": 7036,
  "vaters": 7037,
  "positionen": 7038,
  "ama@@": 7039,
  "schuldig": 7040,
  "mio.": 7041,
  "höhle": 7042,
  "höchst": 7043,
  "trü@@": 7044,
  "veranstaltung": 7045,
  "heimat@@": 7046,
  "versorgt": 7047,
  "terie": 7048,
  "erend": 7049,
  "fäden": 7050,
  "beton@@": 7051,
  "aufstehen": 7052,
  "aktive": 7053,
  "nahrungsmittel": 7054,
  "gestiegen": 7055,
  "elektroden": 7056,
  "strahl": 7057,
  "alternativen": 7058,
  "wiederhol@@": 7059,
  "verlor@@": 7060,
  "wörtlich": 7061,
  "englische": 7062,
  "großeltern": 7063,
  "mo": 7064,
  "deutet": 7065,
  "stands": 7066,
  "löwen": 7067,
  "händler": 7068,
  "volks@@": 7069,
  "öhn@@": 7070,
  "engli@@": 7071,
  "ter-@@": 7072,
  "euro": 7073,
  "196@@": 7074,
  "fortgeschritt@@": 7075,
  "soli@@": 7076,
  "beschäftigte": 7077,
  "fotografieren": 7078,
  "faltet": 7079,
  "taschen@@": 7080,
  "anzug": 7081,
  "flughafen": 7082,
  "parall@@": 7083,
  "marschi@@": 7084,
  "feldern": 7085,
  "zulassen": 7086,
  "subje@@": 7087,
  "wörterbuch": 7088,
  "einfluss@@": 7089,
  "shanghai": 7090,
  "eben@@": 7091,
  "zustimmen": 7092,
  "disziplin": 7093,
  "verbin@@": 7094,
  "verboten": 7095,
  "schickten": 7096,
  "griech@@": 7097,
  "ärzten": 7098,
  "elektron@@": 7099,
  "kro@@": 7100,
  "menschlich": 7101,
  "wachte": 7102,
  "erlaubnis": 7103,
  "nern": 7104,
  "atomenergie": 7105,
  "long": 7106,
  "age": 7107,
  "imp@@": 7108,
  "dau@@": 7109,
  "ele": 7110,
  "entfernten": 7111,
  "bewirkt": 7112,
  "salz@@": 7113,
  "sinnes@@": 7114,
  "verschmu@@": 7115,
  "planet@@": 7116,
  "anten@@": 7117,
  "boote": 7118,
  "gelähmt": 7119,
  "exponenti@@": 7120,
  "schreien": 7121,
  "esse": 7122,
  "29": 7123,
  "spi@@": 7124,
  "gestop@@": 7125,
  "ökonomie": 7126,
  "synchron@@": 7127,
  "vergrößern": 7128,
  "drän@@": 7129,
  "kund@@": 7130,
  "hun@@": 7131,
  "nervenzellen": 7132,
  "spannend": 7133,
  "b-@@": 7134,
  "85": 7135,
  "anweisungen": 7136,
  "verletzt": 7137,
  "berufs@@": 7138,
  "hektar": 7139,
  "kletter@@": 7140,
  "kurzer": 7141,
  "vertrag": 7142,
  "wegs": 7143,
  "gewiesen": 7144,
  "runden": 7145,
  "meinungen": 7146,
  "riecht": 7147,
  "män@@": 7148,
  "offenbar": 7149,
  "tend": 7150,
  "dringend": 7151,
  "verknüpft": 7152,
  "viertel@@": 7153,
  "trag": 7154,
  "instin@@": 7155,
  "gast@@": 7156,
  "stab": 7157,
  "ungewöhn@@": 7158,
  "jähriger": 7159,
  "fettleibigkeit": 7160,
  "zubringen": 7161,
  "blume": 7162,
  "skri@@": 7163,
  "berechti@@": 7164,
  "jenes": 7165,
  "assozi@@": 7166,
  "wissenschaftlich": 7167,
  "säule": 7168,
  "steuert": 7169,
  "management": 7170,
  "früchte": 7171,
  "keit": 7172,
  "gewinn@@": 7173,
  "ologischen": 7174,
  "ziehe": 7175,
  "rakete": 7176,
  "verstecken": 7177,
  "univers@@": 7178,
  "denden": 7179,
  ",@@": 7180,
  "durchschnittlich": 7181,
  "raketen": 7182,
  "löschen": 7183,
  "geschlecht": 7184,
  "reihenfolge": 7185,
  "newton": 7186,
  "geschäft@@": 7187,
  "detektor": 7188,
  "mais": 7189,
  "geheimnisse": 7190,
  "geeignet": 7191,
  "bestäu@@": 7192,
  "ecken": 7193,
  "absor@@": 7194,
  "journalisten": 7195,
  "krähen": 7196,
  "diskussionen": 7197,
  "wahrnehm@@": 7198,
  "gerecht": 7199,
  "burg": 7200,
  "°": 7201,
  "stati@@": 7202,
  "tren@@": 7203,
  "dschihad": 7204,
  "ingt": 7205,
  "startete": 7206,
  "gefr@@": 7207,
  "monat@@": 7208,
  "darzustellen": 7209,
  "ungsweise": 7210,
  "täglichen": 7211,
  "55": 7212,
  "larry": 7213,
  "pati@@": 7214,
  "versetzen": 7215,
  "produktions@@": 7216,
  "seins": 7217,
  "brasili@@": 7218,
  "pazifik": 7219,
  "betrü@@": 7220,
  "kommerzi@@": 7221,
  "kalorien": 7222,
  "natürliches": 7223,
  "radikal": 7224,
  "1,5": 7225,
  "erneu@@": 7226,
  "fotograf": 7227,
  "sonnensystem": 7228,
  "real@@": 7229,
  "mitt@@": 7230,
  "chungen": 7231,
  "samer": 7232,
  "effizienter": 7233,
  "größenordnung": 7234,
  "gelder": 7235,
  "2002": 7236,
  "investoren": 7237,
  "technolog@@": 7238,
  "äthiopien": 7239,
  "ignoriert": 7240,
  "bedeuten@@": 7241,
  "texte": 7242,
  "teur": 7243,
  "normales": 7244,
  "überlassen": 7245,
  "erzählten": 7246,
  "schlacht": 7247,
  "lehrt": 7248,
  "rut@@": 7249,
  "inieren": 7250,
  "hindernisse": 7251,
  "mitgebracht": 7252,
  "keines": 7253,
  "flexi@@": 7254,
  "pflanzt": 7255,
  "schlage": 7256,
  "50@@": 7257,
  "gefü@@": 7258,
  "kreis@@": 7259,
  "elektronik": 7260,
  "unterhal@@": 7261,
  "drängen": 7262,
  "charaktere": 7263,
  "alisierte": 7264,
  "herstellt": 7265,
  "club": 7266,
  "abstand": 7267,
  "sig@@": 7268,
  "freue": 7269,
  "nissen": 7270,
  "beispielen": 7271,
  "umfang": 7272,
  "unklar": 7273,
  "unmittelbar": 7274,
  "sign@@": 7275,
  "kreuz@@": 7276,
  "spor@@": 7277,
  "absol@@": 7278,
  "integriert": 7279,
  "grafische": 7280,
  "genaue": 7281,
  "berichte": 7282,
  "ma-@@": 7283,
  "interviews": 7284,
  "träum@@": 7285,
  "verletzung": 7286,
  "verkaufte": 7287,
  "zuzuhören": 7288,
  "atemberau@@": 7289,
  "besonder@@": 7290,
  "werk@@": 7291,
  "fleisch@@": 7292,
  "autorität": 7293,
  "ursprünglichen": 7294,
  "beschrei@@": 7295,
  "eil": 7296,
  "glob@@": 7297,
  "relev@@": 7298,
  "seli@@": 7299,
  "band@@": 7300,
  "zivili@@": 7301,
  "ausführen": 7302,
  "beeindruckt": 7303,
  "nahe@@": 7304,
  "typische": 7305,
  "liefen": 7306,
  "beding@@": 7307,
  "bell": 7308,
  "rund@@": 7309,
  "treibstoff": 7310,
  "frauen@@": 7311,
  "liegenden": 7312,
  "sinkt": 7313,
  "bestandteil": 7314,
  "ls": 7315,
  "herrschaft": 7316,
  "darm": 7317,
  "prophe@@": 7318,
  "ausgedrückt": 7319,
  "merkmal": 7320,
  "schweine": 7321,
  "verbesser@@": 7322,
  "amen": 7323,
  "rückseite": 7324,
  "käme": 7325,
  "ium": 7326,
  "versehen": 7327,
  "wild": 7328,
  "vulkan@@": 7329,
  "not": 7330,
  "konstruktion": 7331,
  "belastung": 7332,
  "schlaf": 7333,
  "republikaner": 7334,
  "verlän@@": 7335,
  "experimentieren": 7336,
  "schief": 7337,
  "anreiz": 7338,
  "erstaunt": 7339,
  "standar@@": 7340,
  "00@@": 7341,
  "schätz@@": 7342,
  "text@@": 7343,
  "örtlichen": 7344,
  "zivilisationen": 7345,
  "rande": 7346,
  "beer@@": 7347,
  "kuli@@": 7348,
  "rettung": 7349,
  "flucht": 7350,
  "sher@@": 7351,
  "beten": 7352,
  "leinwand": 7353,
  "48": 7354,
  "handels@@": 7355,
  "heilige": 7356,
  "gemü@@": 7357,
  "facht": 7358,
  "töne": 7359,
  "komplizierter": 7360,
  "speichern": 7361,
  "krä@@": 7362,
  "verwendeten": 7363,
  "heiligen": 7364,
  "beantwortet": 7365,
  "beschleunigt": 7366,
  "felsen": 7367,
  "erden": 7368,
  "intensiv": 7369,
  "brücken": 7370,
  "die@@": 7371,
  "unabhängigkeit": 7372,
  "ppen@@": 7373,
  "ry": 7374,
  "ungser@@": 7375,
  "schrecklichen": 7376,
  "mist": 7377,
  "müsst": 7378,
  "anfingen": 7379,
  "drück@@": 7380,
  "para@@": 7381,
  "wortes": 7382,
  "süchtig": 7383,
  "hütte": 7384,
  "ßig": 7385,
  "ausreichend": 7386,
  "bedeutende": 7387,
  "wänden": 7388,
  "zugehen": 7389,
  "greifende": 7390,
  "herausgestellt": 7391,
  "pandemie": 7392,
  "beruf@@": 7393,
  "alltag": 7394,
  "ausprobieren": 7395,
  "erschreck@@": 7396,
  "biologisch": 7397,
  "foie": 7398,
  "gesellschaftlichen": 7399,
  "kabel@@": 7400,
  "wohnungen": 7401,
  "umfrage": 7402,
  "fantasie": 7403,
  "warfen": 7404,
  "horizont": 7405,
  "angelegenheit": 7406,
  "pig@@": 7407,
  "mode": 7408,
  "benjamin": 7409,
  "elf": 7410,
  "verdoppeln": 7411,
  "litt": 7412,
  "herausstellt": 7413,
  "hypothe@@": 7414,
  "primi@@": 7415,
  "auftritt": 7416,
  "kogni@@": 7417,
  "itäten": 7418,
  "keiten": 7419,
  "willkür@@": 7420,
  "nadel": 7421,
  "ähn@@": 7422,
  "bewus@@": 7423,
  "audi@@": 7424,
  "verständlich": 7425,
  "dru@@": 7426,
  "onen@@": 7427,
  "wäsche": 7428,
  "überzeugung": 7429,
  "steigen@@": 7430,
  "versicherung": 7431,
  "chemi@@": 7432,
  "umgebungen": 7433,
  "frü@@": 7434,
  "chirurgie": 7435,
  "nes@@": 7436,
  "präzise": 7437,
  "beherr@@": 7438,
  "kari@@": 7439,
  "karten@@": 7440,
  "schickt": 7441,
  "geschä@@": 7442,
  "dies@@": 7443,
  "trainiert": 7444,
  "din": 7445,
  "taus@@": 7446,
  "schildkrö@@": 7447,
  "investi@@": 7448,
  "anzunehmen": 7449,
  "halbes": 7450,
  "ozeans": 7451,
  "methan": 7452,
  "mathematische": 7453,
  "fabri@@": 7454,
  "wachsende": 7455,
  "ame": 7456,
  "193@@": 7457,
  "größeres": 7458,
  "unterbrochen": 7459,
  "ak": 7460,
  "wörtern": 7461,
  "stimmte": 7462,
  "genetik": 7463,
  "stir@@": 7464,
  "fett@@": 7465,
  "brecher": 7466,
  "oma": 7467,
  "merkt": 7468,
  "sturm": 7469,
  "opfern": 7470,
  "zutaten": 7471,
  "verwandt": 7472,
  "konstruk@@": 7473,
  "sele@@": 7474,
  "diplo@@": 7475,
  "erzählung": 7476,
  "durchlaufen": 7477,
  "wechselt": 7478,
  "staatliche": 7479,
  "blinde": 7480,
  "mul@@": 7481,
  "standards": 7482,
  "pass": 7483,
  "ein-@@": 7484,
  "befrei@@": 7485,
  "antwortet": 7486,
  "koch@@": 7487,
  "parks": 7488,
  "april": 7489,
  "geträn@@": 7490,
  "bewältigen": 7491,
  "suppe": 7492,
  "wetter@@": 7493,
  "trö@@": 7494,
  "verheiratet": 7495,
  "nelson": 7496,
  "briefe": 7497,
  "erwi@@": 7498,
  "qualifi@@": 7499,
  "lg": 7500,
  "afrikan@@": 7501,
  "unsichtbare": 7502,
  "aufweisen": 7503,
  "20-@@": 7504,
  "rab@@": 7505,
  "stephen": 7506,
  "cam@@": 7507,
  "30.000": 7508,
  "seiden@@": 7509,
  "verdamm@@": 7510,
  "kunde": 7511,
  "popul@@": 7512,
  "ur-@@": 7513,
  "überwachen": 7514,
  "techni@@": 7515,
  "archie": 7516,
  "lichts": 7517,
  "steven": 7518,
  "bildete": 7519,
  "klug": 7520,
  "mente": 7521,
  "satelliten@@": 7522,
  "dankeschön": 7523,
  "eröff@@": 7524,
  "smus": 7525,
  "earth": 7526,
  "inier@@": 7527,
  "eigentum": 7528,
  "woanders": 7529,
  "steh@@": 7530,
  "ost@@": 7531,
  "gestal@@": 7532,
  "gelben": 7533,
  "lohnt": 7534,
  "verni@@": 7535,
  "business": 7536,
  "bun@@": 7537,
  "kognitive": 7538,
  "e-mails": 7539,
  "geschle@@": 7540,
  "well": 7541,
  "garage": 7542,
  "tatsächliche": 7543,
  "33": 7544,
  "clip": 7545,
  "beset@@": 7546,
  "60ern": 7547,
  "sicherzustellen": 7548,
  "marki@@": 7549,
  "globaler": 7550,
  "kliniken": 7551,
  "einzigartigen": 7552,
  "einig": 7553,
  "milliar@@": 7554,
  "graph": 7555,
  "stig@@": 7556,
  "lock@@": 7557,
  "atz": 7558,
  "meme": 7559,
  "extreme": 7560,
  "pilze": 7561,
  "versagt": 7562,
  "tempor@@": 7563,
  "wahrscheinlicher": 7564,
  "spanien": 7565,
  "erweitert": 7566,
  "bam@@": 7567,
  "pf": 7568,
  "worfen": 7569,
  "wickelt": 7570,
  "islamischen": 7571,
  "tam@@": 7572,
  "klam@@": 7573,
  "schafe": 7574,
  "verste@@": 7575,
  "klassi@@": 7576,
  "anspruchs@@": 7577,
  "beutel@@": 7578,
  "wol@@": 7579,
  "refer@@": 7580,
  "amerikan@@": 7581,
  "gift": 7582,
  "studierenden": 7583,
  "interview": 7584,
  "mani@@": 7585,
  "jack": 7586,
  "virginia": 7587,
  "stabili@@": 7588,
  "errei@@": 7589,
  "quer": 7590,
  "erkrankung": 7591,
  "erwar@@": 7592,
  "titan": 7593,
  "behinder@@": 7594,
  "unen": 7595,
  "johnson": 7596,
  "feinde": 7597,
  "strateg@@": 7598,
  "aufzunehmen": 7599,
  "dörfer": 7600,
  "isierte": 7601,
  "spruch": 7602,
  "arab@@": 7603,
  "philosophen": 7604,
  "konfli@@": 7605,
  "hierfür": 7606,
  "genome": 7607,
  "verschle@@": 7608,
  "set": 7609,
  "ökonomischen": 7610,
  "erlei@@": 7611,
  "pflege@@": 7612,
  "tom@@": 7613,
  "strö@@": 7614,
  "ladungen": 7615,
  "parteien": 7616,
  "heiße": 7617,
  "spezialisten": 7618,
  "leitung": 7619,
  "schloss": 7620,
  "personal": 7621,
  "entfern@@": 7622,
  "rollstuhl": 7623,
  "mythos": 7624,
  "ars": 7625,
  "filtern": 7626,
  "erkenntnisse": 7627,
  "verfüg@@": 7628,
  "rand@@": 7629,
  "verschwendung": 7630,
  "daniel": 7631,
  "fachen": 7632,
  "3-@@": 7633,
  "gall@@": 7634,
  "brä@@": 7635,
  "ue": 7636,
  "ausde@@": 7637,
  "biolumines@@": 7638,
  "glaub@@": 7639,
  "säuge@@": 7640,
  "tas@@": 7641,
  "sowjetunion": 7642,
  "nette": 7643,
  "cre@@": 7644,
  "verhindert": 7645,
  "linsen": 7646,
  "6.000": 7647,
  "turm": 7648,
  "jederzeit": 7649,
  "leer": 7650,
  "sahara": 7651,
  "za": 7652,
  "ischerweise": 7653,
  "notwen@@": 7654,
  "gleichungen": 7655,
  "4.000": 7656,
  "lebensraum": 7657,
  "fortschritt@@": 7658,
  "ty@@": 7659,
  "unend@@": 7660,
  "prozess@@": 7661,
  "zudem": 7662,
  "bewiesen": 7663,
  "abschnitt": 7664,
  "seil@@": 7665,
  "medikamenten": 7666,
  "entspan@@": 7667,
  "vers": 7668,
  "brief@@": 7669,
  "zwecke": 7670,
  "fügt": 7671,
  "inder": 7672,
  "kontra@@": 7673,
  "unsicherheit": 7674,
  "schmerzhaft": 7675,
  "bige": 7676,
  "bildeten": 7677,
  "ise": 7678,
  "hundert@@": 7679,
  "zieh@@": 7680,
  "furcht": 7681,
  "matisch": 7682,
  "geschei@@": 7683,
  "auffä@@": 7684,
  "kolum@@": 7685,
  "aufgestellt": 7686,
  "tour": 7687,
  "zün@@": 7688,
  "bert": 7689,
  "würmer": 7690,
  "klinische": 7691,
  "zugän@@": 7692,
  "wall": 7693,
  "häufiger": 7694,
  "bast@@": 7695,
  "2-@@": 7696,
  "lern": 7697,
  "schock": 7698,
  "region@@": 7699,
  "patri@@": 7700,
  "politi@@": 7701,
  "kanäle": 7702,
  "fossilen": 7703,
  "wett@@": 7704,
  "verläuft": 7705,
  "olympischen": 7706,
  "gletscher": 7707,
  "obere": 7708,
  "beizubringen": 7709,
  "schlagzeilen": 7710,
  "interface": 7711,
  "reformen": 7712,
  "nebeneinander": 7713,
  "technis@@": 7714,
  "feier": 7715,
  "förderung": 7716,
  "mitleid": 7717,
  "ilen": 7718,
  "alters": 7719,
  "flossen": 7720,
  "agieren": 7721,
  "erschwing@@": 7722,
  "treff@@": 7723,
  "überraschende": 7724,
  "computers": 7725,
  "gewohnt": 7726,
  "zustände": 7727,
  "70ern": 7728,
  "domin@@": 7729,
  "eingebaut": 7730,
  "toleranz": 7731,
  "umwand@@": 7732,
  "algen": 7733,
  "toller": 7734,
  "gewinner": 7735,
  "kenntnis": 7736,
  "fakt": 7737,
  "berücksichtigt": 7738,
  "sauber": 7739,
  "wiegt": 7740,
  "privileg": 7741,
  "reak@@": 7742,
  "italien@@": 7743,
  "übliche": 7744,
  "betrug": 7745,
  "bauern@@": 7746,
  "geschossen": 7747,
  "chirurg@@": 7748,
  "jac@@": 7749,
  "litten": 7750,
  "cal@@": 7751,
  "dosis": 7752,
  "ick": 7753,
  "garanti@@": 7754,
  "krank@@": 7755,
  "gewohnheiten": 7756,
  "bildschir@@": 7757,
  "einnehmen": 7758,
  "politischer": 7759,
  "schweren": 7760,
  "note": 7761,
  "eit": 7762,
  "pir@@": 7763,
  "führe": 7764,
  "ökologie": 7765,
  "schwä@@": 7766,
  "bräu@@": 7767,
  "programmen": 7768,
  "verblüffend": 7769,
  "akzeptiert": 7770,
  "lager@@": 7771,
  "vin": 7772,
  "1-@@": 7773,
  "gelen@@": 7774,
  "einzelnes": 7775,
  "prioritäten": 7776,
  "schrecken": 7777,
  "cia": 7778,
  "radikale": 7779,
  "locken": 7780,
  "einführen": 7781,
  "unvorstell@@": 7782,
  "profession@@": 7783,
  "forder@@": 7784,
  "restlichen": 7785,
  "charlie": 7786,
  "alisten": 7787,
  "oxytocin": 7788,
  "kriegt": 7789,
  "beleuchtung": 7790,
  "hans": 7791,
  "unglaubliches": 7792,
  "min": 7793,
  "nd": 7794,
  "blä@@": 7795,
  "treu": 7796,
  "prof@@": 7797,
  "auton@@": 7798,
  "akte": 7799,
  "riechen": 7800,
  "anzufangen": 7801,
  "ents": 7802,
  "kriminellen": 7803,
  "richti@@": 7804,
  "verwirklichen": 7805,
  "engagement": 7806,
  "siehst": 7807,
  "verraten": 7808,
  "gerte": 7809,
  "heilung": 7810,
  "zehntausende": 7811,
  "bezo@@": 7812,
  "gehst": 7813,
  "schäden": 7814,
  "säulen": 7815,
  "selts@@": 7816,
  "gps-@@": 7817,
  "endsten": 7818,
  "traditionen": 7819,
  "stehlen": 7820,
  "anwalt": 7821,
  "wün@@": 7822,
  "niemandem": 7823,
  "c.": 7824,
  "erschafft": 7825,
  "röhren": 7826,
  "atur@@": 7827,
  "beeinträch@@": 7828,
  "ener@@": 7829,
  "c-@@": 7830,
  "ll": 7831,
  "motto": 7832,
  "achtet": 7833,
  "py@@": 7834,
  "wüsste": 7835,
  "vermuten": 7836,
  "geographic": 7837,
  "sische": 7838,
  "daneben": 7839,
  "tei@@": 7840,
  "der-@@": 7841,
  "unterdrück@@": 7842,
  "transparent": 7843,
  "grippe@@": 7844,
  "kollab@@": 7845,
  "immunsystem": 7846,
  "benötigte": 7847,
  "zutiefst": 7848,
  "silicon": 7849,
  "koran": 7850,
  "schmu@@": 7851,
  "40@@": 7852,
  "äl@@": 7853,
  "expedition": 7854,
  "klatschen": 7855,
  "typischen": 7856,
  "draht": 7857,
  "studierte": 7858,
  "phantom-@@": 7859,
  "krankheits@@": 7860,
  "interpretieren": 7861,
  "alien": 7862,
  "wüsten@@": 7863,
  "kombin@@": 7864,
  "18.": 7865,
  "älen": 7866,
  "william": 7867,
  "betäu@@": 7868,
  "israeli@@": 7869,
  "dent@@": 7870,
  "graus@@": 7871,
  "jones": 7872,
  "gestalt": 7873,
  "bie": 7874,
  "arz@@": 7875,
  "resul@@": 7876,
  "wärmer": 7877,
  "leitet": 7878,
  "metaphern": 7879,
  "teuren": 7880,
  "fielen": 7881,
  "amy": 7882,
  "täusch@@": 7883,
  "unterneh@@": 7884,
  "einzig": 7885,
  "nachmittag": 7886,
  "cen": 7887,
  "lokal": 7888,
  "tu": 7889,
  "dlicher": 7890,
  "flach": 7891,
  "eventuell": 7892,
  "unbekannte": 7893,
  "stationen": 7894,
  "slums": 7895,
  "musikal@@": 7896,
  "markieren": 7897,
  "erzählungen": 7898,
  "bereitet": 7899,
  "rauchen": 7900,
  "existierte": 7901,
  "eisen": 7902,
  "auszusehen": 7903,
  "befand": 7904,
  "leihen": 7905,
  "freiwillig": 7906,
  "durchs": 7907,
  "ad": 7908,
  "beseitigen": 7909,
  "u-bahn": 7910,
  "frühe": 7911,
  "müde": 7912,
  "arznei@@": 7913,
  "grundlagen": 7914,
  "truppen": 7915,
  "bauch": 7916,
  "elektronen": 7917,
  "kru@@": 7918,
  "psych@@": 7919,
  "teri@@": 7920,
  "kompli@@": 7921,
  "börse": 7922,
  "ye@@": 7923,
  "0": 7924,
  "ora": 7925,
  "redner": 7926,
  "geplant": 7927,
  "med": 7928,
  "systematisch": 7929,
  "geschaut": 7930,
  "ttes": 7931,
  "primaten": 7932,
  "kurzes": 7933,
  "erlaubte": 7934,
  "stag@@": 7935,
  "ergebnissen": 7936,
  "bespre@@": 7937,
  "inse@@": 7938,
  "stoß@@": 7939,
  "alkohol": 7940,
  "bewaff@@": 7941,
  "chor": 7942,
  "ankommen": 7943,
  "symmetr@@": 7944,
  "philosoph@@": 7945,
  "kopiert": 7946,
  "jesus": 7947,
  "aro@@": 7948,
  "weltraum@@": 7949,
  "ir": 7950,
  "virtuelle": 7951,
  "feuern": 7952,
  "nährstoffe": 7953,
  "wesentliche": 7954,
  "stechnologie": 7955,
  "gelegentlich": 7956,
  "mme": 7957,
  "ling@@": 7958,
  "lei": 7959,
  "kranken": 7960,
  "ruhi@@": 7961,
  "my": 7962,
  "tts": 7963,
  "bst": 7964,
  "genannten": 7965,
  "blinden": 7966,
  "anzeigen": 7967,
  "rückwärts": 7968,
  "mikroskop@@": 7969,
  "county": 7970,
  "kehren": 7971,
  "august": 7972,
  "breit": 7973,
  "eingeschränkt": 7974,
  "profit": 7975,
  "runde": 7976,
  "schlü@@": 7977,
  "konstru@@": 7978,
  "immer@@": 7979,
  "sklaverei": 7980,
  "1950": 7981,
  "angestellte": 7982,
  "basieren": 7983,
  "erstmals": 7984,
  "breiten": 7985,
  "jugendlichen": 7986,
  "großem": 7987,
  "red@@": 7988,
  "sichti@@": 7989,
  "chao@@": 7990,
  "minim@@": 7991,
  "grösse": 7992,
  "schwimmt": 7993,
  "gün@@": 7994,
  "anzieh@@": 7995,
  "bür@@": 7996,
  "lektionen": 7997,
  "weis": 7998,
  "verwaltung": 7999,
  "fessel@@": 8000,
  "aßen": 8001,
  "chtert": 8002,
  "vorstell@@": 8003,
  "spinnen": 8004,
  "kino": 8005,
  "gegner": 8006,
  "elegan@@": 8007,
  "schwein@@": 8008,
  "substanz": 8009,
  "getrieben": 8010,
  "gross": 8011,
  "project": 8012,
  "st.": 8013,
  "bislang": 8014,
  "jegliche": 8015,
  "alli@@": 8016,
  "akade@@": 8017,
  "lampe": 8018,
  "vertre@@": 8019,
  "regu@@": 8020,
  "eineinhalb": 8021,
  "transportiert": 8022,
  "genehmi@@": 8023,
  "kritische": 8024,
  "vorhan@@": 8025,
  "lik@@": 8026,
  "lan": 8027,
  "verzweifelt": 8028,
  "klassischen": 8029,
  "vorlesen": 8030,
  "ingenieur@@": 8031,
  "massive": 8032,
  "boden@@": 8033,
  "47": 8034,
  "genheit": 8035,
  "schön@@": 8036,
  "ressource": 8037,
  "eini@@": 8038,
  "mike": 8039,
  "partner@@": 8040,
  "schwanger": 8041,
  "jeff": 8042,
  "stammes@@": 8043,
  "nungs@@": 8044,
  "gewinne": 8045,
  "tations@@": 8046,
  "nes": 8047,
  "wahnsinnig": 8048,
  "navi@@": 8049,
  "übersetzung": 8050,
  "ernsthaf@@": 8051,
  "installation": 8052,
  "nien": 8053,
  "einfachste": 8054,
  "männ@@": 8055,
  "verbesserungen": 8056,
  "typisch": 8057,
  "uss@@": 8058,
  "etab@@": 8059,
  "may@@": 8060,
  "epidemi@@": 8061,
  "lab": 8062,
  "experte": 8063,
  "hollywood": 8064,
  "schal@@": 8065,
  "vas@@": 8066,
  "pilot": 8067,
  "recher@@": 8068,
  "antwor@@": 8069,
  "anderswo": 8070,
  "erneuerbare": 8071,
  "vertrauens@@": 8072,
  "mlich": 8073,
  "verschwand": 8074,
  "schließ@@": 8075,
  "schne@@": 8076,
  "könntest": 8077,
  "vollständige": 8078,
  "untersu@@": 8079,
  "5.": 8080,
  "zettel": 8081,
  "zuneh@@": 8082,
  "sehn@@": 8083,
  "use": 8084,
  "iten": 8085,
  "lation": 8086,
  "finanzielle": 8087,
  "ermutigen": 8088,
  "ausdrücke": 8089,
  "interessan@@": 8090,
  "aktivieren": 8091,
  "immun@@": 8092,
  "förmige": 8093,
  "wichtigkeit": 8094,
  "teppich": 8095,
  "drehung": 8096,
  "prototyp": 8097,
  "bildungssystem": 8098,
  "zeugen": 8099,
  "afgh@@": 8100,
  "vergrößert": 8101,
  "europäische": 8102,
  "gesetzen": 8103,
  "fär@@": 8104,
  "komplexes": 8105,
  "ethik": 8106,
  "prüfung": 8107,
  "dimensionalen": 8108,
  "original": 8109,
  "dosen": 8110,
  "pizza": 8111,
  "eingestellt": 8112,
  "everest": 8113,
  "vereinfa@@": 8114,
  "bezirk": 8115,
  "schalter": 8116,
  "herbst": 8117,
  "reiß@@": 8118,
  "cy@@": 8119,
  "aufwuchs": 8120,
  "spezifischen": 8121,
  "bemerk@@": 8122,
  "wartete": 8123,
  "mobili@@": 8124,
  "lee": 8125,
  "auflösung": 8126,
  "erlernen": 8127,
  "zunge": 8128,
  "gewalttä@@": 8129,
  "tatsächlichen": 8130,
  "2.@@": 8131,
  "fon@@": 8132,
  "läufe": 8133,
  "zö@@": 8134,
  "krankenhäuser": 8135,
  "wirtschaftlich": 8136,
  "abraham": 8137,
  "chene": 8138,
  "profil": 8139,
  "tausend@@": 8140,
  "gemeint": 8141,
  "gros@@": 8142,
  "üblicherweise": 8143,
  "gigen": 8144,
  "kunft": 8145,
  "schni@@": 8146,
  "landet": 8147,
  "arbeitsplätze": 8148,
  "sonde": 8149,
  "schrank": 8150,
  "matrix": 8151,
  "mexi@@": 8152,
  "clever@@": 8153,
  "poin@@": 8154,
  "klare": 8155,
  "anzuwenden": 8156,
  "elektromagne@@": 8157,
  "tuch": 8158,
  "respekt@@": 8159,
  "bä@@": 8160,
  "kommentar": 8161,
  "tinte": 8162,
  "zusammenhän@@": 8163,
  "regelmäß@@": 8164,
  "treffe": 8165,
  "chts": 8166,
  "militärische": 8167,
  "demon@@": 8168,
  "hob": 8169,
  "mathematischen": 8170,
  "maler": 8171,
  "stim@@": 8172,
  "analysiert": 8173,
  "sterblichkeit": 8174,
  "kommentare": 8175,
  "altet": 8176,
  "konstruiert": 8177,
  "gang@@": 8178,
  "kapu@@": 8179,
  "ökosysteme": 8180,
  "ungewöhnliche": 8181,
  "toiletten": 8182,
  "erem": 8183,
  "fahre": 8184,
  "unsichtbaren": 8185,
  "prior@@": 8186,
  "kontinuier@@": 8187,
  "steten": 8188,
  "einerseits": 8189,
  "individuellen": 8190,
  "öff@@": 8191,
  "redete": 8192,
  "carolina": 8193,
  "problem@@": 8194,
  "synthese": 8195,
  "defi@@": 8196,
  "sag@@": 8197,
  "stisches": 8198,
  "verban@@": 8199,
  "campus": 8200,
  "harten": 8201,
  "distanz": 8202,
  "ag": 8203,
  "gül@@": 8204,
  "ablauf": 8205,
  "leser": 8206,
  "gestohlen": 8207,
  "kers": 8208,
  "reifen": 8209,
  "gkeits@@": 8210,
  "es-@@": 8211,
  "gegenwärtig": 8212,
  "tur": 8213,
  "klang@@": 8214,
  "block@@": 8215,
  "cheln": 8216,
  "ti-@@": 8217,
  "geformt": 8218,
  "spezial@@": 8219,
  "nähern": 8220,
  "diskutiert": 8221,
  "gen-@@": 8222,
  "regenwald": 8223,
  "automobil@@": 8224,
  "angebracht": 8225,
  "steinen": 8226,
  "offensichtliche": 8227,
  "sbar": 8228,
  "nahr@@": 8229,
  "repar@@": 8230,
  "premierminister": 8231,
  "künstlern": 8232,
  "schwamm": 8233,
  "vietnam@@": 8234,
  "ehrgei@@": 8235,
  "synthe@@": 8236,
  "ewig": 8237,
  "verteidigung": 8238,
  "wendig": 8239,
  "konzentrierte": 8240,
  "beeindruckende": 8241,
  "umfasst": 8242,
  "schale": 8243,
  "klassifi@@": 8244,
  "präsen@@": 8245,
  "voranzu@@": 8246,
  "bausteine": 8247,
  "maxi@@": 8248,
  "galerie": 8249,
  "angeb@@": 8250,
  "stattung": 8251,
  "spu@@": 8252,
  "entwicklungshilfe": 8253,
  "außergewöhnlichen": 8254,
  "archi@@": 8255,
  "ffel": 8256,
  "füllt": 8257,
  "herzlichen": 8258,
  "markiert": 8259,
  "hals": 8260,
  "transformation": 8261,
  "brennstoffe": 8262,
  "dynam@@": 8263,
  "sinnvoll": 8264,
  "anschau@@": 8265,
  "proji@@": 8266,
  "cin@@": 8267,
  "eigentlichen": 8268,
  "chips": 8269,
  "besserer": 8270,
  "stücken": 8271,
  "lauter": 8272,
  "diagnosti@@": 8273,
  "kontrolli@@": 8274,
  "turen": 8275,
  "lers": 8276,
  "wildnis": 8277,
  "weit@@": 8278,
  "probiert": 8279,
  "experimenten": 8280,
  "batterien": 8281,
  "link": 8282,
  "stum@@": 8283,
  "größen": 8284,
  "unendliche": 8285,
  "terte": 8286,
  "woraus": 8287,
  "geschi@@": 8288,
  "port@@": 8289,
  "unken": 8290,
  "begeg@@": 8291,
  "linse": 8292,
  "inti@@": 8293,
  "springt": 8294,
  "gli@@": 8295,
  "lässi@@": 8296,
  "pt@@": 8297,
  "renn@@": 8298,
  "biert": 8299,
  "riesig": 8300,
  "mandela": 8301,
  "generieren": 8302,
  "mutig": 8303,
  "ol": 8304,
  "dunkler": 8305,
  "sowieso": 8306,
  "model": 8307,
  "hausti@@": 8308,
  "mühe": 8309,
  "hungrig": 8310,
  "tal": 8311,
  "w-@@": 8312,
  "edi@@": 8313,
  "berührung": 8314,
  "kortex": 8315,
  "verkehr@@": 8316,
  "kong": 8317,
  "schnellen": 8318,
  "tour@@": 8319,
  "eurem": 8320,
  "fühl@@": 8321,
  "eurer": 8322,
  "beschaff@@": 8323,
  "republik": 8324,
  "ursachen": 8325,
  "versetzt": 8326,
  "gehir@@": 8327,
  "immerhin": 8328,
  "historische": 8329,
  "einges@@": 8330,
  "by@@": 8331,
  "forschen": 8332,
  "36": 8333,
  "verkauf@@": 8334,
  "lewis": 8335,
  "pflan@@": 8336,
  "vögeln": 8337,
  "down@@": 8338,
  "baue": 8339,
  "kämen": 8340,
  "ai": 8341,
  "anhören": 8342,
  "onie": 8343,
  "ökonomische": 8344,
  "säugetiere": 8345,
  "zusammenbruch": 8346,
  "mmt": 8347,
  "grös@@": 8348,
  "menten": 8349,
  "becher": 8350,
  "vorsitz@@": 8351,
  "leise": 8352,
  "phil@@": 8353,
  "betra@@": 8354,
  "rohstoffe": 8355,
  "unglücklich": 8356,
  "verzerr@@": 8357,
  "este": 8358,
  "authenti@@": 8359,
  "tasman@@": 8360,
  "generell": 8361,
  "anwesenheit": 8362,
  "abdruck": 8363,
  "kilometern": 8364,
  "druckt": 8365,
  "einstellungen": 8366,
  "space": 8367,
  "bedeutungs@@": 8368,
  "connectome": 8369,
  "kleinste": 8370,
  "herde": 8371,
  "auslösen": 8372,
  "besei@@": 8373,
  "manipulieren": 8374,
  "pä@@": 8375,
  "klinischen": 8376,
  "myth@@": 8377,
  "jon@@": 8378,
  "andrew": 8379,
  "orientiert": 8380,
  "harmonie": 8381,
  "effektiver": 8382,
  "männliche": 8383,
  "tik@@": 8384,
  "vorbild": 8385,
  "geringer": 8386,
  "glicher": 8387,
  "komplex@@": 8388,
  "ierung": 8389,
  "erleb@@": 8390,
  "sts": 8391,
  "vereinen": 8392,
  "erscheinung": 8393,
  "schrift@@": 8394,
  "ziger": 8395,
  "genau@@": 8396,
  "1998": 8397,
  "lust": 8398,
  "oli@@": 8399,
  "zähl@@": 8400,
  "einbeziehen": 8401,
  "haushalt": 8402,
  "trennung": 8403,
  "lingen": 8404,
  "team@@": 8405,
  "möchtest": 8406,
  "gemeinnütz@@": 8407,
  "physikalischen": 8408,
  "yer": 8409,
  "kluge": 8410,
  "akti@@": 8411,
  "ausprobiert": 8412,
  "schachtel": 8413,
  "begrü@@": 8414,
  "sträger": 8415,
  "hong": 8416,
  "demokratische": 8417,
  "anrufen": 8418,
  "allein@@": 8419,
  "sichere": 8420,
  "ände": 8421,
  "enkel": 8422,
  "monster": 8423,
  "lischen": 8424,
  "aids-@@": 8425,
  "ner-@@": 8426,
  "kümmer@@": 8427,
  "gebrauchen": 8428,
  "north": 8429,
  "kollektiven": 8430,
  "festzustellen": 8431,
  "beobachtungen": 8432,
  "fasste": 8433,
  "experimenti@@": 8434,
  "joseph": 8435,
  "beg@@": 8436,
  "übers": 8437,
  "identifiziert": 8438,
  "höhlen": 8439,
  "enge": 8440,
  "vers@@": 8441,
  "-jähriger": 8442,
  "dritt@@": 8443,
  "orbit": 8444,
  "beteiligen": 8445,
  "gut@@": 8446,
  "plasti@@": 8447,
  "urteile": 8448,
  "zurecht@@": 8449,
  "küsten@@": 8450,
  "platzieren": 8451,
  "linear@@": 8452,
  "pc": 8453,
  "erstmal": 8454,
  "atlantik": 8455,
  "besu@@": 8456,
  "wählten": 8457,
  "tho@@": 8458,
  "wurzel@@": 8459,
  "gescho@@": 8460,
  "datenbank": 8461,
  "einander@@": 8462,
  "expor@@": 8463,
  "pille": 8464,
  "trinkwasser": 8465,
  "erfin@@": 8466,
  "bakteri@@": 8467,
  "hunderttausende": 8468,
  "jugend@@": 8469,
  "schweizer": 8470,
  "scan": 8471,
  "fran@@": 8472,
  "häss@@": 8473,
  "squ@@": 8474,
  "60er": 8475,
  "kunststoff": 8476,
  "kostenlose": 8477,
  "path@@": 8478,
  "durchschnittlichen": 8479,
  "hingegen": 8480,
  "festen": 8481,
  "patent@@": 8482,
  "saubere": 8483,
  "hülle": 8484,
  "maschin@@": 8485,
  "1999": 8486,
  "10.": 8487,
  "transportieren": 8488,
  "ski": 8489,
  "chens": 8490,
  "anspruch": 8491,
  "variationen": 8492,
  "199@@": 8493,
  "vie@@": 8494,
  "produkt@@": 8495,
  "isch-@@": 8496,
  "univer@@": 8497,
  "3d": 8498,
  "struktur@@": 8499,
  "herkommen": 8500,
  "agenda": 8501,
  "ücken": 8502,
  "3.@@": 8503,
  "moskitonet@@": 8504,
  "ansonsten": 8505,
  "krankenhäusern": 8506,
  "geschla@@": 8507,
  "mierte": 8508,
  "flüge": 8509,
  "ao": 8510,
  "schiffe": 8511,
  "richtlinien": 8512,
  "lebensunterhalt": 8513,
  "arbeitsplatz": 8514,
  "übernommen": 8515,
  "höhen": 8516,
  "angemessen@@": 8517,
  "institution@@": 8518,
  "teurer": 8519,
  "gespü@@": 8520,
  "erfolgreiche": 8521,
  "assen@@": 8522,
  "denker": 8523,
  "flüsse": 8524,
  "schütter@@": 8525,
  "fron@@": 8526,
  "steuer": 8527,
  "skiz@@": 8528,
  "wahrheiten": 8529,
  "bewunder@@": 8530,
  "gründeten": 8531,
  "betreffen": 8532,
  "stürzen": 8533,
  "line": 8534,
  "gespeichert": 8535,
  "fleder@@": 8536,
  "tippen": 8537,
  "agent@@": 8538,
  "mi": 8539,
  "klimawandels": 8540,
  "lkw": 8541,
  "ite@@": 8542,
  "gewaltig": 8543,
  "innenstadt": 8544,
  "vorschlagen": 8545,
  "konz@@": 8546,
  "erzähl@@": 8547,
  "körperliche": 8548,
  "bestimmtes": 8549,
  "wärts": 8550,
  "weitaus": 8551,
  "nigeri@@": 8552,
  "staates": 8553,
  "isoliert": 8554,
  "versionen": 8555,
  "stärksten": 8556,
  "abed": 8557,
  "zeitgenöss@@": 8558,
  "stin@@": 8559,
  "keinerlei": 8560,
  "koloni@@": 8561,
  "berater": 8562,
  "metr@@": 8563,
  "führungsper@@": 8564,
  "ange": 8565,
  "polizisten": 8566,
  "sprechend": 8567,
  "herz-@@": 8568,
  "klaren": 8569,
  "wonach": 8570,
  "gif@@": 8571,
  "angewiesen": 8572,
  "gezeichnet": 8573,
  "angiogenese": 8574,
  "lasen": 8575,
  "gruppen@@": 8576,
  "stapel": 8577,
  "ane": 8578,
  "bewusst@@": 8579,
  "mäuse": 8580,
  "genossen": 8581,
  "pioni@@": 8582,
  "künstlich": 8583,
  "chinesisch": 8584,
  "kleinsten": 8585,
  "entwickler": 8586,
  "200.000": 8587,
  "hem@@": 8588,
  "etten": 8589,
  "ktiert": 8590,
  "sauce": 8591,
  "nland": 8592,
  "llig": 8593,
  "atz@@": 8594,
  "nam@@": 8595,
  "ates": 8596,
  "stätte": 8597,
  "glä@@": 8598,
  "bzw.": 8599,
  "diagno@@": 8600,
  "königreich": 8601,
  "delfine": 8602,
  "merkwürdig": 8603,
  "gött@@": 8604,
  "stieß": 8605,
  "geistes": 8606,
  "way": 8607,
  "geru@@": 8608,
  "mie": 8609,
  "demonstrieren": 8610,
  "abwei@@": 8611,
  "steckte": 8612,
  "öse": 8613,
  "90ern": 8614,
  "eich@@": 8615,
  "baten": 8616,
  "konver@@": 8617,
  "veröffentlichte": 8618,
  "25@@": 8619,
  "konkurrenz": 8620,
  "behinderungen": 8621,
  "dun@@": 8622,
  "sungs@@": 8623,
  "offizi@@": 8624,
  "entwicklungen": 8625,
  "phänomen@@": 8626,
  "malte": 8627,
  "vergleicht": 8628,
  "direkte": 8629,
  "favor@@": 8630,
  "union": 8631,
  "glau@@": 8632,
  "amt": 8633,
  "kandi@@": 8634,
  "abgele@@": 8635,
  "+": 8636,
  "daraufhin": 8637,
  "schro@@": 8638,
  "plattformen": 8639,
  "bedeuts@@": 8640,
  "amer": 8641,
  "u.s.": 8642,
  "2,5": 8643,
  "cs": 8644,
  "hühnchen": 8645,
  "wiegen": 8646,
  "robo@@": 8647,
  "proto@@": 8648,
  "gesteu@@": 8649,
  "visualisierung": 8650,
  "populationen": 8651,
  "amerikanischer": 8652,
  "pilz": 8653,
  "künst@@": 8654,
  "kleben": 8655,
  "komische": 8656,
  "bildes": 8657,
  "mitfühl@@": 8658,
  "anwes@@": 8659,
  "schad@@": 8660,
  "kau@@": 8661,
  "sied@@": 8662,
  "herangehensweise": 8663,
  "verbren@@": 8664,
  "gefäng@@": 8665,
  "beurteilen": 8666,
  "leucht@@": 8667,
  "konversation": 8668,
  "scanner": 8669,
  "thei@@": 8670,
  "chem": 8671,
  "spiegeln": 8672,
  "40.000": 8673,
  "strang": 8674,
  "knü@@": 8675,
  "flei@@": 8676,
  "untereinander": 8677,
  "erklärungen": 8678,
  "öffentlicher": 8679,
  "klänge": 8680,
  "getreide": 8681,
  "flö@@": 8682,
  "½": 8683,
  "ssern": 8684,
  "polen": 8685,
  "aggressi@@": 8686,
  "messungen": 8687,
  "fon": 8688,
  "einzelner": 8689,
  "steuerung": 8690,
  "nacht@@": 8691,
  "v.": 8692,
  "enth@@": 8693,
  "fürchten": 8694,
  "able@@": 8695,
  "bach": 8696,
  "schaltet": 8697,
  "trugen": 8698,
  "spinn@@": 8699,
  "autobahn": 8700,
  "bien": 8701,
  "skosten": 8702,
  "wolken@@": 8703,
  "behinderung": 8704,
  "ösen": 8705,
  "pur@@": 8706,
  "schaffung": 8707,
  "en.": 8708,
  "stud@@": 8709,
  "vertei@@": 8710,
  "ermu@@": 8711,
  "traurige": 8712,
  "biegen": 8713,
  "karto@@": 8714,
  "zugriff": 8715,
  "anschließend": 8716,
  "tzte": 8717,
  "tumore": 8718,
  "teller": 8719,
  "durften": 8720,
  "tiefgrün@@": 8721,
  "rotten": 8722,
  "lichere": 8723,
  "vereint": 8724,
  "herkömm@@": 8725,
  "formu@@": 8726,
  "beton": 8727,
  "übertrag@@": 8728,
  "digungen": 8729,
  "frage@@": 8730,
  "muster@@": 8731,
  "stan": 8732,
  "historischen": 8733,
  "exponentiell": 8734,
  "schwellen@@": 8735,
  "brauch@@": 8736,
  "pel@@": 8737,
  "sammelten": 8738,
  "transi@@": 8739,
  "sym@@": 8740,
  "einfallen": 8741,
  "feuerwehr@@": 8742,
  "flügel@@": 8743,
  "vertreter": 8744,
  "götter": 8745,
  "negativen": 8746,
  "7.": 8747,
  "kerin": 8748,
  "horn": 8749,
  "auszuprobieren": 8750,
  "muslimischen": 8751,
  "laufbahn": 8752,
  "verpflich@@": 8753,
  "tänzer": 8754,
  "lunge": 8755,
  "geglaubt": 8756,
  "zeitspanne": 8757,
  "klicken": 8758,
  "schwachen": 8759,
  "chse": 8760,
  "theoretisch": 8761,
  "nordpol": 8762,
  "schockier@@": 8763,
  "vergewaltigt": 8764,
  "äqu@@": 8765,
  "tv": 8766,
  "füttern": 8767,
  "wunden": 8768,
  "schweigen": 8769,
  "biomasse": 8770,
  "ch-@@": 8771,
  "szenario": 8772,
  "schriften": 8773,
  "tsunami": 8774,
  "bestandteile": 8775,
  "demü@@": 8776,
  "intellektuelle": 8777,
  "ingenieuren": 8778,
  "schlicht": 8779,
  "gesunken": 8780,
  "ok@@": 8781,
  "com@@": 8782,
  "deutschen": 8783,
  "hnung": 8784,
  "feynman": 8785,
  "tendieren": 8786,
  "16.": 8787,
  "nik": 8788,
  "celsius": 8789,
  "tv-@@": 8790,
  "bereitschaft": 8791,
  "angewendet": 8792,
  "physisch": 8793,
  "zugrunde": 8794,
  "freun@@": 8795,
  "baumkr@@": 8796,
  "japanischen": 8797,
  "sendungen": 8798,
  "un-@@": 8799,
  "begeisterung": 8800,
  "beschul@@": 8801,
  "partnerschaft": 8802,
  "ausgeht": 8803,
  "tun@@": 8804,
  "vern@@": 8805,
  "gewaltigen": 8806,
  "existi@@": 8807,
  "angewandt": 8808,
  "effiziente": 8809,
  "zusammenfassen": 8810,
  "massiven": 8811,
  "minus": 8812,
  "inierte": 8813,
  "bemühungen": 8814,
  "süd-@@": 8815,
  "spannen@@": 8816,
  "ellen@@": 8817,
  "flam@@": 8818,
  "raums": 8819,
  "jüngere": 8820,
  "enter": 8821,
  "nat@@": 8822,
  "kost@@": 8823,
  "glamourös": 8824,
  "ausdrucks@@": 8825,
  "absolu@@": 8826,
  "jun@@": 8827,
  "zimmer@@": 8828,
  "rou@@": 8829,
  "hacker": 8830,
  "vernünf@@": 8831,
  "wohnzimmer": 8832,
  "belie@@": 8833,
  "katho@@": 8834,
  "bedingung": 8835,
  "wort@@": 8836,
  "geschätzt": 8837,
  "entschuldigen": 8838,
  "denkens": 8839,
  "sprang": 8840,
  "einigt": 8841,
  "vagina": 8842,
  "evolutions@@": 8843,
  "ellem": 8844,
  "bemühen": 8845,
  "dauernd": 8846,
  "nick": 8847,
  "liegende": 8848,
  "mög@@": 8849,
  "verwei@@": 8850,
  "außerir@@": 8851,
  "geprägt": 8852,
  "dörfern": 8853,
  "melodie": 8854,
  "märz": 8855,
  "ckten": 8856,
  "codes": 8857,
  "steck@@": 8858,
  "überwälti@@": 8859,
  "erinn@@": 8860,
  "offensicht@@": 8861,
  "dierte": 8862,
  "ie-@@": 8863,
  "mend": 8864,
  "sammler": 8865,
  "joshua": 8866,
  "ästhe@@": 8867,
  "kognitiven": 8868,
  "ore@@": 8869,
  "bes": 8870,
  "bearbeiten": 8871,
  "ausgezeichnet": 8872,
  "stik": 8873,
  "herbei@@": 8874,
  "ös": 8875,
  "reali@@": 8876,
  "paradigma": 8877,
  "skla@@": 8878,
  "foto@@": 8879,
  "förmi@@": 8880,
  "l-@@": 8881,
  "entle@@": 8882,
  "fertigen": 8883,
  "begriffe": 8884,
  "delt": 8885,
  "magazine": 8886,
  "mith@@": 8887,
  "schrän@@": 8888,
  "bürgerkrieg": 8889,
  "phosphor": 8890,
  "schaffe": 8891,
  "stung": 8892,
  "hop@@": 8893,
  "stätten": 8894,
  "artenvielfalt": 8895,
  "arthur": 8896,
  "persönlicher": 8897,
  "dicke": 8898,
  "gerweise": 8899,
  "schaft@@": 8900,
  "anre@@": 8901,
  "scott": 8902,
  "singapur": 8903,
  "ran": 8904,
  "übersehen": 8905,
  "erklär@@": 8906,
  "wesens": 8907,
  "durchschnitts@@": 8908,
  "dood@@": 8909,
  "ik@@": 8910,
  "gestü@@": 8911,
  "solches": 8912,
  "mut@@": 8913,
  "verzei@@": 8914,
  "sing@@": 8915,
  "eh@@": 8916,
  "eltern@@": 8917,
  "abhängi@@": 8918,
  "24@@": 8919,
  "verleihen": 8920,
  "ams": 8921,
  "leder": 8922,
  "aristoteles": 8923,
  "gelandet": 8924,
  "bequ@@": 8925,
  "ströme": 8926,
  "periode": 8927,
  "physikalische": 8928,
  "fundament": 8929,
  "jay": 8930,
  "kondome": 8931,
  "überraschen@@": 8932,
  "visuell": 8933,
  "respektieren": 8934,
  "alls": 8935,
  "demokra@@": 8936,
  "á@@": 8937,
  "skep@@": 8938,
  "finan@@": 8939,
  "ernte": 8940,
  "ies": 8941,
  "dringt": 8942,
  "bezahl@@": 8943,
  "furchtbar": 8944,
  "benach@@": 8945,
  "klappen": 8946,
  "prozentsatz": 8947,
  "cen@@": 8948,
  "kräften": 8949,
  "stands@@": 8950,
  "sensor@@": 8951,
  "warte@@": 8952,
  "verhaltensweisen": 8953,
  "34": 8954,
  "essenti@@": 8955,
  "sorte": 8956,
  "jewei@@": 8957,
  "argumentieren": 8958,
  "äng@@": 8959,
  "ian": 8960,
  "pfte": 8961,
  "entkommen": 8962,
  "mahlzeiten": 8963,
  "wid@@": 8964,
  "starren": 8965,
  "brech@@": 8966,
  "schub@@": 8967,
  "sproble@@": 8968,
  "ttet": 8969,
  "unterschiedlicher": 8970,
  "wohnt": 8971,
  "zulegen": 8972,
  "chemotherapie": 8973,
  "l.a.": 8974,
  "verstärkt": 8975,
  "absichten": 8976,
  "niens": 8977,
  "tauchten": 8978,
  "produzenten": 8979,
  "tödliche": 8980,
  "november": 8981,
  "internet-@@": 8982,
  "stur@@": 8983,
  "neigung": 8984,
  "mumbai": 8985,
  "air": 8986,
  "ozeanen": 8987,
  "blättern": 8988,
  "halfen": 8989,
  "beeinflus@@": 8990,
  "gren@@": 8991,
  "würfel": 8992,
  "nutzer": 8993,
  "teilzunehmen": 8994,
  "profi@@": 8995,
  "deli@@": 8996,
  "ron": 8997,
  "zuschau@@": 8998,
  "kriminalität": 8999,
  "gedichte": 9000,
  "akzept@@": 9001,
  "geschwindi@@": 9002,
  "talenti@@": 9003,
  "unerwar@@": 9004,
  "sorgfältig": 9005,
  "umgesetzt": 9006,
  "sun@@": 9007,
  "gent@@": 9008,
  "gandhi": 9009,
  "ky@@": 9010,
  "friedens@@": 9011,
  "seti": 9012,
  "apfel": 9013,
  "hardware": 9014,
  "elektronischen": 9015,
  "staub@@": 9016,
  "kord": 9017,
  "1900": 9018,
  "aum": 9019,
  "schwung": 9020,
  "ön@@": 9021,
  "durchzu@@": 9022,
  "schöpfung": 9023,
  "abschließend": 9024,
  "grundschule": 9025,
  "stiges": 9026,
  "spunkte": 9027,
  "herstell@@": 9028,
  "spinnen@@": 9029,
  "benzin": 9030,
  "2011": 9031,
  "sichern": 9032,
  "tech@@": 9033,
  "umher": 9034,
  "pfeifen": 9035,
  "belei@@": 9036,
  "dex": 9037,
  "alex": 9038,
  "abhängt": 9039,
  "don": 9040,
  "lud": 9041,
  "polizist": 9042,
  "tän@@": 9043,
  "verzwei@@": 9044,
  "heimatstadt": 9045,
  "passte": 9046,
  "wachsenden": 9047,
  "u-boot": 9048,
  "nutze": 9049,
  "impli@@": 9050,
  "erfüllung": 9051,
  "zeln": 9052,
  "oper": 9053,
  "hase": 9054,
  "zero": 9055,
  "potenzi@@": 9056,
  "route": 9057,
  "bezogen": 9058,
  "keller": 9059,
  "verdäch@@": 9060,
  "verschaffen": 9061,
  "verwen@@": 9062,
  "demokraten": 9063,
  "98": 9064,
  "gerungen": 9065,
  "takti@@": 9066,
  "43": 9067,
  "blickt": 9068,
  "ärer": 9069,
  "veröffentlichten": 9070,
  "dutzende": 9071,
  "langzeit@@": 9072,
  "story": 9073,
  "einkaufs@@": 9074,
  "aden@@": 9075,
  "aufhalten": 9076,
  "brem@@": 9077,
  "ck-@@": 9078,
  "jagd": 9079,
  "affen@@": 9080,
  "gehirnen": 9081,
  "last@@": 9082,
  "anony@@": 9083,
  "vergif@@": 9084,
  "frustri@@": 9085,
  "mens": 9086,
  "sent@@": 9087,
  "durchgehen": 9088,
  "gramme": 9089,
  "koennen": 9090,
  "bilität": 9091,
  "ansprechen": 9092,
  "sammelte": 9093,
  "geschaltet": 9094,
  "cola": 9095,
  "betrie@@": 9096,
  "wahrhaftig": 9097,
  "gesundheitsversorgung": 9098,
  "dünne": 9099,
  "ball-@@": 9100,
  "tigkeits@@": 9101,
  "meeting": 9102,
  "starkes": 9103,
  "fähigen": 9104,
  "prüf@@": 9105,
  "kollege": 9106,
  "interaktionen": 9107,
  "schmetter@@": 9108,
  "spart": 9109,
  "cricket": 9110,
  "musli@@": 9111,
  "wal": 9112,
  "hole": 9113,
  "echnet": 9114,
  "fledermäuse": 9115,
  "einbringen": 9116,
  "schlüsse": 9117,
  "interessierte": 9118,
  "verschieben": 9119,
  "veränderten": 9120,
  "cho@@": 9121,
  "melden": 9122,
  "sens": 9123,
  "krankungen": 9124,
  "schlägen": 9125,
  "überfluss": 9126,
  "flugzeug@@": 9127,
  "poten@@": 9128,
  "konser@@": 9129,
  "instal@@": 9130,
  "weihnacht@@": 9131,
  "ont@@": 9132,
  "lea@@": 9133,
  "gungen": 9134,
  "veranschau@@": 9135,
  "entwur@@": 9136,
  "verlan@@": 9137,
  "durchaus": 9138,
  "roboter@@": 9139,
  "spazier@@": 9140,
  "geschma@@": 9141,
  "weiterentwickelt": 9142,
  "ansteck@@": 9143,
  "dollars": 9144,
  "eck@@": 9145,
  "ny@@": 9146,
  "spinne": 9147,
  "zurecht": 9148,
  "schliessen": 9149,
  "wurzel": 9150,
  "drängt": 9151,
  "multipli@@": 9152,
  "lische": 9153,
  "ergän@@": 9154,
  "ausgelöst": 9155,
  "erschienen": 9156,
  "ruhe@@": 9157,
  "bb@@": 9158,
  "spontan": 9159,
  "hinder@@": 9160,
  "intelligent@@": 9161,
  "erdgas": 9162,
  "betrachteten": 9163,
  "jugendliche": 9164,
  "wood-@@": 9165,
  "stabil": 9166,
  "rational": 9167,
  "ratte": 9168,
  "demonstration": 9169,
  "lizen@@": 9170,
  "fotografen": 9171,
  "tinten@@": 9172,
  "fan": 9173,
  "beschaffen": 9174,
  "rente": 9175,
  "verpflichtet": 9176,
  "rechner@@": 9177,
  "endgül@@": 9178,
  "aufgezeichnet": 9179,
  "urteil": 9180,
  "eintreten": 9181,
  "krokodi@@": 9182,
  "angri@@": 9183,
  "neurowissenschaft": 9184,
  "uri@@": 9185,
  "kritiker": 9186,
  "aktiv@@": 9187,
  "mäusen": 9188,
  "rettet": 9189,
  "erwachsen": 9190,
  "ausland": 9191,
  "astronomen": 9192,
  "umsonst": 9193,
  "huhn": 9194,
  "intellektuellen": 9195,
  "röhre": 9196,
  "que@@": 9197,
  "frühstück": 9198,
  "indonesien": 9199,
  "möbel": 9200,
  "molekular@@": 9201,
  "gewöhn@@": 9202,
  "skelett@@": 9203,
  "wenigsten": 9204,
  "bibliothe@@": 9205,
  "erfüll@@": 9206,
  "kühlen": 9207,
  "jahrelang": 9208,
  "brennstoff": 9209,
  "temperatur@@": 9210,
  "inji@@": 9211,
  "richt@@": 9212,
  "geradezu": 9213,
  "erie": 9214,
  "klü@@": 9215,
  "versichern": 9216,
  "merkte": 9217,
  "bemerkenswer@@": 9218,
  "hmm": 9219,
  "anfan@@": 9220,
  "hüfte": 9221,
  "buchstab@@": 9222,
  "fleck": 9223,
  "smann": 9224,
  "mar": 9225,
  "ktives": 9226,
  "älterwerden": 9227,
  "reli@@": 9228,
  "vermei@@": 9229,
  "tötete": 9230,
  "logo": 9231,
  "gänger": 9232,
  "inie": 9233,
  "paaren": 9234,
  "jh": 9235,
  "verzö@@": 9236,
  "stoffwechsel": 9237,
  "überdenken": 9238,
  "chenen": 9239,
  "aufgehört": 9240,
  "gering": 9241,
  "kauften": 9242,
  "ehren@@": 9243,
  "life": 9244,
  "gelehr@@": 9245,
  "dunkel@@": 9246,
  "romantische": 9247,
  "gou@@": 9248,
  "dinosauri@@": 9249,
  "bahnbrech@@": 9250,
  "fried@@": 9251,
  "ce-@@": 9252,
  "schafter": 9253,
  "fantastisches": 9254,
  "stränge": 9255,
  "teig": 9256,
  "rauschen": 9257,
  "asth@@": 9258,
  "mot@@": 9259,
  "optionen": 9260,
  "steigerung": 9261,
  "aktivisten": 9262,
  "beunruhigt": 9263,
  "130": 9264,
  "benannt": 9265,
  "bay": 9266,
  "therapien": 9267,
  "delhi": 9268,
  "schwelle": 9269,
  "trie@@": 9270,
  "liebling@@": 9271,
  "teilneh@@": 9272,
  "praktische": 9273,
  "chem@@": 9274,
  "hiermit": 9275,
  "sigkeit": 9276,
  "mine": 9277,
  "quet@@": 9278,
  "diagramme": 9279,
  "sun": 9280,
  "bücher@@": 9281,
  "inne@@": 9282,
  "verwirrt": 9283,
  "kühlt": 9284,
  "yle": 9285,
  "ankam": 9286,
  "tigem": 9287,
  "publi@@": 9288,
  "demselben": 9289,
  "exo@@": 9290,
  "berat@@": 9291,
  "food": 9292,
  "freundschaft": 9293,
  "gedul@@": 9294,
  "zielt": 9295,
  "gesünder": 9296,
  "forschern": 9297,
  "kas": 9298,
  "aussagen": 9299,
  "flagge": 9300,
  "unan@@": 9301,
  "oftmals": 9302,
  "dia": 9303,
  "studierende": 9304,
  "diam@@": 9305,
  "zähnen": 9306,
  "fur@@": 9307,
  "milo": 9308,
  "stört": 9309,
  "gespräch@@": 9310,
  "strahlt": 9311,
  "kategorie": 9312,
  "begeben": 9313,
  "angeschlossen": 9314,
  "klavier": 9315,
  "ya": 9316,
  "jedermann": 9317,
  "völker": 9318,
  "angelegenheiten": 9319,
  "ökonom@@": 9320,
  "cri@@": 9321,
  "schließe": 9322,
  "erle@@": 9323,
  "cock@@": 9324,
  "wiegend": 9325,
  "liter@@": 9326,
  "tzten": 9327,
  "gravitation": 9328,
  "voraussetzungen": 9329,
  "blutgefä@@": 9330,
  "rückgang": 9331,
  "frosch": 9332,
  "progno@@": 9333,
  "verletzen": 9334,
  "ironie": 9335,
  "partikel": 9336,
  "informa@@": 9337,
  "hinterher": 9338,
  "kostengün@@": 9339,
  "agrar@@": 9340,
  "schnittstelle": 9341,
  "niedriger": 9342,
  "parlament": 9343,
  "dul@@": 9344,
  "köni@@": 9345,
  "absichtlich": 9346,
  "ston": 9347,
  "scheiße": 9348,
  "top-@@": 9349,
  "tedtalks": 9350,
  "bruchteil": 9351,
  "gründung": 9352,
  "amer@@": 9353,
  "teres": 9354,
  "krü@@": 9355,
  "schre@@": 9356,
  "aussuchen": 9357,
  "wis@@": 9358,
  "kreislauf@@": 9359,
  "craig": 9360,
  "philosoph": 9361,
  "sang": 9362,
  "zwill@@": 9363,
  "beein@@": 9364,
  "kna@@": 9365,
  "drei-@@": 9366,
  "soll@@": 9367,
  "treibhausgase": 9368,
  "versuchs@@": 9369,
  "trocken@@": 9370,
  "schriftstell@@": 9371,
  "start@@": 9372,
  "niedrigen": 9373,
  "räu@@": 9374,
  "anäs@@": 9375,
  "richte": 9376,
  "wählt": 9377,
  "historisch": 9378,
  "sischer": 9379,
  "schnitten": 9380,
  "schätzungen": 9381,
  "robotik": 9382,
  "identisch": 9383,
  "applaus": 9384,
  "sprechende": 9385,
  "schwing@@": 9386,
  "meeresspiegel": 9387,
  "argumente": 9388,
  "erdoberfläche": 9389,
  "aida": 9390,
  "weihnachts@@": 9391,
  "erstaunliches": 9392,
  "15.": 9393,
  "schneidet": 9394,
  "handlungs@@": 9395,
  "milch@@": 9396,
  "wald@@": 9397,
  "tie@@": 9398,
  "hes": 9399,
  "veröffentlich@@": 9400,
  "ausgelöscht": 9401,
  "software-@@": 9402,
  "repräsent@@": 9403,
  "schlacht@@": 9404,
  "rover": 9405,
  "anfühlt": 9406,
  "kriminelle": 9407,
  "wk": 9408,
  "zeuge": 9409,
  "mutationen": 9410,
  "benutzer": 9411,
  "000-@@": 9412,
  "johnny": 9413,
  "angeblich": 9414,
  "jerusalem": 9415,
  "unternehmens@@": 9416,
  "grafiken": 9417,
  "unmögliche": 9418,
  "bestätigt": 9419,
  "app": 9420,
  "läden": 9421,
  "hnten": 9422,
  "vorkommt": 9423,
  "klassen": 9424,
  "ala": 9425,
  "ausgestattet": 9426,
  "zufälli@@": 9427,
  "stal@@": 9428,
  "schlä@@": 9429,
  "angen": 9430,
  "hawaii": 9431,
  "flüssig@@": 9432,
  "stattfand": 9433,
  "illegal": 9434,
  "betrachte": 9435,
  "heli@@": 9436,
  "gü@@": 9437,
  "türen": 9438,
  "fst": 9439,
  "these": 9440,
  "geschlechts@@": 9441,
  "more": 9442,
  "asen": 9443,
  "internation@@": 9444,
  "untersuchten": 9445,
  "flugzeugen": 9446,
  "müttern": 9447,
  "juli": 9448,
  "aktivi@@": 9449,
  "prothese": 9450,
  "urlaub": 9451,
  "integrieren": 9452,
  "aufstellen": 9453,
  "sl@@": 9454,
  "und-@@": 9455,
  "grösser": 9456,
  "draht@@": 9457,
  "beschleunig@@": 9458,
  "fischerei": 9459,
  "strukturi@@": 9460,
  "attac@@": 9461,
  "new@@": 9462,
  "gepar@@": 9463,
  "änder@@": 9464,
  "zylinder": 9465,
  "weiblichen": 9466,
  "verlei@@": 9467,
  "regime": 9468,
  "klick": 9469,
  "spass": 9470,
  "fertigt": 9471,
  "wilde": 9472,
  "1997": 9473,
  "himm@@": 9474,
  "interpre@@": 9475,
  "modifi@@": 9476,
  "biolog@@": 9477,
  "iss": 9478,
  "tigten": 9479,
  "alpha": 9480,
  "konfron@@": 9481,
  "verwendete": 9482,
  "krebszellen": 9483,
  "gefühlen": 9484,
  "wasserstoff@@": 9485,
  "versteckten": 9486,
  "beobachtete": 9487,
  "gespro@@": 9488,
  "rom": 9489,
  "identifi@@": 9490,
  "simulieren": 9491,
  "schlangen": 9492,
  "menschenrechte": 9493,
  "rick": 9494,
  "hofft": 9495,
  "regal": 9496,
  "verur@@": 9497,
  "ereig@@": 9498,
  "jahrhunderte": 9499,
  "verlaufen": 9500,
  "speku@@": 9501,
  "zusammengefasst": 9502,
  "ähnlicher": 9503,
  "diät": 9504,
  "freizeit": 9505,
  "palästinen@@": 9506,
  "dokumente": 9507,
  "gesten": 9508,
  "off@@": 9509,
  "fundamentale": 9510,
  "jäger": 9511,
  "austral@@": 9512,
  "ett": 9513,
  "vernachlässi@@": 9514,
  "durchfall": 9515,
  "impfstoffe": 9516,
  "benennen": 9517,
  "loswerden": 9518,
  "aka@@": 9519,
  "erschaffung": 9520,
  "verantwortungs@@": 9521,
  "brand": 9522,
  "arte@@": 9523,
  "korb": 9524,
  "betrachtung": 9525,
  "blas@@": 9526,
  "passend": 9527,
  "kali@@": 9528,
  "fiktion": 9529,
  "dsch@@": 9530,
  "nano@@": 9531,
  "bela@@": 9532,
  "herumzu@@": 9533,
  "seltsamen": 9534,
  "sonen": 9535,
  "gesp@@": 9536,
  "extre@@": 9537,
  "hybri@@": 9538,
  "überein": 9539,
  "robotern": 9540,
  "ama": 9541,
  "enttäuscht": 9542,
  "grafi@@": 9543,
  "weiterzu@@": 9544,
  "1994": 9545,
  "ziff@@": 9546,
  "angriffe": 9547,
  "schö@@": 9548,
  "bangladesch": 9549,
  "telefone": 9550,
  "walmart": 9551,
  "baseball": 9552,
  "mono@@": 9553,
  "verwü@@": 9554,
  "gespen@@": 9555,
  "nebel": 9556,
  "verpasst": 9557,
  "tastatur": 9558,
  "salz": 9559,
  "juden": 9560,
  "empfangen": 9561,
  "lim@@": 9562,
  "perspektiven": 9563,
  "schuhen": 9564,
  "karti@@": 9565,
  "versich@@": 9566,
  "master": 9567,
  "blitz": 9568,
  "erwischt": 9569,
  "verlässt": 9570,
  "verkauften": 9571,
  "ausgehend": 9572,
  "umgebracht": 9573,
  "sexu@@": 9574,
  "by": 9575,
  "laster": 9576,
  "pag@@": 9577,
  "ökologischen": 9578,
  "konstan@@": 9579,
  "nutzte": 9580,
  "stewart": 9581,
  "erläu@@": 9582,
  "stirn": 9583,
  "verfügt": 9584,
  "karikat@@": 9585,
  "justi@@": 9586,
  "schaltkreise": 9587,
  "kontin@@": 9588,
  "intuitiv": 9589,
  "zertifi@@": 9590,
  "72": 9591,
  "sichtlich": 9592,
  "hefe": 9593,
  "cha@@": 9594,
  "geset@@": 9595,
  "nervensystem": 9596,
  "jüngeren": 9597,
  "vorhersage": 9598,
  "rock": 9599,
  "geschen@@": 9600,
  "verbün@@": 9601,
  "filmemacher": 9602,
  "erschein@@": 9603,
  "scheu@@": 9604,
  "lande": 9605,
  "sätzen": 9606,
  "unbekannten": 9607,
  "schmei@@": 9608,
  "extremen": 9609,
  "betre@@": 9610,
  "leonardo": 9611,
  "fettlei@@": 9612,
  "libellen": 9613,
  "pfe": 9614,
  "verbunden@@": 9615,
  "parameter": 9616,
  "sternen@@": 9617,
  "paar@@": 9618,
  "tesla": 9619,
  "blue": 9620,
  "igkeiten": 9621,
  "mam@@": 9622,
  "reihen": 9623,
  "herausra@@": 9624,
  "flecken": 9625,
  "han": 9626,
  "gefangen@@": 9627,
  "absoluten": 9628,
  "führer@@": 9629,
  "übrigen": 9630,
  "itäts@@": 9631,
  "nadeln": 9632,
  "dr": 9633,
  "flow": 9634,
  "drü@@": 9635,
  "10-@@": 9636,
  "lücken": 9637,
  "mutation": 9638,
  "verfassung": 9639,
  "ernste": 9640,
  "horizon@@": 9641,
  "dick@@": 9642,
  "gefühl@@": 9643,
  "farmer": 9644,
  "wirtschaftlicher": 9645,
  "beherrschen": 9646,
  "schweiz": 9647,
  "garten@@": 9648,
  "absolute": 9649,
  "rezession": 9650,
  "wertvolle": 9651,
  "höchst@@": 9652,
  "ph": 9653,
  "tnissen": 9654,
  "sonn@@": 9655,
  "spiegelt": 9656,
  "do-@@": 9657,
  "hack@@": 9658,
  "gemerkt": 9659,
  "besorg@@": 9660,
  "beruhi@@": 9661,
  "aß": 9662,
  "storbenen": 9663,
  "ansätze": 9664,
  "elo@@": 9665,
  "kohlen@@": 9666,
  "zu-@@": 9667,
  "ral": 9668,
  "sklaven": 9669,
  "wiederaufbau": 9670,
  "abspielen": 9671,
  "erkannten": 9672,
  "streu@@": 9673,
  "bewahr@@": 9674,
  "vorbereitung": 9675,
  "schizophrenie": 9676,
  "ärger": 9677,
  "enheit": 9678,
  "bevorzugen": 9679,
  "meinten": 9680,
  "twi@@": 9681,
  "vollziehen": 9682,
  "schirm": 9683,
  "entwickel@@": 9684,
  "appar@@": 9685,
  "entsprechen": 9686,
  "fingern": 9687,
  "stert": 9688,
  "anstren@@": 9689,
  "krater": 9690,
  "essens@@": 9691,
  "schwach": 9692,
  "beschäftigung": 9693,
  "bewahrt": 9694,
  "überblick": 9695,
  "korn": 9696,
  "beschrieb": 9697,
  "protokol@@": 9698,
  "gö@@": 9699,
  "olymp@@": 9700,
  "organische": 9701,
  "schalt@@": 9702,
  "geschlossen@@": 9703,
  "grosser": 9704,
  "relation": 9705,
  "dreidimensionale": 9706,
  "sylvia": 9707,
  "reporter": 9708,
  "wärmen": 9709,
  "molekulare": 9710,
  "verblüff@@": 9711,
  "dekor@@": 9712,
  "fft": 9713,
  "zweig": 9714,
  "größtenteils": 9715,
  "winter@@": 9716,
  "sac@@": 9717,
  "auswei@@": 9718,
  "voran": 9719,
  "begehen": 9720,
  "halle": 9721,
  "alber@@": 9722,
  "beinhalten": 9723,
  "forma@@": 9724,
  "wissenschaftlerin": 9725,
  "bewerkstelligen": 9726,
  "square": 9727,
  "architektonische": 9728,
  "führungsk@@": 9729,
  "d.h.": 9730,
  "künste": 9731,
  "mäd@@": 9732,
  "kommun@@": 9733,
  "interess@@": 9734,
  "kus": 9735,
  "banker": 9736,
  "hervorbringen": 9737,
  "send": 9738,
  "vorgehensweise": 9739,
  "hasse": 9740,
  "seattle": 9741,
  "einfach@@": 9742,
  "betrag": 9743,
  "beliebigen": 9744,
  "paare": 9745,
  "koralle": 9746,
  "gelungen": 9747,
  "phasen": 9748,
  "2020": 9749,
  "laut@@": 9750,
  "gefan@@": 9751,
  "hell": 9752,
  "kriegs": 9753,
  "französischen": 9754,
  "beamten": 9755,
  "alb@@": 9756,
  "fäch@@": 9757,
  "comedy": 9758,
  "quote": 9759,
  "tansania": 9760,
  "essenz": 9761,
  "südlich": 9762,
  "paradox": 9763,
  "nukle@@": 9764,
  "einsatz@@": 9765,
  "verfü@@": 9766,
  "diplomatie": 9767,
  "demie": 9768,
  "trop@@": 9769,
  "hervorragend": 9770,
  "agi@@": 9771,
  "wahn@@": 9772,
  "atten@@": 9773,
  "gliche": 9774,
  "beschü@@": 9775,
  "panzer": 9776,
  "normal@@": 9777,
  "behauptet": 9778,
  "therap@@": 9779,
  "dnungen": 9780,
  "bedeu@@": 9781,
  "gestoßen": 9782,
  "genie@@": 9783,
  "infe@@": 9784,
  "spunkt": 9785,
  "ueber": 9786,
  "chin@@": 9787,
  "geräusch@@": 9788,
  "straß@@": 9789,
  "krümm@@": 9790,
  "vo": 9791,
  "ohr@@": 9792,
  "american": 9793,
  "38": 9794,
  "zern": 9795,
  "annähernd": 9796,
  "sexy": 9797,
  "mitmachen": 9798,
  "musikalische": 9799,
  "gegensei@@": 9800,
  "mön@@": 9801,
  "hren@@": 9802,
  "ause": 9803,
  "ausbreiten": 9804,
  "geste": 9805,
  "cloud": 9806,
  "ausrottung": 9807,
  "hauptstadt": 9808,
  "schatz": 9809,
  "patientin": 9810,
  "ski@@": 9811,
  "194@@": 9812,
  "verwunder@@": 9813,
  "brilli@@": 9814,
  "einschränkungen": 9815,
  "peri@@": 9816,
  "wahrgenommen": 9817,
  "überflu@@": 9818,
  "kanischen": 9819,
  "impuls": 9820,
  "französische": 9821,
  "geholt": 9822,
  "labor@@": 9823,
  "verringert": 9824,
  "kilo@@": 9825,
  "äten": 9826,
  "ansässi@@": 9827,
  "gesicht@@": 9828,
  "frustriert": 9829,
  "jamie": 9830,
  "ty": 9831,
  "kammer": 9832,
  "taler": 9833,
  "wies": 9834,
  "konflikten": 9835,
  "krankenschwestern": 9836,
  "entscheidenden": 9837,
  "parkplatz": 9838,
  "imm@@": 9839,
  "organisierte": 9840,
  "langfristige": 9841,
  "brennen": 9842,
  "hausaufgaben": 9843,
  "verwende": 9844,
  "netten": 9845,
  "telef@@": 9846,
  "landkarte": 9847,
  "fluktu@@": 9848,
  "milzt": 9849,
  "health": 9850,
  "mann@@": 9851,
  "hoffnungen": 9852,
  "4,@@": 9853,
  "2030": 9854,
  "37": 9855,
  "stol@@": 9856,
  "gespannt": 9857,
  "ktions@@": 9858,
  "hosen": 9859,
  "ängen": 9860,
  "arbeiter@@": 9861,
  "dazu@@": 9862,
  "motiviert": 9863,
  "jü@@": 9864,
  "hungern": 9865,
  "kämpfe": 9866,
  "kels": 9867,
  "befreit": 9868,
  "state": 9869,
  "wachsen@@": 9870,
  "bergsteiger": 9871,
  "atomen": 9872,
  "menden": 9873,
  "gegenwärtigen": 9874,
  "bauch@@": 9875,
  "niedrige": 9876,
  "tatsachen": 9877,
  "knac@@": 9878,
  "erwecken": 9879,
  "errichtet": 9880,
  "witze": 9881,
  "magnet@@": 9882,
  "globales": 9883,
  "fluss@@": 9884,
  "reduktion": 9885,
  "sop@@": 9886,
  "jur@@": 9887,
  "hypo@@": 9888,
  "nai@@": 9889,
  "pfer": 9890,
  "olog@@": 9891,
  "5000": 9892,
  "sequenzen": 9893,
  "setz@@": 9894,
  "erweiterung": 9895,
  "bag@@": 9896,
  "ermöglichte": 9897,
  "grö@@": 9898,
  "beeindruck@@": 9899,
  "fange": 9900,
  "green@@": 9901,
  "30-@@": 9902,
  "31": 9903,
  "probanden": 9904,
  "angt": 9905,
  "erzähl": 9906,
  "nder": 9907,
  "bevorzu@@": 9908,
  "handel@@": 9909,
  "analo@@": 9910,
  "archiv": 9911,
  "ille": 9912,
  "richtete": 9913,
  "empfänger": 9914,
  "erkläre": 9915,
  "wochenende": 9916,
  "ratet": 9917,
  "schliesslich": 9918,
  "ästhetik": 9919,
  "wohlergehen": 9920,
  "rasch": 9921,
  "entsch@@": 9922,
  "ufer": 9923,
  "til@@": 9924,
  "hart@@": 9925,
  "konto": 9926,
  "könig@@": 9927,
  "gebau@@": 9928,
  "verschlüssel@@": 9929,
  "here": 9930,
  "verknüpfen": 9931,
  "medikam@@": 9932,
  "vollem": 9933,
  "jahrzehn@@": 9934,
  "ausnahmen": 9935,
  "jane": 9936,
  "allmählich": 9937,
  "fahrten": 9938,
  "verla@@": 9939,
  "pop@@": 9940,
  "phant@@": 9941,
  "gewis@@": 9942,
  "bucht": 9943,
  "let": 9944,
  "umwandeln": 9945,
  "fälsch@@": 9946,
  "kürz@@": 9947,
  "hohem": 9948,
  "tiefsten": 9949,
  "feuchtigkeit": 9950,
  "cham@@": 9951,
  "austauschen": 9952,
  "äres": 9953,
  "normaler": 9954,
  "schmeckt": 9955,
  "griechen": 9956,
  "latein@@": 9957,
  "non@@": 9958,
  "42": 9959,
  "verwund@@": 9960,
  "itä@@": 9961,
  "reson@@": 9962,
  "bestätigen": 9963,
  "stimulation": 9964,
  "tätig": 9965,
  "ausgestellt": 9966,
  "gangs": 9967,
  "derweise": 9968,
  "barmherzigkeit": 9969,
  "entschloss": 9970,
  "weib@@": 9971,
  "übersetz@@": 9972,
  "willi@@": 9973,
  "haber": 9974,
  "zwischenzeit": 9975,
  "drucker@@": 9976,
  "stehende": 9977,
  "bürgern": 9978,
  "comic@@": 9979,
  "alem": 9980,
  "schläft": 9981,
  "adresse": 9982,
  "stürzt": 9983,
  "intensität": 9984,
  "beweist": 9985,
  "debat@@": 9986,
  "tempel": 9987,
  "veranst@@": 9988,
  "r.": 9989,
  "üblichen": 9990,
  "aben": 9991,
  "unbeha@@": 9992,
  "schwein": 9993,
  "neurolog@@": 9994,
  "äußeren": 9995,
  "rigen": 9996,
  "verpassen": 9997,
  "kraftwerk": 9998,
  "glie@@": 9999,
  "zwang": 10000,
  "ehen": 10001,
  "beach": 10002,
  "christen": 10003,
  "south": 10004,
  "schall": 10005,
  "besuche": 10006,
  "kanten": 10007,
  "irland": 10008,
  "ständigen": 10009,
  "signifi@@": 10010,
  "kopenhagen": 10011,
  "agiert": 10012,
  "sichtbaren": 10013,
  "redeten": 10014,
  "beratung": 10015,
  "abkommen": 10016,
  "mammographie": 10017,
  "einkaufen": 10018,
  "tteln": 10019,
  "chile": 10020,
  "transformieren": 10021,
  "sierra": 10022,
  "landung": 10023,
  "femini@@": 10024,
  "schlie@@": 10025,
  "winde": 10026,
  "pakistan@@": 10027,
  "warst": 10028,
  "verpflichtung": 10029,
  "pumpe": 10030,
  "messung": 10031,
  "helium": 10032,
  "kocht": 10033,
  "bezahlung": 10034,
  "insulin@@": 10035,
  "4-@@": 10036,
  "one-@@": 10037,
  "bi": 10038,
  "benutzer@@": 10039,
  "social": 10040,
  "koffer": 10041,
  "stick@@": 10042,
  "schlimme": 10043,
  "nachher": 10044,
  "dio@@": 10045,
  "unterschied@@": 10046,
  "einzigarti@@": 10047,
  "thunfisch": 10048,
  "partnern": 10049,
  "platziert": 10050,
  "verstärken": 10051,
  "4.": 10052,
  "gitter": 10053,
  "erheblich": 10054,
  "konsequenz": 10055,
  "sus@@": 10056,
  "ostküste": 10057,
  "neuem": 10058,
  "talente": 10059,
  "fusion": 10060,
  "ermutigt": 10061,
  "pillen": 10062,
  "einzugehen": 10063,
  "plötz@@": 10064,
  "leuchtet": 10065,
  "windenergie": 10066,
  "kosmos": 10067,
  "temperaturen": 10068,
  "hh": 10069,
  "dopamin": 10070,
  "onik": 10071,
  "projektes": 10072,
  "befolgen": 10073,
  "gebilde": 10074,
  "infr@@": 10075,
  "thailand": 10076,
  "gebir@@": 10077,
  "kelly": 10078,
  "erwartete": 10079,
  "kauf": 10080,
  "einladung": 10081,
  "é": 10082,
  "irgendeinen": 10083,
  "mrt": 10084,
  "informiert": 10085,
  "charakter@@": 10086,
  "hühn@@": 10087,
  "bote": 10088,
  "standort": 10089,
  "modern": 10090,
  "mörder": 10091,
  "gegenwärtige": 10092,
  "dimension@@": 10093,
  "gay": 10094,
  "einfa@@": 10095,
  "rückmel@@": 10096,
  "sarah": 10097,
  "kamel": 10098,
  "pert": 10099,
  "reservat": 10100,
  "weizen": 10101,
  "schultern": 10102,
  "übergehen": 10103,
  "feuert": 10104,
  "reaktor": 10105,
  "persönliches": 10106,
  "junges": 10107,
  "einfühlungsvermögen": 10108,
  "designern": 10109,
  "aufgefallen": 10110,
  "mikro-@@": 10111,
  "beraten": 10112,
  "anderson": 10113,
  "küchen@@": 10114,
  "grau": 10115,
  "erfolgs@@": 10116,
  "ultimative": 10117,
  "h.": 10118,
  "verhandlungen": 10119,
  "kat": 10120,
  "punk@@": 10121,
  "tismus": 10122,
  "überlegt": 10123,
  "derselbe": 10124,
  "she@@": 10125,
  "selten@@": 10126,
  "gießen": 10127,
  "vorzubereiten": 10128,
  "infor@@": 10129,
  "freier": 10130,
  "stillstand": 10131,
  "körperlichen": 10132,
  "visionen": 10133,
  "überwachung": 10134,
  "bestimm@@": 10135,
  "lautete": 10136,
  "boot@@": 10137,
  "rechte@@": 10138,
  "argent@@": 10139,
  "pfi@@": 10140,
  "sky": 10141,
  "ses@@": 10142,
  "ney": 10143,
  "whit@@": 10144,
  "sierten": 10145,
  "inger": 10146,
  "quadratmeter": 10147,
  "ath@@": 10148,
  "verkab@@": 10149,
  "palä@@": 10150,
  "betrügen": 10151,
  "rannte": 10152,
  "tunnel": 10153,
  "hindern": 10154,
  "index": 10155,
  "abo@@": 10156,
  "skop@@": 10157,
  "erlebte": 10158,
  "alie": 10159,
  "herab@@": 10160,
  "teilungen": 10161,
  "entschul@@": 10162,
  "refle@@": 10163,
  "teilhaben": 10164,
  "überzeugungen": 10165,
  "helden@@": 10166,
  "helikop@@": 10167,
  "nicht-nullsummen@@": 10168,
  "hat@@": 10169,
  "rob": 10170,
  "jüngste": 10171,
  "verkäufer": 10172,
  "einladen": 10173,
  "lands": 10174,
  "astro@@": 10175,
  "angezogen": 10176,
  "larven": 10177,
  "käse": 10178,
  "mächtigen": 10179,
  "inspirierend": 10180,
  "ausrichten": 10181,
  "mammo@@": 10182,
  "vertreten": 10183,
  "verluste": 10184,
  "priester": 10185,
  "beher@@": 10186,
  "rigi@@": 10187,
  "wählte": 10188,
  "apparat": 10189,
  "kredi@@": 10190,
  "box@@": 10191,
  "jä@@": 10192,
  "schuh": 10193,
  "benzin@@": 10194,
  "schee": 10195,
  "zusammenkommen": 10196,
  "getreten": 10197,
  "katalo@@": 10198,
  "geschö@@": 10199,
  "kil@@": 10200,
  "kende": 10201,
  "child": 10202,
  "ablen@@": 10203,
  "glän@@": 10204,
  "mahlzeit": 10205,
  "moskitos": 10206,
  "webseiten": 10207,
  "anerkennen": 10208,
  "schossen": 10209,
  "zwei-@@": 10210,
  "rechnet": 10211,
  "²": 10212,
  "arktischen": 10213,
  "bekannter": 10214,
  "eingenommen": 10215,
  "ultraschall": 10216,
  "erender": 10217,
  "alice": 10218,
  "widerstands@@": 10219,
  "pfel": 10220,
  "künstlichen": 10221,
  "teena@@": 10222,
  "kreuz": 10223,
  "sisches": 10224,
  "peinlich": 10225,
  "dameri@@": 10226,
  "quar@@": 10227,
  "gefilmt": 10228,
  "großarti@@": 10229,
  "taucher": 10230,
  "hafter": 10231,
  "sün@@": 10232,
  "belohnt": 10233,
  "wochen@@": 10234,
  "abhol@@": 10235,
  "350": 10236,
  "freitag": 10237,
  "bearbeitet": 10238,
  "spürt": 10239,
  "gelan@@": 10240,
  "rückkehr": 10241,
  "verhältnisse": 10242,
  "vakuum": 10243,
  "gelo@@": 10244,
  "älteste": 10245,
  "verhaltens": 10246,
  "entscheidet": 10247,
  "wiki@@": 10248,
  "respe@@": 10249,
  "universen": 10250,
  "selbstorgan@@": 10251,
  "animation": 10252,
  "entlassen": 10253,
  "kontrollierte": 10254,
  "lächer@@": 10255,
  "portrait": 10256,
  "starteten": 10257,
  "abschneiden": 10258,
  "mem": 10259,
  "misch": 10260,
  "rollt": 10261,
  "lande@@": 10262,
  "dean": 10263,
  "geor@@": 10264,
  "win": 10265,
  "hierarchie": 10266,
  "ami": 10267,
  "ideale": 10268,
  "var@@": 10269,
  "führende": 10270,
  "zuständig": 10271,
  "grossartige": 10272,
  "materials": 10273,
  "cla@@": 10274,
  "wolle": 10275,
  "chel": 10276,
  "engl@@": 10277,
  "symbio@@": 10278,
  "mochten": 10279,
  "phänomene": 10280,
  "chemiker": 10281,
  "indire@@": 10282,
  "molekularen": 10283,
  "ausbrei@@": 10284,
  "beginn@@": 10285,
  "manns": 10286,
  "beugen": 10287,
  "klat@@": 10288,
  "gefährdet": 10289,
  "legal@@": 10290,
  "patente": 10291,
  "tags": 10292,
  "lustige": 10293,
  "perrt": 10294,
  "maschinen@@": 10295,
  "kator": 10296,
  "1995": 10297,
  "lampen": 10298,
  "erfolgreicher": 10299,
  "leder@@": 10300,
  "motivi@@": 10301,
  "weitergegeben": 10302,
  "70er": 10303,
  "erweise": 10304,
  "zeitschriften": 10305,
  "einschränkung": 10306,
  "herausfanden": 10307,
  "lk@@": 10308,
  "mall": 10309,
  "frö@@": 10310,
  "ehemalige": 10311,
  "spritzen": 10312,
  "bedrohungen": 10313,
  "kleider": 10314,
  "schrau@@": 10315,
  "ater": 10316,
  "karri@@": 10317,
  "aufhört": 10318,
  "dos": 10319,
  "bezeich@@": 10320,
  "schleife": 10321,
  "interessiere": 10322,
  "clinton": 10323,
  "schaltkreis": 10324,
  "informieren": 10325,
  "brunnen": 10326,
  "bilanz": 10327,
  "haken": 10328,
  "mentale": 10329,
  "auszugeben": 10330,
  "hlung": 10331,
  "meldet": 10332,
  "üblich": 10333,
  "nervenzelle": 10334,
  "vul@@": 10335,
  "gigkeit": 10336,
  "tanzt": 10337,
  "verblüffende": 10338,
  "fahrts@@": 10339,
  "ückt": 10340,
  "idealen": 10341,
  "null@@": 10342,
  "gelten": 10343,
  "pesti@@": 10344,
  "mädchens": 10345,
  "ding@@": 10346,
  "kaner": 10347,
  "kopf-@@": 10348,
  "grat": 10349,
  "sichts@@": 10350,
  "dynamisch": 10351,
  "scannen": 10352,
  "oliver": 10353,
  "verrichten": 10354,
  "kenntnisse": 10355,
  "bedecken": 10356,
  "verdrah@@": 10357,
  "molekülen": 10358,
  "astronom@@": 10359,
  "entnehmen": 10360,
  "biop@@": 10361,
  "albert": 10362,
  "mächti@@": 10363,
  "überholt": 10364,
  "krankenhaus@@": 10365,
  "buddhi@@": 10366,
  "abgeord@@": 10367,
  "brillan@@": 10368,
  "unden": 10369,
  "ungehe@@": 10370,
  "verwirr@@": 10371,
  "sprich@@": 10372,
  "passagi@@": 10373,
  "research": 10374,
  "anstrengungen": 10375,
  "neuseeland": 10376,
  "50-@@": 10377,
  "mitgefühls": 10378,
  "sn@@": 10379,
  "verschlei@@": 10380,
  "archä@@": 10381,
  "anderthalb": 10382,
  "zonen": 10383,
  "sky@@": 10384,
  "kreuzen": 10385,
  "zeitschrift": 10386,
  "lichkeits@@": 10387,
  "seltener": 10388,
  "befanden": 10389,
  "live-@@": 10390,
  "typ@@": 10391,
  "fin": 10392,
  "stich@@": 10393,
  "korre@@": 10394,
  "sperr@@": 10395,
  "rem": 10396,
  "legung": 10397,
  "schwache": 10398,
  "übernimmt": 10399,
  "vorhaben": 10400,
  "3000": 10401,
  "satelli@@": 10402,
  "wende": 10403,
  "zwie@@": 10404,
  "verun@@": 10405,
  "wright": 10406,
  "bizar@@": 10407,
  "alltäglichen": 10408,
  "energies@@": 10409,
  "bilder@@": 10410,
  "simple": 10411,
  "anatomie": 10412,
  "som@@": 10413,
  "mega@@": 10414,
  "wöl@@": 10415,
  "ire": 10416,
  "realisieren": 10417,
  "anziehen": 10418,
  "artiges": 10419,
  "existierenden": 10420,
  "schwimm@@": 10421,
  "dlichkeit": 10422,
  "hieren": 10423,
  "keines@@": 10424,
  "hungers@@": 10425,
  "kompet@@": 10426,
  "bedient": 10427,
  "gewissem": 10428,
  "syn@@": 10429,
  "jekt": 10430,
  "privatsphäre": 10431,
  "materielle": 10432,
  "breitet": 10433,
  "angefertigt": 10434,
  "notizen": 10435,
  "brauch": 10436,
  "allen@@": 10437,
  "vernicht@@": 10438,
  "58": 10439,
  "geren": 10440,
  "erzieh@@": 10441,
  "besucher": 10442,
  "entlich": 10443,
  "fir@@": 10444,
  "verschmelzen": 10445,
  "kaffee@@": 10446,
  "verhäl@@": 10447,
  "---": 10448,
  "äußere": 10449,
  "jagt": 10450,
  "haftes": 10451,
  "gefühlt": 10452,
  "gift@@": 10453,
  "gängig": 10454,
  "photo@@": 10455,
  "bänder": 10456,
  "sexuell": 10457,
  "dop@@": 10458,
  "zufälligen": 10459,
  "begegnung": 10460,
  "affe": 10461,
  "reiz@@": 10462,
  "rinde": 10463,
  "histor@@": 10464,
  "aufen": 10465,
  "autonom@@": 10466,
  "kontinenten": 10467,
  "umgewandelt": 10468,
  "thunfische": 10469,
  "männlichen": 10470,
  "erholen": 10471,
  "schnellsten": 10472,
  "anz@@": 10473,
  "mobiltelefone": 10474,
  "standes": 10475,
  "leidenschaften": 10476,
  "robu@@": 10477,
  "sprodu@@": 10478,
  "psychische": 10479,
  "betrei@@": 10480,
  "alan": 10481,
  "glu@@": 10482,
  "athle@@": 10483,
  "yor@@": 10484,
  "außerordentlich": 10485,
  "lähmung": 10486,
  "psychiat@@": 10487,
  "solle": 10488,
  "manö@@": 10489,
  "jungfrau": 10490,
  "fundamentalen": 10491,
  "hlich": 10492,
  "konsum@@": 10493,
  "wohltä@@": 10494,
  "beruht": 10495,
  "lebenszeit": 10496,
  "außerordent@@": 10497,
  "dauern@@": 10498,
  "vornehmen": 10499,
  "zide": 10500,
  "resistenz": 10501,
  "kompromis@@": 10502,
  "leib": 10503,
  "gela@@": 10504,
  "12.": 10505,
  "60.000": 10506,
  "wandert": 10507,
  "wußte": 10508,
  "7.@@": 10509,
  "rey": 10510,
  "abstrakte": 10511,
  "volumen": 10512,
  "selbstmord": 10513,
  "stau": 10514,
  "erwachsener": 10515,
  "behandlungs@@": 10516,
  "optische": 10517,
  "glücks": 10518,
  "erfassung": 10519,
  "eingesch@@": 10520,
  "erfolgreichen": 10521,
  "beschädigt": 10522,
  "weisst": 10523,
  "netzwerks": 10524,
  "under@@": 10525,
  "lädt": 10526,
  "andes": 10527,
  "julia": 10528,
  "doppelte": 10529,
  "leitete": 10530,
  "drang": 10531,
  "professoren": 10532,
  "unternommen": 10533,
  "imitieren": 10534,
  "professionelle": 10535,
  "dete@@": 10536,
  "zwangsläufig": 10537,
  "wissenschaftlicher": 10538,
  "unabhängi@@": 10539,
  "europä@@": 10540,
  "shi@@": 10541,
  "drittes": 10542,
  "waschmaschine": 10543,
  "körner": 10544,
  "wirkungen": 10545,
  "dreck@@": 10546,
  "qual@@": 10547,
  "zin": 10548,
  "verlangsamen": 10549,
  "folien": 10550,
  "gler": 10551,
  "millimeter": 10552,
  "server": 10553,
  "befestigt": 10554,
  "gon@@": 10555,
  "charakteri@@": 10556,
  "langfristig": 10557,
  "anbauen": 10558,
  "angemessen": 10559,
  "lego": 10560,
  "asia@@": 10561,
  "zwin@@": 10562,
  "taube": 10563,
  "wortwörtlich": 10564,
  "chromosomen": 10565,
  "symph@@": 10566,
  "konzer@@": 10567,
  "lux@@": 10568,
  "vergleichbar": 10569,
  "trick@@": 10570,
  "ungs": 10571,
  "erdn@@": 10572,
  "rosa": 10573,
  "bestä@@": 10574,
  "glühbirne": 10575,
  "vorles@@": 10576,
  "höf@@": 10577,
  "pper": 10578,
  "kambodscha": 10579,
  "-syndrom": 10580,
  "tank@@": 10581,
  "mathe": 10582,
  "stühle": 10583,
  "ähnelt": 10584,
  "kurven": 10585,
  "raster": 10586,
  "ali": 10587,
  "beispiel@@": 10588,
  "einfachsten": 10589,
  "erfolge": 10590,
  "blühen": 10591,
  "feier@@": 10592,
  "formation": 10593,
  "striert": 10594,
  "möglichst": 10595,
  "inta@@": 10596,
  "posten": 10597,
  "älterer": 10598,
  "weitgehend": 10599,
  "berkeley": 10600,
  "pier@@": 10601,
  "vitamin": 10602,
  "rebel@@": 10603,
  "schwim@@": 10604,
  "keni@@": 10605,
  "journalismus": 10606,
  "gewässer": 10607,
  "fortzu@@": 10608,
  "unheimlich": 10609,
  "ler-@@": 10610,
  "atlanta": 10611,
  "waisen@@": 10612,
  "unde": 10613,
  "cu@@": 10614,
  "massa@@": 10615,
  "wäl@@": 10616,
  "anfangs": 10617,
  "engagieren": 10618,
  "ungsa@@": 10619,
  "satz@@": 10620,
  "wohingegen": 10621,
  "frustration": 10622,
  "fahrt@@": 10623,
  "ansammlung": 10624,
  "satzes": 10625,
  "glied@@": 10626,
  "vermächtnis": 10627,
  "pittsburgh": 10628,
  "triebene": 10629,
  "beute": 10630,
  "südlichen": 10631,
  "botschaften": 10632,
  "tzung": 10633,
  "gestör@@": 10634,
  "aufwachen": 10635,
  "geringsten": 10636,
[...]
