{
  "<PAD>": 0,
  "<SOS>": 1,
  "<EOS>": 2,
  "<UNK>": 3,
  ",": 4,
  ".": 5,
  "the": 6,
  "and": 7,
  "to": 8,
  "of": 9,
  "a": 10,
  "that": 11,
  "i": 12,
  "it": 13,
  "in": 14,
  "you": 15,
  "is": 16,
  "we": 17,
  "&apos;s": 18,
  "this": 19,
  "so": 20,
  "&quot;": 21,
  "they": 22,
  "was": 23,
  "for": 24,
  "are": 25,
  "have": 26,
  "what": 27,
  "on": 28,
  "but": 29,
  "--": 30,
  "with": 31,
  "?": 32,
  "can": 33,
  "&apos;t": 34,
  "there": 35,
  "about": 36,
  "be": 37,
  "as": 38,
  "all": 39,
  "at": 40,
  "do": 41,
  "not": 42,
  "one": 43,
  "&apos;re": 44,
  "my": 45,
  "people": 46,
  "like": 47,
  "from": 48,
  "if": 49,
  "he": 50,
  "an": 51,
  "now": 52,
  "these": 53,
  "just": 54,
  ":": 55,
  "or": 56,
  "our": 57,
  "very": 58,
  "because": 59,
  "when": 60,
  "out": 61,
  "how": 62,
  "me": 63,
  "know": 64,
  "by": 65,
  "up": 66,
  "them": 67,
  "going": 68,
  "here": 69,
  "see": 70,
  "think": 71,
  "more": 72,
  "had": 73,
  "which": 74,
  "your": 75,
  "really": 76,
  "get": 77,
  "were": 78,
  "then": 79,
  "who": 80,
  "&apos;ve": 81,
  "would": 82,
  "their": 83,
  "&apos;m": 84,
  "us": 85,
  "some": 86,
  "world": 87,
  "time": 88,
  "don": 89,
  "actually": 90,
  "has": 91,
  "into": 92,
  "way": 93,
  "things": 94,
  "years": 95,
  "will": 96,
  "well": 97,
  "no": 98,
  "go": 99,
  "where": 100,
  "other": 101,
  "want": 102,
  "said": 103,
  "could": 104,
  "make": 105,
  "been": 106,
  "right": 107,
  "something": 108,
  "she": 109,
  "first": 110,
  "two": 111,
  "look": 112,
  "those": 113,
  "thing": 114,
  "little": 115,
  "than": 116,
  "got": 117,
  "also": 118,
  "his": 119,
  "new": 120,
  "much": 121,
  "back": 122,
  "say": 123,
  "most": 124,
  "life": 125,
  "over": 126,
  "work": 127,
  "only": 128,
  "take": 129,
  "even": 130,
  "did": 131,
  "need": 132,
  "kind": 133,
  "many": 134,
  "good": 135,
  "lot": 136,
  "why": 137,
  "around": 138,
  "&apos;ll": 139,
  "let": 140,
  "down": 141,
  ";": 142,
  "different": 143,
  "every": 144,
  "come": 145,
  "her": 146,
  "use": 147,
  "through": 148,
  "same": 149,
  "doing": 150,
  "put": 151,
  "being": 152,
  "three": 153,
  "day": 154,
  "called": 155,
  "any": 156,
  "able": 157,
  "percent": 158,
  "made": 159,
  "great": 160,
  "&apos;d": 161,
  "today": 162,
  "tell": 163,
  "after": 164,
  "year": 165,
  "talk": 166,
  "another": 167,
  "its": 168,
  "human": 169,
  "big": 170,
  "didn": 171,
  "change": 172,
  "re@@": 173,
  "last": 174,
  "went": 175,
  "find": 176,
  "fact": 177,
  "started": 178,
  "should": 179,
  "ed": 180,
  "idea": 181,
  "own": 182,
  "before": 183,
  "thought": 184,
  "give": 185,
  "never": 186,
  "course": 187,
  "thank": 188,
  "story": 189,
  "in@@": 190,
  "again": 191,
  "off": 192,
  "important": 193,
  "does": 194,
  "problem": 195,
  "him": 196,
  "show": 197,
  "better": 198,
  "start": 199,
  "next": 200,
  "ago": 201,
  "system": 202,
  "still": 203,
  "part": 204,
  "came": 205,
  "together": 206,
  "un@@": 207,
  "might": 208,
  "brain": 209,
  "technology": 210,
  "bit": 211,
  "each": 212,
  "used": 213,
  "place": 214,
  "water": 215,
  "few": 216,
  "long": 217,
  "es": 218,
  "mean": 219,
  "end": 220,
  "between": 221,
  "too": 222,
  "looking": 223,
  "question": 224,
  "doesn": 225,
  "done": 226,
  "love": 227,
  "-@@": 228,
  "point": 229,
  "found": 230,
  "ing": 231,
  "maybe": 232,
  "man": 233,
  "example": 234,
  "sort": 235,
  "children": 236,
  "wanted": 237,
  "whole": 238,
  "school": 239,
  "million": 240,
  "data": 241,
  "understand": 242,
  "ted": 243,
  "&apos;": 244,
  "real": 245,
  "four": 246,
  "less": 247,
  "may": 248,
  "away": 249,
  "live": 250,
  "always": 251,
  "try": 252,
  "call": 253,
  "everything": 254,
  "ever": 255,
  "women": 256,
  "money": 257,
  "believe": 258,
  "feel": 259,
  "10": 260,
  "working": 261,
  "five": 262,
  "trying": 263,
  "kids": 264,
  "using": 265,
  "second": 266,
  "person": 267,
  "space": 268,
  "design": 269,
  "power": 270,
  "country": 271,
  "old": 272,
  "number": 273,
  "!": 274,
  "times": 275,
  "took": 276,
  "help": 277,
  "light": 278,
  "am": 279,
  "thinking": 280,
  "food": 281,
  "quite": 282,
  "means": 283,
  "information": 284,
  "create": 285,
  "become": 286,
  "probably": 287,
  "small": 288,
  "s": 289,
  "energy": 290,
  "enough": 291,
  "comes": 292,
  "future": 293,
  "getting": 294,
  "happened": 295,
  "building": 296,
  "best": 297,
  "o@@": 298,
  "making": 299,
  "without": 300,
  "sense": 301,
  "left": 302,
  "interesting": 303,
  "africa": 304,
  "play": 305,
  "body": 306,
  "stuff": 307,
  "home": 308,
  "talking": 309,
  "says": 310,
  "dollars": 311,
  "pretty": 312,
  "side": 313,
  "anything": 314,
  "social": 315,
  "goes": 316,
  "coming": 317,
  "ask": 318,
  "earth": 319,
  "city": 320,
  "simple": 321,
  "y": 322,
  "science": 323,
  "makes": 324,
  "ways": 325,
  "ated": 326,
  "else": 327,
  "told": 328,
  "picture": 329,
  "happen": 330,
  "room": 331,
  "living": 332,
  "de@@": 333,
  "saw": 334,
  "across": 335,
  "yet": 336,
  "lives": 337,
  "seen": 338,
  "half": 339,
  "happens": 340,
  "once": 341,
  "basically": 342,
  "imagine": 343,
  "dis@@": 344,
  "okay": 345,
  "project": 346,
  "bad": 347,
  "hard": 348,
  "countries": 349,
  "days": 350,
  "move": 351,
  "asked": 352,
  "20": 353,
  "such": 354,
  "build": 355,
  "health": 356,
  "inside": 357,
  "al": 358,
  "having": 359,
  "family": 360,
  "experience": 361,
  "s@@": 362,
  "case": 363,
  "problems": 364,
  "everybody": 365,
  "moment": 366,
  "c@@": 367,
  "care": 368,
  "high": 369,
  "ideas": 370,
  "learn": 371,
  "book": 372,
  "while": 373,
  "later": 374,
  "line": 375,
  "o": 376,
  "t@@": 377,
  "ok": 378,
  "reason": 379,
  "almost": 380,
  "nothing": 381,
  "six": 382,
  "e@@": 383,
  "a@@": 384,
  "car": 385,
  "set": 386,
  "process": 387,
  "billion": 388,
  "business": 389,
  "young": 390,
  "looks": 391,
  "di@@": 392,
  "both": 393,
  "states": 394,
  "hand": 395,
  "computer": 396,
  "planet": 397,
  "mind": 398,
  "age": 399,
  "wrong": 400,
  "men": 401,
  "er": 402,
  "single": 403,
  "remember": 404,
  "within": 405,
  "global": 406,
  "con@@": 407,
  "co@@": 408,
  "child": 409,
  "history": 410,
  "true": 411,
  "guy": 412,
  "en@@": 413,
  "cells": 414,
  "far": 415,
  "oh": 416,
  "ts": 417,
  "saying": 418,
  "already": 419,
  "yes": 420,
  "top": 421,
  "sure": 422,
  "li@@": 423,
  "form": 424,
  "ers": 425,
  "ma@@": 426,
  "ti@@": 427,
  "music": 428,
  "war": 429,
  "ating": 430,
  "heard": 431,
  "cancer": 432,
  "looked": 433,
  "answer": 434,
  "keep": 435,
  "possible": 436,
  "nature": 437,
  "matter": 438,
  "hope": 439,
  "art": 440,
  "bring": 441,
  "video": 442,
  "beautiful": 443,
  "often": 444,
  "months": 445,
  "universe": 446,
  "built": 447,
  "g@@": 448,
  "face": 449,
  "india": 450,
  "red": 451,
  "piece": 452,
  "isn": 453,
  "under": 454,
  "amazing": 455,
  "read": 456,
  "open": 457,
  "god": 458,
  "works": 459,
  "sometimes": 460,
  "ro@@": 461,
  "since": 462,
  "per": 463,
  "united": 464,
  "d@@": 465,
  "decided": 466,
  "words": 467,
  "someone": 468,
  "myself": 469,
  "...": 470,
  "species": 471,
  "education": 472,
  "until": 473,
  "ate": 474,
  "y@@": 475,
  "whether": 476,
  "couple": 477,
  "ation": 478,
  "ting": 479,
  "yeah": 480,
  "group": 481,
  "places": 482,
  "instead": 483,
  "p@@": 484,
  "stories": 485,
  "turn": 486,
  "mother": 487,
  "exactly": 488,
  "u@@": 489,
  "taking": 490,
  "control": 491,
  "state": 492,
  "p": 493,
  "language": 494,
  "head": 495,
  "gets": 496,
  "completely": 497,
  "order": 498,
  "turns": 499,
  "research": 500,
  "word": 501,
  "everyone": 502,
  "30": 503,
  "i@@": 504,
  "though": 505,
  "government": 506,
  "community": 507,
  "must": 508,
  "middle": 509,
  "job": 510,
  "50": 511,
  "public": 512,
  "internet": 513,
  "wasn": 514,
  "ourselves": 515,
  "minutes": 516,
  "somebody": 517,
  "itself": 518,
  "house": 519,
  "stop": 520,
  "third": 521,
  "kinds": 522,
  "level": 523,
  "heart": 524,
  "news": 525,
  "woman": 526,
  "became": 527,
  "animals": 528,
  "america": 529,
  "happening": 530,
  "themselves": 531,
  "run": 532,
  "model": 533,
  "happy": 534,
  "company": 535,
  "large": 536,
  "100": 537,
  "ous": 538,
  "rather": 539,
  "huge": 540,
  "e": 541,
  "share": 542,
  "students": 543,
  "night": 544,
  "environment": 545,
  "name": 546,
  "study": 547,
  "learned": 548,
  "ones": 549,
  "oil": 550,
  "china": 551,
  "guys": 552,
  "friends": 553,
  "american": 554,
  "sound": 555,
  "natural": 556,
  "hear": 557,
  "ar@@": 558,
  "along": 559,
  "won": 560,
  "game": 561,
  "land": 562,
  "hours": 563,
  "front": 564,
  "ly": 565,
  "knew": 566,
  "created": 567,
  "couldn": 568,
  "pro@@": 569,
  "worked": 570,
  "learning": 571,
  "lots": 572,
  "questions": 573,
  "gave": 574,
  "king": 575,
  "ability": 576,
  "se@@": 577,
  "century": 578,
  "ri@@": 579,
  "air": 580,
  "&#93;": 581,
  "machine": 582,
  "perhaps": 583,
  "&#91;": 584,
  "during": 585,
  "against": 586,
  "society": 587,
  "b@@": 588,
  "finally": 589,
  "disease": 590,
  "particular": 591,
  "ocean": 592,
  "moving": 593,
  "takes": 594,
  "ding": 595,
  "ch@@": 596,
  "area": 597,
  "difference": 598,
  "early": 599,
  "others": 600,
  "figure": 601,
  "v@@": 602,
  "past": 603,
  "wonderful": 604,
  "needs": 605,
  "free": 606,
  "least": 607,
  "le@@": 608,
  "taken": 609,
  "seven": 610,
  "based": 611,
  "k": 612,
  "entire": 613,
  "ds": 614,
  "outside": 615,
  "po@@": 616,
  "systems": 617,
  "ra@@": 618,
  "close": 619,
  "l@@": 620,
  "thousands": 621,
  "c": 622,
  "easy": 623,
  "changed": 624,
  "view": 625,
  "interested": 626,
  "parts": 627,
  "population": 628,
  "ded": 629,
  "m@@": 630,
  "le": 631,
  "cannot": 632,
  "t": 633,
  "lo@@": 634,
  "shows": 635,
  "turned": 636,
  "green": 637,
  "given": 638,
  "yourself": 639,
  "beginning": 640,
  "leave": 641,
  "market": 642,
  "image": 643,
  "r@@": 644,
  "culture": 645,
  "cell": 646,
  "eight": 647,
  "scale": 648,
  "difficult": 649,
  "15": 650,
  "buy": 651,
  "behind": 652,
  "de": 653,
  "an@@": 654,
  "pre@@": 655,
  "b": 656,
  "grow": 657,
  "york": 658,
  "size": 659,
  "seeing": 660,
  "media": 661,
  "d": 662,
  "eyes": 663,
  "whatever": 664,
  "common": 665,
  "spend": 666,
  "test": 667,
  "walk": 668,
  "self-@@": 669,
  "needed": 670,
  "bu@@": 671,
  "car@@": 672,
  "week": 673,
  "audience": 674,
  "powerful": 675,
  "as@@": 676,
  "began": 677,
  "born": 678,
  "black": 679,
  "si@@": 680,
  "fish": 681,
  "certain": 682,
  "al@@": 683,
  "led": 684,
  "economic": 685,
  "tried": 686,
  "paper": 687,
  "u.s.": 688,
  "terms": 689,
  "father": 690,
  "gone": 691,
  "full": 692,
  "inter@@": 693,
  "cities": 694,
  "be@@": 695,
  "team": 696,
  "center": 697,
  "death": 698,
  "longer": 699,
  "parents": 700,
  "te": 701,
  "local": 702,
  "ant": 703,
  "im@@": 704,
  "simply": 705,
  "incredible": 706,
  "amount": 707,
  "humans": 708,
  "cost": 709,
  "ac@@": 710,
  "son": 711,
  "hands": 712,
  "growth": 713,
  "feet": 714,
  "rest": 715,
  "stage": 716,
  "field": 717,
  "structure": 718,
  "known": 719,
  "ni@@": 720,
  "complex": 721,
  "spent": 722,
  "watch": 723,
  "deal": 724,
  "ons": 725,
  "step": 726,
  "realized": 727,
  "over@@": 728,
  "l": 729,
  "books": 730,
  "national": 731,
  "girl": 732,
  "south": 733,
  "n@@": 734,
  "surface": 735,
  "quickly": 736,
  "bo@@": 737,
  "force": 738,
  "friend": 739,
  "value": 740,
  "blue": 741,
  "wouldn": 742,
  "white": 743,
  "animal": 744,
  "pay": 745,
  "eat": 746,
  "dna": 747,
  "sea": 748,
  "ground": 749,
  "lost": 750,
  "sitting": 751,
  "companies": 752,
  "m": 753,
  "reality": 754,
  "ates": 755,
  "la@@": 756,
  "fun": 757,
  "either": 758,
  "felt": 759,
  "or@@": 760,
  "patients": 761,
  "write": 762,
  "weeks": 763,
  "am@@": 764,
  "behavior": 765,
  "fly": 766,
  "nice": 767,
  "ine": 768,
  "rate": 769,
  "brought": 770,
  "wrote": 771,
  "40": 772,
  "ta@@": 773,
  "act": 774,
  "miles": 775,
  "k@@": 776,
  "late": 777,
  "opportunity": 778,
  "changes": 779,
  "feeling": 780,
  "die": 781,
  "cut": 782,
  "growing": 783,
  "patient": 784,
  "average": 785,
  "economy": 786,
  "theory": 787,
  "poor": 788,
  "speak": 789,
  "for@@": 790,
  "pa@@": 791,
  "anyone": 792,
  "political": 793,
  "scientists": 794,
  "als": 795,
  "tions": 796,
  "technologies": 797,
  "h@@": 798,
  "ice": 799,
  "developed": 800,
  "numbers": 801,
  "sa@@": 802,
  "met": 803,
  "street": 804,
  "op@@": 805,
  "material": 806,
  "h": 807,
  "mo@@": 808,
  "th@@": 809,
  "bottom": 810,
  "images": 811,
  "seems": 812,
  "tic": 813,
  "du@@": 814,
  "short": 815,
  "sts": 816,
  "discovered": 817,
  "es@@": 818,
  "ings": 819,
  "nobody": 820,
  "starting": 821,
  "program": 822,
  "morning": 823,
  "on@@": 824,
  "running": 825,
  "forward": 826,
  "th": 827,
  "ves": 828,
  "attention": 829,
  "ab@@": 830,
  "pe@@": 831,
  "gives": 832,
  "playing": 833,
  "f@@": 834,
  "sh@@": 835,
  "giving": 836,
  "ses": 837,
  "literally": 838,
  "ist": 839,
  "physical": 840,
  "deep": 841,
  "shape": 842,
  "absolutely": 843,
  "personal": 844,
  "movement": 845,
  "map": 846,
  "english": 847,
  "alone": 848,
  "challenge": 849,
  "per@@": 850,
  "realize": 851,
  "climate": 852,
  "key": 853,
  "telling": 854,
  "recently": 855,
  "te@@": 856,
  "areas": 857,
  "ex@@": 858,
  "uses": 859,
  "film": 860,
  "anybody": 861,
  "cars": 862,
  "knowledge": 863,
  "individual": 864,
  "under@@": 865,
  "north": 866,
  "obviously": 867,
  "seem": 868,
  "he@@": 869,
  "g": 870,
  "ent": 871,
  "ze": 872,
  "knows": 873,
  "incredibly": 874,
  "died": 875,
  "vi@@": 876,
  "hold": 877,
  "blood": 878,
  "fast": 879,
  "sun": 880,
  "changing": 881,
  "focus": 882,
  "st@@": 883,
  "ve": 884,
  "issue": 885,
  "industry": 886,
  "ty": 887,
  "dark": 888,
  "der": 889,
  "cool": 890,
  "relationship": 891,
  "x": 892,
  "phone": 893,
  "ans": 894,
  "n": 895,
  "no@@": 896,
  "mon@@": 897,
  "creating": 898,
  "designed": 899,
  "normal": 900,
  "mi@@": 901,
  "showed": 902,
  "chinese": 903,
  "kid": 904,
  "understanding": 905,
  "lab": 906,
  "university": 907,
  "product": 908,
  "compassion": 909,
  "guess": 910,
  "law": 911,
  "please": 912,
  "girls": 913,
  "result": 914,
  "ad@@": 915,
  "hundreds": 916,
  "save": 917,
  "modern": 918,
  "wall": 919,
  "gra@@": 920,
  "millions": 921,
  "haven": 922,
  "clear": 923,
  "games": 924,
  "ary": 925,
  "meet": 926,
  "pi@@": 927,
  "effect": 928,
  "tools": 929,
  "box": 930,
  "talked": 931,
  "low": 932,
  "development": 933,
  "experiment": 934,
  "class": 935,
  "com@@": 936,
  "revolution": 937,
  "begin": 938,
  "support": 939,
  "generation": 940,
  "tiny": 941,
  "stand": 942,
  "ho@@": 943,
  "mar@@": 944,
  "west": 945,
  "evolution": 946,
  "happiness": 947,
  "12": 948,
  "ors": 949,
  "developing": 950,
  "e-@@": 951,
  "hour": 952,
  "access": 953,
  "ha@@": 954,
  "perfect": 955,
  "produce": 956,
  "web": 957,
  "cu@@": 958,
  "out@@": 959,
  "solution": 960,
  "ar": 961,
  "innovation": 962,
  "europe": 963,
  "beyond": 964,
  "available": 965,
  "bed": 966,
  "color": 967,
  "teach": 968,
  "pictures": 969,
  "especially": 970,
  "vision": 971,
  "bi@@": 972,
  "becomes": 973,
  "ment": 974,
  "east": 975,
  "to@@": 976,
  "online": 977,
  "medical": 978,
  "action": 979,
  "voice": 980,
  "writing": 981,
  "lived": 982,
  "par@@": 983,
  "major": 984,
  "computers": 985,
  "table": 986,
  "boy": 987,
  "type": 988,
  "explain": 989,
  "drive": 990,
  "solve": 991,
  "groups": 992,
  "allow": 993,
  "towards": 994,
  "aren": 995,
  "situation": 996,
  "reasons": 997,
  "d-@@": 998,
  "u": 999,
  "resources": 1000,
  "materials": 1001,
  "er@@": 1002,
  "office": 1003,
  "w": 1004,
  "worth": 1005,
  "25": 1006,
  "teachers": 1007,
  "special": 1008,
  "similar": 1009,
  "several": 1010,
  "ness": 1011,
  "dead": 1012,
  "z@@": 1013,
  "zed": 1014,
  "digital": 1015,
  "ci@@": 1016,
  "starts": 1017,
  "se": 1018,
  "robot": 1019,
  "j@@": 1020,
  "network": 1021,
  "present": 1022,
  "device": 1023,
  "fall": 1024,
  "rules": 1025,
  "fear": 1026,
  "ru@@": 1027,
  "bigger": 1028,
  "notice": 1029,
  "wind": 1030,
  "w@@": 1031,
  "ge@@": 1032,
  "certainly": 1033,
  "baby": 1034,
  "putting": 1035,
  "me@@": 1036,
  "evidence": 1037,
  "sounds": 1038,
  "everywhere": 1039,
  "sc@@": 1040,
  "quality": 1041,
  "do@@": 1042,
  "ks": 1043,
  "fi@@": 1044,
  "mass": 1045,
  "indeed": 1046,
  "ne@@": 1047,
  "nine": 1048,
  "general": 1049,
  "hundred": 1050,
  "security": 1051,
  "risk": 1052,
  "super@@": 1053,
  "chance": 1054,
  "ic": 1055,
  "non-@@": 1056,
  "wi@@": 1057,
  "soon": 1058,
  "truth": 1059,
  "activity": 1060,
  "wait": 1061,
  "forms": 1062,
  "scientific": 1063,
  "wants": 1064,
  "ties": 1065,
  "schools": 1066,
  "ce": 1067,
  "grew": 1068,
  "suddenly": 1069,
  "impact": 1070,
  "gu@@": 1071,
  "asking": 1072,
  "door": 1073,
  "eye": 1074,
  "examples": 1075,
  "listen": 1076,
  "month": 1077,
  "ity": 1078,
  "ca@@": 1079,
  "ck": 1080,
  "village": 1081,
  "involved": 1082,
  "choice": 1083,
  "su@@": 1084,
  "ally": 1085,
  "anyway": 1086,
  "moral": 1087,
  "skin": 1088,
  "road": 1089,
  "stay": 1090,
  "exciting": 1091,
  "ct": 1092,
  "basic": 1093,
  "ready": 1094,
  "is@@": 1095,
  "version": 1096,
  "message": 1097,
  "ged": 1098,
  "minute": 1099,
  "ction": 1100,
  "walking": 1101,
  "tra@@": 1102,
  "moved": 1103,
  "sing": 1104,
  "wish": 1105,
  "sub@@": 1106,
  "tion": 1107,
  "board": 1108,
  "issues": 1109,
  "at@@": 1110,
  "pattern": 1111,
  "ps": 1112,
  "student": 1113,
  "extremely": 1114,
  "hi@@": 1115,
  "college": 1116,
  "gas": 1117,
  "so@@": 1118,
  "totally": 1119,
  "solar": 1120,
  "biggest": 1121,
  "cor@@": 1122,
  "ling": 1123,
  "potential": 1124,
  "est": 1125,
  "further": 1126,
  "plants": 1127,
  "hiv": 1128,
  "mine": 1129,
  "smart": 1130,
  "page": 1131,
  "projects": 1132,
  "sp@@": 1133,
  "hospital": 1134,
  "les": 1135,
  "largest": 1136,
  "particularly": 1137,
  "ended": 1138,
  "showing": 1139,
  "break": 1140,
  "speed": 1141,
  "object": 1142,
  "hit": 1143,
  "software": 1144,
  "ge": 1145,
  "us@@": 1146,
  "pick": 1147,
  "journey": 1148,
  "connected": 1149,
  "man@@": 1150,
  "code": 1151,
  "carbon": 1152,
  "um": 1153,
  "onto": 1154,
  "ms": 1155,
  "wa@@": 1156,
  "fire": 1157,
  "measure": 1158,
  "mu@@": 1159,
  "points": 1160,
  "reach": 1161,
  "medicine": 1162,
  "send": 1163,
  "add": 1164,
  "sit": 1165,
  "nuclear": 1166,
  "follow": 1167,
  "lead": 1168,
  "strong": 1169,
  "y-@@": 1170,
  "plan": 1171,
  "google": 1172,
  "tells": 1173,
  "named": 1174,
  "african": 1175,
  "zing": 1176,
  "organization": 1177,
  "rich": 1178,
  "visual": 1179,
  "den@@": 1180,
  "teacher": 1181,
  "extraordinary": 1182,
  "mom": 1183,
  "peace": 1184,
  "positive": 1185,
  "develop": 1186,
  "el@@": 1187,
  "democracy": 1188,
  "usually": 1189,
  "list": 1190,
  "ches": 1191,
  "el": 1192,
  "continue": 1193,
  "expensive": 1194,
  "ations": 1195,
  "buildings": 1196,
  "doctor": 1197,
  "serious": 1198,
  "poverty": 1199,
  "likely": 1200,
  "watching": 1201,
  "fantastic": 1202,
  "success": 1203,
  "biology": 1204,
  "among": 1205,
  "electricity": 1206,
  "larger": 1207,
  "60": 1208,
  "lose": 1209,
  "expect": 1210,
  "lines": 1211,
  "international": 1212,
  "fully": 1213,
  "tional": 1214,
  "except": 1215,
  "goal": 1216,
  "ph@@": 1217,
  "sent": 1218,
  "200": 1219,
  "trees": 1220,
  "objects": 1221,
  "safe": 1222,
  "essentially": 1223,
  "fl@@": 1224,
  "series": 1225,
  "period": 1226,
  "movie": 1227,
  "ver@@": 1228,
  "ship": 1229,
  "standing": 1230,
  "em@@": 1231,
  "seconds": 1232,
  "david": 1233,
  "foot": 1234,
  "perspective": 1235,
  "eventually": 1236,
  "mis@@": 1237,
  "ism": 1238,
  "ging": 1239,
  "results": 1240,
  "killed": 1241,
  "traditional": 1242,
  "higher": 1243,
  "written": 1244,
  "himself": 1245,
  "thousand": 1246,
  "beauty": 1247,
  "wife": 1248,
  "somewhere": 1249,
  "products": 1250,
  "fine": 1251,
  "ir@@": 1252,
  "conditions": 1253,
  "cause": 1254,
  "complicated": 1255,
  "crazy": 1256,
  "sorts": 1257,
  "impossible": 1258,
  "it@@": 1259,
  "response": 1260,
  "mental": 1261,
  "go@@": 1262,
  "shot": 1263,
  "da@@": 1264,
  "leaders": 1265,
  "approach": 1266,
  "site": 1267,
  "spread": 1268,
  "stars": 1269,
  "bs": 1270,
  "cr@@": 1271,
  "architecture": 1272,
  "upon": 1273,
  "screen": 1274,
  "creative": 1275,
  "80": 1276,
  "jobs": 1277,
  "older": 1278,
  "allowed": 1279,
  "ste@@": 1280,
  "har@@": 1281,
  "ch": 1282,
  "/": 1283,
  "sex": 1284,
  "source": 1285,
  "tree": 1286,
  "bacteria": 1287,
  "favorite": 1288,
  "tu@@": 1289,
  "individuals": 1290,
  "pieces": 1291,
  "11": 1292,
  "camera": 1293,
  "cts": 1294,
  "thanks": 1295,
  "military": 1296,
  "des@@": 1297,
  "kept": 1298,
  "bar@@": 1299,
  "ur@@": 1300,
  "finding": 1301,
  "brains": 1302,
  "mor@@": 1303,
  "treatment": 1304,
  "somehow": 1305,
  "successful": 1306,
  "cted": 1307,
  "tes": 1308,
  "truly": 1309,
  "models": 1310,
  "tive": 1311,
  "excited": 1312,
  "position": 1313,
  "ou@@": 1314,
  "crisis": 1315,
  "context": 1316,
  "taught": 1317,
  "alive": 1318,
  "neurons": 1319,
  "war@@": 1320,
  "fe@@": 1321,
  "drugs": 1322,
  "—": 1323,
  "ars": 1324,
  "interest": 1325,
  "rise": 1326,
  "training": 1327,
  "shown": 1328,
  "zero": 1329,
  "worse": 1330,
  "supposed": 1331,
  "western": 1332,
  "hu@@": 1333,
  "faster": 1334,
  "above": 1335,
  "reading": 1336,
  "role": 1337,
  "meaning": 1338,
  "dance": 1339,
  "physics": 1340,
  "famous": 1341,
  "tool": 1342,
  "tri@@": 1343,
  "ality": 1344,
  "connect": 1345,
  "beings": 1346,
  "touch": 1347,
  "concept": 1348,
  "kill": 1349,
  "500": 1350,
  "therefore": 1351,
  "region": 1352,
  "weight": 1353,
  "hey": 1354,
  "fundamental": 1355,
  "main": 1356,
  "18": 1357,
  "genes": 1358,
  "dream": 1359,
  "virus": 1360,
  "including": 1361,
  "trust": 1362,
  "progress": 1363,
  "meant": 1364,
  "active": 1365,
  "choose": 1366,
  "mer@@": 1367,
  "gi@@": 1368,
  "ess": 1369,
  "ma": 1370,
  "communities": 1371,
  "central": 1372,
  "town": 1373,
  "drug": 1374,
  "throughout": 1375,
  "earlier": 1376,
  "families": 1377,
  "fight": 1378,
  "invented": 1379,
  "clearly": 1380,
  "dy": 1381,
  "ble": 1382,
  "sive": 1383,
  "costs": 1384,
  "service": 1385,
  "however": 1386,
  "americans": 1387,
  "pain": 1388,
  "store": 1389,
  "dangerous": 1390,
  "legs": 1391,
  "sell": 1392,
  "strange": 1393,
  "ten@@": 1394,
  "machines": 1395,
  "hot": 1396,
  "record": 1397,
  "smaller": 1398,
  "studies": 1399,
  "ces": 1400,
  "aid": 1401,
  "ce@@": 1402,
  "2@@": 1403,
  "bunch": 1404,
  "ving": 1405,
  "slow": 1406,
  "content": 1407,
  "ance": 1408,
  "familiar": 1409,
  "plastic": 1410,
  "bl@@": 1411,
  "can@@": 1412,
  "price": 1413,
  "res@@": 1414,
  "ad": 1415,
  "actual": 1416,
  "sky": 1417,
  "policy": 1418,
  "income": 1419,
  "sha@@": 1420,
  "et@@": 1421,
  "ants": 1422,
  "18@@": 1423,
  "increase": 1424,
  "qu@@": 1425,
  "il": 1426,
  "magic": 1427,
  "greater": 1428,
  "rights": 1429,
  "dog": 1430,
  "ments": 1431,
  "production": 1432,
  "na@@": 1433,
  "listening": 1434,
  "direction": 1435,
  "z": 1436,
  "although": 1437,
  "press": 1438,
  "dad": 1439,
  "unfortunately": 1440,
  "sted": 1441,
  "solutions": 1442,
  "tv": 1443,
  "square": 1444,
  "waiting": 1445,
  "robots": 1446,
  "high-@@": 1447,
  "1": 1448,
  "cases": 1449,
  "recognize": 1450,
  "healthy": 1451,
  "slide": 1452,
  "allows": 1453,
  "sting": 1454,
  "2": 1455,
  "waste": 1456,
  "driving": 1457,
  "cting": 1458,
  "walked": 1459,
  "immediately": 1460,
  "talks": 1461,
  "violence": 1462,
  "wing": 1463,
  "none": 1464,
  "connection": 1465,
  "flow": 1466,
  "x@@": 1467,
  "dollar": 1468,
  "arm": 1469,
  "skills": 1470,
  "train": 1471,
  "exist": 1472,
  "function": 1473,
  "ck@@": 1474,
  "surgery": 1475,
  "forget": 1476,
  "tend": 1477,
  "au@@": 1478,
  "specific": 1479,
  "comp@@": 1480,
  "intelligence": 1481,
  "conversation": 1482,
  "anymore": 1483,
  "sorry": 1484,
  "website": 1485,
  "range": 1486,
  "freedom": 1487,
  "des": 1488,
  "ced": 1489,
  "decisions": 1490,
  "win": 1491,
  "museum": 1492,
  "patterns": 1493,
  "ter": 1494,
  "consider": 1495,
  "math": 1496,
  "travel": 1497,
  "protect": 1498,
  "cra@@": 1499,
  "pull": 1500,
  "effective": 1501,
  "rule": 1502,
  "aware": 1503,
  "ran": 1504,
  "che@@": 1505,
  "wonder": 1506,
  "pping": 1507,
  "one-@@": 1508,
  "understood": 1509,
  "hole": 1510,
  "greatest": 1511,
  "draw": 1512,
  "bodies": 1513,
  "humanity": 1514,
  "star": 1515,
  "r": 1516,
  "current": 1517,
  "flying": 1518,
  "bio@@": 1519,
  "lower": 1520,
  "fy": 1521,
  "subject": 1522,
  "president": 1523,
  "cur@@": 1524,
  "plant": 1525,
  "ders": 1526,
  "survive": 1527,
  "glass": 1528,
  "remarkable": 1529,
  "useful": 1530,
  "ked": 1531,
  "fu@@": 1532,
  "genetic": 1533,
  "babies": 1534,
  "bri@@": 1535,
  "clean": 1536,
  "photograph": 1537,
  "john": 1538,
  "provide": 1539,
  "stick": 1540,
  "song": 1541,
  "anywhere": 1542,
  "performance": 1543,
  "critical": 1544,
  "cal": 1545,
  "cultural": 1546,
  "private": 1547,
  "weren": 1548,
  "obvious": 1549,
  "ved": 1550,
  "artist": 1551,
  "re-@@": 1552,
  "sal@@": 1553,
  "enormous": 1554,
  "massive": 1555,
  "bank": 1556,
  "practice": 1557,
  "cold": 1558,
  "environmental": 1559,
  "pen@@": 1560,
  "self": 1561,
  "il@@": 1562,
  "st": 1563,
  "mostly": 1564,
  "television": 1565,
  "ges": 1566,
  "religion": 1567,
  "mars": 1568,
  "ber@@": 1569,
  "loved": 1570,
  "conference": 1571,
  "evolved": 1572,
  "fuel": 1573,
  "teaching": 1574,
  "values": 1575,
  "played": 1576,
  "eating": 1577,
  "raise": 1578,
  "related": 1579,
  "doctors": 1580,
  "forces": 1581,
  "complete": 1582,
  "cover": 1583,
  "br@@": 1584,
  "politics": 1585,
  "3@@": 1586,
  "creativity": 1587,
  "minds": 1588,
  "becoming": 1589,
  "ke": 1590,
  "floor": 1591,
  "stic": 1592,
  "ba@@": 1593,
  "cre@@": 1594,
  "markets": 1595,
  "ctive": 1596,
  "various": 1597,
  "engineering": 1598,
  "gene": 1599,
  "ators": 1600,
  "dr.": 1601,
  "final": 1602,
  "lights": 1603,
  "et": 1604,
  "pped": 1605,
  "daughter": 1606,
  "ter@@": 1607,
  "temperature": 1608,
  "birds": 1609,
  "micro@@": 1610,
  "ws": 1611,
  "90": 1612,
  "ry": 1613,
  "ably": 1614,
  "up@@": 1615,
  "near": 1616,
  "search": 1617,
  "quick": 1618,
  "twice": 1619,
  "produced": 1620,
  "services": 1621,
  "passion": 1622,
  "sustainable": 1623,
  "cking": 1624,
  "mission": 1625,
  "feed": 1626,
  "consciousness": 1627,
  "island": 1628,
  "heat": 1629,
  "pass": 1630,
  "os": 1631,
  "slightly": 1632,
  "institutions": 1633,
  "ard": 1634,
  "possibly": 1635,
  "gers": 1636,
  "capacity": 1637,
  "decade": 1638,
  "path": 1639,
  "ga@@": 1640,
  "grade": 1641,
  "funny": 1642,
  "aids": 1643,
  "treat": 1644,
  "ahead": 1645,
  "speaking": 1646,
  "ster": 1647,
  "om@@": 1648,
  "unique": 1649,
  "types": 1650,
  "ser@@": 1651,
  "sat": 1652,
  "helped": 1653,
  "year-old": 1654,
  "instance": 1655,
  "bur@@": 1656,
  "discover": 1657,
  "causes": 1658,
  "re": 1659,
  "dri@@": 1660,
  "ins": 1661,
  "bra@@": 1662,
  "significant": 1663,
  "ely": 1664,
  "16": 1665,
  "her@@": 1666,
  "experiments": 1667,
  "ent@@": 1668,
  "genome": 1669,
  "afghanistan": 1670,
  "trans@@": 1671,
  "networks": 1672,
  "chris": 1673,
  "recent": 1674,
  "bought": 1675,
  "infrastructure": 1676,
  "character": 1677,
  "financial": 1678,
  "ver": 1679,
  "efficient": 1680,
  "mobile": 1681,
  "chemical": 1682,
  "nation": 1683,
  "moon": 1684,
  "societies": 1685,
  "shared": 1686,
  "designers": 1687,
  "charge": 1688,
  "push": 1689,
  "ancient": 1690,
  "hand@@": 1691,
  "degrees": 1692,
  "directly": 1693,
  "sign": 1694,
  "following": 1695,
  "original": 1696,
  "nu@@": 1697,
  "meeting": 1698,
  "fa@@": 1699,
  "tor@@": 1700,
  "vers": 1701,
  "sharing": 1702,
  "ying": 1703,
  "park": 1704,
  "extra": 1705,
  "terrible": 1706,
  "track": 1707,
  "medi@@": 1708,
  "communication": 1709,
  "worry": 1710,
  "focused": 1711,
  "purpose": 1712,
  "industrial": 1713,
  "workers": 1714,
  "below": 1715,
  "police": 1716,
  "carry": 1717,
  "london": 1718,
  "indian": 1719,
  "stri@@": 1720,
  "complexity": 1721,
  "jo@@": 1722,
  "dra@@": 1723,
  "phones": 1724,
  "secret": 1725,
  "cks": 1726,
  "term": 1727,
  "career": 1728,
  "straight": 1729,
  "summer": 1730,
  "pu@@": 1731,
  "300": 1732,
  "boys": 1733,
  "governments": 1734,
  "paid": 1735,
  "pressure": 1736,
  "ages": 1737,
  "trade": 1738,
  "ja@@": 1739,
  "emotional": 1740,
  "levels": 1741,
  "we@@": 1742,
  "inspired": 1743,
  "foundation": 1744,
  "biological": 1745,
  "birth": 1746,
  "ters": 1747,
  "ator": 1748,
  "willing": 1749,
  "mal@@": 1750,
  "ol@@": 1751,
  "artists": 1752,
  "capital": 1753,
  "whose": 1754,
  "fied": 1755,
  "diseases": 1756,
  "balance": 1757,
  "ah": 1758,
  "etc": 1759,
  "ically": 1760,
  "cli@@": 1761,
  "forth": 1762,
  "conflict": 1763,
  "meters": 1764,
  "sleep": 1765,
  "effects": 1766,
  "event": 1767,
  "closer": 1768,
  "creates": 1769,
  "ju@@": 1770,
  "min@@": 1771,
  "scientist": 1772,
  "differences": 1773,
  "oxygen": 1774,
  "urban": 1775,
  "bal@@": 1776,
  "ic@@": 1777,
  "structures": 1778,
  "challenges": 1779,
  "bor@@": 1780,
  "laws": 1781,
  "molecules": 1782,
  "dr@@": 1783,
  "memory": 1784,
  "drop": 1785,
  "apart": 1786,
  "trouble": 1787,
  "fit": 1788,
  "trial": 1789,
  "supply": 1790,
  ".@@": 1791,
  "ie": 1792,
  "text": 1793,
  "explore": 1794,
  "bill": 1795,
  "atmosphere": 1796,
  "pri@@": 1797,
  "t-@@": 1798,
  "ari@@": 1799,
  "dying": 1800,
  "vo@@": 1801,
  "yellow": 1802,
  "$": 1803,
  "ology": 1804,
  "particles": 1805,
  "blo@@": 1806,
  "stone": 1807,
  "ning": 1808,
  "spending": 1809,
  "asia": 1810,
  "rock": 1811,
  "devices": 1812,
  "published": 1813,
  "ap@@": 1814,
  "party": 1815,
  "ot@@": 1816,
  "broken": 1817,
  "ets": 1818,
  "organisms": 1819,
  "seemed": 1820,
  "colleagues": 1821,
  "radio": 1822,
  "10,000": 1823,
  "gh@@": 1824,
  "noticed": 1825,
  "graph": 1826,
  "easily": 1827,
  "worst": 1828,
  "california": 1829,
  "studying": 1830,
  "prison": 1831,
  "v": 1832,
  "hearing": 1833,
  "highly": 1834,
  "popular": 1835,
  "answers": 1836,
  "ful": 1837,
  "forest": 1838,
  "star@@": 1839,
  "total": 1840,
  "ctions": 1841,
  "tur@@": 1842,
  "ently": 1843,
  "da": 1844,
  "ct@@": 1845,
  "blind": 1846,
  "phenomenon": 1847,
  "turning": 1848,
  "passed": 1849,
  "electric": 1850,
  "decide": 1851,
  "decades": 1852,
  "condition": 1853,
  "lucky": 1854,
  "check": 1855,
  "bringing": 1856,
  "stopped": 1857,
  "necessarily": 1858,
  "choices": 1859,
  "fil@@": 1860,
  "stra@@": 1861,
  "3": 1862,
  "task": 1863,
  "agree": 1864,
  "ish": 1865,
  "communicate": 1866,
  "gs": 1867,
  "responsibility": 1868,
  "sli@@": 1869,
  "noise": 1870,
  "70": 1871,
  "iraq": 1872,
  "tremendous": 1873,
  "knowing": 1874,
  "print": 1875,
  "ul@@": 1876,
  "decision": 1877,
  "va@@": 1878,
  "surprising": 1879,
  "bird": 1880,
  "ig@@": 1881,
  "feels": 1882,
  "richard": 1883,
  "coffee": 1884,
  "mountain": 1885,
  "flo@@": 1886,
  "window": 1887,
  "1,000": 1888,
  "sed": 1889,
  "improve": 1890,
  "edge": 1891,
  "corner": 1892,
  "&amp;": 1893,
  "possibility": 1894,
  "engine": 1895,
  "leads": 1896,
  "achieve": 1897,
  "basis": 1898,
  "civil": 1899,
  "ia": 1900,
  "bas@@": 1901,
  "programs": 1902,
  "farmers": 1903,
  "helping": 1904,
  "return": 1905,
  "fix": 1906,
  "-year-old": 1907,
  "bone": 1908,
  "relationships": 1909,
  "throw": 1910,
  "argument": 1911,
  "nearly": 1912,
  "aging": 1913,
  "fairly": 1914,
  "brings": 1915,
  "fold": 1916,
  "gotten": 1917,
  "designer": 1918,
  "cent": 1919,
  "tissue": 1920,
  "two-@@": 1921,
  "address": 1922,
  "missing": 1923,
  "cul@@": 1924,
  "gen@@": 1925,
  "tics": 1926,
  "ke@@": 1927,
  "elements": 1928,
  "interact": 1929,
  "definition": 1930,
  "pl@@": 1931,
  "race": 1932,
  "typical": 1933,
  "ies": 1934,
  "giant": 1935,
  "4": 1936,
  "ball": 1937,
  "sk@@": 1938,
  "cally": 1939,
  "ton": 1940,
  "cal@@": 1941,
  "ian": 1942,
  "men@@": 1943,
  "reduce": 1944,
  "zation": 1945,
  "diversity": 1946,
  "figured": 1947,
  "gre@@": 1948,
  "14": 1949,
  "moments": 1950,
  "differently": 1951,
  "mothers": 1952,
  "standard": 1953,
  "flight": 1954,
  "imagination": 1955,
  "dly": 1956,
  "suffering": 1957,
  "opportunities": 1958,
  "river": 1959,
  "finished": 1960,
  "5": 1961,
  "benefits": 1962,
  "core": 1963,
  "held": 1964,
  "organizations": 1965,
  "join": 1966,
  "sion": 1967,
  "religious": 1968,
  "mark": 1969,
  "ously": 1970,
  "planets": 1971,
  "sta@@": 1972,
  "air@@": 1973,
  "landscape": 1974,
  "shift": 1975,
  "french": 1976,
  "hair": 1977,
  "professor": 1978,
  "net": 1979,
  "mouse": 1980,
  "boat": 1981,
  "mr.": 1982,
  "sti@@": 1983,
  "cri@@": 1984,
  "creatures": 1985,
  "sand": 1986,
  "afraid": 1987,
  "engineers": 1988,
  "mit": 1989,
  "breast": 1990,
  "competition": 1991,
  "ley": 1992,
  "date": 1993,
  "benefit": 1994,
  "cy@@": 1995,
  "bread": 1996,
  "card": 1997,
  "cation": 1998,
  "cycle": 1999,
  "stem": 2000,
  "ag@@": 2001,
  "the@@": 2002,
  "em": 2003,
  "4@@": 2004,
  "bridge": 2005,
  "fin@@": 2006,
  "organic": 2007,
  "flu": 2008,
  "colors": 2009,
  "ure": 2010,
  "lu@@": 2011,
  "forever": 2012,
  "streets": 2013,
  "ker": 2014,
  "5,000": 2015,
  "ned": 2016,
  "moves": 2017,
  "fields": 2018,
  "heads": 2019,
  "slowly": 2020,
  "visit": 2021,
  "notion": 2022,
  "f": 2023,
  "holding": 2024,
  "block": 2025,
  "fo@@": 2026,
  "down@@": 2027,
  "enter": 2028,
  "british": 2029,
  "lesson": 2030,
  "por@@": 2031,
  "prize": 2032,
  "calls": 2033,
  "despite": 2034,
  "don@@": 2035,
  "negative": 2036,
  "mathematics": 2037,
  "citizens": 2038,
  "insects": 2039,
  "ns": 2040,
  "faces": 2041,
  "meat": 2042,
  "wh@@": 2043,
  "circle": 2044,
  "yo@@": 2045,
  "describe": 2046,
  "saving": 2047,
  "matters": 2048,
  "ca": 2049,
  "begins": 2050,
  "cl@@": 2051,
  "base": 2052,
  "catch": 2053,
  "campaign": 2054,
  "traffic": 2055,
  "coast": 2056,
  "perfectly": 2057,
  "19@@": 2058,
  "billions": 2059,
  "8": 2060,
  "discovery": 2061,
  "degree": 2062,
  "walls": 2063,
  "ve@@": 2064,
  "otherwise": 2065,
  "7@@": 2066,
  "helps": 2067,
  "events": 2068,
  "id": 2069,
  "ines": 2070,
  "cs": 2071,
  "experiences": 2072,
  "ence": 2073,
  "factory": 2074,
  "ring": 2075,
  "effort": 2076,
  "entirely": 2077,
  "fore@@": 2078,
  "brilliant": 2079,
  "gl@@": 2080,
  "distance": 2081,
  "pat@@": 2082,
  "ited": 2083,
  "necessary": 2084,
  "nations": 2085,
  "painting": 2086,
  "opened": 2087,
  "easier": 2088,
  "studied": 2089,
  "offer": 2090,
  "ched": 2091,
  "afford": 2092,
  "9": 2093,
  "emotions": 2094,
  "normally": 2095,
  "bling": 2096,
  "sector": 2097,
  "responsible": 2098,
  "members": 2099,
  "cro@@": 2100,
  "japan": 2101,
  "ultimately": 2102,
  "je@@": 2103,
  "count": 2104,
  "sister": 2105,
  "photo": 2106,
  "bre@@": 2107,
  "nor@@": 2108,
  "adults": 2109,
  "ori@@": 2110,
  "female": 2111,
  "enjoy": 2112,
  "opposite": 2113,
  "report": 2114,
  "tail": 2115,
  "mouth": 2116,
  "magazine": 2117,
  "statistics": 2118,
  "profound": 2119,
  "gri@@": 2120,
  "apply": 2121,
  "wisdom": 2122,
  "bits": 2123,
  "cing": 2124,
  "engineer": 2125,
  "u.k.": 2126,
  "wear": 2127,
  "facebook": 2128,
  "sold": 2129,
  "kes": 2130,
  "trained": 2131,
  "leading": 2132,
  "400": 2133,
  "desert": 2134,
  "foreign": 2135,
  "en": 2136,
  "13": 2137,
  "seriously": 2138,
  "caught": 2139,
  "operating": 2140,
  "ping": 2141,
  "ka@@": 2142,
  "principles": 2143,
  "fill": 2144,
  "fla@@": 2145,
  "respect": 2146,
  "back@@": 2147,
  "station": 2148,
  "according": 2149,
  "wow": 2150,
  "investment": 2151,
  "motion": 2152,
  "influence": 2153,
  "galaxies": 2154,
  "steps": 2155,
  "fashion": 2156,
  "stream": 2157,
  "cheap": 2158,
  "identity": 2159,
  "sick": 2160,
  "extreme": 2161,
  "engage": 2162,
  "fer@@": 2163,
  "ev@@": 2164,
  "attack": 2165,
  "shouldn": 2166,
  "loss": 2167,
  "argue": 2168,
  "oceans": 2169,
  "cas@@": 2170,
  "commercial": 2171,
  "failed": 2172,
  "fourth": 2173,
  "ined": 2174,
  "thinks": 2175,
  "stuck": 2176,
  "consumption": 2177,
  "constantly": 2178,
  "limited": 2179,
  "ki@@": 2180,
  "dan@@": 2181,
  "filled": 2182,
  "ys": 2183,
  "airplane": 2184,
  "6": 2185,
  "fighting": 2186,
  "ali@@": 2187,
  "hopefully": 2188,
  "legal": 2189,
  "sequence": 2190,
  "quote": 2191,
  "flu@@": 2192,
  "san": 2193,
  "alized": 2194,
  "flies": 2195,
  "wood": 2196,
  "tumor": 2197,
  "clo@@": 2198,
  "capable": 2199,
  "era": 2200,
  "wild": 2201,
  "metaphor": 2202,
  "raised": 2203,
  "s-@@": 2204,
  "wealth": 2205,
  "lets": 2206,
  "24": 2207,
  "shoes": 2208,
  "invest": 2209,
  "predict": 2210,
  "respond": 2211,
  "prevent": 2212,
  "beat": 2213,
  "dynamic": 2214,
  "tr@@": 2215,
  "lation": 2216,
  "char@@": 2217,
  "sur@@": 2218,
  "agriculture": 2219,
  "transform": 2220,
  "co2": 2221,
  "followed": 2222,
  "leaving": 2223,
  "husband": 2224,
  "equal": 2225,
  "male": 2226,
  "harder": 2227,
  "importantly": 2228,
  "2,000": 2229,
  "fascinating": 2230,
  "ran@@": 2231,
  "background": 2232,
  "article": 2233,
  "tru@@": 2234,
  "dreams": 2235,
  "virtual": 2236,
  "due": 2237,
  "three-@@": 2238,
  "arms": 2239,
  "labor": 2240,
  "finger": 2241,
  "hate": 2242,
  "believed": 2243,
  "roll": 2244,
  "distribution": 2245,
  "tough": 2246,
  "damage": 2247,
  "washington": 2248,
  "desire": 2249,
  "tens": 2250,
  "bees": 2251,
  "languages": 2252,
  "crime": 2253,
  "del@@": 2254,
  "creation": 2255,
  "tomorrow": 2256,
  "ching": 2257,
  "justice": 2258,
  "random": 2259,
  "spirit": 2260,
  "invisible": 2261,
  "brother": 2262,
  "organized": 2263,
  "viruses": 2264,
  "sho@@": 2265,
  "advantage": 2266,
  "spaces": 2267,
  "dinner": 2268,
  "majority": 2269,
  "anti@@": 2270,
  "pounds": 2271,
  "bro@@": 2272,
  "paint": 2273,
  "caused": 2274,
  "weird": 2275,
  "speech": 2276,
  "ak@@": 2277,
  "ents": 2278,
  "survival": 2279,
  "pres@@": 2280,
  "cap@@": 2281,
  "wide": 2282,
  "ls": 2283,
  "row": 2284,
  "fair": 2285,
  "pages": 2286,
  "apple": 2287,
  "molecule": 2288,
  "shop": 2289,
  "whenever": 2290,
  "driven": 2291,
  "equivalent": 2292,
  "treated": 2293,
  "yesterday": 2294,
  "note": 2295,
  "lie": 2296,
  "wearing": 2297,
  "ils": 2298,
  "prote@@": 2299,
  "sad": 2300,
  "economics": 2301,
  "ases": 2302,
  "edi@@": 2303,
  "belief": 2304,
  "compare": 2305,
  "farm": 2306,
  "failure": 2307,
  "principle": 2308,
  "unless": 2309,
  "childhood": 2310,
  "theater": 2311,
  "zes": 2312,
  "managed": 2313,
  "ten": 2314,
  "20th": 2315,
  "acts": 2316,
  "wave": 2317,
  "deeply": 2318,
  "neighborhood": 2319,
  "ler": 2320,
  "intelligent": 2321,
  "opening": 2322,
  "spe@@": 2323,
  "dimensions": 2324,
  "6@@": 2325,
  "paul": 2326,
  "lack": 2327,
  "pal@@": 2328,
  "worried": 2329,
  "hed": 2330,
  "malaria": 2331,
  "dinosaurs": 2332,
  "warming": 2333,
  "proud": 2334,
  "sions": 2335,
  "leaves": 2336,
  "soil": 2337,
  "versus": 2338,
  "mortality": 2339,
  "construction": 2340,
  "cked": 2341,
  "17": 2342,
  "represent": 2343,
  "han@@": 2344,
  "galaxy": 2345,
  "section": 2346,
  "concerned": 2347,
  "bear": 2348,
  "paying": 2349,
  "names": 2350,
  "muscle": 2351,
  "church": 2352,
  "shapes": 2353,
  "electrical": 2354,
  "everyday": 2355,
  "covered": 2356,
  "ff@@": 2357,
  "surprise": 2358,
  "charles": 2359,
  "ends": 2360,
  "sexual": 2361,
  "launched": 2362,
  "ing@@": 2363,
  "weapons": 2364,
  "suppose": 2365,
  "brand": 2366,
  "pun@@": 2367,
  "increasingly": 2368,
  "houses": 2369,
  "dar@@": 2370,
  "mentioned": 2371,
  "photos": 2372,
  "drawing": 2373,
  "currently": 2374,
  "designing": 2375,
  "holes": 2376,
  "bright": 2377,
  "roughly": 2378,
  "lies": 2379,
  "civilization": 2380,
  "camp": 2381,
  "european": 2382,
  "sphere": 2383,
  "ingly": 2384,
  "puts": 2385,
  "ctors": 2386,
  "expression": 2387,
  "letter": 2388,
  "rid": 2389,
  "classroom": 2390,
  "ise": 2391,
  "protein": 2392,
  "described": 2393,
  "vehicle": 2394,
  "institute": 2395,
  "sudden": 2396,
  "professional": 2397,
  "appear": 2398,
  "copy": 2399,
  "my@@": 2400,
  "hidden": 2401,
  "graduate": 2402,
  "deliver": 2403,
  "hell": 2404,
  "japanese": 2405,
  "mexico": 2406,
  "fell": 2407,
  "arts": 2408,
  "debate": 2409,
  "plane": 2410,
  "tively": 2411,
  "cy": 2412,
  "leadership": 2413,
  "kenya": 2414,
  "losing": 2415,
  "universal": 2416,
  "vast": 2417,
  "affect": 2418,
  "coral": 2419,
  "george": 2420,
  "cloud": 2421,
  "lunch": 2422,
  "invited": 2423,
  "soci@@": 2424,
  "gain": 2425,
  "seat": 2426,
  "honest": 2427,
  "dro@@": 2428,
  "separate": 2429,
  "35": 2430,
  "dd@@": 2431,
  "to-@@": 2432,
  "interaction": 2433,
  "7": 2434,
  "smell": 2435,
  "garden": 2436,
  "grandmother": 2437,
  "threat": 2438,
  "toward": 2439,
  "spot": 2440,
  "voices": 2441,
  "exists": 2442,
  "teeth": 2443,
  "awful": 2444,
  "continent": 2445,
  "ven@@": 2446,
  "ordinary": 2447,
  "horse": 2448,
  "heavy": 2449,
  "einstein": 2450,
  "tion@@": 2451,
  "emotion": 2452,
  "acting": 2453,
  "99": 2454,
  "collective": 2455,
  "gold": 2456,
  "producing": 2457,
  "indi@@": 2458,
  "finish": 2459,
  "depression": 2460,
  "chair": 2461,
  "strategy": 2462,
  "direct": 2463,
  "associated": 2464,
  "newspaper": 2465,
  "leader": 2466,
  "signal": 2467,
  "link": 2468,
  "experts": 2469,
  "notes": 2470,
  "mile": 2471,
  "sugar": 2472,
  "nigeria": 2473,
  "bar": 2474,
  "evil": 2475,
  "underneath": 2476,
  "neuro@@": 2477,
  "sters": 2478,
  "trip": 2479,
  "sun@@": 2480,
  "surprised": 2481,
  "planning": 2482,
  "steel": 2483,
  "definitely": 2484,
  "keeping": 2485,
  "compared": 2486,
  "hasn": 2487,
  "1,@@": 2488,
  "rural": 2489,
  "valley": 2490,
  "tically": 2491,
  "fat": 2492,
  "pre-@@": 2493,
  "feelings": 2494,
  "a-@@": 2495,
  "collect": 2496,
  "san@@": 2497,
  "accident": 2498,
  "win@@": 2499,
  "ny": 2500,
  "ther@@": 2501,
  "cure": 2502,
  "dies": 2503,
  "&apos;@@": 2504,
  "soldiers": 2505,
  "tre@@": 2506,
  "chemicals": 2507,
  "bing": 2508,
  "jump": 2509,
  "ger": 2510,
  "signals": 2511,
  "demand": 2512,
  "mas@@": 2513,
  "ming": 2514,
  "worldwide": 2515,
  "grown": 2516,
  "ban@@": 2517,
  "equipment": 2518,
  "ff": 2519,
  "conscious": 2520,
  "swe@@": 2521,
  "prime": 2522,
  "sides": 2523,
  "ative": 2524,
  "resource": 2525,
  "ne": 2526,
  "ical": 2527,
  "wo@@": 2528,
  "ben@@": 2529,
  "ment@@": 2530,
  "well-@@": 2531,
  "med": 2532,
  "interface": 2533,
  "der@@": 2534,
  "multiple": 2535,
  "lat@@": 2536,
  "ob@@": 2537,
  "joy": 2538,
  "union": 2539,
  "married": 2540,
  "hy@@": 2541,
  "gram": 2542,
  "chemistry": 2543,
  "consequences": 2544,
  "transformation": 2545,
  "explo@@": 2546,
  "highest": 2547,
  "pr@@": 2548,
  "10@@": 2549,
  "budget": 2550,
  "sites": 2551,
  "ger@@": 2552,
  "controlled": 2553,
  "facing": 2554,
  "cognitive": 2555,
  "artificial": 2556,
  "ner": 2557,
  "independent": 2558,
  "corruption": 2559,
  "generations": 2560,
  "essential": 2561,
  "double": 2562,
  "studio": 2563,
  "closed": 2564,
  "australia": 2565,
  "fra@@": 2566,
  "100,000": 2567,
  "selling": 2568,
  "nervous": 2569,
  "importance": 2570,
  "killing": 2571,
  "warm": 2572,
  "cultures": 2573,
  "col@@": 2574,
  "layer": 2575,
  "grand@@": 2576,
  "contact": 2577,
  "ladies": 2578,
  "ought": 2579,
  "email": 2580,
  "ours": 2581,
  "miss": 2582,
  "status": 2583,
  "cer@@": 2584,
  "library": 2585,
  "whom": 2586,
  "ute": 2587,
  "emerging": 2588,
  "wars": 2589,
  "vote": 2590,
  "sen@@": 2591,
  "150": 2592,
  "stood": 2593,
  "letters": 2594,
  "formed": 2595,
  "molecular": 2596,
  "spoke": 2597,
  "plus": 2598,
  "iran": 2599,
  "empty": 2600,
  "northern": 2601,
  "chicken": 2602,
  "ber": 2603,
  "typically": 2604,
  "ats": 2605,
  "property": 2606,
  "ant@@": 2607,
  "sh": 2608,
  "pole": 2609,
  "technical": 2610,
  "que": 2611,
  "solved": 2612,
  "avoid": 2613,
  "forced": 2614,
  "israel": 2615,
  "hi": 2616,
  "flat": 2617,
  "master": 2618,
  "player": 2619,
  "co": 2620,
  "james": 2621,
  "mid@@": 2622,
  "und@@": 2623,
  "wire": 2624,
  "relatively": 2625,
  "hero": 2626,
  "spectrum": 2627,
  "pan@@": 2628,
  "fellow": 2629,
  "folks": 2630,
  "gue": 2631,
  "england": 2632,
  "army": 2633,
  "deeper": 2634,
  "profit": 2635,
  "picked": 2636,
  "department": 2637,
  "dogs": 2638,
  "wired": 2639,
  "gr@@": 2640,
  "intellectual": 2641,
  "characters": 2642,
  "match": 2643,
  "efficiency": 2644,
  "dry": 2645,
  "brown": 2646,
  "protection": 2647,
  "breath": 2648,
  "practical": 2649,
  "violent": 2650,
  "cou@@": 2651,
  "account": 2652,
  "prove": 2653,
  "users": 2654,
  "dots": 2655,
  "regular": 2656,
  "adult": 2657,
  "anti-@@": 2658,
  "gam@@": 2659,
  "fis@@": 2660,
  "weather": 2661,
  "curious": 2662,
  "tered": 2663,
  "spring": 2664,
  "lady": 2665,
  "sharks": 2666,
  "leg": 2667,
  "michael": 2668,
  "invention": 2669,
  "round": 2670,
  "bus": 2671,
  "senses": 2672,
  "calling": 2673,
  "suggest": 2674,
  "len@@": 2675,
  "mathematical": 2676,
  "mountains": 2677,
  "poli@@": 2678,
  "homes": 2679,
  "pe": 2680,
  "kilometers": 2681,
  "daily": 2682,
  "thoughts": 2683,
  "detail": 2684,
  "britain": 2685,
  "van@@": 2686,
  "alternative": 2687,
  "affected": 2688,
  "chain": 2689,
  "movies": 2690,
  "fresh": 2691,
  "reaction": 2692,
  "experienced": 2693,
  "canada": 2694,
  "brazil": 2695,
  "ll@@": 2696,
  "fire@@": 2697,
  "cards": 2698,
  "pleasure": 2699,
  "absolute": 2700,
  "possibilities": 2701,
  "ky": 2702,
  "diet": 2703,
  "marketing": 2704,
  "lessons": 2705,
  "gar@@": 2706,
  "twitter": 2707,
  "nasa": 2708,
  "coal": 2709,
  "rain": 2710,
  "photographs": 2711,
  "los": 2712,
  "remote": 2713,
  "clinical": 2714,
  "head@@": 2715,
  "organs": 2716,
  "iled": 2717,
  "bang": 2718,
  "waves": 2719,
  "scene": 2720,
  "effectively": 2721,
  "addition": 2722,
  "in-@@": 2723,
  "kitchen": 2724,
  "introduced": 2725,
  "600": 2726,
  "fishing": 2727,
  "ward": 2728,
  "ko@@": 2729,
  "disaster": 2730,
  "cla@@": 2731,
  "minister": 2732,
  "olo@@": 2733,
  "arrived": 2734,
  "vely": 2735,
  "long-term": 2736,
  "method": 2737,
  "maps": 2738,
  "drink": 2739,
  "metal": 2740,
  "gy": 2741,
  "load": 2742,
  "ken@@": 2743,
  "partner": 2744,
  "dealing": 2745,
  "saved": 2746,
  "hom@@": 2747,
  "radiation": 2748,
  "alism": 2749,
  "management": 2750,
  "tical": 2751,
  "ths": 2752,
  "sentence": 2753,
  "9@@": 2754,
  "axis": 2755,
  "penguins": 2756,
  "details": 2757,
  "bush": 2758,
  "ots": 2759,
  "considered": 2760,
  "tele@@": 2761,
  "grand": 2762,
  "ics": 2763,
  "gravity": 2764,
  "struggle": 2765,
  "germany": 2766,
  "mate": 2767,
  "uni@@": 2768,
  "winter": 2769,
  "buying": 2770,
  "specifically": 2771,
  "gift": 2772,
  "hall": 2773,
  "3d": 2774,
  "received": 2775,
  "fli@@": 2776,
  "players": 2777,
  "cooking": 2778,
  "employees": 2779,
  "marine": 2780,
  "tation": 2781,
  "epidemic": 2782,
  "inner": 2783,
  "productive": 2784,
  "3,000": 2785,
  "hadn": 2786,
  "cross": 2787,
  "spo@@": 2788,
  "cat@@": 2789,
  "setting": 2790,
  "businesses": 2791,
  "enti@@": 2792,
  "sto@@": 2793,
  "ens": 2794,
  "requires": 2795,
  "transition": 2796,
  "bat@@": 2797,
  "2008": 2798,
  "mistake": 2799,
  "location": 2800,
  "radical": 2801,
  "sin@@": 2802,
  "laptop": 2803,
  "switch": 2804,
  "ctor": 2805,
  "fail": 2806,
  "lt": 2807,
  "cutting": 2808,
  "fossil": 2809,
  "sy": 2810,
  "beach": 2811,
  "vol@@": 2812,
  "eastern": 2813,
  "liked": 2814,
  "mention": 2815,
  "darwin": 2816,
  "analysis": 2817,
  "wal@@": 2818,
  "alize": 2819,
  "person@@": 2820,
  "testing": 2821,
  "exercise": 2822,
  "southern": 2823,
  "um@@": 2824,
  "valuable": 2825,
  "cru@@": 2826,
  "tests": 2827,
  "dan": 2828,
  "trials": 2829,
  "democratic": 2830,
  "le-@@": 2831,
  "low-@@": 2832,
  "squ@@": 2833,
  "mistakes": 2834,
  "feedback": 2835,
  "far@@": 2836,
  "reward": 2837,
  "ished": 2838,
  "silk": 2839,
  "appropriate": 2840,
  "tons": 2841,
  "angle": 2842,
  "land@@": 2843,
  "introduce": 2844,
  "ecosystem": 2845,
  "not@@": 2846,
  "express": 2847,
  "broke": 2848,
  "atoms": 2849,
  "psychology": 2850,
  "unlike": 2851,
  "fle@@": 2852,
  "target": 2853,
  "wed": 2854,
  "arab": 2855,
  "milk": 2856,
  "existence": 2857,
  "consumer": 2858,
  "motor": 2859,
  "primary": 2860,
  "click": 2861,
  "fication": 2862,
  "lifetime": 2863,
  "behaviors": 2864,
  "gro@@": 2865,
  "generate": 2866,
  "rever@@": 2867,
  "restaurant": 2868,
  "pop": 2869,
  "manage": 2870,
  "theme": 2871,
  "factor": 2872,
  "sol@@": 2873,
  "properties": 2874,
  "components": 2875,
  "lam@@": 2876,
  "prepared": 2877,
  "techniques": 2878,
  "dy@@": 2879,
  "five-@@": 2880,
  "unusual": 2881,
  "whereas": 2882,
  "est@@": 2883,
  "carrying": 2884,
  "bottle": 2885,
  "medium": 2886,
  "instrument": 2887,
  "increasing": 2888,
  "naturally": 2889,
  "politicians": 2890,
  "ration": 2891,
  "represents": 2892,
  "safety": 2893,
  "fewer": 2894,
  "quantum": 2895,
  "wake": 2896,
  "evolutionary": 2897,
  "poetry": 2898,
  "accept": 2899,
  "gap": 2900,
  "st-@@": 2901,
  "proteins": 2902,
  "generally": 2903,
  "display": 2904,
  "videos": 2905,
  "rare": 2906,
  "writer": 2907,
  "visible": 2908,
  "infected": 2909,
  "ye@@": 2910,
  "wn": 2911,
  "lying": 2912,
  "bubble": 2913,
  "hur@@": 2914,
  "wikipedia": 2915,
  "ear@@": 2916,
  "matic": 2917,
  "connections": 2918,
  "convince": 2919,
  "roof": 2920,
  "user": 2921,
  "sets": 2922,
  "sir": 2923,
  "faith": 2924,
  "honor": 2925,
  "therapy": 2926,
  "berg": 2927,
  "identify": 2928,
  "wor@@": 2929,
  "watched": 2930,
  "neighbors": 2931,
  "define": 2932,
  "capture": 2933,
  "credit": 2934,
  "variety": 2935,
  "pra@@": 2936,
  "swim": 2937,
  "runs": 2938,
  "end@@": 2939,
  "processes": 2940,
  "ha": 2941,
  "chan@@": 2942,
  "battle": 2943,
  "u.n.": 2944,
  "driver": 2945,
  "cat": 2946,
  "ancestors": 2947,
  "brothers": 2948,
  "bility": 2949,
  "0,000": 2950,
  "personally": 2951,
  "exchange": 2952,
  "novel": 2953,
  "platform": 2954,
  "style": 2955,
  "hing": 2956,
  "-": 2957,
  "situations": 2958,
  "unit": 2959,
  "researchers": 2960,
  "member": 2961,
  "zz@@": 2962,
  "continued": 2963,
  "comfortable": 2964,
  "pulled": 2965,
  "expected": 2966,
  "string": 2967,
  "makers": 2968,
  "serve": 2969,
  "error": 2970,
  "tic@@": 2971,
  "perception": 2972,
  "al-@@": 2973,
  "satellite": 2974,
  "crash": 2975,
  "exc@@": 2976,
  "rates": 2977,
  "defined": 2978,
  "la": 2979,
  "advanced": 2980,
  "clip": 2981,
  "mirror": 2982,
  "reached": 2983,
  "cents": 2984,
  "blocks": 2985,
  "ina": 2986,
  "former": 2987,
  "peak": 2988,
  "depends": 2989,
  "risks": 2990,
  "lay": 2991,
  "burning": 2992,
  "multi@@": 2993,
  "burn": 2994,
  "liquid": 2995,
  "goods": 2996,
  "mur@@": 2997,
  "cry": 2998,
  "graphy": 2999,
  "placed": 3000,
  "pollution": 3001,
  "recorded": 3002,
  "fake": 3003,
  "gulf": 3004,
  "closely": 3005,
  "zone": 3006,
  "marriage": 3007,
  "ears": 3008,
  "vaccine": 3009,
  "stupid": 3010,
  "pla@@": 3011,
  "correct": 3012,
  "architect": 3013,
  "relate": 3014,
  "ory": 3015,
  "joke": 3016,
  "meter": 3017,
  "conver@@": 3018,
  "goals": 3019,
  "nar@@": 3020,
  "sensitive": 3021,
  "tradition": 3022,
  "ining": 3023,
  "require": 3024,
  "din@@": 3025,
  "battery": 3026,
  "sunlight": 3027,
  "steve": 3028,
  "promise": 3029,
  "pin@@": 3030,
  "2007": 3031,
  "cker": 3032,
  "amounts": 3033,
  "ful@@": 3034,
  "sources": 3035,
  "ride": 3036,
  "1@@": 3037,
  "movements": 3038,
  "gentlemen": 3039,
  "75": 3040,
  "algorithms": 3041,
  "empathy": 3042,
  "emissions": 3043,
  "sees": 3044,
  "bac@@": 3045,
  "hoping": 3046,
  "va": 3047,
  "healthcare": 3048,
  "collaboration": 3049,
  "hes": 3050,
  "environments": 3051,
  "discussion": 3052,
  "percentage": 3053,
  "aspect": 3054,
  "free@@": 3055,
  "and@@": 3056,
  "ultimate": 3057,
  "thomas": 3058,
  "pollen": 3059,
  "gay": 3060,
  "organ": 3061,
  "taste": 3062,
  "post": 3063,
  "ei@@": 3064,
  "fre@@": 3065,
  "solving": 3066,
  "fying": 3067,
  "45": 3068,
  "quiet": 3069,
  "traveling": 3070,
  "frame": 3071,
  "opinion": 3072,
  "pit@@": 3073,
  "new@@": 3074,
  "atory": 3075,
  "three-dimensional": 3076,
  "sy@@": 3077,
  "hum@@": 3078,
  "destruction": 3079,
  "replace": 3080,
  "band": 3081,
  "wine": 3082,
  "interests": 3083,
  "ass": 3084,
  "carefully": 3085,
  "hotel": 3086,
  "shall": 3087,
  "non@@": 3088,
  "mat@@": 3089,
  "trick": 3090,
  "figures": 3091,
  "dramatic": 3092,
  "shaped": 3093,
  "remain": 3094,
  "sending": 3095,
  "topic": 3096,
  "hor@@": 3097,
  "convinced": 3098,
  "protected": 3099,
  "swa@@": 3100,
  "ized": 3101,
  "centers": 3102,
  "vulnerable": 3103,
  "speci@@": 3104,
  "shark": 3105,
  "facts": 3106,
  "shake": 3107,
  "signs": 3108,
  "element": 3109,
  "gun": 3110,
  "fac@@": 3111,
  "survey": 3112,
  "collection": 3113,
  "exploration": 3114,
  "vis@@": 3115,
  "shoot": 3116,
  "wondering": 3117,
  "kin@@": 3118,
  "applied": 3119,
  "tape": 3120,
  "youtube": 3121,
  "operation": 3122,
  "pur@@": 3123,
  "awareness": 3124,
  "explanation": 3125,
  "hal@@": 3126,
  "hits": 3127,
  "ra": 3128,
  "crowd": 3129,
  "suit": 3130,
  "laboratory": 3131,
  "ize": 3132,
  "existing": 3133,
  "5@@": 3134,
  "added": 3135,
  "include": 3136,
  "ences": 3137,
  "supp@@": 3138,
  "skill": 3139,
  "aring": 3140,
  "oned": 3141,
  "bones": 3142,
  "sophisticated": 3143,
  "curve": 3144,
  "falling": 3145,
  "technological": 3146,
  "ese": 3147,
  "strength": 3148,
  "religions": 3149,
  "stress": 3150,
  "bla@@": 3151,
  "computing": 3152,
  "harvard": 3153,
  "feeding": 3154,
  "birthday": 3155,
  "amp": 3156,
  "hydrogen": 3157,
  "francisco": 3158,
  "applications": 3159,
  "tac@@": 3160,
  "islands": 3161,
  "pay@@": 3162,
  "electronic": 3163,
  "dropped": 3164,
  "institution": 3165,
  "economists": 3166,
  "logic": 3167,
  "val@@": 3168,
  "ase": 3169,
  "increased": 3170,
  "bomb": 3171,
  "encourage": 3172,
  "ites": 3173,
  "sample": 3174,
  "transportation": 3175,
  "polio": 3176,
  "boston": 3177,
  "singing": 3178,
  "tube": 3179,
  "boxes": 3180,
  "remains": 3181,
  "radi@@": 3182,
  "breaking": 3183,
  "fund": 3184,
  "insight": 3185,
  "conventional": 3186,
  "ken": 3187,
  "sar@@": 3188,
  "relevant": 3189,
  "bag": 3190,
  "literature": 3191,
  "combination": 3192,
  "bel@@": 3193,
  "pakistan": 3194,
  "smile": 3195,
  "channel": 3196,
  "nose": 3197,
  "on-@@": 3198,
  "robert": 3199,
  "windows": 3200,
  "ii": 3201,
  "claim": 3202,
  "islam": 3203,
  "tin@@": 3204,
  "flowers": 3205,
  "cameras": 3206,
  "hurt": 3207,
  "xi@@": 3208,
  "partners": 3209,
  "gdp": 3210,
  "relative": 3211,
  "upper": 3212,
  "2000": 3213,
  "grid": 3214,
  "hil@@": 3215,
  "combined": 3216,
  "liber@@": 3217,
  "ble@@": 3218,
  "keeps": 3219,
  "odd": 3220,
  "pacific": 3221,
  "water@@": 3222,
  "tracking": 3223,
  "previous": 3224,
  "pon@@": 3225,
  "fundamentally": 3226,
  "sw@@": 3227,
  "trillion": 3228,
  "neither": 3229,
  "hip": 3230,
  "confidence": 3231,
  "advice": 3232,
  "accurate": 3233,
  "mini@@": 3234,
  "solid": 3235,
  "length": 3236,
  "roots": 3237,
  "ide@@": 3238,
  "ads": 3239,
  "fingers": 3240,
  "shares": 3241,
  "ered": 3242,
  "spi@@": 3243,
  "outcome": 3244,
  "presentation": 3245,
  "cow": 3246,
  "yed": 3247,
  "cortex": 3248,
  "reverse": 3249,
  "title": 3250,
  "extra@@": 3251,
  "ological": 3252,
  "21": 3253,
  "rocket": 3254,
  "roads": 3255,
  "sweet": 3256,
  "monkeys": 3257,
  "entertainment": 3258,
  "repli@@": 3259,
  "presence": 3260,
  "contra@@": 3261,
  "ta": 3262,
  "linked": 3263,
  "microbes": 3264,
  "horrible": 3265,
  "sal": 3266,
  "falls": 3267,
  "sight": 3268,
  "patent": 3269,
  "pair": 3270,
  "director": 3271,
  "operate": 3272,
  "atten@@": 3273,
  "telescope": 3274,
  "pes": 3275,
  "explains": 3276,
  "entrepreneurs": 3277,
  "occur": 3278,
  "goo@@": 3279,
  "options": 3280,
  "ss": 3281,
  "suggests": 3282,
  "ering": 3283,
  "circumstances": 3284,
  "component": 3285,
  "factors": 3286,
  "pack": 3287,
  "collapse": 3288,
  "auto@@": 3289,
  "aff@@": 3290,
  "counter@@": 3291,
  "equation": 3292,
  "expand": 3293,
  "framework": 3294,
  "shame": 3295,
  "om": 3296,
  "mix": 3297,
  "fed": 3298,
  "option": 3299,
  "hospitals": 3300,
  "corporate": 3301,
  "genius": 3302,
  "younger": 3303,
  "staff": 3304,
  "surgeon": 3305,
  "grain": 3306,
  "2010": 3307,
  "queen": 3308,
  "stands": 3309,
  "magnetic": 3310,
  "simplicity": 3311,
  "recording": 3312,
  "ell@@": 3313,
  "paris": 3314,
  "rapidly": 3315,
  "worlds": 3316,
  "pos@@": 3317,
  "boring": 3318,
  "finance": 3319,
  "ill@@": 3320,
  "thin": 3321,
  "symmetry": 3322,
  "signed": 3323,
  "work@@": 3324,
  "deaths": 3325,
  "ast": 3326,
  "flew": 3327,
  "musical": 3328,
  "doubt": 3329,
  "ach@@": 3330,
  "well-being": 3331,
  "mystery": 3332,
  "detect": 3333,
  "ped": 3334,
  "rel@@": 3335,
  "manufacturing": 3336,
  "architects": 3337,
  "behavioral": 3338,
  "films": 3339,
  "remind": 3340,
  "authority": 3341,
  "wers": 3342,
  "funding": 3343,
  "dancing": 3344,
  "17@@": 3345,
  "hydro@@": 3346,
  "wheel": 3347,
  "bes": 3348,
  "sculpture": 3349,
  "internal": 3350,
  "ple@@": 3351,
  "wireless": 3352,
  "organism": 3353,
  "mid-@@": 3354,
  "mc@@": 3355,
  "illness": 3356,
  "lake": 3357,
  "selection": 3358,
  "philosophy": 3359,
  "determine": 3360,
  "clouds": 3361,
  "chicago": 3362,
  "pac@@": 3363,
  "climb": 3364,
  "subjects": 3365,
  "activities": 3366,
  "inspiration": 3367,
  "tested": 3368,
  "rooms": 3369,
  "pose": 3370,
  "wondered": 3371,
  "app@@": 3372,
  "els": 3373,
  "mechanical": 3374,
  "treating": 3375,
  "performing": 3376,
  "features": 3377,
  "tonight": 3378,
  "post@@": 3379,
  "mechanism": 3380,
  "prices": 3381,
  "mic": 3382,
  "compla@@": 3383,
  "walks": 3384,
  "nor": 3385,
  "statement": 3386,
  "ologists": 3387,
  "vehicles": 3388,
  "passionate": 3389,
  "stronger": 3390,
  "regions": 3391,
  "release": 3392,
  "dec@@": 3393,
  "distributed": 3394,
  "comfort": 3395,
  "ana": 3396,
  "decline": 3397,
  "obsessed": 3398,
  "touched": 3399,
  "occurred": 3400,
  "innovative": 3401,
  "ba": 3402,
  "illu@@": 3403,
  "particle": 3404,
  "paradigm": 3405,
  "glo@@": 3406,
  "abstract": 3407,
  "pure": 3408,
  "technique": 3409,
  "unexpected": 3410,
  "nowhere": 3411,
  "pocket": 3412,
  "afternoon": 3413,
  "victims": 3414,
  "rational": 3415,
  "ep@@": 3416,
  "origami": 3417,
  "tea": 3418,
  "sustainability": 3419,
  "educational": 3420,
  "raw": 3421,
  "sor@@": 3422,
  "wherever": 3423,
  "colle@@": 3424,
  "author": 3425,
  "heroes": 3426,
  "stu@@": 3427,
  "scan": 3428,
  "combine": 3429,
  "africans": 3430,
  "meaningful": 3431,
  "lin@@": 3432,
  "-up": 3433,
  "illegal": 3434,
  "unclear": 3435,
  "vessels": 3436,
  "phase": 3437,
  "printing": 3438,
  "explained": 3439,
  "van": 3440,
  "exact": 3441,
  "celebrate": 3442,
  "dh": 3443,
  "by@@": 3444,
  "chose": 3445,
  "actions": 3446,
  "eggs": 3447,
  "required": 3448,
  "quarter": 3449,
  "handle": 3450,
  "swimming": 3451,
  "defense": 3452,
  "functional": 3453,
  "designs": 3454,
  "creature": 3455,
  "conclusion": 3456,
  "clothes": 3457,
  "election": 3458,
  "blog": 3459,
  "ologist": 3460,
  "directions": 3461,
  "careful": 3462,
  "lighting": 3463,
  "sty": 3464,
  "button": 3465,
  "rein@@": 3466,
  "develop@@": 3467,
  "potentially": 3468,
  "generated": 3469,
  "transformed": 3470,
  "launch": 3471,
  "underwater": 3472,
  "20@@": 3473,
  "cen@@": 3474,
  "collected": 3475,
  "attempt": 3476,
  "plans": 3477,
  "intense": 3478,
  "processing": 3479,
  "largely": 3480,
  "surely": 3481,
  "black@@": 3482,
  "21st": 3483,
  "eu@@": 3484,
  "globe": 3485,
  "graphic": 3486,
  "tro@@": 3487,
  "drives": 3488,
  "golden": 3489,
  "messages": 3490,
  "ak": 3491,
  "proof": 3492,
  "engaged": 3493,
  "egypt": 3494,
  "frankly": 3495,
  "released": 3496,
  "laugh": 3497,
  "lovely": 3498,
  "court": 3499,
  "dge": 3500,
  "paintings": 3501,
  "shor@@": 3502,
  "equally": 3503,
  "identical": 3504,
  "ford": 3505,
  "measured": 3506,
  "asi@@": 3507,
  "instruments": 3508,
  "arctic": 3509,
  "60s": 3510,
  "poem": 3511,
  "embrace": 3512,
  "str@@": 3513,
  "dense": 3514,
  "stayed": 3515,
  "lan@@": 3516,
  "19th": 3517,
  "sla@@": 3518,
  "bible": 3519,
  "pen": 3520,
  "iron": 3521,
  "eye@@": 3522,
  "plate": 3523,
  "sticks": 3524,
  "zo@@": 3525,
  "severe": 3526,
  "trend": 3527,
  "th-@@": 3528,
  "obama": 3529,
  "participate": 3530,
  "grows": 3531,
  "admit": 3532,
  "mad": 3533,
  "german": 3534,
  "somewhat": 3535,
  "piano": 3536,
  "economies": 3537,
  "actor": 3538,
  "sely": 3539,
  "evening": 3540,
  "oni@@": 3541,
  "1.@@": 3542,
  "na": 3543,
  "muslim": 3544,
  "wise": 3545,
  "mp@@": 3546,
  "ented": 3547,
  "unknown": 3548,
  "bul@@": 3549,
  "sle@@": 3550,
  "lin": 3551,
  "divide": 3552,
  "16@@": 3553,
  "split": 3554,
  "welcome": 3555,
  "0@@": 3556,
  "puzzle": 3557,
  "tech": 3558,
  "ang@@": 3559,
  "korea": 3560,
  "root": 3561,
  "inv@@": 3562,
  "pile": 3563,
  "tom": 3564,
  "resistance": 3565,
  "overall": 3566,
  "sweden": 3567,
  "volume": 3568,
  "physically": 3569,
  "chapter": 3570,
  "hello": 3571,
  "electro@@": 3572,
  "ty@@": 3573,
  "execu@@": 3574,
  "weak": 3575,
  "inje@@": 3576,
  "cook": 3577,
  "false": 3578,
  "chocolate": 3579,
  "gender": 3580,
  "ships": 3581,
  "fuels": 3582,
  "lon@@": 3583,
  "haiti": 3584,
  "14@@": 3585,
  "geo@@": 3586,
  "divided": 3587,
  "obesity": 3588,
  "congress": 3589,
  "by-@@": 3590,
  "chip": 3591,
  "negoti@@": 3592,
  "september": 3593,
  "immune": 3594,
  "usual": 3595,
  "feature": 3596,
  "infinite": 3597,
  "four-@@": 3598,
  "dirty": 3599,
  "flower": 3600,
  "prototype": 3601,
  "scared": 3602,
  "all@@": 3603,
  "pil@@": 3604,
  "kingdom": 3605,
  "christmas": 3606,
  "j": 3607,
  "incentives": 3608,
  "fortune": 3609,
  "dness": 3610,
  "posing": 3611,
  "sky@@": 3612,
  "passing": 3613,
  "faced": 3614,
  "greenhouse": 3615,
  "france": 3616,
  "50,000": 3617,
  "joined": 3618,
  "bf": 3619,
  "ec@@": 3620,
  "ing-@@": 3621,
  "mit@@": 3622,
  "soul": 3623,
  "savings": 3624,
  "co-@@": 3625,
  "measuring": 3626,
  "whales": 3627,
  "soft": 3628,
  "zoom": 3629,
  "capit@@": 3630,
  "busy": 3631,
  "ren@@": 3632,
  "perform": 3633,
  "depend": 3634,
  "commitment": 3635,
  "tured": 3636,
  "val": 3637,
  "tors": 3638,
  "tis": 3639,
  "consumers": 3640,
  "existed": 3641,
  "housing": 3642,
  "frank": 3643,
  "agreed": 3644,
  "silence": 3645,
  "connecting": 3646,
  "forming": 3647,
  "edu@@": 3648,
  "density": 3649,
  "struck": 3650,
  "secondly": 3651,
  "post-@@": 3652,
  "reaching": 3653,
  "ink": 3654,
  "powered": 3655,
  "lung": 3656,
  "dent": 3657,
  "carried": 3658,
  "conf@@": 3659,
  "spreading": 3660,
  "clinic": 3661,
  "pregnant": 3662,
  "deli@@": 3663,
  "furniture": 3664,
  "cam@@": 3665,
  "cop@@": 3666,
  "bike": 3667,
  "offered": 3668,
  "ani@@": 3669,
  "teams": 3670,
  "cle@@": 3671,
  "tall": 3672,
  "invent": 3673,
  "happier": 3674,
  "ination": 3675,
  "bot@@": 3676,
  "shock": 3677,
  "session": 3678,
  "automatically": 3679,
  "sheep": 3680,
  "disappeared": 3681,
  "alization": 3682,
  "ased": 3683,
  "dolphins": 3684,
  "vation": 3685,
  "19": 3686,
  "probability": 3687,
  "dre@@": 3688,
  "granted": 3689,
  "ear": 3690,
  "interview": 3691,
  "shut": 3692,
  "input": 3693,
  "half-@@": 3694,
  "2005": 3695,
  "ol": 3696,
  "hunger": 3697,
  "domin@@": 3698,
  "ft": 3699,
  "implications": 3700,
  "nest": 3701,
  "narrative": 3702,
  "unds": 3703,
  "ately": 3704,
  "lands": 3705,
  "suffer": 3706,
  "romantic": 3707,
  "inten@@": 3708,
  "intuitive": 3709,
  "songs": 3710,
  "gui@@": 3711,
  "c.": 3712,
  "nets": 3713,
  "functions": 3714,
  "villages": 3715,
  "parking": 3716,
  "exploring": 3717,
  "clever": 3718,
  "march": 3719,
  "20,000": 3720,
  "danger": 3721,
  "aries": 3722,
  "awesome": 3723,
  "height": 3724,
  "tures": 3725,
  "translate": 3726,
  "circuit": 3727,
  "af@@": 3728,
  "ale": 3729,
  "moder@@": 3730,
  "club": 3731,
  "extinct": 3732,
  "appreciate": 3733,
  "gates": 3734,
  "inspiring": 3735,
  "border": 3736,
  "synthetic": 3737,
  "comm@@": 3738,
  "classic": 3739,
  "year-olds": 3740,
  "ray": 3741,
  "agency": 3742,
  "breathe": 3743,
  "microscope": 3744,
  "depending": 3745,
  "estimate": 3746,
  "lifestyle": 3747,
  "enable": 3748,
  "tun@@": 3749,
  "cha@@": 3750,
  "spider": 3751,
  "pig": 3752,
  "sum": 3753,
  "apparently": 3754,
  "long-@@": 3755,
  "x-ray": 3756,
  "symptoms": 3757,
  "son@@": 3758,
  "ists": 3759,
  "tower": 3760,
  "attacks": 3761,
  "ham@@": 3762,
  "phrase": 3763,
  "interestingly": 3764,
  "interactive": 3765,
  "till": 3766,
  "gray": 3767,
  "grab": 3768,
  "temp@@": 3769,
  "causing": 3770,
  "ade": 3771,
  "cations": 3772,
  "chart": 3773,
  "memor@@": 3774,
  "painful": 3775,
  "ku@@": 3776,
  "stations": 3777,
  "bell": 3778,
  "disorder": 3779,
  "spoken": 3780,
  "cies": 3781,
  "friendly": 3782,
  "investig@@": 3783,
  "mess": 3784,
  "links": 3785,
  "secure": 3786,
  "hill": 3787,
  "islamic": 3788,
  "spar@@": 3789,
  "samples": 3790,
  "tasks": 3791,
  "properly": 3792,
  "powers": 3793,
  "onic": 3794,
  "views": 3795,
  "reference": 3796,
  "records": 3797,
  "constant": 3798,
  "iphone": 3799,
  "poly@@": 3800,
  "grass": 3801,
  "sou@@": 3802,
  "fortunately": 3803,
  "latin": 3804,
  "calculate": 3805,
  "latest": 3806,
  "assume": 3807,
  "higgs": 3808,
  "balloon": 3809,
  "wanting": 3810,
  "application": 3811,
  "alist": 3812,
  "silicon": 3813,
  "2009": 3814,
  "entered": 3815,
  "concrete": 3816,
  "dor@@": 3817,
  "script": 3818,
  "arguments": 3819,
  "rising": 3820,
  "dot": 3821,
  "bles": 3822,
  "ot": 3823,
  "centuries": 3824,
  "inch": 3825,
  "shoulder": 3826,
  "ank": 3827,
  "pt": 3828,
  "chest": 3829,
  "persi@@": 3830,
  "arity": 3831,
  "reputation": 3832,
  "bon@@": 3833,
  "ore": 3834,
  "dramatically": 3835,
  "optimistic": 3836,
  "reflect": 3837,
  "inspire": 3838,
  "dozen": 3839,
  "ene": 3840,
  "toxic": 3841,
  "70s": 3842,
  "ghana": 3843,
  "cement": 3844,
  "curiosity": 3845,
  "capitalism": 3846,
  "remove": 3847,
  "breathing": 3848,
  "8@@": 3849,
  "tag": 3850,
  "aside": 3851,
  "tie": 3852,
  "sa": 3853,
  "pt@@": 3854,
  "judge": 3855,
  "gged": 3856,
  "shell": 3857,
  ",000": 3858,
  "snow": 3859,
  "she@@": 3860,
  "score": 3861,
  "bin": 3862,
  "cats": 3863,
  "gal@@": 3864,
  "geographic": 3865,
  "clock": 3866,
  "cious": 3867,
  "recovery": 3868,
  "symbol": 3869,
  "prefer": 3870,
  "congo": 3871,
  "oxford": 3872,
  "determined": 3873,
  "q@@": 3874,
  "liver": 3875,
  "wil@@": 3876,
  "gener@@": 3877,
  "tied": 3878,
  "behave": 3879,
  "cau@@": 3880,
  "hang": 3881,
  "hide": 3882,
  "bet": 3883,
  "pet": 3884,
  "wel@@": 3885,
  "mer": 3886,
  "experim@@": 3887,
  "lens": 3888,
  "illusion": 3889,
  "eli@@": 3890,
  "sis": 3891,
  "2004": 3892,
  "scary": 3893,
  "verse": 3894,
  "linear": 3895,
  "stly": 3896,
  "drinking": 3897,
  "all-@@": 3898,
  "slides": 3899,
  "sul@@": 3900,
  "productivity": 3901,
  "six-@@": 3902,
  "aling": 3903,
  "thir@@": 3904,
  "27": 3905,
  "thri@@": 3906,
  "whale": 3907,
  "disappear": 3908,
  "distant": 3909,
  "adam": 3910,
  "les@@": 3911,
  "dish": 3912,
  "exhibition": 3913,
  "breaks": 3914,
  "standards": 3915,
  "advertising": 3916,
  "cially": 3917,
  "ids": 3918,
  "russia": 3919,
  "classes": 3920,
  "ures": 3921,
  "disorders": 3922,
  "ner@@": 3923,
  "scra@@": 3924,
  "cute": 3925,
  "tour": 3926,
  "mul@@": 3927,
  "arian": 3928,
  "dependent": 3929,
  "texas": 3930,
  "elephant": 3931,
  "an-@@": 3932,
  "mainly": 3933,
  "ignore": 3934,
  "concepts": 3935,
  "gically": 3936,
  "parent": 3937,
  "hin@@": 3938,
  "seed": 3939,
  "facial": 3940,
  "units": 3941,
  "outcomes": 3942,
  "enemy": 3943,
  "telephone": 3944,
  "educated": 3945,
  "adapt": 3946,
  "tiles": 3947,
  "ain": 3948,
  "physicist": 3949,
  "meetings": 3950,
  "legacy": 3951,
  "yer": 3952,
  "hat@@": 3953,
  "clay": 3954,
  "che": 3955,
  "op": 3956,
  "onal": 3957,
  "reduction": 3958,
  "extent": 3959,
  "conservation": 3960,
  "destroy": 3961,
  "crea@@": 3962,
  "slo@@": 3963,
  "organize": 3964,
  "transparency": 3965,
  "orbit": 3966,
  "65": 3967,
  "gan@@": 3968,
  "attached": 3969,
  "tragedy": 3970,
  "tter": 3971,
  "peter": 3972,
  "22": 3973,
  "populations": 3974,
  "chaos": 3975,
  "thrown": 3976,
  "pul@@": 3977,
  "photo@@": 3978,
  "destroyed": 3979,
  "ben": 3980,
  "cour@@": 3981,
  "shed": 3982,
  "neuron": 3983,
  "ideal": 3984,
  "fixed": 3985,
  "ture": 3986,
  "apartment": 3987,
  "cont@@": 3988,
  "appears": 3989,
  "virtually": 3990,
  "darkness": 3991,
  "afterwards": 3992,
  "charity": 3993,
  "contrast": 3994,
  "dioxide": 3995,
  "produces": 3996,
  "vulnerability": 3997,
  "challenging": 3998,
  "gent": 3999,
  "hyper@@": 4000,
  "hr@@": 4001,
  "gate": 4002,
  "bly": 4003,
  "ugly": 4004,
  "season": 4005,
  "ential": 4006,
  "hardly": 4007,
  "monkey": 4008,
  "mes": 4009,
  "tting": 4010,
  "worker": 4011,
  "ir": 4012,
  "heaven": 4013,
  "iling": 4014,
  "lea@@": 4015,
  "headed": 4016,
  "ey": 4017,
  "mri": 4018,
  "dig": 4019,
  "kers": 4020,
  "dynamics": 4021,
  "talent": 4022,
  "fer": 4023,
  "mol@@": 4024,
  "diff@@": 4025,
  "traveled": 4026,
  "backwards": 4027,
  "parallel": 4028,
  "ph": 4029,
  "blow": 4030,
  "human@@": 4031,
  "memories": 4032,
  "desk": 4033,
  "positions": 4034,
  "ridiculous": 4035,
  "conversations": 4036,
  "veness": 4037,
  "locked": 4038,
  "doors": 4039,
  "sheet": 4040,
  "january": 4041,
  "surrounded": 4042,
  "wat@@": 4043,
  "atlantic": 4044,
  "regul@@": 4045,
  "embedded": 4046,
  "historical": 4047,
  "chimpanzees": 4048,
  "autism": 4049,
  "orange": 4050,
  "herself": 4051,
  "seats": 4052,
  "yp@@": 4053,
  "nurses": 4054,
  "papers": 4055,
  "appeared": 4056,
  "currency": 4057,
  "tain": 4058,
  "shu@@": 4059,
  "sam@@": 4060,
  "excuse": 4061,
  "int": 4062,
  "smoke": 4063,
  "photography": 4064,
  "floating": 4065,
  "bias": 4066,
  "pet@@": 4067,
  "blin@@": 4068,
  "muscles": 4069,
  "landed": 4070,
  "fusion": 4071,
  "tired": 4072,
  "ending": 4073,
  "uganda": 4074,
  "broad@@": 4075,
  "cell@@": 4076,
  "controlling": 4077,
  "microsoft": 4078,
  "cup": 4079,
  "filter": 4080,
  "stock": 4081,
  "morality": 4082,
  "derek": 4083,
  "80s": 4084,
  "resolution": 4085,
  "fan": 4086,
  "bo": 4087,
  "lic": 4088,
  "bow": 4089,
  "anger": 4090,
  "ash": 4091,
  "jack": 4092,
  "elling": 4093,
  "academic": 4094,
  "frequency": 4095,
  "ony": 4096,
  "cycles": 4097,
  "opens": 4098,
  "bee": 4099,
  "za@@": 4100,
  "overcome": 4101,
  "golf": 4102,
  "fifth": 4103,
  "soviet": 4104,
  "plan@@": 4105,
  "o-@@": 4106,
  "fiber": 4107,
  "kan@@": 4108,
  "cheaper": 4109,
  "involves": 4110,
  "presented": 4111,
  "oldest": 4112,
  "increases": 4113,
  "so-called": 4114,
  "accessible": 4115,
  "spiritual": 4116,
  "ular": 4117,
  "eric": 4118,
  "ghts": 4119,
  "smallpox": 4120,
  "2006": 4121,
  "colony": 4122,
  "plays": 4123,
  "lock": 4124,
  "personality": 4125,
  "ek": 4126,
  "reef": 4127,
  "adding": 4128,
  "expert": 4129,
  "cher": 4130,
  "mes@@": 4131,
  "truck": 4132,
  "gol@@": 4133,
  "cho@@": 4134,
  "achieved": 4135,
  "commun@@": 4136,
  "cin@@": 4137,
  "volunteers": 4138,
  "tan@@": 4139,
  "apo@@": 4140,
  "plenty": 4141,
  "pushing": 4142,
  "stable": 4143,
  "foot@@": 4144,
  "naked": 4145,
  "ells": 4146,
  "pace": 4147,
  "sports": 4148,
  "logical": 4149,
  "chosen": 4150,
  "angeles": 4151,
  "lecture": 4152,
  "provides": 4153,
  "static": 4154,
  "drawn": 4155,
  "frozen": 4156,
  "communications": 4157,
  "maintain": 4158,
  "tax": 4159,
  "diabetes": 4160,
  "ric": 4161,
  "rice": 4162,
  "spots": 4163,
  "funded": 4164,
  "super-@@": 4165,
  "official": 4166,
  "stanford": 4167,
  "photographed": 4168,
  "poorest": 4169,
  "green@@": 4170,
  "via": 4171,
  "includes": 4172,
  "habitat": 4173,
  "fluid": 4174,
  "stry": 4175,
  "continues": 4176,
  "stat@@": 4177,
  "thick": 4178,
  "rarely": 4179,
  "allo@@": 4180,
  "psychological": 4181,
  "tan": 4182,
  "muslims": 4183,
  "foods": 4184,
  "fears": 4185,
  "host": 4186,
  "rou@@": 4187,
  "silent": 4188,
  "psycho@@": 4189,
  "drill": 4190,
  "ual": 4191,
  "reduced": 4192,
  "hearts": 4193,
  "ach": 4194,
  "raising": 4195,
  "tricks": 4196,
  "sl@@": 4197,
  "trucks": 4198,
  "missed": 4199,
  "laid": 4200,
  "agenda": 4201,
  "globalization": 4202,
  "beer": 4203,
  "journalist": 4204,
  "fres@@": 4205,
  "000-@@": 4206,
  "demonstrate": 4207,
  "allowing": 4208,
  "brief": 4209,
  "copyright": 4210,
  "killer": 4211,
  "soli@@": 4212,
  "i.@@": 4213,
  "excellent": 4214,
  "discoveries": 4215,
  "pp@@": 4216,
  "dur@@": 4217,
  ".com": 4218,
  "practices": 4219,
  "quar@@": 4220,
  "pas@@": 4221,
  "26": 4222,
  "2003": 4223,
  "yours": 4224,
  "shi@@": 4225,
  "toilet": 4226,
  "lift": 4227,
  "writers": 4228,
  "sch@@": 4229,
  "precisely": 4230,
  "thr@@": 4231,
  "boo@@": 4232,
  "asks": 4233,
  "seas": 4234,
  "rush": 4235,
  "chi@@": 4236,
  "tribes": 4237,
  "hungry": 4238,
  "bit@@": 4239,
  "storm": 4240,
  "astonishing": 4241,
  "searching": 4242,
  "fabulous": 4243,
  "fun@@": 4244,
  "sil@@": 4245,
  "pled": 4246,
  "dedicated": 4247,
  "finds": 4248,
  "provided": 4249,
  "struc@@": 4250,
  "ances": 4251,
  "with@@": 4252,
  "oning": 4253,
  "0.@@": 4254,
  "qui@@": 4255,
  "terrorism": 4256,
  "gation": 4257,
  "95": 4258,
  "extract": 4259,
  "pointed": 4260,
  "kb": 4261,
  "k-@@": 4262,
  "ah@@": 4263,
  "tt@@": 4264,
  "fro@@": 4265,
  "kar@@": 4266,
  "removed": 4267,
  "ethiopia": 4268,
  "diagram": 4269,
  "orchestra": 4270,
  "oc@@": 4271,
  "opposed": 4272,
  "courage": 4273,
  "license": 4274,
  "defen@@": 4275,
  "cable": 4276,
  "letting": 4277,
  "facility": 4278,
  "motivation": 4279,
  "earthquake": 4280,
  "emergency": 4281,
  "imagined": 4282,
  "fascinated": 4283,
  "native": 4284,
  "glamorous": 4285,
  "speakers": 4286,
  "angry": 4287,
  "ace": 4288,
  "fiction": 4289,
  "capita": 4290,
  "gps": 4291,
  "integrated": 4292,
  "boards": 4293,
  "mel@@": 4294,
  "explaining": 4295,
  "ams": 4296,
  "essi@@": 4297,
  "ther": 4298,
  "recognized": 4299,
  "controls": 4300,
  "absor@@": 4301,
  "x-@@": 4302,
  "tives": 4303,
  "crying": 4304,
  "ands": 4305,
  "ery": 4306,
  "pyramid": 4307,
  "bars": 4308,
  "pilot": 4309,
  "cian": 4310,
  "shooting": 4311,
  "jail": 4312,
  "cated": 4313,
  "super": 4314,
  "loud": 4315,
  "thro@@": 4316,
  "13@@": 4317,
  "retro@@": 4318,
  "nurse": 4319,
  "condu@@": 4320,
  "bicycle": 4321,
  "affordable": 4322,
  "cambridge": 4323,
  "permanent": 4324,
  "recognition": 4325,
  "arti@@": 4326,
  "pers": 4327,
  "insu@@": 4328,
  "surfaces": 4329,
  "qualities": 4330,
  "graphics": 4331,
  "react": 4332,
  "clients": 4333,
  "dou@@": 4334,
  "bin@@": 4335,
  "holds": 4336,
  "drove": 4337,
  "likes": 4338,
  "elsewhere": 4339,
  "conclude": 4340,
  "wr@@": 4341,
  "skull": 4342,
  "limits": 4343,
  "gang": 4344,
  "glasses": 4345,
  "ners": 4346,
  "ethical": 4347,
  "grandfather": 4348,
  "tries": 4349,
  "gging": 4350,
  "hollywood": 4351,
  "pool": 4352,
  "observation": 4353,
  "wan@@": 4354,
  "harm": 4355,
  "gore": 4356,
  "aw@@": 4357,
  "receive": 4358,
  "ski@@": 4359,
  "restri@@": 4360,
  "tank": 4361,
  "rock@@": 4362,
  "suicide": 4363,
  "contains": 4364,
  "artistic": 4365,
  "agricultural": 4366,
  "aded": 4367,
  "resi@@": 4368,
  "12@@": 4369,
  "aircraft": 4370,
  "polar": 4371,
  "architectural": 4372,
  "poster": 4373,
  "smo@@": 4374,
  "emerge": 4375,
  "consume": 4376,
  "dignity": 4377,
  "cate": 4378,
  "dust": 4379,
  "customers": 4380,
  "transport": 4381,
  "blogs": 4382,
  "tly": 4383,
  "consequence": 4384,
  "succeed": 4385,
  "collecting": 4386,
  "coloni@@": 4387,
  "returned": 4388,
  "firm": 4389,
  "informed": 4390,
  "trends": 4391,
  "cap": 4392,
  "airport": 4393,
  "circles": 4394,
  "saturn": 4395,
  "origin": 4396,
  "suggesting": 4397,
  "escape": 4398,
  "picking": 4399,
  "aspi@@": 4400,
  "biologists": 4401,
  "sett@@": 4402,
  "review": 4403,
  "addi@@": 4404,
  "4,000": 4405,
  "2001": 4406,
  "essing": 4407,
  "construct": 4408,
  "knee": 4409,
  "chief": 4410,
  "fri@@": 4411,
  "lations": 4412,
  "economist": 4413,
  "wards": 4414,
  "utili@@": 4415,
  "figuring": 4416,
  "nobel": 4417,
  "sub-@@": 4418,
  "protecting": 4419,
  "cave": 4420,
  "viral": 4421,
  "sport": 4422,
  "scales": 4423,
  "providing": 4424,
  "rwanda": 4425,
  "rio": 4426,
  "fal@@": 4427,
  "demo@@": 4428,
  "accidents": 4429,
  "vable": 4430,
  "neighbor": 4431,
  "separated": 4432,
  "sensory": 4433,
  "poet": 4434,
  "crossing": 4435,
  "computation": 4436,
  "predictions": 4437,
  "musicians": 4438,
  "rebuild": 4439,
  "mammals": 4440,
  "regret": 4441,
  "civili@@": 4442,
  "gut": 4443,
  "cash": 4444,
  "rescue": 4445,
  "dimension": 4446,
  "precise": 4447,
  "realm": 4448,
  "twi@@": 4449,
  "martin": 4450,
  "june": 4451,
  "cti@@": 4452,
  "elled": 4453,
  "ville": 4454,
  "photographer": 4455,
  "gh": 4456,
  "initial": 4457,
  "analy@@": 4458,
  "sharp": 4459,
  "brian": 4460,
  "underground": 4461,
  "repair": 4462,
  "neural": 4463,
  "23": 4464,
  "glamour": 4465,
  "represented": 4466,
  "proper": 4467,
  "jewish": 4468,
  "fortunate": 4469,
  "fathers": 4470,
  "alien": 4471,
  "climbing": 4472,
  "transparent": 4473,
  "thre@@": 4474,
  "quest": 4475,
  "cartoon": 4476,
  "variation": 4477,
  "borders": 4478,
  "ine@@": 4479,
  "ep": 4480,
  "ctu@@": 4481,
  "encounter": 4482,
  "palm": 4483,
  "ya": 4484,
  "mon": 4485,
  "openness": 4486,
  "focusing": 4487,
  "mining": 4488,
  "mice": 4489,
  "rocks": 4490,
  "layers": 4491,
  "bears": 4492,
  "offers": 4493,
  "reports": 4494,
  "mines": 4495,
  "800": 4496,
  "barely": 4497,
  "neuroscience": 4498,
  "dress": 4499,
  "hardware": 4500,
  "uns@@": 4501,
  "1990s": 4502,
  "pulling": 4503,
  "inches": 4504,
  "owned": 4505,
  "monitor": 4506,
  "characteristics": 4507,
  "diverse": 4508,
  "ast@@": 4509,
  "constructed": 4510,
  "gathering": 4511,
  "obser@@": 4512,
  "appe@@": 4513,
  "our@@": 4514,
  "concern": 4515,
  "maker": 4516,
  "simpli@@": 4517,
  "devil": 4518,
  "symbols": 4519,
  "dru@@": 4520,
  "im": 4521,
  "sales": 4522,
  "sm": 4523,
  "alizing": 4524,
  "ed@@": 4525,
  "weapon": 4526,
  "electronics": 4527,
  "injury": 4528,
  "hire": 4529,
  "ris@@": 4530,
  "optimism": 4531,
  "october": 4532,
  "amongst": 4533,
  "interactions": 4534,
  "buried": 4535,
  "watts": 4536,
  "strategies": 4537,
  "cer": 4538,
  "ecosystems": 4539,
  "vertical": 4540,
  "pump": 4541,
  "unbelievable": 4542,
  "shelf": 4543,
  "vacuum": 4544,
  "ka": 4545,
  "cir@@": 4546,
  "diagnosed": 4547,
  "highway": 4548,
  "sand@@": 4549,
  "di": 4550,
  "mag@@": 4551,
  "imagin@@": 4552,
  "loop": 4553,
  "output": 4554,
  "boundaries": 4555,
  "someday": 4556,
  "smooth": 4557,
  "speaker": 4558,
  "cast": 4559,
  "vital": 4560,
  "n-@@": 4561,
  "backs": 4562,
  "mall": 4563,
  "detection": 4564,
  "lac@@": 4565,
  "bom@@": 4566,
  "publi@@": 4567,
  "rays": 4568,
  "damn": 4569,
  "ki": 4570,
  "alities": 4571,
  "ories": 4572,
  "corn": 4573,
  "insurance": 4574,
  "fruit": 4575,
  "seek": 4576,
  "privilege": 4577,
  "dolphin": 4578,
  "emerged": 4579,
  "tension": 4580,
  "manhattan": 4581,
  "failing": 4582,
  "den": 4583,
  "treatments": 4584,
  "council": 4585,
  "hanging": 4586,
  "crops": 4587,
  "gy@@": 4588,
  "app": 4589,
  "bay": 4590,
  "exposed": 4591,
  "wea@@": 4592,
  "ater": 4593,
  "hot@@": 4594,
  "pointing": 4595,
  "-like": 4596,
  "poll@@": 4597,
  "dinosaur": 4598,
  "zer": 4599,
  "tumors": 4600,
  "rely": 4601,
  "preserve": 4602,
  "nat@@": 4603,
  "flip": 4604,
  "efforts": 4605,
  "mentation": 4606,
  "cher@@": 4607,
  "250": 4608,
  "innovations": 4609,
  "eless": 4610,
  "pushed": 4611,
  "winning": 4612,
  "bottles": 4613,
  "essence": 4614,
  "seeds": 4615,
  "limb": 4616,
  "joe": 4617,
  "asteroid": 4618,
  "classical": 4619,
  "bis@@": 4620,
  "ries": 4621,
  "frog": 4622,
  "ingredients": 4623,
  "richer": 4624,
  "teri@@": 4625,
  "stages": 4626,
  "plot": 4627,
  "eri@@": 4628,
  "interacting": 4629,
  "mates": 4630,
  "harvest": 4631,
  "fran@@": 4632,
  "reported": 4633,
  "policies": 4634,
  "marks": 4635,
  "federal": 4636,
  "farmer": 4637,
  "stro@@": 4638,
  "humor": 4639,
  "mixed": 4640,
  "revenue": 4641,
  "governance": 4642,
  "favor": 4643,
  "unlikely": 4644,
  "demon@@": 4645,
  "wei@@": 4646,
  "mode": 4647,
  "forests": 4648,
  "sleeping": 4649,
  "historic": 4650,
  "conflicts": 4651,
  "guide": 4652,
  "advan@@": 4653,
  "engaging": 4654,
  "toes": 4655,
  "1960": 4656,
  "procedure": 4657,
  "globally": 4658,
  "pris@@": 4659,
  "amazon": 4660,
  "hea@@": 4661,
  "originally": 4662,
  "may@@": 4663,
  "dive": 4664,
  "depressed": 4665,
  "3.@@": 4666,
  "distra@@": 4667,
  "cyber@@": 4668,
  "document": 4669,
  "tations": 4670,
  "garbage": 4671,
  "committed": 4672,
  "sentences": 4673,
  "fertili@@": 4674,
  "rain@@": 4675,
  "teenagers": 4676,
  "alists": 4677,
  "32": 4678,
  "wash": 4679,
  "males": 4680,
  "domestic": 4681,
  "bak@@": 4682,
  "hall@@": 4683,
  "ll": 4684,
  "sible": 4685,
  "shopping": 4686,
  "robotic": 4687,
  "meal": 4688,
  "ze@@": 4689,
  "spinal": 4690,
  "stones": 4691,
  "ted@@": 4692,
  "liberal": 4693,
  "evolve": 4694,
  "stores": 4695,
  "footprint": 4696,
  "methods": 4697,
  "successfully": 4698,
  "laser": 4699,
  "sel@@": 4700,
  "parties": 4701,
  "habit@@": 4702,
  "subway": 4703,
  "shrimp": 4704,
  "ker@@": 4705,
  "cooperation": 4706,
  "consistent": 4707,
  "ements": 4708,
  "skeleton": 4709,
  "silly": 4710,
  "ly@@": 4711,
  "served": 4712,
  "besides": 4713,
  "sus@@": 4714,
  "gentleman": 4715,
  "impli@@": 4716,
  "scratch": 4717,
  "announced": 4718,
  "posi@@": 4719,
  "struggling": 4720,
  "mus@@": 4721,
  "chil@@": 4722,
  "lau@@": 4723,
  "ignor@@": 4724,
  "mics": 4725,
  "mil@@": 4726,
  "translation": 4727,
  "vagina": 4728,
  "oper@@": 4729,
  "tile": 4730,
  "actors": 4731,
  "rats": 4732,
  "imaging": 4733,
  "brush": 4734,
  "witness": 4735,
  "formation": 4736,
  "lined": 4737,
  "za": 4738,
  "tip": 4739,
  "robust": 4740,
  "cotton": 4741,
  "sau@@": 4742,
  "advis@@": 4743,
  "occasionally": 4744,
  "90s": 4745,
  "explosion": 4746,
  "shit": 4747,
  "spectacular": 4748,
  "blame": 4749,
  "viol@@": 4750,
  "mayor": 4751,
  "predicted": 4752,
  "ored": 4753,
  "mation": 4754,
  "underlying": 4755,
  "cheese": 4756,
  "exten@@": 4757,
  "invite": 4758,
  "cians": 4759,
  "shadow": 4760,
  "rolling": 4761,
  "baseball": 4762,
  "upset": 4763,
  "eted": 4764,
  "alzheimer": 4765,
  "regime": 4766,
  "contain": 4767,
  "aspects": 4768,
  "opera": 4769,
  "february": 4770,
  "tracks": 4771,
  "perceive": 4772,
  "gli@@": 4773,
  "visited": 4774,
  "tony": 4775,
  "bronx": 4776,
  "lawyers": 4777,
  "articles": 4778,
  "operations": 4779,
  "domain": 4780,
  "inging": 4781,
  "dder": 4782,
  "ack": 4783,
  "armed": 4784,
  "county": 4785,
  "sher@@": 4786,
  "prints": 4787,
  "industries": 4788,
  "buil@@": 4789,
  "nerve": 4790,
  "diver@@": 4791,
  "play@@": 4792,
  "fir@@": 4793,
  "identified": 4794,
  "admi@@": 4795,
  "affects": 4796,
  "uncle": 4797,
  "dents": 4798,
  "visu@@": 4799,
  "folding": 4800,
  "whatsoever": 4801,
  "briefly": 4802,
  "elev@@": 4803,
  "founded": 4804,
  "contribu@@": 4805,
  "elections": 4806,
  "mod@@": 4807,
  "dul@@": 4808,
  "reminded": 4809,
  "toy": 4810,
  "predi@@": 4811,
  "2,@@": 4812,
  "pink": 4813,
  "gor@@": 4814,
  "stics": 4815,
  "trash": 4816,
  "dist@@": 4817,
  "ust": 4818,
  "refer@@": 4819,
  "luckily": 4820,
  "ple": 4821,
  "sequ@@": 4822,
  "lion": 4823,
  "footage": 4824,
  "dence": 4825,
  "collaborative": 4826,
  "life-@@": 4827,
  "grams": 4828,
  "delivered": 4829,
  "acy": 4830,
  "sac@@": 4831,
  "surprisingly": 4832,
  "rul@@": 4833,
  "jac@@": 4834,
  "senior": 4835,
  "florida": 4836,
  "floo@@": 4837,
  "gather": 4838,
  "dun@@": 4839,
  "contract": 4840,
  "subtle": 4841,
  "transplant": 4842,
  "howard": 4843,
  "tap": 4844,
  "oxytocin": 4845,
  "contemporary": 4846,
  "expres@@": 4847,
  "exclu@@": 4848,
  "epi@@": 4849,
  "flows": 4850,
  "compli@@": 4851,
  "intuition": 4852,
  "serving": 4853,
  "luck": 4854,
  "kills": 4855,
  "light@@": 4856,
  "sm@@": 4857,
  "jesus": 4858,
  "dete@@": 4859,
  "colleague": 4860,
  "washing": 4861,
  "demographic": 4862,
  "instructions": 4863,
  "thin@@": 4864,
  "phantom": 4865,
  "amed": 4866,
  "describes": 4867,
  "bol@@": 4868,
  "football": 4869,
  "bizarre": 4870,
  "improvement": 4871,
  "banks": 4872,
  "attract": 4873,
  "pound": 4874,
  "micro-@@": 4875,
  "signature": 4876,
  "warning": 4877,
  "pig@@": 4878,
  "permission": 4879,
  "side@@": 4880,
  "threw": 4881,
  "taliban": 4882,
  "fires": 4883,
  "painted": 4884,
  "texts": 4885,
  "thou@@": 4886,
  "beliefs": 4887,
  "plastics": 4888,
  "sits": 4889,
  "dominant": 4890,
  "simulation": 4891,
  "worms": 4892,
  "dictionary": 4893,
  "kit@@": 4894,
  "sisters": 4895,
  "extended": 4896,
  "respe@@": 4897,
  "cake": 4898,
  "initially": 4899,
  "miracle": 4900,
  "mechanisms": 4901,
  "conductor": 4902,
  "dopamine": 4903,
  "essed": 4904,
  "leather": 4905,
  "sensors": 4906,
  "reducing": 4907,
  "reform": 4908,
  "leverage": 4909,
  "hab@@": 4910,
  "colored": 4911,
  "slavery": 4912,
  "rob@@": 4913,
  "700": 4914,
  "glad": 4915,
  "nowadays": 4916,
  "immer@@": 4917,
  "discus@@": 4918,
  "debt": 4919,
  "anima@@": 4920,
  "universities": 4921,
  "shifting": 4922,
  "pandemic": 4923,
  "inse@@": 4924,
  "relations": 4925,
  "tubes": 4926,
  "stairs": 4927,
  "rope": 4928,
  "classi@@": 4929,
  "contribute": 4930,
  "bun@@": 4931,
  "reliable": 4932,
  "staying": 4933,
  "syndrome": 4934,
  "aged": 4935,
  "reser@@": 4936,
  "kilo@@": 4937,
  "discuss": 4938,
  "suspect": 4939,
  "bers": 4940,
  "abilities": 4941,
  "jim": 4942,
  "scri@@": 4943,
  "ires": 4944,
  "theories": 4945,
  "gras": 4946,
  "honey": 4947,
  "kins": 4948,
  "obli@@": 4949,
  "dest": 4950,
  "kno@@": 4951,
  "coordin@@": 4952,
  "tal@@": 4953,
  "genetics": 4954,
  "ressed": 4955,
  "methane": 4956,
  "begun": 4957,
  "restor@@": 4958,
  "p-@@": 4959,
  "drew": 4960,
  "expectancy": 4961,
  "tize": 4962,
  "exponential": 4963,
  "journal": 4964,
  "fits": 4965,
  "diving": 4966,
  "consi@@": 4967,
  "pigs": 4968,
  "emplo@@": 4969,
  "wa": 4970,
  "off@@": 4971,
  "empire": 4972,
  "lawyer": 4973,
  "iness": 4974,
  "tuna": 4975,
  "dating": 4976,
  "sons": 4977,
  "earn": 4978,
  "panels": 4979,
  "boom": 4980,
  "announ@@": 4981,
  "inventor": 4982,
  "ster@@": 4983,
  "algorithm": 4984,
  "external": 4985,
  "concei@@": 4986,
  "biodiversity": 4987,
  "coke": 4988,
  "experimental": 4989,
  "guns": 4990,
  "jellyfish": 4991,
  "translated": 4992,
  "gies": 4993,
  "eled": 4994,
  "the-@@": 4995,
  "elderly": 4996,
  "independence": 4997,
  "dire@@": 4998,
  "youth": 4999,
  "route": 5000,
  "ensure": 5001,
  "plug": 5002,
  "h-@@": 5003,
  "ownership": 5004,
  "hus@@": 5005,
  "forgotten": 5006,
  "hypothesis": 5007,
  "degra@@": 5008,
  "crucial": 5009,
  "balls": 5010,
  "replicate": 5011,
  "flexible": 5012,
  "consciously": 5013,
  "keyboard": 5014,
  "brain@@": 5015,
  "expanding": 5016,
  "neat": 5017,
  "ess@@": 5018,
  "promote": 5019,
  "winds": 5020,
  "discovering": 5021,
  "memes": 5022,
  "entrepreneur": 5023,
  "programming": 5024,
  "motors": 5025,
  "aming": 5026,
  "accepted": 5027,
  "recru@@": 5028,
  "initi@@": 5029,
  "trains": 5030,
  "belong": 5031,
  "breakfast": 5032,
  "wildlife": 5033,
  "mill": 5034,
  "acceler@@": 5035,
  "sub-saharan": 5036,
  "smith": 5037,
  "shots": 5038,
  "frontal": 5039,
  "spin": 5040,
  "worthy": 5041,
  "suggested": 5042,
  "terror": 5043,
  "sty@@": 5044,
  "elementary": 5045,
  "dear": 5046,
  "engagement": 5047,
  "italy": 5048,
  "lincoln": 5049,
  "hitting": 5050,
  "mail": 5051,
  "run@@": 5052,
  "imagery": 5053,
  "cord": 5054,
  "ind": 5055,
  "bags": 5056,
  "penet@@": 5057,
  "dom@@": 5058,
  "advo@@": 5059,
  "terribly": 5060,
  "daughters": 5061,
  "bab@@": 5062,
  "airplanes": 5063,
  "ush": 5064,
  "cross-@@": 5065,
  "tam@@": 5066,
  "henry": 5067,
  "acc@@": 5068,
  "pm": 5069,
  "outer": 5070,
  "au": 5071,
  "ema@@": 5072,
  "shanghai": 5073,
  "1980s": 5074,
  "exam@@": 5075,
  "arrive": 5076,
  "stated": 5077,
  "stre@@": 5078,
  "salt": 5079,
  "vegetables": 5080,
  "mented": 5081,
  "extinction": 5082,
  "turkey": 5083,
  "att@@": 5084,
  "caring": 5085,
  "shelter": 5086,
  "comedy": 5087,
  "established": 5088,
  "answered": 5089,
  "pot": 5090,
  "instin@@": 5091,
  "egg": 5092,
  "sauce": 5093,
  "influ@@": 5094,
  "needle": 5095,
  "pants": 5096,
  "advance": 5097,
  "mapping": 5098,
  "sacred": 5099,
  "elected": 5100,
  "scre@@": 5101,
  "mushroom": 5102,
  "inst@@": 5103,
  "path@@": 5104,
  "expectations": 5105,
  "blan@@": 5106,
  "sixth": 5107,
  "tate": 5108,
  "mo": 5109,
  "edges": 5110,
  "ama@@": 5111,
  "comic": 5112,
  "discipline": 5113,
  "migra@@": 5114,
  "mp": 5115,
  "proposed": 5116,
  "tim": 5117,
  "cating": 5118,
  "fting": 5119,
  "ooh": 5120,
  "incre@@": 5121,
  "bob": 5122,
  "wings": 5123,
  "shirt": 5124,
  "rb": 5125,
  "iting": 5126,
  "occu@@": 5127,
  "paralyzed": 5128,
  "divi@@": 5129,
  "geometry": 5130,
  "fr@@": 5131,
  "pockets": 5132,
  "vari@@": 5133,
  "moore": 5134,
  "power@@": 5135,
  "antly": 5136,
  "mathematicians": 5137,
  "bli@@": 5138,
  "cus": 5139,
  "jud@@": 5140,
  "criminal": 5141,
  "50@@": 5142,
  "december": 5143,
  "mand@@": 5144,
  "g-@@": 5145,
  "er-@@": 5146,
  "ops": 5147,
  "comparison": 5148,
  "wider": 5149,
  "horri@@": 5150,
  "tribe": 5151,
  "description": 5152,
  "defe@@": 5153,
  "generating": 5154,
  "gonna": 5155,
  "-to-@@": 5156,
  "trajectory": 5157,
  "portion": 5158,
  "scores": 5159,
  "sheets": 5160,
  "supported": 5161,
  "robotics": 5162,
  "cent@@": 5163,
  "surgeons": 5164,
  "impression": 5165,
  "stal@@": 5166,
  "depth": 5167,
  "tho@@": 5168,
  "perpet@@": 5169,
  "promised": 5170,
  "acted": 5171,
  "ai": 5172,
  "teen": 5173,
  "idi@@": 5174,
  "thi@@": 5175,
  "fraction": 5176,
  "clothing": 5177,
  "altitude": 5178,
  "investing": 5179,
  "clin@@": 5180,
  "feynman": 5181,
  "flowing": 5182,
  "mal": 5183,
  "pitch": 5184,
  "portrait": 5185,
  "multi-@@": 5186,
  "engineered": 5187,
  "fragile": 5188,
  "fit@@": 5189,
  "pis@@": 5190,
  "strike": 5191,
  "ght": 5192,
  "annual": 5193,
  "pois@@": 5194,
  "tar@@": 5195,
  "bats": 5196,
  "limit": 5197,
  "rose": 5198,
  "initiative": 5199,
  "primitive": 5200,
  "hon@@": 5201,
  "tendency": 5202,
  "shocked": 5203,
  "profoundly": 5204,
  "continuing": 5205,
  "esses": 5206,
  "assumptions": 5207,
  "participants": 5208,
  "endangered": 5209,
  "persu@@": 5210,
  "resistant": 5211,
  "gas@@": 5212,
  "fancy": 5213,
  "charges": 5214,
  "wer": 5215,
  "abraham": 5216,
  "recei@@": 5217,
  "russian": 5218,
  "first-@@": 5219,
  "pretend": 5220,
  "corre@@": 5221,
  "de-@@": 5222,
  "immediate": 5223,
  "195@@": 5224,
  "prepare": 5225,
  "audi@@": 5226,
  "eaten": 5227,
  "summit": 5228,
  "ell": 5229,
  "s.": 5230,
  "merely": 5231,
  "widely": 5232,
  "ong": 5233,
  "laughing": 5234,
  "ridge": 5235,
  "penguin": 5236,
  "pause": 5237,
  "entation": 5238,
  "entropy": 5239,
  "extend": 5240,
  "uncomfortable": 5241,
  "stops": 5242,
  "hun@@": 5243,
  "hat": 5244,
  "fts": 5245,
  "analyze": 5246,
  "unding": 5247,
  "dele@@": 5248,
  "sum@@": 5249,
  "cosmic": 5250,
  "bucks": 5251,
  "wheat": 5252,
  "rat": 5253,
  "remaining": 5254,
  "lum@@": 5255,
  "tends": 5256,
  "jazz": 5257,
  "quit": 5258,
  "whi@@": 5259,
  "prefer@@": 5260,
  "alle@@": 5261,
  "printer": 5262,
  "ities": 5263,
  "crack": 5264,
  "clean@@": 5265,
  "arrange@@": 5266,
  "mt": 5267,
  "planes": 5268,
  "captured": 5269,
  "vel@@": 5270,
  "cows": 5271,
  "milli@@": 5272,
  "antibiotics": 5273,
  "thus": 5274,
  "rings": 5275,
  "repeat": 5276,
  "adopted": 5277,
  "50s": 5278,
  "yers": 5279,
  "lar@@": 5280,
  "narrow": 5281,
  "smoking": 5282,
  "ral": 5283,
  "abuse": 5284,
  "rations": 5285,
  "plum@@": 5286,
  "flag": 5287,
  "gic": 5288,
  "bug": 5289,
  "instru@@": 5290,
  "ples": 5291,
  "6,000": 5292,
  "dialogue": 5293,
  "demonstration": 5294,
  "extension": 5295,
  "homo": 5296,
  "reminds": 5297,
  "un-@@": 5298,
  "hear@@": 5299,
  "phosphorus": 5300,
  "2050": 5301,
  "sciences": 5302,
  "substance": 5303,
  "loves": 5304,
  "compassionate": 5305,
  "ame": 5306,
  "15@@": 5307,
  "audio": 5308,
  "sw": 5309,
  "arabic": 5310,
  "suffered": 5311,
  "dictat@@": 5312,
  "objective": 5313,
  "of-@@": 5314,
  "tent": 5315,
  "clu@@": 5316,
  "dump@@": 5317,
  "centi@@": 5318,
  "supplies": 5319,
  "obje@@": 5320,
  "wind@@": 5321,
  "client": 5322,
  "resilience": 5323,
  "thers": 5324,
  "command": 5325,
  "counting": 5326,
  "improving": 5327,
  "woke": 5328,
  "gods": 5329,
  "stroke": 5330,
  "common@@": 5331,
  "plain": 5332,
  "earliest": 5333,
  "adventure": 5334,
  "28": 5335,
  "comment": 5336,
  "dropping": 5337,
  "las@@": 5338,
  "factories": 5339,
  "stepped": 5340,
  "dow@@": 5341,
  "confused": 5342,
  "infections": 5343,
  "gotta": 5344,
  "delivery": 5345,
  "remained": 5346,
  "sunday": 5347,
  "array": 5348,
  "civilizations": 5349,
  "neck": 5350,
  "chairs": 5351,
  "1970s": 5352,
  "enables": 5353,
  "gles": 5354,
  "puzzles": 5355,
  "bled": 5356,
  "owner": 5357,
  "cep@@": 5358,
  "120": 5359,
  "dic": 5360,
  "traditions": 5361,
  "realizing": 5362,
  "tissues": 5363,
  "ading": 5364,
  "ght@@": 5365,
  "steven": 5366,
  "grateful": 5367,
  "admini@@": 5368,
  "kl@@": 5369,
  "fibers": 5370,
  "conclu@@": 5371,
  "christian": 5372,
  "agent": 5373,
  "folds": 5374,
  "freely": 5375,
  "abo@@": 5376,
  "ham": 5377,
  "cham@@": 5378,
  "holy": 5379,
  "angel@@": 5380,
  "2002": 5381,
  "researcher": 5382,
  "tears": 5383,
  "soup": 5384,
  "bubbles": 5385,
  "bat": 5386,
  "fron@@": 5387,
  "greek": 5388,
  "rapid": 5389,
  "ow@@": 5390,
  "magical": 5391,
  "sandwich": 5392,
  "achievement": 5393,
  "invi@@": 5394,
  "holi@@": 5395,
  "astro@@": 5396,
  "enhan@@": 5397,
  "ick": 5398,
  "choosing": 5399,
  "ero@@": 5400,
  "technically": 5401,
  "pad": 5402,
  "vibra@@": 5403,
  "29": 5404,
  "visions": 5405,
  "ga": 5406,
  "incentive": 5407,
  "wheels": 5408,
  "interpretation": 5409,
  "profits": 5410,
  "circuits": 5411,
  "consul@@": 5412,
  "proven": 5413,
  "significantly": 5414,
  "gained": 5415,
  "jun@@": 5416,
  "proportion": 5417,
  "refriger@@": 5418,
  "10-@@": 5419,
  "tran@@": 5420,
  "middle-@@": 5421,
  "fat@@": 5422,
  "spain": 5423,
  "cuts": 5424,
  "association": 5425,
  "fs": 5426,
  ",@@": 5427,
  "eting": 5428,
  "chasing": 5429,
  "documents": 5430,
  "30,000": 5431,
  "ecological": 5432,
  "tor": 5433,
  "entering": 5434,
  "sna@@": 5435,
  "infection": 5436,
  "database": 5437,
  "comple@@": 5438,
  "weak@@": 5439,
  "nuts": 5440,
  "ane": 5441,
  "innocent": 5442,
  "analogy": 5443,
  "finger@@": 5444,
  "magne@@": 5445,
  "tained": 5446,
  "smarter": 5447,
  "frustrated": 5448,
  "drivers": 5449,
  "syn@@": 5450,
  "inevitable": 5451,
  "tled": 5452,
  "insect": 5453,
  "transfer": 5454,
  "philosopher": 5455,
  "biosphere": 5456,
  "era@@": 5457,
  "reli@@": 5458,
  "eness": 5459,
  "gaps": 5460,
  "gled": 5461,
  "nutrients": 5462,
  "reserve": 5463,
  "antarctica": 5464,
  "soldier": 5465,
  "fabric": 5466,
  "kevin": 5467,
  "pli@@": 5468,
  "1990": 5469,
  "garage": 5470,
  "no-@@": 5471,
  "motor@@": 5472,
  "mosquito": 5473,
  "credi@@": 5474,
  "smallest": 5475,
  "categories": 5476,
  "hong": 5477,
  "odds": 5478,
  "formula": 5479,
  "dawn": 5480,
  "strangers": 5481,
  "insights": 5482,
  "blank": 5483,
  "administration": 5484,
  "channels": 5485,
  "beneath": 5486,
  "open-source": 5487,
  "pursue": 5488,
  "bend": 5489,
  "open-@@": 5490,
  "recover": 5491,
  "gradually": 5492,
  "communic@@": 5493,
  "april": 5494,
  "dered": 5495,
  "cia": 5496,
  "closest": 5497,
  "bangladesh": 5498,
  "deception": 5499,
  "calories": 5500,
  "pation": 5501,
  "remembered": 5502,
  "tage": 5503,
  "anxiety": 5504,
  "covering": 5505,
  "impressive": 5506,
  "denti@@": 5507,
  "blown": 5508,
  "fan@@": 5509,
  "citizen": 5510,
  "proto@@": 5511,
  "expansion": 5512,
  "grandchildren": 5513,
  "physician": 5514,
  "aches": 5515,
  "ress": 5516,
  "tized": 5517,
  "kick": 5518,
  "alcohol": 5519,
  "limitations": 5520,
  "tangible": 5521,
  "expecting": 5522,
  "download": 5523,
  "fur@@": 5524,
  "mia": 5525,
  "defining": 5526,
  "restaurants": 5527,
  "tab@@": 5528,
  "measures": 5529,
  "johnson": 5530,
  "reveal": 5531,
  "errors": 5532,
  "dominated": 5533,
  "interior": 5534,
  "dutch": 5535,
  "clear@@": 5536,
  "scanning": 5537,
  "horizon": 5538,
  "continents": 5539,
  "district": 5540,
  "profile": 5541,
  "ceo": 5542,
  "rep@@": 5543,
  "autonomous": 5544,
  "trig@@": 5545,
  "port": 5546,
  "ton@@": 5547,
  "gens": 5548,
  "jumped": 5549,
  "dated": 5550,
  "atomic": 5551,
  "ill": 5552,
  "20-@@": 5553,
  "ph.d.": 5554,
  "partly": 5555,
  "expedition": 5556,
  "ts@@": 5557,
  "approaching": 5558,
  "thermal": 5559,
  "hunting": 5560,
  "dity": 5561,
  "gallery": 5562,
  "predators": 5563,
  "gt": 5564,
  "jihad": 5565,
  "vor@@": 5566,
  "convenient": 5567,
  "0s": 5568,
  "w-@@": 5569,
  "grasp": 5570,
  "bulb": 5571,
  "bound": 5572,
  "accounts": 5573,
  "breeding": 5574,
  "occurs": 5575,
  "packed": 5576,
  "experiencing": 5577,
  "representation": 5578,
  "leg@@": 5579,
  "eve": 5580,
  "toys": 5581,
  "myth": 5582,
  "over-@@": 5583,
  "scar@@": 5584,
  "delhi": 5585,
  "zi@@": 5586,
  "newspapers": 5587,
  "charged": 5588,
  "bee@@": 5589,
  "20s": 5590,
  "prisoners": 5591,
  "crew": 5592,
  "renewable": 5593,
  "ai@@": 5594,
  "emp@@": 5595,
  "uncertainty": 5596,
  "prescri@@": 5597,
  "lou@@": 5598,
  "suck": 5599,
  "onia": 5600,
  "shar@@": 5601,
  "elimin@@": 5602,
  "homework": 5603,
  "ax@@": 5604,
  "yield": 5605,
  "nearby": 5606,
  "instantly": 5607,
  "classrooms": 5608,
  "illustrate": 5609,
  "selfish": 5610,
  "restore": 5611,
  "vietnam": 5612,
  "craw@@": 5613,
  "breakthrough": 5614,
  "tone": 5615,
  "capability": 5616,
  "curriculum": 5617,
  "resem@@": 5618,
  "deserve": 5619,
  "enemies": 5620,
  "virginia": 5621,
  "pel@@": 5622,
  "compelling": 5623,
  "rele@@": 5624,
  "tering": 5625,
  "comics": 5626,
  "shortly": 5627,
  "argu@@": 5628,
  "swiss": 5629,
  "insulin": 5630,
  "assemble": 5631,
  "terrorists": 5632,
  "prevention": 5633,
  "competi@@": 5634,
  "attitude": 5635,
  "wealthy": 5636,
  "completed": 5637,
  "replaced": 5638,
  "despair": 5639,
  "stret@@": 5640,
  "redwood": 5641,
  "employed": 5642,
  "quot@@": 5643,
  "agencies": 5644,
  "grandparents": 5645,
  "barrier": 5646,
  "yu@@": 5647,
  "adapted": 5648,
  "colonies": 5649,
  "ceiling": 5650,
  "pairs": 5651,
  "knife": 5652,
  "finan@@": 5653,
  "marketplace": 5654,
  "musician": 5655,
  "amy": 5656,
  "m-@@": 5657,
  "wheelchair": 5658,
  "psychologists": 5659,
  "physicists": 5660,
  "friday": 5661,
  "ticket": 5662,
  "category": 5663,
  "potent": 5664,
  "confident": 5665,
  "installation": 5666,
  "ctively": 5667,
  "ambi@@": 5668,
  "huh": 5669,
  "contrary": 5670,
  "passenger": 5671,
  "philanthropy": 5672,
  "canopy": 5673,
  "ratio": 5674,
  "threats": 5675,
  "turing": 5676,
  "steal": 5677,
  "elephants": 5678,
  "cket": 5679,
  "beating": 5680,
  "grades": 5681,
  "ern@@": 5682,
  "clon@@": 5683,
  "realistic": 5684,
  "laptops": 5685,
  "jet": 5686,
  "deser@@": 5687,
  "conducted": 5688,
  "cancers": 5689,
  "ney": 5690,
  "0-@@": 5691,
  "campus": 5692,
  "eling": 5693,
  "explored": 5694,
  "agreement": 5695,
  "dean": 5696,
  "rivers": 5697,
  "homeless": 5698,
  "venti@@": 5699,
  "attractive": 5700,
  "33": 5701,
  "appearance": 5702,
  "pizza": 5703,
  "gen": 5704,
  "oms": 5705,
  "lg": 5706,
  "included": 5707,
  "sale": 5708,
  "helicopter": 5709,
  "law@@": 5710,
  "cratic": 5711,
  "phenomena": 5712,
  "builds": 5713,
  "influenced": 5714,
  "85": 5715,
  "mysterious": 5716,
  "observe": 5717,
  "full-@@": 5718,
  "teenage": 5719,
  "glue": 5720,
  "victim": 5721,
  "irs": 5722,
  "add@@": 5723,
  "assumption": 5724,
  "tackle": 5725,
  "privacy": 5726,
  "origins": 5727,
  "inti@@": 5728,
  "benjamin": 5729,
  "helium": 5730,
  "strongly": 5731,
  "ecology": 5732,
  "bond": 5733,
  "refer": 5734,
  "sustain": 5735,
  "contamin@@": 5736,
  "hunt": 5737,
  "fallen": 5738,
  "techni@@": 5739,
  "secre@@": 5740,
  "meanwhile": 5741,
  "rail@@": 5742,
  "eg@@": 5743,
  "invested": 5744,
  "whis@@": 5745,
  "stor@@": 5746,
  "gases": 5747,
  "mechanics": 5748,
  "mi": 5749,
  "kidney": 5750,
  "m.": 5751,
  "ora": 5752,
  "planetary": 5753,
  "ishing": 5754,
  "tsunami": 5755,
  "rowing": 5756,
  "plu@@": 5757,
  "picks": 5758,
  "alpha": 5759,
  "blu@@": 5760,
  "spanish": 5761,
  "retirement": 5762,
  "troops": 5763,
  "delicious": 5764,
  "stimul@@": 5765,
  "coo@@": 5766,
  "intensity": 5767,
  "facilities": 5768,
  "billi@@": 5769,
  "wooden": 5770,
  "anonymous": 5771,
  "gad@@": 5772,
  "crows": 5773,
  "disability": 5774,
  "spra@@": 5775,
  "scope": 5776,
  "detailed": 5777,
  "newton": 5778,
  "manual": 5779,
  "hard@@": 5780,
  "performed": 5781,
  "affecting": 5782,
  "foundations": 5783,
  "branches": 5784,
  "italian": 5785,
  "arguing": 5786,
  "cricket": 5787,
  "reci@@": 5788,
  "unhappy": 5789,
  "fastest": 5790,
  "inequality": 5791,
  "reflection": 5792,
  "ference": 5793,
  "generous": 5794,
  "30-@@": 5795,
  "ests": 5796,
  "insane": 5797,
  "rhythm": 5798,
  "zers": 5799,
  "partnership": 5800,
  "vice": 5801,
  "aled": 5802,
  "denial": 5803,
  "joshua": 5804,
  "nes@@": 5805,
  "electron": 5806,
  "judgment": 5807,
  "ngos": 5808,
  "demands": 5809,
  "engines": 5810,
  "two-thirds": 5811,
  "parliament": 5812,
  "volunteer": 5813,
  "throwing": 5814,
  "nin@@": 5815,
  "lord": 5816,
  "seti": 5817,
  "offen@@": 5818,
  "digit": 5819,
  "stack": 5820,
  "rei@@": 5821,
  "loaded": 5822,
  "lap": 5823,
  "voted": 5824,
  "terrifying": 5825,
  "yourselves": 5826,
  "diameter": 5827,
  "hei@@": 5828,
  "dressed": 5829,
  "indians": 5830,
  "forgot": 5831,
  "exception": 5832,
  "dot@@": 5833,
  "hired": 5834,
  "tragic": 5835,
  "connectivity": 5836,
  "tongue": 5837,
  "isolated": 5838,
  "command@@": 5839,
  "correctly": 5840,
  "recipe": 5841,
  "harmony": 5842,
  "pleasant": 5843,
  "bia": 5844,
  "hop@@": 5845,
  "seeking": 5846,
  "mathematician": 5847,
  "miserable": 5848,
  "bulbs": 5849,
  "impacts": 5850,
  "clubs": 5851,
  "tolerance": 5852,
  "burden": 5853,
  "vin": 5854,
  "ethnic": 5855,
  "deaf": 5856,
  "day@@": 5857,
  "alig@@": 5858,
  "gover@@": 5859,
  "lists": 5860,
  "catching": 5861,
  "ron": 5862,
  "tips": 5863,
  "microbial": 5864,
  "alistic": 5865,
  "simultaneously": 5866,
  "bombs": 5867,
  "biologist": 5868,
  "pol@@": 5869,
  "gear": 5870,
  "boss": 5871,
  "gene@@": 5872,
  "seal": 5873,
  "lli@@": 5874,
  "od@@": 5875,
  "book@@": 5876,
  "neighborhoods": 5877,
  "smiling": 5878,
  "scenario": 5879,
  "ass@@": 5880,
  "ty-@@": 5881,
  "electrodes": 5882,
  "broad": 5883,
  "narratives": 5884,
  "reasonable": 5885,
  "unable": 5886,
  "dozens": 5887,
  "frightening": 5888,
  "nelson": 5889,
  "gall@@": 5890,
  "posted": 5891,
  "encouraging": 5892,
  "ser": 5893,
  "40@@": 5894,
  "literacy": 5895,
  "prediction": 5896,
  "lowest": 5897,
  "dough": 5898,
  "foie": 5899,
  "targets": 5900,
  "lungs": 5901,
  "wrap": 5902,
  "gated": 5903,
  "locations": 5904,
  "prostate": 5905,
  "vor": 5906,
  "goodbye": 5907,
  "convert": 5908,
  "lei@@": 5909,
  "boats": 5910,
  "passive": 5911,
  "headlines": 5912,
  "panic": 5913,
  "flash": 5914,
  "stability": 5915,
  "voting": 5916,
  "transforming": 5917,
  "radically": 5918,
  "nan@@": 5919,
  "scenes": 5920,
  "tail@@": 5921,
  "competing": 5922,
  "deals": 5923,
  "gif@@": 5924,
  "nerves": 5925,
  "bite": 5926,
  "ban": 5927,
  "marry": 5928,
  "badly": 5929,
  "popul@@": 5930,
  "requ@@": 5931,
  "lic@@": 5932,
  "cartoons": 5933,
  "eng@@": 5934,
  "titan": 5935,
  "tear": 5936,
  "dal": 5937,
  "eal": 5938,
  "mature": 5939,
  "wires": 5940,
  "craft": 5941,
  "rich@@": 5942,
  "approved": 5943,
  "du": 5944,
  "jan@@": 5945,
  "calm": 5946,
  "threshold": 5947,
  "sexy": 5948,
  "cials": 5949,
  "estimated": 5950,
  "tune": 5951,
  "wright": 5952,
  "sei@@": 5953,
  "tat@@": 5954,
  "absence": 5955,
  "mindset": 5956,
  "expli@@": 5957,
  "reefs": 5958,
  "vaccines": 5959,
  "folded": 5960,
  "vaccin@@": 5961,
  "offering": 5962,
  "oes": 5963,
  "physi@@": 5964,
  "torture": 5965,
  "tin": 5966,
  "plac@@": 5967,
  "offices": 5968,
  "handed": 5969,
  "difficulty": 5970,
  "st.": 5971,
  "pride": 5972,
  "rotate": 5973,
  "conservative": 5974,
  "mike": 5975,
  "mm@@": 5976,
  "labs": 5977,
  "t.": 5978,
  "decre@@": 5979,
  "occurring": 5980,
  "masses": 5981,
  "electrons": 5982,
  "matrix": 5983,
  "thy": 5984,
  "pills": 5985,
  "tz": 5986,
  "tter@@": 5987,
  "missions": 5988,
  "branch": 5989,
  "similarly": 5990,
  "plates": 5991,
  "digi@@": 5992,
  "bru@@": 5993,
  "artic@@": 5994,
  "uplo@@": 5995,
  "approaches": 5996,
  "wedding": 5997,
  "file": 5998,
  "butter@@": 5999,
  "cky": 6000,
  "mating": 6001,
  "gesture": 6002,
  "primarily": 6003,
  "stac@@": 6004,
  "campaig@@": 6005,
  "connects": 6006,
  "eight-@@": 6007,
  "banking": 6008,
  "transmit@@": 6009,
  "larry": 6010,
  "binary": 6011,
  "custom@@": 6012,
  "professionals": 6013,
  "utes": 6014,
  "ama": 6015,
  "equations": 6016,
  "quanti@@": 6017,
  "guarantee": 6018,
  "publish": 6019,
  "paradox": 6020,
  "fence": 6021,
  "audiences": 6022,
  "l.a.": 6023,
  "likelihood": 6024,
  "+": 6025,
  "teaches": 6026,
  "equality": 6027,
  "carries": 6028,
  "reactions": 6029,
  "hol@@": 6030,
  "dimensional": 6031,
  "48": 6032,
  "oth@@": 6033,
  "arab@@": 6034,
  "communicating": 6035,
  "panel": 6036,
  "patho@@": 6037,
  "migr@@": 6038,
  "é@@": 6039,
  "duck": 6040,
  "sized": 6041,
  "insi@@": 6042,
  "santa": 6043,
  "coat": 6044,
  "emergence": 6045,
  "sink": 6046,
  "tioned": 6047,
  "bureau@@": 6048,
  "fate": 6049,
  "downtown": 6050,
  "versions": 6051,
  "master@@": 6052,
  "competitive": 6053,
  "shocking": 6054,
  "simil@@": 6055,
  "elite": 6056,
  "2.@@": 6057,
  "sections": 6058,
  "gran@@": 6059,
  "instant": 6060,
  "jeff": 6061,
  "supporting": 6062,
  "kable": 6063,
  "distinct": 6064,
  "decrease": 6065,
  "officer": 6066,
  "leap": 6067,
  "prior": 6068,
  "crow@@": 6069,
  "overhead": 6070,
  "carolina": 6071,
  "compete": 6072,
  "ignored": 6073,
  "contain@@": 6074,
  "mandela": 6075,
  "aked": 6076,
  "industri@@": 6077,
  "theoretical": 6078,
  "commer@@": 6079,
  "supermarket": 6080,
  "ency": 6081,
  "obese": 6082,
  "attribu@@": 6083,
  "dilemma": 6084,
  "lee": 6085,
  "colli@@": 6086,
  "poin@@": 6087,
  "strands": 6088,
  "expressions": 6089,
  "chips": 6090,
  "tionally": 6091,
  "republic": 6092,
  "and-@@": 6093,
  "fought": 6094,
  "deci@@": 6095,
  "animation": 6096,
  "academy": 6097,
  "surgeries": 6098,
  "spor@@": 6099,
  "beautifully": 6100,
  "top@@": 6101,
  "storytelling": 6102,
  "itable": 6103,
  "transmission": 6104,
  "skeletal": 6105,
  "william": 6106,
  "dow": 6107,
  "inevitably": 6108,
  "bold": 6109,
  "motivated": 6110,
  "mean@@": 6111,
  "whit@@": 6112,
  "hl@@": 6113,
  "kin": 6114,
  "phenomenal": 6115,
  "koran": 6116,
  "authorities": 6117,
  "mutation": 6118,
  "tedtalk": 6119,
  "neutral": 6120,
  "ireland": 6121,
  "adver@@": 6122,
  "od": 6123,
  "dose": 6124,
  "yards": 6125,
  "eliminate": 6126,
  "human-@@": 6127,
  "drum": 6128,
  "unt": 6129,
  "chances": 6130,
  "biomass": 6131,
  "gras@@": 6132,
  "august": 6133,
  "mira@@": 6134,
  "previously": 6135,
  "heart@@": 6136,
  "ert": 6137,
  "disabled": 6138,
  "amazingly": 6139,
  "trace": 6140,
  "fted": 6141,
  "approached": 6142,
  "mentally": 6143,
  "systematically": 6144,
  "calculations": 6145,
  "worrying": 6146,
  "cube": 6147,
  "read@@": 6148,
  "camps": 6149,
  "veri@@": 6150,
  "remin@@": 6151,
  "40,000": 6152,
  "critici@@": 6153,
  "backyard": 6154,
  "preser@@": 6155,
  "shine": 6156,
  "vents": 6157,
  "package": 6158,
  "hans": 6159,
  "purposes": 6160,
  "waters": 6161,
  "guilty": 6162,
  "swi@@": 6163,
  "acceptable": 6164,
  "zones": 6165,
  "camel": 6166,
  "abed": 6167,
  "jur@@": 6168,
  "dependence": 6169,
  "spect": 6170,
  "landscapes": 6171,
  "transl@@": 6172,
  "time-@@": 6173,
  "55": 6174,
  "concentrated": 6175,
  "tom@@": 6176,
  "regardless": 6177,
  "structural": 6178,
  "commodity": 6179,
  "daniel": 6180,
  "storage": 6181,
  "gathered": 6182,
  "interpre@@": 6183,
  "aero@@": 6184,
  "ft@@": 6185,
  "200,000": 6186,
  "failures": 6187,
  "respon@@": 6188,
  "genocide": 6189,
  "destiny": 6190,
  "passes": 6191,
  "improved": 6192,
  "follows": 6193,
  "straightforward": 6194,
  "acade@@": 6195,
  "pit": 6196,
  "berry": 6197,
  "bridges": 6198,
  "selected": 6199,
  "jones": 6200,
  "transcen@@": 6201,
  "stretch": 6202,
  "located": 6203,
  "halfway": 6204,
  "deliber@@": 6205,
  "poss@@": 6206,
  "corals": 6207,
  "scanner": 6208,
  "aro@@": 6209,
  "mary": 6210,
  "cum@@": 6211,
  "pione@@": 6212,
  "compromise": 6213,
  "commit": 6214,
  "estimates": 6215,
  "publishing": 6216,
  "heating": 6217,
  "magnitude": 6218,
  "suits": 6219,
  "kong": 6220,
  "aggressive": 6221,
  "lions": 6222,
  "additional": 6223,
  "patri@@": 6224,
  "kis@@": 6225,
  "nutri@@": 6226,
  "cellular": 6227,
  "pir@@": 6228,
  "moun@@": 6229,
  "rupt": 6230,
  "genetically": 6231,
  "rot": 6232,
  "ints": 6233,
  "mushrooms": 6234,
  "intact": 6235,
  "i.": 6236,
  "cosm@@": 6237,
  "ement": 6238,
  "lo": 6239,
  "batteries": 6240,
  "drops": 6241,
  "four@@": 6242,
  "phi@@": 6243,
  "beijing": 6244,
  "ental": 6245,
  "submer@@": 6246,
  "suff@@": 6247,
  "wee@@": 6248,
  "titude": 6249,
  "bacterial": 6250,
  "47": 6251,
  "inhab@@": 6252,
  "rubber": 6253,
  "sen": 6254,
  "quir@@": 6255,
  "disagree": 6256,
  "chase": 6257,
  "regard": 6258,
  "actively": 6259,
  "division": 6260,
  "listened": 6261,
  "continuous": 6262,
  "slums": 6263,
  "stephen": 6264,
  "predictable": 6265,
  "donor": 6266,
  "doubled": 6267,
  "kindness": 6268,
  "tunnel": 6269,
  "gorgeous": 6270,
  "schol@@": 6271,
  "hardest": 6272,
  "enabled": 6273,
  "concert": 6274,
  "reje@@": 6275,
  "equ@@": 6276,
  "heading": 6277,
  "ath@@": 6278,
  "installed": 6279,
  "scop@@": 6280,
  "propose": 6281,
  "strings": 6282,
  "investors": 6283,
  "responses": 6284,
  "choir": 6285,
  "asing": 6286,
  "yo": 6287,
  "heritage": 6288,
  "ticism": 6289,
  "copenhagen": 6290,
  "usion": 6291,
  "arily": 6292,
  "indu@@": 6293,
  "transformative": 6294,
  "parks": 6295,
  "peoples": 6296,
  "succeeded": 6297,
  "manipul@@": 6298,
  "cles": 6299,
  "monitoring": 6300,
  "less@@": 6301,
  "horses": 6302,
  "nick": 6303,
  "dest@@": 6304,
  "ultrasound": 6305,
  "evol@@": 6306,
  "minimum": 6307,
  "asian": 6308,
  "consu@@": 6309,
  "surgical": 6310,
  "ingredient": 6311,
  "intelle@@": 6312,
  "aesthetic": 6313,
  "amazed": 6314,
  "brand@@": 6315,
  "unprecedented": 6316,
  "angiogenesis": 6317,
  "intervention": 6318,
  "hook": 6319,
  "intended": 6320,
  "manufactur@@": 6321,
  "acid": 6322,
  "break@@": 6323,
  "rolled": 6324,
  "casting": 6325,
  "assignment": 6326,
  "ium": 6327,
  "proposition": 6328,
  "blood@@": 6329,
  "spinning": 6330,
  "vessel": 6331,
  "cooperative": 6332,
  "cras@@": 6333,
  "remarkably": 6334,
  "trou@@": 6335,
  "lit": 6336,
  "anten@@": 6337,
  "tedtalks": 6338,
  "visually": 6339,
  "harbor": 6340,
  "tex@@": 6341,
  "chim@@": 6342,
  "enjoyed": 6343,
  "calculus": 6344,
  "strip": 6345,
  "welfare": 6346,
  "prince": 6347,
  "rough": 6348,
  "glimpse": 6349,
  "grant": 6350,
  "sni@@": 6351,
  "home@@": 6352,
  "form@@": 6353,
  "safer": 6354,
  "everest": 6355,
  "variations": 6356,
  "venture": 6357,
  "collapsed": 6358,
  "reas@@": 6359,
  "oring": 6360,
  "unders": 6361,
  "avoi@@": 6362,
  "census": 6363,
  "loads": 6364,
  "sten@@": 6365,
  "theast": 6366,
  "offi@@": 6367,
  "blue@@": 6368,
  "lay@@": 6369,
  "reactor": 6370,
  "scaling": 6371,
  "determines": 6372,
  "females": 6373,
  "attitudes": 6374,
  "distances": 6375,
  "murder": 6376,
  "36": 6377,
  "themes": 6378,
  "oral": 6379,
  "assets": 6380,
  "thor@@": 6381,
  "traits": 6382,
  "favorites": 6383,
  "ampli@@": 6384,
  "sively": 6385,
  "empowered": 6386,
  "double-@@": 6387,
  "creator": 6388,
  "cus@@": 6389,
  "significance": 6390,
  "mimic": 6391,
  "elegant": 6392,
  "raped": 6393,
  "participation": 6394,
  "shal@@": 6395,
  "lottery": 6396,
  "and-a-half": 6397,
  "frag@@": 6398,
  "archi@@": 6399,
  "hemisphere": 6400,
  "devastating": 6401,
  "covers": 6402,
  "span": 6403,
  "bi": 6404,
  "tanzania": 6405,
  "capabilities": 6406,
  "motiv@@": 6407,
  "acquired": 6408,
  "feeds": 6409,
  "detector": 6410,
  "1960s": 6411,
  "rub@@": 6412,
  "nation@@": 6413,
  "vin@@": 6414,
  "nigerian": 6415,
  "striking": 6416,
  "copied": 6417,
  "broader": 6418,
  "preparing": 6419,
  "spill": 6420,
  "verbal": 6421,
  "authentic": 6422,
  "pic@@": 6423,
  "stam@@": 6424,
  "precious": 6425,
  "wning": 6426,
  "obstacles": 6427,
  "continuously": 6428,
  "ital": 6429,
  "andrew": 6430,
  "é": 6431,
  "cator": 6432,
  "drag": 6433,
  "eds": 6434,
  "colo@@": 6435,
  "virgin": 6436,
  "dung": 6437,
  "pill": 6438,
  "arrested": 6439,
  "atom": 6440,
  "joy@@": 6441,
  "urge": 6442,
  "prosthetic": 6443,
  "boom@@": 6444,
  "healthier": 6445,
  "intensive": 6446,
  "concer@@": 6447,
  "deepest": 6448,
  "inher@@": 6449,
  "namely": 6450,
  "healing": 6451,
  "boy@@": 6452,
  "stored": 6453,
  "manipulate": 6454,
  "customer": 6455,
  "mize": 6456,
  "civic": 6457,
  "hills": 6458,
  "rainforest": 6459,
  "inci@@": 6460,
  "hiding": 6461,
  "advances": 6462,
  "ddle": 6463,
  "inf@@": 6464,
  "texting": 6465,
  "charlie": 6466,
  "olympics": 6467,
  "cheat": 6468,
  "helpful": 6469,
  "legislation": 6470,
  "condoms": 6471,
  "medication": 6472,
  "vie@@": 6473,
  "chef": 6474,
  "loving": 6475,
  "ere@@": 6476,
  "sensation": 6477,
  "perfe@@": 6478,
  "mind@@": 6479,
  "recession": 6480,
  "milo": 6481,
  "smells": 6482,
  "reserves": 6483,
  "believes": 6484,
  "simplest": 6485,
  "great-@@": 6486,
  "phil@@": 6487,
  "joseph": 6488,
  "applying": 6489,
  "rewards": 6490,
  "tas@@": 6491,
  "ubiquitous": 6492,
  "truths": 6493,
  "mere": 6494,
  "norden": 6495,
  "leaf": 6496,
  "navigate": 6497,
  "relation": 6498,
  "diarrhea": 6499,
  "leonardo": 6500,
  "compute": 6501,
  "hig@@": 6502,
  "high-tech": 6503,
  "sop@@": 6504,
  "dumb": 6505,
  "index": 6506,
  "para@@": 6507,
  "luxury": 6508,
  "presents": 6509,
  "ongoing": 6510,
  "telescopes": 6511,
  "convey": 6512,
  "controversial": 6513,
  "blowing": 6514,
  "activist": 6515,
  "candidate": 6516,
  "socially": 6517,
  "1950s": 6518,
  "secrets": 6519,
  "graphs": 6520,
  "pupp@@": 6521,
  "subur@@": 6522,
  "threatened": 6523,
  "rating": 6524,
  "silver": 6525,
  "rent": 6526,
  "isi@@": 6527,
  "excitement": 6528,
  "spon@@": 6529,
  "d.": 6530,
  "approximately": 6531,
  "sym@@": 6532,
  "temporary": 6533,
  "pling": 6534,
  "suggestion": 6535,
  "mari@@": 6536,
  "bedroom": 6537,
  "ort": 6538,
  "prisoner": 6539,
  "carpet": 6540,
  "poses": 6541,
  "items": 6542,
  "loan": 6543,
  "sup@@": 6544,
  "clue": 6545,
  "world-@@": 6546,
  "patents": 6547,
  "relax@@": 6548,
  "ut": 6549,
  "request": 6550,
  "main@@": 6551,
  "ski": 6552,
  "mycelium": 6553,
  "organi@@": 6554,
  "mobility": 6555,
  "migration": 6556,
  "mono@@": 6557,
  "courses": 6558,
  "sam": 6559,
  "crossed": 6560,
  "relief": 6561,
  "tale": 6562,
  "hopeful": 6563,
  "lun@@": 6564,
  "satellites": 6565,
  "lling": 6566,
  "chamber": 6567,
  "comparing": 6568,
  "household": 6569,
  "bored": 6570,
  "dding": 6571,
  "magician": 6572,
  "aching": 6573,
  "simpler": 6574,
  "ibm": 6575,
  "depri@@": 6576,
  "cryp@@": 6577,
  "integrate": 6578,
  "philosophical": 6579,
  "right-hand": 6580,
  "proved": 6581,
  "intent": 6582,
  "logo": 6583,
  "institutional": 6584,
  "filling": 6585,
  "expertise": 6586,
  "cris@@": 6587,
  "pier@@": 6588,
  "stically": 6589,
  "expor@@": 6590,
  "honestly": 6591,
  "brea@@": 6592,
  "evi@@": 6593,
  "demonstrated": 6594,
  "a.m.": 6595,
  "ous@@": 6596,
  "nearest": 6597,
  "mainstream": 6598,
  "inn@@": 6599,
  "shore": 6600,
  "genomes": 6601,
  "topics": 6602,
  "gest": 6603,
  "realization": 6604,
  "acquire": 6605,
  "neys": 6606,
  "minus": 6607,
  "icon": 6608,
  "sacrifice": 6609,
  "farming": 6610,
  "ulating": 6611,
  "ss@@": 6612,
  "bad@@": 6613,
  "cylinder": 6614,
  "contribution": 6615,
  "acci@@": 6616,
  "canvas": 6617,
  "high@@": 6618,
  "shakespeare": 6619,
  "activated": 6620,
  "six@@": 6621,
  "posed": 6622,
  "scaff@@": 6623,
  "landing": 6624,
  "historically": 6625,
  "destroying": 6626,
  "short-@@": 6627,
  "chat@@": 6628,
  "lative": 6629,
  "hopes": 6630,
  "psychologist": 6631,
  "tags": 6632,
  "measurements": 6633,
  "whist@@": 6634,
  "selves": 6635,
  "terrain": 6636,
  "journalists": 6637,
  "zy": 6638,
  "bowl": 6639,
  "graduated": 6640,
  "cliff": 6641,
  "ministry": 6642,
  "closing": 6643,
  "temple": 6644,
  "copies": 6645,
  "pouring": 6646,
  "adju@@": 6647,
  "correspon@@": 6648,
  "challenged": 6649,
  "resolve": 6650,
  "enjoying": 6651,
  "biting": 6652,
  "metic": 6653,
  "poison": 6654,
  "bert": 6655,
  "skep@@": 6656,
  "cab@@": 6657,
  "arri@@": 6658,
  "fet@@": 6659,
  "habits": 6660,
  "gos": 6661,
  "storyteller": 6662,
  "keepers": 6663,
  "emit@@": 6664,
  "sequences": 6665,
  "keys": 6666,
  "ala": 6667,
  "cape": 6668,
  "meals": 6669,
  "tropical": 6670,
  "life@@": 6671,
  "aims": 6672,
  "mud": 6673,
  "stabili@@": 6674,
  "geni@@": 6675,
  "farms": 6676,
  "meme": 6677,
  "nant": 6678,
  "believing": 6679,
  "ious": 6680,
  "interpret": 6681,
  "spee@@": 6682,
  "ction@@": 6683,
  "zealand": 6684,
  "interviewed": 6685,
  "locally": 6686,
  "item": 6687,
  "speaks": 6688,
  "adopt": 6689,
  "crus@@": 6690,
  "periods": 6691,
  "hunter@@": 6692,
  "interviews": 6693,
  "weigh": 6694,
  "wer@@": 6695,
  "adverti@@": 6696,
  "epidemi@@": 6697,
  "dation": 6698,
  "masters": 6699,
  "hallucinations": 6700,
  "processor": 6701,
  "july": 6702,
  "ared": 6703,
  "scans": 6704,
  "cocaine": 6705,
  "spiders": 6706,
  "squares": 6707,
  "centralized": 6708,
  "hen@@": 6709,
  "swit@@": 6710,
  "deva@@": 6711,
  "documented": 6712,
  "reconci@@": 6713,
  "connectome": 6714,
  "habit": 6715,
  "vir@@": 6716,
  "sake": 6717,
  "194@@": 6718,
  "loose": 6719,
  "mumbai": 6720,
  "revealed": 6721,
  "conser@@": 6722,
  "stolen": 6723,
  "25,000": 6724,
  "trigger": 6725,
  "probe": 6726,
  "tables": 6727,
  "evolving": 6728,
  "yeast": 6729,
  "warmer": 6730,
  "residents": 6731,
  "bills": 6732,
  "portraits": 6733,
  "sizes": 6734,
  "travels": 6735,
  "mitted": 6736,
  "consumed": 6737,
  "indonesia": 6738,
  "israeli": 6739,
  "large-scale": 6740,
  "beam": 6741,
  "ann": 6742,
  "cators": 6743,
  "combin@@": 6744,
  "provi@@": 6745,
  "dirt": 6746,
  "taxes": 6747,
  "multiply": 6748,
  "producers": 6749,
  "jay": 6750,
  "mount": 6751,
  "stewart": 6752,
  "privileged": 6753,
  "brow@@": 6754,
  "workforce": 6755,
  "ye": 6756,
  "longevity": 6757,
  "chur@@": 6758,
  "millimeter": 6759,
  "award": 6760,
  "integration": 6761,
  "cides": 6762,
  "indus": 6763,
  "yan": 6764,
  "flavor": 6765,
  "pollin@@": 6766,
  "exploit": 6767,
  "authors": 6768,
  "bud@@": 6769,
  "shing": 6770,
  "bic": 6771,
  "bacterium": 6772,
  "oth": 6773,
  "iranian": 6774,
  "infra@@": 6775,
  "ue": 6776,
  "zer@@": 6777,
  "hierarchy": 6778,
  "outs": 6779,
  "thrilled": 6780,
  "tar": 6781,
  "frequently": 6782,
  "recycling": 6783,
  "impro@@": 6784,
  "regar@@": 6785,
  "curr@@": 6786,
  "hawaii": 6787,
  "proposal": 6788,
  "surveillance": 6789,
  "lewis": 6790,
  "bed@@": 6791,
  "professors": 6792,
  "pill@@": 6793,
  "retina": 6794,
  "disper@@": 6795,
  "diplomacy": 6796,
  "ck-@@": 6797,
  "triangle": 6798,
  "lifted": 6799,
  "overwhelming": 6800,
  "hometown": 6801,
  "ay": 6802,
  "shy": 6803,
  "passage": 6804,
  "criminals": 6805,
  "dancers": 6806,
  "1998": 6807,
  "horror": 6808,
  "temperatures": 6809,
  "burned": 6810,
  "textbooks": 6811,
  "arthur": 6812,
  "scul@@": 6813,
  "coverage": 6814,
  "1999": 6815,
  "deployed": 6816,
  "files": 6817,
  "swal@@": 6818,
  "autonomy": 6819,
  "peers": 6820,
  "whoa": 6821,
  "decor@@": 6822,
  "contemp@@": 6823,
  "visualization": 6824,
  "juice": 6825,
  "are@@": 6826,
  "roll@@": 6827,
  "sma@@": 6828,
  "8,000": 6829,
  "whoever": 6830,
  "stays": 6831,
  "72": 6832,
  "oma": 6833,
  "tax@@": 6834,
  "cheating": 6835,
  "strategic": 6836,
  "understands": 6837,
  "conc@@": 6838,
  "com": 6839,
  "sket@@": 6840,
  "poles": 6841,
  "graphical": 6842,
  "fashi@@": 6843,
  "contributed": 6844,
  "cups": 6845,
  "elu@@": 6846,
  "opinions": 6847,
  "cares": 6848,
  "rob": 6849,
  "safely": 6850,
  "symphony": 6851,
  "ally-@@": 6852,
  "ature": 6853,
  "ont@@": 6854,
  "observed": 6855,
  "gists": 6856,
  "monterey": 6857,
  "introduction": 6858,
  "educate": 6859,
  "mobili@@": 6860,
  "clinton": 6861,
  "cluster": 6862,
  "cyrus": 6863,
  "pulls": 6864,
  "accomplished": 6865,
  "curves": 6866,
  "37": 6867,
  "gency": 6868,
  "scott": 6869,
  "lessly": 6870,
  "aliens": 6871,
  "unfair": 6872,
  "pity": 6873,
  "60,000": 6874,
  "sensor": 6875,
  "automobile": 6876,
  "subje@@": 6877,
  "stances": 6878,
  "follo@@": 6879,
  "concentration": 6880,
  "coin": 6881,
  "attacked": 6882,
  "singapore": 6883,
  "mankind": 6884,
  "ston": 6885,
  "sele@@": 6886,
  "paste": 6887,
  "ype": 6888,
  "activ@@": 6889,
  "networking": 6890,
  "sectors": 6891,
  "extraordinarily": 6892,
  "embarrassing": 6893,
  "gling": 6894,
  "ins@@": 6895,
  "switched": 6896,
  "shoe": 6897,
  "rs": 6898,
  "useless": 6899,
  "observations": 6900,
  "shifts": 6901,
  "afghan": 6902,
  "utterly": 6903,
  "matched": 6904,
  "proce@@": 6905,
  "seemingly": 6906,
  "seattle": 6907,
  "yle": 6908,
  "fluctu@@": 6909,
  "buff@@": 6910,
  "single-@@": 6911,
  "drawings": 6912,
  "kni@@": 6913,
  "mar": 6914,
  "sors": 6915,
  "exposure": 6916,
  "senti@@": 6917,
  "ritual": 6918,
  "alex": 6919,
  "chromosome": 6920,
  "fi": 6921,
  "personalized": 6922,
  "-and-@@": 6923,
  "deadly": 6924,
  "intimacy": 6925,
  "py@@": 6926,
  "identi@@": 6927,
  "tel@@": 6928,
  "gold@@": 6929,
  "constitu@@": 6930,
  "haz@@": 6931,
  "reproduce": 6932,
  "mess@@": 6933,
  "separation": 6934,
  "adoption": 6935,
  "nevertheless": 6936,
  "distin@@": 6937,
  "printed": 6938,
  "medicines": 6939,
  "reck@@": 6940,
  "chemi@@": 6941,
  "maneu@@": 6942,
  "accountability": 6943,
  "ya@@": 6944,
  "implant": 6945,
  "sometime": 6946,
  "1950": 6947,
  "calculation": 6948,
  "apples": 6949,
  "olympic": 6950,
  "november": 6951,
  "old-@@": 6952,
  "pau@@": 6953,
  "antici@@": 6954,
  "atu@@": 6955,
  "ross": 6956,
  "visualize": 6957,
  "expen@@": 6958,
  "flas@@": 6959,
  "school@@": 6960,
  "claim@@": 6961,
  "surrounding": 6962,
  "famine": 6963,
  "shifted": 6964,
  "peac@@": 6965,
  "fif@@": 6966,
  "territory": 6967,
  "ppy": 6968,
  "dam@@": 6969,
  "accelerating": 6970,
  "swee@@": 6971,
  "acu@@": 6972,
  "than@@": 6973,
  "maximum": 6974,
  "mechan@@": 6975,
  "recor@@": 6976,
  "gel": 6977,
  "levi@@": 6978,
  "bugs": 6979,
  "youngest": 6980,
  "rat@@": 6981,
  "grave": 6982,
  "graphi@@": 6983,
  "attemp@@": 6984,
  "anesthesia": 6985,
  "ini@@": 6986,
  "phy@@": 6987,
  "mot@@": 6988,
  "lanes": 6989,
  "coll@@": 6990,
  "tants": 6991,
  "parachute": 6992,
  "algae": 6993,
  "terrific": 6994,
  "hormones": 6995,
  "pper": 6996,
  "priority": 6997,
  "toler@@": 6998,
  "self-interest": 6999,
  "founder": 7000,
  "ater@@": 7001,
  "coach": 7002,
  "grace": 7003,
  "ish@@": 7004,
  "concentrate": 7005,
  "bil@@": 7006,
  "computational": 7007,
  "ulate": 7008,
  "behalf": 7009,
  "treat@@": 7010,
  "heal@@": 7011,
  "encouraged": 7012,
  "column": 7013,
  "reveals": 7014,
  "enjo@@": 7015,
  "magnificent": 7016,
  "virtu@@": 7017,
  "bian": 7018,
  "scrip@@": 7019,
  "remot@@": 7020,
  "depos@@": 7021,
  "anthropolo@@": 7022,
  "purple": 7023,
  "codes": 7024,
  "teenager": 7025,
  "priorities": 7026,
  "nonprofit": 7027,
  "programmers": 7028,
  "celebrated": 7029,
  "190@@": 7030,
  "platforms": 7031,
  "streams": 7032,
  "blindness": 7033,
  "compet@@": 7034,
  "mood": 7035,
  "secretary": 7036,
  "toilets": 7037,
  "oy@@": 7038,
  "gandhi": 7039,
  "&apos;clock": 7040,
  "aim": 7041,
  "neanderthals": 7042,
  "recommend": 7043,
  "variable": 7044,
  "dead@@": 7045,
  "lifespan": 7046,
  "expressed": 7047,
  "joint": 7048,
  "holders": 7049,
  "frightened": 7050,
  "rethink": 7051,
  "clinics": 7052,
  "hand-@@": 7053,
  "tioning": 7054,
  "overwhelmed": 7055,
  "korean": 7056,
  "discrimin@@": 7057,
  "websites": 7058,
  "lity": 7059,
  "irony": 7060,
  "onstage": 7061,
  "metric": 7062,
  "mann": 7063,
  "unfortunate": 7064,
  "stan": 7065,
  "disasters": 7066,
  "conduct": 7067,
  "collectively": 7068,
  "inhi@@": 7069,
  "ja": 7070,
  "damaged": 7071,
  "wrist": 7072,
  "squir@@": 7073,
  "witnessed": 7074,
  "girlfriend": 7075,
  "accelerate": 7076,
  "towns": 7077,
  "a.@@": 7078,
  "symmetries": 7079,
  "commu@@": 7080,
  "tiger": 7081,
  "bill@@": 7082,
  "anium": 7083,
  "associate": 7084,
  "organizing": 7085,
  "funds": 7086,
  "prosperity": 7087,
  "labeled": 7088,
  "ali": 7089,
  "switzerland": 7090,
  "tum@@": 7091,
  "twin": 7092,
  "eding": 7093,
  "cultiv@@": 7094,
  "grains": 7095,
  "shorter": 7096,
  "optical": 7097,
  "usa": 7098,
  "spreads": 7099,
  "profession": 7100,
  "eyed": 7101,
  "burst": 7102,
  "imit@@": 7103,
  "emails": 7104,
  "revenues": 7105,
  "transmit": 7106,
  "cence": 7107,
  "iceland": 7108,
  "carri@@": 7109,
  "deb@@": 7110,
  "unconscious": 7111,
  "vent": 7112,
  "boar@@": 7113,
  "separ@@": 7114,
  "destination": 7115,
  "equi@@": 7116,
  "nel@@": 7117,
  "bir@@": 7118,
  "proje@@": 7119,
  "peri@@": 7120,
  "kal@@": 7121,
  "harry": 7122,
  "activists": 7123,
  "bands": 7124,
  "manager": 7125,
  "reaches": 7126,
  "interconnected": 7127,
  "survived": 7128,
  "se-@@": 7129,
  "counts": 7130,
  "ambitious": 7131,
  "but@@": 7132,
  "eless@@": 7133,
  "claims": 7134,
  "en-@@": 7135,
  "univers@@": 7136,
  "melo@@": 7137,
  "thylac@@": 7138,
  "nur@@": 7139,
  "sylvia": 7140,
  "pin": 7141,
  "off-@@": 7142,
  "incident": 7143,
  "sculptures": 7144,
  "improvements": 7145,
  "reflected": 7146,
  "desktop": 7147,
  "hormone": 7148,
  "twenty-@@": 7149,
  "gues": 7150,
  "ups": 7151,
  "oran@@": 7152,
  "modi@@": 7153,
  "visi@@": 7154,
  "adoles@@": 7155,
  "tech@@": 7156,
  "estate": 7157,
  "shoulders": 7158,
  "monum@@": 7159,
  "jerusalem": 7160,
  "hostile": 7161,
  "quarters": 7162,
  "jupiter": 7163,
  "disgu@@": 7164,
  "shred@@": 7165,
  "spare": 7166,
  "omy": 7167,
  "inary": 7168,
  "fired": 7169,
  "vas@@": 7170,
  "prey": 7171,
  "pie": 7172,
  "belongs": 7173,
  "synchroni@@": 7174,
  "30s": 7175,
  "repeated": 7176,
  "marrow": 7177,
  "tool@@": 7178,
  "contributing": 7179,
  "seventh": 7180,
  "sever@@": 7181,
  "passi@@": 7182,
  "sing@@": 7183,
  "unseen": 7184,
  "peaceful": 7185,
  "cleaning": 7186,
  "composition": 7187,
  "crimes": 7188,
  "lim@@": 7189,
  "aristotle": 7190,
  "see@@": 7191,
  "lear@@": 7192,
  "projection": 7193,
  "pricing": 7194,
  "corporation": 7195,
  "transi@@": 7196,
  "belly": 7197,
  "captain": 7198,
  "intention": 7199,
  "diagnosis": 7200,
  "ko": 7201,
  "coordination": 7202,
  "hness": 7203,
  "dates": 7204,
  "viewing": 7205,
  "occasion": 7206,
  "revol@@": 7207,
  "attracted": 7208,
  "adi@@": 7209,
  "beetle": 7210,
  "cogni@@": 7211,
  "ghtful": 7212,
  "shr@@": 7213,
  "functioning": 7214,
  "cattle": 7215,
  "philosophers": 7216,
  "distinction": 7217,
  "til@@": 7218,
  "ice@@": 7219,
  "stum@@": 7220,
  "ctable": 7221,
  "bb@@": 7222,
  "devi@@": 7223,
  "embracing": 7224,
  "investments": 7225,
  "winner": 7226,
  "hard-@@": 7227,
  "ion": 7228,
  "wage": 7229,
  "pathy": 7230,
  "cit": 7231,
  "vel": 7232,
  "orders": 7233,
  "rape": 7234,
  "encyclopedia": 7235,
  "copper": 7236,
  "highlight": 7237,
  "rect@@": 7238,
  "mani@@": 7239,
  "intui@@": 7240,
  "ough": 7241,
  "mixing": 7242,
  "arians": 7243,
  "consider@@": 7244,
  "bes@@": 7245,
  "dragonflies": 7246,
  "femin@@": 7247,
  "convicted": 7248,
  "satisfaction": 7249,
  "economically": 7250,
  "dispar@@": 7251,
  "vascular": 7252,
  "judgments": 7253,
  "cart": 7254,
  "odor": 7255,
  "readers": 7256,
  "ent-@@": 7257,
  "beef": 7258,
  "universes": 7259,
  "synthesis": 7260,
  "budgets": 7261,
  "disgust": 7262,
  "wishes": 7263,
  "barrel": 7264,
  "phot@@": 7265,
  "ich": 7266,
  "gross": 7267,
  "bottom@@": 7268,
  "jh": 7269,
  "shoots": 7270,
  "abandoned": 7271,
  "borrow": 7272,
  "tricky": 7273,
  "scen@@": 7274,
  "que@@": 7275,
  "d.c.": 7276,
  "scot@@": 7277,
  "shipping": 7278,
  "prop@@": 7279,
  "adap@@": 7280,
  "squid": 7281,
  "rome": 7282,
  "maxi@@": 7283,
  "playful": 7284,
  "laughter": 7285,
  "pain@@": 7286,
  "coding": 7287,
  "wiped": 7288,
  "nel": 7289,
  "cope": 7290,
  "wir@@": 7291,
  "implement": 7292,
  "collabor@@": 7293,
  "ware": 7294,
  "2020": 7295,
  "intriguing": 7296,
  "kiss": 7297,
  "mind-@@": 7298,
  "thailand": 7299,
  "preparation": 7300,
  "workplace": 7301,
  "sadly": 7302,
  "2011": 7303,
  "perceived": 7304,
  "yemen": 7305,
  "color@@": 7306,
  "vitamin": 7307,
  "nasty": 7308,
  "digging": 7309,
  "entry": 7310,
  "strates": 7311,
  "dama@@": 7312,
  "dian": 7313,
  "spray": 7314,
  "soap": 7315,
  "counter": 7316,
  "chile": 7317,
  "cracy": 7318,
  "electromagnetic": 7319,
  "burg": 7320,
  "woods": 7321,
  "b.": 7322,
  "provo@@": 7323,
  "receptor": 7324,
  "bio-@@": 7325,
  "transc@@": 7326,
  "ena": 7327,
  "adjust": 7328,
  "ums": 7329,
  "electri@@": 7330,
  "prayer": 7331,
  "spacecraft": 7332,
  "pus@@": 7333,
  "storms": 7334,
  "presum@@": 7335,
  "corresponds": 7336,
  "ong@@": 7337,
  "open@@": 7338,
  "revolutions": 7339,
  "craig": 7340,
  "som@@": 7341,
  "celebrity": 7342,
  "circum@@": 7343,
  "octopus": 7344,
  "wells": 7345,
  "lied": 7346,
  "scal@@": 7347,
  "exhau@@": 7348,
  "fol@@": 7349,
  "reme@@": 7350,
  "atri@@": 7351,
  "pour": 7352,
  "defini@@": 7353,
  "physicians": 7354,
  "top-@@": 7355,
  "mber": 7356,
  "trivial": 7357,
  "dev@@": 7358,
  "pipeline": 7359,
  "concerns": 7360,
  "shining": 7361,
  "disap@@": 7362,
  "sierra": 7363,
  "meditation": 7364,
  "fai@@": 7365,
  "demo": 7366,
  "rockets": 7367,
  "fic": 7368,
  "depic@@": 7369,
  "wore": 7370,
  "ration@@": 7371,
  "bull@@": 7372,
  "bath": 7373,
  "mammo@@": 7374,
  "millennium": 7375,
  "manus@@": 7376,
  "max": 7377,
  "tagged": 7378,
  "l-@@": 7379,
  "gains": 7380,
  "melt": 7381,
  "broccoli": 7382,
  "98": 7383,
  "upside": 7384,
  "sey": 7385,
  "weighs": 7386,
  "bie": 7387,
  "egyptian": 7388,
  "loy@@": 7389,
  "propaganda": 7390,
  "install": 7391,
  "mcdonald": 7392,
  "tanks": 7393,
  "caps": 7394,
  "empower": 7395,
  "ousness": 7396,
  "corporations": 7397,
  "pharmaceutical": 7398,
  "heavily": 7399,
  "spr@@": 7400,
  "out-@@": 7401,
  "disappears": 7402,
  "berlin": 7403,
  "fisher@@": 7404,
  "johnny": 7405,
  "dental": 7406,
  "rus@@": 7407,
  "seri@@": 7408,
  "exp@@": 7409,
  "weigh@@": 7410,
  "characteri@@": 7411,
  "pencil": 7412,
  "thesis": 7413,
  "abundance": 7414,
  "natasha": 7415,
  "enormously": 7416,
  "perspectives": 7417,
  "was@@": 7418,
  "prin@@": 7419,
  "greatly": 7420,
  "chemotherapy": 7421,
  "mom@@": 7422,
  "oli@@": 7423,
  "ffs": 7424,
  "secular": 7425,
  "wound": 7426,
  "pean@@": 7427,
  "3,@@": 7428,
  "decent": 7429,
  "pursuit": 7430,
  "key@@": 7431,
  "wrapped": 7432,
  "practicing": 7433,
  "ckers": 7434,
  "occupy": 7435,
  "minority": 7436,
  "findings": 7437,
  "athle@@": 7438,
  "apps": 7439,
  "stimulation": 7440,
  "alan": 7441,
  "beg@@": 7442,
  "presenting": 7443,
  "eigh@@": 7444,
  "tial": 7445,
  "punishment": 7446,
  "mask": 7447,
  "cloth": 7448,
  "ke-@@": 7449,
  "pipes": 7450,
  "vo": 7451,
  "recommen@@": 7452,
  "passions": 7453,
  "spec@@": 7454,
  "desperate": 7455,
  "celebr@@": 7456,
  "cables": 7457,
  "momentum": 7458,
  "touching": 7459,
  "asthma": 7460,
  "tokyo": 7461,
  "heal": 7462,
  "viewer": 7463,
  "preci@@": 7464,
  "iconic": 7465,
  "adul@@": 7466,
  "kn@@": 7467,
  "discipl@@": 7468,
  "trading": 7469,
  "artifacts": 7470,
  "pan": 7471,
  "crashes": 7472,
  "bribe": 7473,
  "ultraviolet": 7474,
  "basking": 7475,
  "ens@@": 7476,
  "abundant": 7477,
  "sin": 7478,
  "low-cost": 7479,
  "gasoline": 7480,
  "secondary": 7481,
  "flesh": 7482,
  "addiction": 7483,
  "compound": 7484,
  "crop": 7485,
  "cousin": 7486,
  "worm": 7487,
  "blah": 7488,
  "eats": 7489,
  "esi@@": 7490,
  "nas@@": 7491,
  "pathways": 7492,
  "infe@@": 7493,
  "injuries": 7494,
  "mutations": 7495,
  "tuned": 7496,
  "motivate": 7497,
  "pollu@@": 7498,
  "agents": 7499,
  "fungi": 7500,
  "stereotyp@@": 7501,
  "pro-@@": 7502,
  "pathetic": 7503,
  "film@@": 7504,
  "ce-@@": 7505,
  "pale@@": 7506,
  "timing": 7507,
  "protocell": 7508,
  "fast-@@": 7509,
  "heada@@": 7510,
  "ada@@": 7511,
  "gest@@": 7512,
  "debris": 7513,
  "palestinian": 7514,
  "democra@@": 7515,
  "boundary": 7516,
  "1994": 7517,
  "planned": 7518,
  "gence": 7519,
  "immense": 7520,
  "incu@@": 7521,
  "evalu@@": 7522,
  "ght-@@": 7523,
  "ecolo@@": 7524,
  "embarrassed": 7525,
  "ica": 7526,
  "catalo@@": 7527,
  "cream": 7528,
  "columns": 7529,
  "jan": 7530,
  "ares": 7531,
  "shat@@": 7532,
  "dac@@": 7533,
  "predator": 7534,
  "paths": 7535,
  "ises": 7536,
  "pack@@": 7537,
  "nonsense": 7538,
  "advent@@": 7539,
  "recycled": 7540,
  "deri@@": 7541,
  "eco@@": 7542,
  "ome": 7543,
  "dote": 7544,
  "bandwidth": 7545,
  "cel@@": 7546,
  "flexi@@": 7547,
  "17th": 7548,
  "netherlands": 7549,
  "firms": 7550,
  "calculated": 7551,
  "trapped": 7552,
  "fur": 7553,
  "vations": 7554,
  "pick@@": 7555,
  "accuracy": 7556,
  "pulse": 7557,
  "vul@@": 7558,
  "diamonds": 7559,
  "tated": 7560,
  "left-hand": 7561,
  "mosquitos": 7562,
  "chari@@": 7563,
  "refugee": 7564,
  "ao": 7565,
  "atives": 7566,
  "tted": 7567,
  "noisy": 7568,
  "wk": 7569,
  "sco@@": 7570,
  "negle@@": 7571,
  "reasoning": 7572,
  "easiest": 7573,
  "thood": 7574,
  "roofs": 7575,
  "rises": 7576,
  "honored": 7577,
  "vac@@": 7578,
  "spatial": 7579,
  "premise": 7580,
  "renewables": 7581,
  "curi@@": 7582,
  "visiting": 7583,
  "disciplines": 7584,
  "treasure": 7585,
  "climbed": 7586,
  "ceremony": 7587,
  "concent@@": 7588,
  "jane": 7589,
  "dden": 7590,
  "astic": 7591,
  "asset": 7592,
  "buttons": 7593,
  "grab@@": 7594,
  "pays": 7595,
  "copying": 7596,
  "argent@@": 7597,
  "dishes": 7598,
  "enting": 7599,
  "year@@": 7600,
  "politically": 7601,
  "risky": 7602,
  "exotic": 7603,
  "ref@@": 7604,
  "catholic": 7605,
  "authenticity": 7606,
  "gradu@@": 7607,
  "pros@@": 7608,
  "sahara": 7609,
  "dat@@": 7610,
  "aster": 7611,
  "eval": 7612,
  "ming@@": 7613,
  "loses": 7614,
  "strations": 7615,
  "powerpoint": 7616,
  "pleased": 7617,
  "marathon": 7618,
  "pray": 7619,
  "proli@@": 7620,
  "determin@@": 7621,
  "label": 7622,
  "roo@@": 7623,
  "gle@@": 7624,
  "bble": 7625,
  "brands": 7626,
  "fulness": 7627,
  "seals": 7628,
  "islam@@": 7629,
  "horizontal": 7630,
  "oriented": 7631,
  "sexually": 7632,
  "vegetable": 7633,
  "sequencing": 7634,
  "riding": 7635,
  "chapters": 7636,
  "firing": 7637,
  "clusters": 7638,
  "tains": 7639,
  "crocodi@@": 7640,
  "reporter": 7641,
  "junk": 7642,
  "seas@@": 7643,
  "abstra@@": 7644,
  "lebanon": 7645,
  "pc": 7646,
  "programmed": 7647,
  "well-known": 7648,
  "mentor": 7649,
  "tuesday": 7650,
  "equals": 7651,
  "q.": 7652,
  "ve-@@": 7653,
  "chin": 7654,
  "omin@@": 7655,
  "gecko": 7656,
  "58": 7657,
  "collision": 7658,
  "poems": 7659,
  "350": 7660,
  "intimate": 7661,
  "lips": 7662,
  "whistle": 7663,
  "yel@@": 7664,
  "defend": 7665,
  "congestion": 7666,
  "rela@@": 7667,
  "decision-making": 7668,
  "vent@@": 7669,
  "tedly": 7670,
  "maintenance": 7671,
  "or-@@": 7672,
  "laden": 7673,
  "tz@@": 7674,
  "diagno@@": 7675,
  "sage": 7676,
  "accum@@": 7677,
  "after@@": 7678,
  "tion-@@": 7679,
  "criteria": 7680,
  "assumed": 7681,
  "acids": 7682,
  "sound@@": 7683,
  "contained": 7684,
  "gan": 7685,
  "instruction": 7686,
  "adaptation": 7687,
  "marked": 7688,
  "mega@@": 7689,
  "tour@@": 7690,
  "prototypes": 7691,
  "unks": 7692,
  "mers": 7693,
  "foster": 7694,
  "escal@@": 7695,
  "angles": 7696,
  "synthes@@": 7697,
  "traces": 7698,
  "sensing": 7699,
  "operated": 7700,
  "behold": 7701,
  "dial": 7702,
  "hyper-@@": 7703,
  "formers": 7704,
  "c-@@": 7705,
  "hood": 7706,
  "differenti@@": 7707,
  "introdu@@": 7708,
  "vocabulary": 7709,
  "simulate": 7710,
  "mies": 7711,
  "sketch": 7712,
  "squared": 7713,
  "ethics": 7714,
  "nau@@": 7715,
  "ards": 7716,
  "planted": 7717,
  "kit": 7718,
  "chemist": 7719,
  "touches": 7720,
  "assuming": 7721,
  "fantasy": 7722,
  "doses": 7723,
  "bombsight": 7724,
  "fda": 7725,
  "ptions": 7726,
  "authoritarian": 7727,
  "metabolism": 7728,
  "1900": 7729,
  "dic@@": 7730,
  "alexander": 7731,
  "ge-@@": 7732,
  "steam": 7733,
  "counted": 7734,
  "accompanied": 7735,
  "hydr@@": 7736,
  "zero-@@": 7737,
  "counter-@@": 7738,
  "patch": 7739,
  "stomach": 7740,
  "fores@@": 7741,
  "well@@": 7742,
  "yard": 7743,
  "committee": 7744,
  "introver@@": 7745,
  "rehear@@": 7746,
  "lasting": 7747,
  "licen@@": 7748,
  "richest": 7749,
  "kelly": 7750,
  "considering": 7751,
  "ash@@": 7752,
  "phoenix": 7753,
  "low@@": 7754,
  "stare": 7755,
  "terrified": 7756,
  "explor@@": 7757,
  "accumulate": 7758,
  "chimpanzee": 7759,
  "shield": 7760,
  "trick@@": 7761,
  "royal": 7762,
  "night@@": 7763,
  "convincing": 7764,
  "han": 7765,
  "spell": 7766,
  "tasmanian": 7767,
  "famously": 7768,
  "thetics": 7769,
  "rement": 7770,
  "ola": 7771,
  "thank@@": 7772,
  "ima@@": 7773,
  "observing": 7774,
  "suspi@@": 7775,
  "lego": 7776,
  "vels": 7777,
  "deck": 7778,
  "albert": 7779,
  "frequencies": 7780,
  "festival": 7781,
  "inventions": 7782,
  "tely": 7783,
  "exploded": 7784,
  "mammal": 7785,
  "arro@@": 7786,
  "livestock": 7787,
  "blew": 7788,
  "stic@@": 7789,
  "nonetheless": 7790,
  "pipe": 7791,
  "uh": 7792,
  "lingui@@": 7793,
  "indicate": 7794,
  "adds": 7795,
  "insur@@": 7796,
  "laughed": 7797,
  "ven": 7798,
  "dicate": 7799,
  "chromosomes": 7800,
  "manner": 7801,
  "indicates": 7802,
  "leopard": 7803,
  "generates": 7804,
  "equity": 7805,
  "symmetrical": 7806,
  "lighter": 7807,
  "talented": 7808,
  "gle": 7809,
  "consensus": 7810,
  "infinity": 7811,
  "presidential": 7812,
  "machinery": 7813,
  "helpl@@": 7814,
  "requi@@": 7815,
  "columbia": 7816,
  "pou@@": 7817,
  "comments": 7818,
  "humanitarian": 7819,
  "staircase": 7820,
  "nesses": 7821,
  "dice": 7822,
  "vary": 7823,
  "magnet": 7824,
  "crap": 7825,
  "ports": 7826,
  "messy": 7827,
  "flat@@": 7828,
  "shops": 7829,
  "effici@@": 7830,
  "mother@@": 7831,
  "p.@@": 7832,
  "erup@@": 7833,
  "sends": 7834,
  "profitable": 7835,
  "tel": 7836,
  "frontier": 7837,
  "materi@@": 7838,
  "sarah": 7839,
  "consuming": 7840,
  "negotiate": 7841,
  "candy": 7842,
  "select": 7843,
  "slice": 7844,
  "candidates": 7845,
  "ire": 7846,
  "18th": 7847,
  "interviewer": 7848,
  "issu@@": 7849,
  "130": 7850,
  "eks": 7851,
  "translator": 7852,
  "boun@@": 7853,
  "awkward": 7854,
  "shepherd": 7855,
  "republicans": 7856,
  "arise": 7857,
  "cular": 7858,
  "establish": 7859,
  "randomly": 7860,
  "symbolic": 7861,
  "fever": 7862,
  "trips": 7863,
  "e.": 7864,
  "kat@@": 7865,
  "seawater": 7866,
  "seven-@@": 7867,
  "acres": 7868,
  "frustration": 7869,
  "composed": 7870,
  "spheres": 7871,
  "attach": 7872,
  "metals": 7873,
  "exponentially": 7874,
  "donors": 7875,
  "door@@": 7876,
  "anec@@": 7877,
  "archive": 7878,
  "investigation": 7879,
  "reader": 7880,
  "farther": 7881,
  "who@@": 7882,
  "fract@@": 7883,
  "12,000": 7884,
  "collap@@": 7885,
  "canadian": 7886,
  "per-@@": 7887,
  "vei@@": 7888,
  "cruel": 7889,
  "jum@@": 7890,
  "melting": 7891,
  "tick@@": 7892,
  "glacier": 7893,
  "balanced": 7894,
  "slower": 7895,
  "nam@@": 7896,
  "tails": 7897,
  "favor@@": 7898,
  "monster": 7899,
  "earth@@": 7900,
  "tism": 7901,
  "fruits": 7902,
  "34": 7903,
  "prophe@@": 7904,
  "1930s": 7905,
  "biop@@": 7906,
  "praying": 7907,
  "wol@@": 7908,
  "shel@@": 7909,
  "pesti@@": 7910,
  "camels": 7911,
  "mach@@": 7912,
  "clips": 7913,
  "mapped": 7914,
  "25@@": 7915,
  "beginn@@": 7916,
  "2030": 7917,
  "dr": 7918,
  "port@@": 7919,
  "43": 7920,
  "kling": 7921,
  "defeat": 7922,
  "titles": 7923,
  "96": 7924,
  "technologi@@": 7925,
  "1997": 7926,
  "commit@@": 7927,
  "saudi": 7928,
  "stopping": 7929,
  "mmed": 7930,
  "endea@@": 7931,
  "wheel@@": 7932,
  "milky": 7933,
  "juvenile": 7934,
  "dentally": 7935,
  "chronic": 7936,
  "perceptions": 7937,
  "wiring": 7938,
  "manufacture": 7939,
  "catastrophic": 7940,
  "editor": 7941,
  "ressing": 7942,
  "uniform": 7943,
  "trage@@": 7944,
  "sticking": 7945,
  "involve": 7946,
  "essive": 7947,
  "inters": 7948,
  "adequate": 7949,
  "aston@@": 7950,
  "rum@@": 7951,
  "tales": 7952,
  "enthusi@@": 7953,
  "brazilian": 7954,
  "ball@@": 7955,
  "confront": 7956,
  "prevalence": 7957,
  "solo": 7958,
  "millennia": 7959,
  "glac@@": 7960,
  "ever-@@": 7961,
  "affe@@": 7962,
  "chains": 7963,
  "refle@@": 7964,
  "nutrition": 7965,
  "von": 7966,
  "brave": 7967,
  "pond": 7968,
  "slope": 7969,
  "exceptions": 7970,
  "vering": 7971,
  "checking": 7972,
  "31": 7973,
  "ordered": 7974,
  "kidding": 7975,
  "grabbed": 7976,
  "modest": 7977,
  "recognizing": 7978,
  "friction": 7979,
  "staring": 7980,
  "unity": 7981,
  "prescription": 7982,
  "anatomy": 7983,
  "watt": 7984,
  "deny": 7985,
  "checked": 7986,
  "anderson": 7987,
  "psychiatric": 7988,
  "diplomat": 7989,
  "deficit": 7990,
  "hh": 7991,
  "aim@@": 7992,
  "hospit@@": 7993,
  "filmmaker": 7994,
  "heroic": 7995,
  "primates": 7996,
  "alarm": 7997,
  "stein": 7998,
  "immigr@@": 7999,
  "rap@@": 8000,
  "ulated": 8001,
  "b-@@": 8002,
  "monsoon": 8003,
  "xic@@": 8004,
  "dvd": 8005,
  "pakistan@@": 8006,
  "matches": 8007,
  "jewelry": 8008,
  "sms": 8009,
  "responded": 8010,
  "format": 8011,
  "bag@@": 8012,
  "irrational": 8013,
  "analyzed": 8014,
  "critic": 8015,
  "priori@@": 8016,
  "assu@@": 8017,
  "formal": 8018,
  "loo@@": 8019,
  "1980": 8020,
  "embar@@": 8021,
  "alike": 8022,
  "critically": 8023,
  "optimi@@": 8024,
  "custo@@": 8025,
  "broadcast": 8026,
  "preventing": 8027,
  "has@@": 8028,
  "terrorist": 8029,
  "cool@@": 8030,
  "corners": 8031,
  "hop": 8032,
  "tating": 8033,
  "empowering": 8034,
  "literate": 8035,
  "mm": 8036,
  "rop@@": 8037,
  "kindergarten": 8038,
  "fear@@": 8039,
  "occasi@@": 8040,
  "lately": 8041,
  "lamp": 8042,
  "atlanta": 8043,
  "opera@@": 8044,
  "fare": 8045,
  "aus@@": 8046,
  "kr@@": 8047,
  "tal": 8048,
  "particip@@": 8049,
  "missi@@": 8050,
  "4.@@": 8051,
  "cage": 8052,
  "quad@@": 8053,
  "waste@@": 8054,
  "texture": 8055,
  "mesh": 8056,
  "appreciation": 8057,
  "1,500": 8058,
  "piles": 8059,
  "float": 8060,
  "buddhist": 8061,
  "sang": 8062,
  "ler@@": 8063,
  "tooth": 8064,
  "calculating": 8065,
  "shaking": 8066,
  "enter@@": 8067,
  "spontaneous": 8068,
  "colorful": 8069,
  "needles": 8070,
  "orized": 8071,
  "under-@@": 8072,
  "disney": 8073,
  "paro@@": 8074,
  "verb": 8075,
  "representing": 8076,
  "nodes": 8077,
  "generosity": 8078,
  "assure": 8079,
  "guards": 8080,
  "gestures": 8081,
  "schizophrenia": 8082,
  "fair@@": 8083,
  "elizabeth": 8084,
  "nights": 8085,
  "ego": 8086,
  "infectious": 8087,
  "implemented": 8088,
  "omed": 8089,
  "apartments": 8090,
  "ager": 8091,
  "ance@@": 8092,
  "cardboard": 8093,
  "rage": 8094,
  "disturbing": 8095,
  "fabri@@": 8096,
  "beaten": 8097,
  "facili@@": 8098,
  "calcium": 8099,
  "hypothes@@": 8100,
  "artwork": 8101,
  "urbani@@": 8102,
  "transit": 8103,
  "con": 8104,
  "aters": 8105,
  "primate": 8106,
  "7,000": 8107,
  "berkeley": 8108,
  "dome": 8109,
  "lectures": 8110,
  "loc@@": 8111,
  "culturally": 8112,
  "mort@@": 8113,
  "kilometer": 8114,
  "sig@@": 8115,
  "mammography": 8116,
  "constraints": 8117,
  "hmm": 8118,
  "nitrogen": 8119,
  "powder": 8120,
  "tially": 8121,
  "transplan@@": 8122,
  "stock@@": 8123,
  "aluminum": 8124,
  "bust": 8125,
  "tali@@": 8126,
  "psychiat@@": 8127,
  "friendship": 8128,
  "dam": 8129,
  "daddy": 8130,
  "short@@": 8131,
  "bother": 8132,
  "fifty": 8133,
  "ny@@": 8134,
  "pate": 8135,
  "coca-cola": 8136,
  "alice": 8137,
  "textbook": 8138,
  "fishermen": 8139,
  "alphabet": 8140,
  "wra@@": 8141,
  "mathema@@": 8142,
  "asteroids": 8143,
  "illumin@@": 8144,
  "fault": 8145,
  "38": 8146,
  "bran@@": 8147,
  "meta@@": 8148,
  "refugees": 8149,
  "resses": 8150,
  "specialists": 8151,
  "commodities": 8152,
  "acknowledge": 8153,
  "caves": 8154,
  "ly-@@": 8155,
  "nucleus": 8156,
  "offspring": 8157,
  "exhibit": 8158,
  "belt": 8159,
  "confined": 8160,
  "ele@@": 8161,
  "42": 8162,
  "owners": 8163,
  "diamond": 8164,
  "norm": 8165,
  "thful": 8166,
  "resilient": 8167,
  "chron@@": 8168,
  "teszler": 8169,
  "nike": 8170,
  "surviving": 8171,
  "cript": 8172,
  "bent": 8173,
  "carto@@": 8174,
  "resist": 8175,
  "eternal": 8176,
  "leap@@": 8177,
  "ghter": 8178,
  "tibet": 8179,
  "specialized": 8180,
  "stamp": 8181,
  "hyperbo@@": 8182,
  "sands": 8183,
  "ette": 8184,
  "arch@@": 8185,
  "minerals": 8186,
  "hundre@@": 8187,
  "snake": 8188,
  "97": 8189,
  "julian": 8190,
  "traffi@@": 8191,
  "stunning": 8192,
  "non-zero-sum": 8193,
  "age-@@": 8194,
  "red@@": 8195,
  "understand@@": 8196,
  "delight": 8197,
  "carl": 8198,
  "analyzing": 8199,
  "cigarette": 8200,
  "pets": 8201,
  "disabilities": 8202,
  "surround": 8203,
  "ampu@@": 8204,
  "disk": 8205,
  "xy": 8206,
  "nano@@": 8207,
  "smi@@": 8208,
  "graduates": 8209,
  "achie@@": 8210,
  "mirrors": 8211,
  "immuni@@": 8212,
  "fix@@": 8213,
  "recall": 8214,
  "desperately": 8215,
  "ate@@": 8216,
  "r.": 8217,
  "apes": 8218,
  "pump@@": 8219,
  "enters": 8220,
  "cousins": 8221,
  "finishing": 8222,
  "characteristic": 8223,
  "ti": 8224,
  "rolls": 8225,
  "pittsburgh": 8226,
  "kosovo": 8227,
  "enterprise": 8228,
  "dynam@@": 8229,
  "frogs": 8230,
  "beetles": 8231,
  "2.0": 8232,
  "sper@@": 8233,
  "jews": 8234,
  "eth@@": 8235,
  "stake": 8236,
  "couch": 8237,
  "arable": 8238,
  "kicked": 8239,
  "gallon": 8240,
  "hackers": 8241,
  "coastal": 8242,
  "participating": 8243,
  "convention": 8244,
  "tattoo": 8245,
  "evaluate": 8246,
  "regrets": 8247,
  "novelty": 8248,
  "sudan": 8249,
  "freezing": 8250,
  "francis": 8251,
  "deserves": 8252,
  "represent@@": 8253,
  "screening": 8254,
  "hai@@": 8255,
  "injured": 8256,
  "gently": 8257,
  "ancestor": 8258,
  "tunisi@@": 8259,
  "tates": 8260,
  "mouths": 8261,
  "cambodia": 8262,
  "forcing": 8263,
  "projected": 8264,
  "peer": 8265,
  "tesla": 8266,
  "supports": 8267,
  "dp": 8268,
  "compounds": 8269,
  "nity": 8270,
  "clou@@": 8271,
  "relativity": 8272,
  "operates": 8273,
  "teries": 8274,
  "liberty": 8275,
  "50-@@": 8276,
  "correlation": 8277,
  "occupied": 8278,
  "tious": 8279,
  "chickens": 8280,
  "seasons": 8281,
  "documentary": 8282,
  "strug@@": 8283,
  "statistical": 8284,
  "road@@": 8285,
  "assembly": 8286,
  "pa": 8287,
  "filmed": 8288,
  "emphasize": 8289,
  "simul@@": 8290,
  "it-@@": 8291,
  "sheer": 8292,
  "ebay": 8293,
  "countless": 8294,
  "tide": 8295,
  "analo@@": 8296,
  "scheme": 8297,
  "banjo": 8298,
  "cooling": 8299,
  "sher": 8300,
  "wonderfully": 8301,
  "impaired": 8302,
  "explanations": 8303,
  "pron@@": 8304,
  "tis@@": 8305,
  "rab@@": 8306,
  "ac": 8307,
  "ore@@": 8308,
  "innovate": 8309,
  "nt": 8310,
  "toss": 8311,
  "dering": 8312,
  "ttle": 8313,
  "dreamed": 8314,
  "dancer": 8315,
  "ane@@": 8316,
  "sne@@": 8317,
  "kel@@": 8318,
  "woo@@": 8319,
  "climbers": 8320,
  "households": 8321,
  "tedsters": 8322,
  "overnight": 8323,
  "far-@@": 8324,
  "entertain@@": 8325,
  "commons": 8326,
  "spike": 8327,
  "breakdown": 8328,
  "eff@@": 8329,
  "wri@@": 8330,
  "rejected": 8331,
  "pigeon": 8332,
  "clapping": 8333,
  "parkinson": 8334,
  "secu@@": 8335,
  "checklist": 8336,
  "beha@@": 8337,
  "150,000": 8338,
  "rhyth@@": 8339,
  "rick": 8340,
  "jer@@": 8341,
  "kennedy": 8342,
  "happily": 8343,
  "mimi@@": 8344,
  "consent": 8345,
  "goat": 8346,
  "web@@": 8347,
  "bluefin": 8348,
  "regenerate": 8349,
  "managing": 8350,
  "perio@@": 8351,
  "divergence": 8352,
  "typ@@": 8353,
  "awe": 8354,
  "alo@@": 8355,
  "microscopic": 8356,
  "doc@@": 8357,
  "disappointed": 8358,
  "mixture": 8359,
  "redu@@": 8360,
  "refuse": 8361,
  "integr@@": 8362,
  "spiral": 8363,
  "dum@@": 8364,
  "forgive": 8365,
  "free-@@": 8366,
  "dispu@@": 8367,
  "spaghetti": 8368,
  "rituals": 8369,
  "logi@@": 8370,
  "snakes": 8371,
  "peculiar": 8372,
  "tooth@@": 8373,
  "managers": 8374,
  "democrats": 8375,
  "jonathan": 8376,
  "wolfram": 8377,
  "louis": 8378,
  "targeted": 8379,
  "wasted": 8380,
  "receiving": 8381,
  "jug@@": 8382,
  "mosqu@@": 8383,
  "wins": 8384,
  "tight": 8385,
  "exam": 8386,
  "reporting": 8387,
  "crude": 8388,
  "distur@@": 8389,
  "dys@@": 8390,
  "obe@@": 8391,
  "regulations": 8392,
  "cro": 8393,
  "specim@@": 8394,
  "headline": 8395,
  "persuade": 8396,
  "parenting": 8397,
  "termin@@": 8398,
  "alright": 8399,
  "knock": 8400,
  "infinitely": 8401,
  "64": 8402,
  "compar@@": 8403,
  "gigantic": 8404,
  "tou@@": 8405,
  "shelves": 8406,
  "moment@@": 8407,
  "sn@@": 8408,
  "inger": 8409,
  "combat": 8410,
  "symbio@@": 8411,
  "agile": 8412,
  "acknowled@@": 8413,
  "declared": 8414,
  "filters": 8415,
  "rod": 8416,
  "earned": 8417,
  "antibodies": 8418,
  "losses": 8419,
  "microphone": 8420,
  "acre": 8421,
  "hacker": 8422,
  "cellphone": 8423,
  "cial": 8424,
  "uniquely": 8425,
  "cryst@@": 8426,
  "crab": 8427,
  "appar@@": 8428,
  "tters": 8429,
  "champi@@": 8430,
  "rows": 8431,
  "prece@@": 8432,
  "ethanol": 8433,
  "processed": 8434,
  "deforestation": 8435,
  "dark@@": 8436,
  "astronomers": 8437,
  "fixing": 8438,
  "portable": 8439,
  "grove": 8440,
  "refined": 8441,
  "phthal@@": 8442,
  "lab@@": 8443,
  "wen@@": 8444,
  "confronted": 8445,
  "itation": 8446,
  "delivering": 8447,
  "circular": 8448,
  "navi@@": 8449,
  "republican": 8450,
  "statistically": 8451,
  "render": 8452,
  "dave": 8453,
  "beneficial": 8454,
  "brooklyn": 8455,
  "barrels": 8456,
  "calcul@@": 8457,
  "ession": 8458,
  "250,000": 8459,
  "queu@@": 8460,
  "400,000": 8461,
  "arm@@": 8462,
  "joining": 8463,
  "namibia": 8464,
  "zen@@": 8465,
  "expectation": 8466,
  "limit@@": 8467,
  "lower@@": 8468,
  "geomet@@": 8469,
  "cracks": 8470,
  "washed": 8471,
  "salary": 8472,
  "carnegie": 8473,
  "sj": 8474,
  "refused": 8475,
  "capsu@@": 8476,
  "applies": 8477,
  "supportive": 8478,
  "cost-@@": 8479,
  "grow@@": 8480,
  "breed": 8481,
  "watson": 8482,
  "substit@@": 8483,
  "elevator": 8484,
  "condi@@": 8485,
  "strand": 8486,
  "awa@@": 8487,
  "tribal": 8488,
  "mac@@": 8489,
  "locks": 8490,
  "sedu@@": 8491,
  "obsolete": 8492,
  "1.5": 8493,
  "accounting": 8494,
  "hman": 8495,
  "adh@@": 8496,
  "juggling": 8497,
  "protest": 8498,
  "reads": 8499,
  "greeks": 8500,
  "environmentally": 8501,
  "marvelous": 8502,
  "frau@@": 8503,
  "propor@@": 8504,
  "revel@@": 8505,
  "resul@@": 8506,
  "commission": 8507,
  "virtue": 8508,
  "belie@@": 8509,
  "carbon-@@": 8510,
  "stealing": 8511,
  "marker": 8512,
  "ultra-@@": 8513,
  "clarity": 8514,
  "delay": 8515,
  "cholera": 8516,
  "markers": 8517,
  "nurturing": 8518,
  "ambition": 8519,
  "systematic": 8520,
  "intend": 8521,
  "thousand@@": 8522,
  "tem@@": 8523,
  "rosling": 8524,
  "liter@@": 8525,
  "entrepreneurship": 8526,
  "24@@": 8527,
  "actu@@": 8528,
  "frustrating": 8529,
  "gage": 8530,
  "temporal": 8531,
  "margin@@": 8532,
  "scripts": 8533,
  "grocery": 8534,
  "trusted": 8535,
  "chal@@": 8536,
  "upright": 8537,
  "jumps": 8538,
  "bc": 8539,
  "expanded": 8540,
  "spectro@@": 8541,
  "300,000": 8542,
  "answering": 8543,
  "helmet": 8544,
  "cocktail": 8545,
  "kid@@": 8546,
  "collaborator": 8547,
  "alty": 8548,
  "diagnostic": 8549,
  "radar": 8550,
  "multipli@@": 8551,
  "discussions": 8552,
  "guard": 8553,
  "funeral": 8554,
  "valu@@": 8555,
  "jefferson": 8556,
  "dare": 8557,
  "fide": 8558,
  "astronomy": 8559,
  "mir@@": 8560,
  "million-@@": 8561,
  "unstable": 8562,
  "barry": 8563,
  "stran@@": 8564,
  "purchase": 8565,
  "practically": 8566,
  "regi@@": 8567,
  "ami": 8568,
  "aver@@": 8569,
  "sia": 8570,
  "kidna@@": 8571,
  "cared": 8572,
  "brad": 8573,
  "liberals": 8574,
  "conservatives": 8575,
  "frames": 8576,
  "sputnik": 8577,
  "tomato": 8578,
  "wom@@": 8579,
  "suspe@@": 8580,
  "monit@@": 8581,
  "humility": 8582,
  "depres@@": 8583,
  "gin": 8584,
  "oming": 8585,
  "happiest": 8586,
  "hul@@": 8587,
  "anticip@@": 8588,
  "repeatedly": 8589,
  "stent": 8590,
  "guinea": 8591,
  "imagining": 8592,
  "justify": 8593,
  "alling": 8594,
  "diplo@@": 8595,
  "infant": 8596,
  "sebastian": 8597,
  "tary": 8598,
  "condom": 8599,
  "impressed": 8600,
  "racy": 8601,
  "th-century": 8602,
  "will@@": 8603,
  "tages": 8604,
  "galleries": 8605,
  "neutr@@": 8606,
  "ech@@": 8607,
  "moreover": 8608,
  "affairs": 8609,
  "emotionally": 8610,
  "hybrid": 8611,
  "sticky": 8612,
  "buses": 8613,
  "promises": 8614,
  "nut": 8615,
  "wives": 8616,
  "space-@@": 8617,
  "michigan": 8618,
  "distribute": 8619,
  "ghty": 8620,
  "hugely": 8621,
  "ren": 8622,
  "paralysis": 8623,
  "segment": 8624,
  "monday": 8625,
  "transforma@@": 8626,
  "suc@@": 8627,
  "guitar": 8628,
  "nicely": 8629,
  "ington": 8630,
  "transfer@@": 8631,
  "accountable": 8632,
  "reproduction": 8633,
  "guidance": 8634,
  "gru@@": 8635,
  "surfing": 8636,
  "cop": 8637,
  "deep-@@": 8638,
  "embodied": 8639,
  "portugal": 8640,
  "denmark": 8641,
  "volcano": 8642,
  "hut": 8643,
  "ank@@": 8644,
  "snow@@": 8645,
  "stan@@": 8646,
  "semi-@@": 8647,
  "descen@@": 8648,
  "orph@@": 8649,
  "hacking": 8650,
  "smar@@": 8651,
  "poll": 8652,
  "isolation": 8653,
  "journalism": 8654,
  "tery": 8655,
  "interrupted": 8656,
  "rains": 8657,
  "spaces@@": 8658,
  "baseline": 8659,
  "auth@@": 8660,
  "charter": 8661,
  "oo@@": 8662,
  "restrial": 8663,
  "feminist": 8664,
  "strikes": 8665,
  "av": 8666,
  "cybercriminals": 8667,
  "bery": 8668,
  "declining": 8669,
  "ption": 8670,
  "promising": 8671,
  "babbage": 8672,
  "equilibrium": 8673,
  "photographers": 8674,
  "yiel@@": 8675,
  "min": 8676,
  "saturday": 8677,
  "likewise": 8678,
  "chess": 8679,
  "noble": 8680,
  "episode": 8681,
  "sooner": 8682,
  "confli@@": 8683,
  "bangalore": 8684,
  "petro@@": 8685,
  "clues": 8686,
  "fascin@@": 8687,
  "encountered": 8688,
  "blog@@": 8689,
  "obstacle": 8690,
  "stance": 8691,
  "wished": 8692,
  "controversy": 8693,
  "anxious": 8694,
  "arrest": 8695,
  "serves": 8696,
  "calendar": 8697,
  "progr@@": 8698,
  "mated": 8699,
  "replacing": 8700,
  "slip": 8701,
  "1991": 8702,
  "mama": 8703,
  "thinkers": 8704,
  "brilli@@": 8705,
  "neum@@": 8706,
  "cataly@@": 8707,
  "exagger@@": 8708,
  "auditorium": 8709,
  "arose": 8710,
  "biases": 8711,
  "manipulation": 8712,
  "labels": 8713,
  "fisheries": 8714,
  "alties": 8715,
  "surveys": 8716,
  "rd": 8717,
  "grou@@": 8718,
  "posters": 8719,
  "sion@@": 8720,
  "strangely": 8721,
  "beds": 8722,
  "bonus": 8723,
  "atro@@": 8724,
  "museums": 8725,
  "allies": 8726,
  "gla@@": 8727,
  "goodness": 8728,
  "ames": 8729,
  "intrinsic": 8730,
  "stine": 8731,
  "successes": 8732,
  "typing": 8733,
  "sadness": 8734,
  "improvis@@": 8735,
  "variables": 8736,
  "threatening": 8737,
  "developmental": 8738,
  "geography": 8739,
  "thered": 8740,
  "ethic": 8741,
  "yl@@": 8742,
  "gate@@": 8743,
  "hoo@@": 8744,
  "apollo": 8745,
  "attempts": 8746,
  "therapies": 8747,
  "unded": 8748,
  "bow@@": 8749,
  "vory": 8750,
  "matt": 8751,
  "pathway": 8752,
  "cit@@": 8753,
  "tect@@": 8754,
  "whe@@": 8755,
  "2012": 8756,
  "relatives": 8757,
  "zoo": 8758,
  "progression": 8759,
  "mild": 8760,
  "cardiac": 8761,
  "interventions": 8762,
  "rewar@@": 8763,
  "imperative": 8764,
  "celebration": 8765,
  "jumping": 8766,
  "radio@@": 8767,
  "potatoes": 8768,
  "theirs": 8769,
  "trade-@@": 8770,
  "basement": 8771,
  "ter-@@": 8772,
  "wonders": 8773,
  "coma": 8774,
  "headquarters": 8775,
  "ousy": 8776,
  "enabling": 8777,
  "ord": 8778,
  "legen@@": 8779,
  "pumps": 8780,
  "regularly": 8781,
  "confer@@": 8782,
  "acceptance": 8783,
  "elbow": 8784,
  "sucks": 8785,
  "morph@@": 8786,
  "orgasm": 8787,
  "gist": 8788,
  "talents": 8789,
  "precision": 8790,
  "timel@@": 8791,
  "skilled": 8792,
  "crystal": 8793,
  "survi@@": 8794,
  "pollutants": 8795,
  "kibera": 8796,
  "nathan": 8797,
  "patience": 8798,
  "andy": 8799,
  "eighth": 8800,
  "instinct": 8801,
  "describing": 8802,
  "supreme": 8803,
  "twist": 8804,
  "appeal": 8805,
  "soccer": 8806,
  "dia": 8807,
  "marke@@": 8808,
  "log": 8809,
  "replacement": 8810,
  "ols": 8811,
  "var@@": 8812,
  "roles": 8813,
  "15,000": 8814,
  "invent@@": 8815,
  "gratu@@": 8816,
  "assembled": 8817,
  "unic@@": 8818,
  "bikes": 8819,
  "adaptive": 8820,
  "lobby": 8821,
  "52": 8822,
  "tual": 8823,
  "fg": 8824,
  "non-lethal": 8825,
  "bono": 8826,
  "plankton": 8827,
  "sb": 8828,
  "spa@@": 8829,
  "notic@@": 8830,
  "enlightenment": 8831,
  "candle": 8832,
  "projections": 8833,
  "conducting": 8834,
  "ung@@": 8835,
  "princeton": 8836,
  "ruins": 8837,
  "inform": 8838,
  "achieving": 8839,
  "christians": 8840,
  "conceptual": 8841,
  "glorious": 8842,
  "paper@@": 8843,
  "scientifically": 8844,
  "caribbean": 8845,
  "addressing": 8846,
  "absorb": 8847,
  "survivors": 8848,
  "purch@@": 8849,
  "coun@@": 8850,
  "knees": 8851,
  "summarize": 8852,
  "banned": 8853,
  "dylan": 8854,
  "hou@@": 8855,
  "00@@": 8856,
  "statue": 8857,
  "pest": 8858,
  "rebel@@": 8859,
  "elly": 8860,
  "politician": 8861,
  "1995": 8862,
  "researching": 8863,
  "part@@": 8864,
  "democracies": 8865,
  "cafe": 8866,
  "preten@@": 8867,
  "acou@@": 8868,
  "minded": 8869,
  "submit": 8870,
  "bloody": 8871,
  "barriers": 8872,
  "sufficient": 8873,
  "el-@@": 8874,
  "keith": 8875,
  "basket": 8876,
  "sie@@": 8877,
  "recognizes": 8878,
  "bless": 8879,
  "towers": 8880,
  "sensitivity": 8881,
  "man-@@": 8882,
  "post-conflict": 8883,
  "hammer": 8884,
  "specu@@": 8885,
  "logy": 8886,
  "cture": 8887,
  "second-@@": 8888,
  "planting": 8889,
  "pointment": 8890,
  "accepting": 8891,
  "vacation": 8892,
  "bea@@": 8893,
  "bj": 8894,
  "philip": 8895,
  "haw@@": 8896,
  "rainforests": 8897,
  "rachel": 8898,
  "galapagos": 8899,
  "commissioned": 8900,
  "agrees": 8901,
  "greenland": 8902,
  "alternatives": 8903,
  "bathroom": 8904,
  "reviewed": 8905,
  "warm@@": 8906,
  "heights": 8907,
  "wet": 8908,
  "nine-@@": 8909,
  "cooperate": 8910,
  "blogging": 8911,
  "intentions": 8912,
  "logging": 8913,
  "pregnancy": 8914,
  "mexican": 8915,
  "constru@@": 8916,
  "draws": 8917,
  "solar-@@": 8918,
  "1984": 8919,
  "influences": 8920,
  "unified": 8921,
  "genuine": 8922,
  "e.@@": 8923,
  "oops": 8924,
  "relie@@": 8925,
  "fru@@": 8926,
  "dable": 8927,
  "rover": 8928,
  "conven@@": 8929,
  "lements": 8930,
  "0": 8931,
  "oven": 8932,
  "bet@@": 8933,
  "qualified": 8934,
  "personalities": 8935,
  "squeeze": 8936,
  "promoting": 8937,
  "weekend": 8938,
  "obsession": 8939,
  "ea@@": 8940,
  "sells": 8941,
  "musta@@": 8942,
  "slept": 8943,
  "gon@@": 8944,
  "indigenous": 8945,
  "cism": 8946,
  "reti@@": 8947,
  "eradication": 8948,
  "blocked": 8949,
  "lonely": 8950,
  "embra@@": 8951,
  "origin@@": 8952,
  "airline": 8953,
  "ishes": 8954,
  "fool@@": 8955,
  "contradiction": 8956,
  "anniversary": 8957,
  "hurricane": 8958,
  "incidentally": 8959,
  "surplus": 8960,
  "eit": 8961,
  "mage": 8962,
  "opa@@": 8963,
  "self-assembly": 8964,
  "viewed": 8965,
  "full-time": 8966,
  "altered": 8967,
  "ket": 8968,
  "125": 8969,
  "hawking": 8970,
  "icons": 8971,
  "chimps": 8972,
  "norms": 8973,
  "entary": 8974,
  "plot@@": 8975,
  "forum": 8976,
  "league": 8977,
  "art@@": 8978,
  "mix@@": 8979,
  "synesthesia": 8980,
  "uba": 8981,
  "lama": 8982,
  "painter": 8983,
  "assistance": 8984,
  "fox": 8985,
  "forma@@": 8986,
  "tiv@@": 8987,
  "rendered": 8988,
  "hence": 8989,
  "prob@@": 8990,
  "thumb": 8991,
  "altru@@": 8992,
  "disruptive": 8993,
  "bra": 8994,
  "ideological": 8995,
  "implanted": 8996,
  "stimulate": 8997,
  "compani@@": 8998,
  "fuzzy": 8999,
  "fluores@@": 9000,
  "naive": 9001,
  "settled": 9002,
  "acle": 9003,
  "bioluminescence": 9004,
  "rides": 9005,
  "99@@": 9006,
  "distribu@@": 9007,
  "aggregate": 9008,
  "hated": 9009,
  "pair@@": 9010,
  "fers": 9011,
  "revi@@": 9012,
  "writes": 9013,
  "morally": 9014,
  "settle": 9015,
  "sponsor@@": 9016,
  "fulfilling": 9017,
  "semin@@": 9018,
  "utility": 9019,
  "modified": 9020,
  "tenth": 9021,
  "deciding": 9022,
  "acute": 9023,
  "meets": 9024,
  "compatible": 9025,
  "rowed": 9026,
  "delicate": 9027,
  "minor": 9028,
  "cess": 9029,
  "bruce": 9030,
  "liberia": 9031,
  "mac": 9032,
  "susan": 9033,
  "shower": 9034,
  "lethal": 9035,
  "rier": 9036,
  "ylon": 9037,
  "lever@@": 9038,
  "dreaming": 9039,
  "eing": 9040,
  "mythology": 9041,
  "sue": 9042,
  "probable": 9043,
  "modeling": 9044,
  "fertility": 9045,
  "censorship": 9046,
  "traditionally": 9047,
  "j.": 9048,
  "redefine": 9049,
  "kies": 9050,
  "alaska": 9051,
  "agra@@": 9052,
  "193@@": 9053,
  "consists": 9054,
  "enz@@": 9055,
  "lers": 9056,
  "examine": 9057,
  "edit": 9058,
  "hit@@": 9059,
  "suitcase": 9060,
  "ger-@@": 9061,
  "maintaining": 9062,
  "laundry": 9063,
  "24-@@": 9064,
  "tch@@": 9065,
  "aria": 9066,
  "hau@@": 9067,
  "edinburgh": 9068,
  "unemployment": 9069,
  "stere@@": 9070,
  "stun@@": 9071,
  "chunk": 9072,
  "sug@@": 9073,
  "flights": 9074,
  "1970": 9075,
  "louder": 9076,
  "upward": 9077,
  "magazines": 9078,
  "humble": 9079,
  "access@@": 9080,
  "victory": 9081,
  "votes": 9082,
  "parasite": 9083,
  "sighted": 9084,
  "awake": 9085,
  "collaborators": 9086,
  "accurately": 9087,
  "poets": 9088,
  "gat@@": 9089,
  "cock@@": 9090,
  "sensible": 9091,
  "envelope": 9092,
  "pup@@": 9093,
  "euro@@": 9094,
  "hair@@": 9095,
  "prevent@@": 9096,
  "rna": 9097,
  "heck": 9098,
  "quantities": 9099,
  "individu@@": 9100,
  "ninth": 9101,
  "bosnia": 9102,
  "tia": 9103,
  "jackson": 9104,
  "subsi@@": 9105,
  "neocortex": 9106,
  "genic": 9107,
  "sno@@": 9108,
  "independently": 9109,
  "continually": 9110,
  "partnerships": 9111,
  "stered": 9112,
  "waited": 9113,
  "toronto": 9114,
  "hal": 9115,
  "himalay@@": 9116,
  "puzz@@": 9117,
  "augu@@": 9118,
  "grounds": 9119,
  "circulation": 9120,
  "stron@@": 9121,
  "veterans": 9122,
  "percep@@": 9123,
  "oll@@": 9124,
  "server": 9125,
  "attacking": 9126,
  "buddha": 9127,
  "sweat": 9128,
  "ani": 9129,
  "heavens": 9130,
  "ised": 9131,
  "disappearing": 9132,
  "cutt@@": 9133,
  "clari@@": 9134,
  "myths": 9135,
  "cockro@@": 9136,
  "ella": 9137,
  "spine": 9138,
  "ushahidi": 9139,
  "responsibilities": 9140,
  "singer": 9141,
  "polari@@": 9142,
  "deploy": 9143,
  "towel": 9144,
  "76": 9145,
  "spades": 9146,
  "belon@@": 9147,
  "pleas@@": 9148,
  "grass@@": 9149,
  "enhance": 9150,
  "generic": 9151,
  "arrange": 9152,
  "balloons": 9153,
  "ex-@@": 9154,
  "fairness": 9155,
  "note@@": 9156,
  "stres@@": 9157,
  "notation": 9158,
  "ehouse": 9159,
  "intervene": 9160,
  "ota": 9161,
  "mb": 9162,
  "herd": 9163,
  "apologize": 9164,
  "radius": 9165,
  "tle": 9166,
  "peti@@": 9167,
  "resurre@@": 9168,
  "ticul@@": 9169,
  "tural": 9170,
  "nis@@": 9171,
  "impulse": 9172,
  "glory": 9173,
  "tightly": 9174,
  "lows": 9175,
  "voluntary": 9176,
  "wl": 9177,
  "yor@@": 9178,
  "iter@@": 9179,
  "offs": 9180,
  "egyptians": 9181,
  "returns": 9182,
  "learns": 9183,
  "ghtly": 9184,
  "dio@@": 9185,
  "plug@@": 9186,
  "preserved": 9187,
  "tren@@": 9188,
  "bus@@": 9189,
  "tw@@": 9190,
  "leone": 9191,
  "1-@@": 9192,
  "routin@@": 9193,
  "breath@@": 9194,
  "mos@@": 9195,
  "collider": 9196,
  "reforms": 9197,
  "apparatus": 9198,
  "afterward": 9199,
  "astronomical": 9200,
  "nom@@": 9201,
  "topo@@": 9202,
  "lane": 9203,
  "ambiguity": 9204,
  "aes@@": 9205,
  "maid": 9206,
  "satisfied": 9207,
  "exercis@@": 9208,
  "involving": 9209,
  "diagnose": 9210,
  "pher@@": 9211,
  "illusions": 9212,
  "individually": 9213,
  "lifel@@": 9214,
  "voyage": 9215,
  "pennsylvania": 9216,
  "volcanic": 9217,
  "delta": 9218,
  "snap@@": 9219,
  "arbitr@@": 9220,
  "globalized": 9221,
  "chs": 9222,
  "alert": 9223,
  "toug@@": 9224,
  "walker": 9225,
  "gon": 9226,
  "queens": 9227,
  "fragments": 9228,
  "consideration": 9229,
  "atheist": 9230,
  "gered": 9231,
  "hatred": 9232,
  "glu@@": 9233,
  "mut@@": 9234,
  "owe": 9235,
  "corrupt": 9236,
  "din": 9237,
  "valve": 9238,
  "divorce": 9239,
  "lasts": 9240,
  "jar": 9241,
  "tization": 9242,
  "drama": 9243,
  "jerry": 9244,
  "optimal": 9245,
  "invasive": 9246,
  "sterile": 9247,
  "eline": 9248,
  "distinguish": 9249,
  "problematic": 9250,
  "checks": 9251,
  "destructive": 9252,
  "accomplish": 9253,
  "iron@@": 9254,
  "wilson": 9255,
  "market@@": 9256,
  "encing": 9257,
  "regulation": 9258,
  "cosmos": 9259,
  "doub@@": 9260,
  "low-income": 9261,
  "staggering": 9262,
  "dom": 9263,
  "hipp@@": 9264,
  "guilt": 9265,
  "child@@": 9266,
  "elegan@@": 9267,
  "hotels": 9268,
  "blessed": 9269,
  "cabinet": 9270,
  "pearl": 9271,
  "penalty": 9272,
  "emerges": 9273,
  "fails": 9274,
  "mysteries": 9275,
  "suspended": 9276,
  "argued": 9277,
  "need@@": 9278,
  "valid": 9279,
  "founding": 9280,
  "stration": 9281,
  "mou@@": 9282,
  "wavel@@": 9283,
  "derived": 9284,
  "turk@@": 9285,
  "foam": 9286,
  "scream": 9287,
  "lage": 9288,
  "wet@@": 9289,
  "ideology": 9290,
  "relates": 9291,
  "iden@@": 9292,
  "basketball": 9293,
  "spite": 9294,
  "emer@@": 9295,
  "nap@@": 9296,
  "mly": 9297,
  "larvae": 9298,
  "ually": 9299,
  "innovators": 9300,
  "parked": 9301,
  "linking": 9302,
  "tern@@": 9303,
  "tible": 9304,
  "escap@@": 9305,
  "distingu@@": 9306,
  "coincidence": 9307,
  "expose": 9308,
  "bou@@": 9309,
  "tory": 9310,
  "mustard": 9311,
  "pristine": 9312,
  "prisons": 9313,
  "handful": 9314,
  "ambassad@@": 9315,
  "start@@": 9316,
  "renaissance": 9317,
  "hung": 9318,
  "palestine": 9319,
  "ligh@@": 9320,
  "pat": 9321,
  "geese": 9322,
  "enco@@": 9323,
  "displays": 9324,
  "misery": 9325,
  "fog": 9326,
  "yment": 9327,
  "investigate": 9328,
  "syria": 9329,
  "metaphor@@": 9330,
  "intricate": 9331,
  "relax": 9332,
  "grey": 9333,
  "desertification": 9334,
  "goats": 9335,
  "govern": 9336,
  "depressing": 9337,
  "transported": 9338,
  "contin@@": 9339,
  "disconnected": 9340,
  "tamiflu": 9341,
  "bot": 9342,
  "involvement": 9343,
  "stranger": 9344,
  "volunte@@": 9345,
  "petition": 9346,
  "sprin@@": 9347,
  "rendering": 9348,
  "nails": 9349,
  "asleep": 9350,
  "dod@@": 9351,
  "close@@": 9352,
  "strengths": 9353,
  "equator": 9354,
  "norman": 9355,
  "hel@@": 9356,
  "nectar": 9357,
  "ipod": 9358,
  "lor@@": 9359,
  "presi@@": 9360,
  "harvesting": 9361,
  "divine": 9362,
  "god@@": 9363,
  "conscience": 9364,
  "fetus": 9365,
  "inherently": 9366,
  "squee@@": 9367,
  "orphanage": 9368,
  "hill@@": 9369,
  "ram": 9370,
  "actic": 9371,
  "summary": 9372,
  "jour@@": 9373,
  "arena": 9374,
  "blade": 9375,
  "penis": 9376,
  "commerce": 9377,
  "kiribati": 9378,
  "deter@@": 9379,
  "screaming": 9380,
  "savan@@": 9381,
  "turn@@": 9382,
  "northwest": 9383,
  "zipcar": 9384,
  "extending": 9385,
  "bankers": 9386,
  "pix@@": 9387,
  "attraction": 9388,
  "pe-@@": 9389,
  "legitimate": 9390,
  "collaborate": 9391,
  "vs": 9392,
  "officers": 9393,
  "archy": 9394,
  "recovered": 9395,
  "genomics": 9396,
  "surro@@": 9397,
  "policing": 9398,
  "converted": 9399,
  "deple@@": 9400,
  "energi@@": 9401,
  "folk": 9402,
  "nation-@@": 9403,
  "stunt": 9404,
  "questioning": 9405,
  "edited": 9406,
  "drunk": 9407,
  "tt": 9408,
  "reduces": 9409,
  "stru@@": 9410,
  "grief": 9411,
  "peaks": 9412,
  "mat": 9413,
  "schedul@@": 9414,
  "cnn": 9415,
  "subsidi@@": 9416,
  "applause": 9417,
  "manu@@": 9418,
  "quietly": 9419,
  "gardens": 9420,
  "shou@@": 9421,
  "intra@@": 9422,
  "tivity": 9423,
  "hooked": 9424,
  "high-speed": 9425,
  "1989": 9426,
  "benign": 9427,
  "abandon": 9428,
  "arly": 9429,
  "tabo@@": 9430,
  "outbreak": 9431,
  "gur@@": 9432,
  "hump@@": 9433,
  "zational": 9434,
  "nurture": 9435,
  "obsc@@": 9436,
  "py": 9437,
  "devoted": 9438,
  "pressed": 9439,
  "leaks": 9440,
  "inventing": 9441,
  "fea@@": 9442,
  "mati@@": 9443,
  "kings": 9444,
  "digits": 9445,
  "responding": 9446,
  "voters": 9447,
  "courageous": 9448,
  "defi@@": 9449,
  "caltech": 9450,
  "utop@@": 9451,
  "tracked": 9452,
  "make@@": 9453,
  "realities": 9454,
  "slowed": 9455,
  "cardio@@": 9456,
  "hopeless": 9457,
  "reinvent": 9458,
  "jordan": 9459,
  "mutual": 9460,
  "doug": 9461,
  "elaborate": 9462,
  "flourish": 9463,
  "libraries": 9464,
  "excep@@": 9465,
  "fing": 9466,
  "loans": 9467,
  "continuity": 9468,
  "rescued": 9469,
  "arrogan@@": 9470,
  "spli@@": 9471,
  "burns": 9472,
  "conditioning": 9473,
  "daylight": 9474,
  "jar@@": 9475,
  "velocity": 9476,
  "entrance": 9477,
  "sel": 9478,
  "flour@@": 9479,
  "1.2": 9480,
  "accoun@@": 9481,
  "purely": 9482,
  "real-@@": 9483,
  "bananas": 9484,
  "statements": 9485,
  "ounce": 9486,
  "unleas@@": 9487,
  "creators": 9488,
  "constitution": 9489,
  "invitation": 9490,
  "jam": 9491,
  "mediate": 9492,
  "ivan": 9493,
  "willingness": 9494,
  "modul@@": 9495,
  "adolescence": 9496,
  "worthwhile": 9497,
  "gab@@": 9498,
  "vibrating": 9499,
  "summar@@": 9500,
  "encoura@@": 9501,
  "appropriately": 9502,
  "reed": 9503,
  "das@@": 9504,
  "ope": 9505,
  "default": 9506,
  "prototyping": 9507,
  "gravitational": 9508,
  "bump": 9509,
  "bonds": 9510,
  "crum@@": 9511,
  "improvise": 9512,
  "quisition": 9513,
  "dalai": 9514,
  "detected": 9515,
  "slight": 9516,
  "scape": 9517,
  "browser": 9518,
  "schooling": 9519,
  "numerous": 9520,
  "iers": 9521,
  "humankind": 9522,
  "alter": 9523,
  "eller": 9524,
  "terri@@": 9525,
  "limbs": 9526,
  "chop": 9527,
  "analog": 9528,
  "cochlear": 9529,
  "hypo@@": 9530,
  "specialist": 9531,
  "matching": 9532,
  "darfur": 9533,
  "thereby": 9534,
  "starvation": 9535,
  "identifi@@": 9536,
  "cathedral": 9537,
  "capac@@": 9538,
  "deca@@": 9539,
  "worries": 9540,
  "certific@@": 9541,
  "gosh": 9542,
  "uts": 9543,
  "miner@@": 9544,
  "head-tail-@@": 9545,
  "sustained": 9546,
  "jo": 9547,
  "3-@@": 9548,
  "parameters": 9549,
  "tedness": 9550,
  "appliances": 9551,
  "holiday": 9552,
  "avi@@": 9553,
  "aqua@@": 9554,
  "documenting": 9555,
  "biologically": 9556,
  "honey@@": 9557,
  "tish": 9558,
  "veter@@": 9559,
  "hoped": 9560,
  "lever": 9561,
  "q": 9562,
  "elders": 9563,
  "dee@@": 9564,
  "cracked": 9565,
  "ji@@": 9566,
  "christ": 9567,
  "lean": 9568,
  "ashamed": 9569,
  "afri@@": 9570,
  "grapher": 9571,
  "net@@": 9572,
  "stell@@": 9573,
  "aner": 9574,
  "deplo@@": 9575,
  "dodo": 9576,
  "side-@@": 9577,
  "punch": 9578,
  "repe@@": 9579,
  "respected": 9580,
  "bending": 9581,
  "journ@@": 9582,
  "packaging": 9583,
  "nightmare": 9584,
  "hoo": 9585,
  "scotland": 9586,
  "screw": 9587,
  "vili@@": 9588,
  "citly": 9589,
  "breakthroughs": 9590,
  "employment": 9591,
  "lining": 9592,
  "evo@@": 9593,
  "jaw": 9594,
  "tagging": 9595,
  "mad@@": 9596,
  "impul@@": 9597,
  "scholar@@": 9598,
  "zine": 9599,
  "func@@": 9600,
  "peripher@@": 9601,
  "real-time": 9602,
  "abs": 9603,
  "mck@@": 9604,
  "templ@@": 9605,
  "darwinian": 9606,
  "conve@@": 9607,
  "visceral": 9608,
  "comprehensive": 9609,
  "anytime": 9610,
  "sovereig@@": 9611,
  "colum@@": 9612,
  "optimize": 9613,
  "uns": 9614,
  "lagos": 9615,
  "ckets": 9616,
  "tain@@": 9617,
  "abroad": 9618,
  "activate": 9619,
  "bounce": 9620,
  "regimes": 9621,
  "hint": 9622,
  "fatal": 9623,
  "2015": 9624,
  "horn": 9625,
  "imm@@": 9626,
  "devo@@": 9627,
  "spoo@@": 9628,
  "comparable": 9629,
  "romance": 9630,
  "armstrong": 9631,
  "battle@@": 9632,
  "concep@@": 9633,
  "assem@@": 9634,
  "whistling": 9635,
  "pressures": 9636,
  "gaining": 9637,
  "phili@@": 9638,
  "crowd@@": 9639,
  "sanitation": 9640,
  "neil": 9641,
  "syste@@": 9642,
  "canyon": 9643,
  "ization": 9644,
  "variability": 9645,
  "infrared": 9646,
  "pediatri@@": 9647,
  "alongside": 9648,
  "reasonably": 9649,
  "crowds": 9650,
  "cide": 9651,
  "stressed": 9652,
  "ghtest": 9653,
  "standpoint": 9654,
  "thum@@": 9655,
  "container": 9656,
  "starbucks": 9657,
  "sensi@@": 9658,
  "one-on-one": 9659,
  "vivid": 9660,
  "perman@@": 9661,
  "nucle@@": 9662,
  "question@@": 9663,
  "australian": 9664,
  "aqu@@": 9665,
  "entities": 9666,
  "representative": 9667,
  "principal": 9668,
  "remix": 9669,
  "dug": 9670,
  "agnes": 9671,
  "bullet": 9672,
  "cheap@@": 9673,
  "jokes": 9674,
  "graham": 9675,
  "titanic": 9676,
  "900": 9677,
  "you@@": 9678,
  "atheists": 9679,
  "reson@@": 9680,
  "demanding": 9681,
  "bamboo": 9682,
  "mola": 9683,
  "satis@@": 9684,
  "humili@@": 9685,
  "tremendously": 9686,
  "viable": 9687,
  "warren": 9688,
  "singers": 9689,
  "fibonacci": 9690,
  "erectus": 9691,
  "intervie@@": 9692,
  "arrow": 9693,
  "bench": 9694,
  "mea@@": 9695,
  "pedal": 9696,
  "slum": 9697,
  "potato": 9698,
  "shipped": 9699,
  "laure@@": 9700,
  "tos": 9701,
  "pho@@": 9702,
  "ann@@": 9703,
  "inherent": 9704,
  "textile": 9705,
  "saves": 9706,
  "trunk": 9707,
  "200-@@": 9708,
  "launching": 9709,
  "gar": 9710,
  "cassini": 9711,
  "tick": 9712,
  "governmental": 9713,
  "speeds": 9714,
  "scare": 9715,
  "province": 9716,
  "trait": 9717,
  "stadium": 9718,
  "listed": 9719,
  "laugh@@": 9720,
  "sity": 9721,
  "doll@@": 9722,
  "imple@@": 9723,
  "stunts": 9724,
  "country@@": 9725,
  "malnutrition": 9726,
  "predicting": 9727,
  "tennis": 9728,
  "directed": 9729,
  "fitting": 9730,
  "two-dimensional": 9731,
  "memorial": 9732,
  "signing": 9733,
  "ideo": 9734,
  "murray": 9735,
  "us-@@": 9736,
  "swing": 9737,
  "attachment": 9738,
  "dening": 9739,
  "gement": 9740,
  "skeptical": 9741,
  "aller": 9742,
  "confir@@": 9743,
  "ere": 9744,
  "ians": 9745,
  "pioneer": 9746,
  "ables": 9747,
  "explorers": 9748,
  "moti@@": 9749,
  "heated": 9750,
  "police@@": 9751,
  "luther": 9752,
  "measurable": 9753,
  "moma": 9754,
  "onists": 9755,
  "11th": 9756,
  "confron@@": 9757,
  "chin@@": 9758,
  "f-@@": 9759,
  "roman@@": 9760,
  "distorted": 9761,
  "atra@@": 9762,
  "eman@@": 9763,
  "wood@@": 9764,
  "tastes": 9765,
  "scat@@": 9766,
  "centimeter": 9767,
  "acoustic": 9768,
  "tch": 9769,
  "maldives": 9770,
  "grounded": 9771,
  "collar": 9772,
  "v.": 9773,
  "carcin@@": 9774,
  "sequenced": 9775,
  "slave": 9776,
  "recycle": 9777,
  "decides": 9778,
  "assistant": 9779,
  "angiogenic": 9780,
  "imposed": 9781,
  "pops": 9782,
  "scaled": 9783,
  "luci@@": 9784,
  "animate": 9785,
  "ari": 9786,
  "admit@@": 9787,
  "avian": 9788,
  "regional": 9789,
  "kur@@": 9790,
  "oney": 9791,
  "retired": 9792,
  "esti@@": 9793,
  "constrained": 9794,
  "40s": 9795,
  "biotechnology": 9796,
  "excess": 9797,
  "exquisite": 9798,
  "curved": 9799,
  "wounded": 9800,
  "envy": 9801,
  "calculator": 9802,
  "ied": 9803,
  "cursor": 9804,
  "spills": 9805,
  "registered": 9806,
  "slogan": 9807,
  "light-@@": 9808,
  "weekly": 9809,
  "regenerative": 9810,
  "sony": 9811,
  "ease": 9812,
  "donations": 9813,
  "edly": 9814,
  "ji": 9815,
  "spends": 9816,
  "dunes": 9817,
  "dick": 9818,
  "olly": 9819,
  "band@@": 9820,
  "expense": 9821,
  "referred": 9822,
  "inner@@": 9823,
  "susta@@": 9824,
  "ingenu@@": 9825,
  "obs@@": 9826,
  "irrigation": 9827,
  "tress": 9828,
  "accommo@@": 9829,
  "1945": 9830,
  "search@@": 9831,
  "rist": 9832,
  "kansas": 9833,
  "bumps": 9834,
  "simulated": 9835,
  "rigid": 9836,
  "modes": 9837,
  "beside": 9838,
  "evan": 9839,
  "incar@@": 9840,
  "barefoot": 9841,
  "poorer": 9842,
  "testosterone": 9843,
  "tad@@": 9844,
  "jungle": 9845,
  "streng@@": 9846,
  "ro": 9847,
  "mediterranean": 9848,
  "pervasive": 9849,
  "needing": 9850,
  "nate": 9851,
  "moms": 9852,
  "temper@@": 9853,
  "pc@@": 9854,
  "leds": 9855,
  "mastery": 9856,
  "contagious": 9857,
  "rooted": 9858,
  "agre@@": 9859,
  "theft": 9860,
  "glow": 9861,
  "trin@@": 9862,
  "hamburger": 9863,
  "house@@": 9864,
  "routine": 9865,
  "selective": 9866,
  "chaotic": 9867,
  "riots": 9868,
  "shrin@@": 9869,
  "composer": 9870,
  "tty": 9871,
  "gentle": 9872,
  "triangles": 9873,
  "metropolitan": 9874,
  "anthro@@": 9875,
  "counsel@@": 9876,
  "knocked": 9877,
  "gil@@": 9878,
  "mov@@": 9879,
  "avenue": 9880,
  "hitler": 9881,
  "steer": 9882,
  "beans": 9883,
  "dissemin@@": 9884,
  "forbid": 9885,
  "fighters": 9886,
  "americ@@": 9887,
  "iranians": 9888,
  "biased": 9889,
  "box@@": 9890,
  "indire@@": 9891,
  "valued": 9892,
  "axes": 9893,
  "rated": 9894,
  "comman@@": 9895,
  "annoying": 9896,
  "day-to-day": 9897,
  "coherent": 9898,
  "jason": 9899,
  "resolved": 9900,
  "literal": 9901,
  "trailer": 9902,
  "rup@@": 9903,
  "oecd": 9904,
  "holder": 9905,
  "cling": 9906,
  "augmented": 9907,
  "athletes": 9908,
  "kill@@": 9909,
  "lakota": 9910,
  "veil": 9911,
  "tribu@@": 9912,
  "enthusiasm": 9913,
  "massi@@": 9914,
  "racing": 9915,
  "arith@@": 9916,
  "locom@@": 9917,
  "auti@@": 9918,
  "dicated": 9919,
  "ab": 9920,
  "grim": 9921,
  "worship": 9922,
  "steady": 9923,
  "young@@": 9924,
  "simon": 9925,
  "lot@@": 9926,
  "resonance": 9927,
  "pursuing": 9928,
  "agu@@": 9929,
  "buck@@": 9930,
  "accor@@": 9931,
  "standardi@@": 9932,
  "enceladus": 9933,
  "yves": 9934,
  "philadelphia": 9935,
  "exit": 9936,
  "trap": 9937,
  "valent": 9938,
  "torial": 9939,
  "neuroscientist": 9940,
  "circuit@@": 9941,
  "cooked": 9942,
  "cheet@@": 9943,
  "automobiles": 9944,
  "fall@@": 9945,
  "self-organizing": 9946,
  "-based": 9947,
  "reflects": 9948,
  "sounded": 9949,
  "jacket": 9950,
  "alb@@": 9951,
  "castle": 9952,
  "revolutionary": 9953,
  "informal": 9954,
  "warrior": 9955,
  "injustice": 9956,
  "correlated": 9957,
  "contents": 9958,
  "cooper": 9959,
  "grassroots": 9960,
  "metabolic": 9961,
  "album": 9962,
  "approval": 9963,
  "lean@@": 9964,
  "toxins": 9965,
  "yale": 9966,
  "unintended": 9967,
  "cot@@": 9968,
  "fas@@": 9969,
  "anda": 9970,
  "serendi@@": 9971,
  "diana": 9972,
  "suggesti@@": 9973,
  "ambiguous": 9974,
  "hung@@": 9975,
  "cookie": 9976,
  "ur": 9977,
  "lime@@": 9978,
  "der-@@": 9979,
  "risd": 9980,
  "sta": 9981,
  "glucose": 9982,
  "guardian": 9983,
  "swedish": 9984,
  "beloved": 9985,
  "accelerated": 9986,
  "assi@@": 9987,
  "randomness": 9988,
  "lled": 9989,
  "physiology": 9990,
  "-in-law": 9991,
  "neu@@": 9992,
  "gun@@": 9993,
  "pharma@@": 9994,
  "massachusetts": 9995,
  "hotter": 9996,
  "depths": 9997,
  "bare": 9998,
  "improvisation": 9999,
  "agnostic": 10000,
  "further@@": 10001,
  "wre@@": 10002,
  "aggre@@": 10003,
  "spouse": 10004,
  "corrid@@": 10005,
  "delighted": 10006,
  "harmful": 10007,
  "reactors": 10008,
  "nois@@": 10009,
  "honest@@": 10010,
  "computer-@@": 10011,
  "pinn@@": 10012,
  "sants": 10013,
  "governor": 10014,
  "demographics": 10015,
  "soft@@": 10016,
  "duty": 10017,
  "descri@@": 10018,
  "conception": 10019,
  "encounter@@": 10020,
  "cartoonist": 10021,
  "rem@@": 10022,
  "dictionaries": 10023,
  "res": 10024,
  "chand@@": 10025,
  "oping": 10026,
  "throws": 10027,
  "mich@@": 10028,
  "appreciated": 10029,
  "near-@@": 10030,
  "suns@@": 10031,
  "certified": 10032,
  "infan@@": 10033,
  "convenience": 10034,
  "frequent": 10035,
  "rel": 10036,
  "wandering": 10037,
  "1.3": 10038,
  "contest": 10039,
  "historian": 10040,
  "integrity": 10041,
  "linux": 10042,
  "doodling": 10043,
  "psych@@": 10044,
  "retreat": 10045,
  "panbanisha": 10046,
  "86": 10047,
  "screens": 10048,
  "khan": 10049,
  "15th": 10050,
  "configuration": 10051,
  "statistic": 10052,
  "jamie": 10053,
  "cubic": 10054,
  "combining": 10055,
  "placing": 10056,
  "christ@@": 10057,
  "urban@@": 10058,
  "dop@@": 10059,
  "cerebral": 10060,
  "entrepreneurial": 10061,
  "nail": 10062,
  "underestimate": 10063,
  "ais@@": 10064,
  "longest": 10065,
  "update": 10066,
  "publicly": 10067,
  "drinks": 10068,
  "scanned": 10069,
  "immen@@": 10070,
  "atmospheric": 10071,
  "taiwan": 10072,
  "seaf@@": 10073,
  "quo": 10074,
  "sessions": 10075,
  "21@@": 10076,
  ".org": 10077,
  "assess@@": 10078,
  "searches": 10079,
  "kyoto": 10080,
  "digit@@": 10081,
  "stigma": 10082,
  "hero@@": 10083,
  "environment@@": 10084,
  "stand@@": 10085,
  "detroit": 10086,
  "favelas": 10087,
  "dwar@@": 10088,
  "galileo": 10089,
  "ira@@": 10090,
  "nah": 10091,
  "stimulus": 10092,
  "figu@@": 10093,
  "bites": 10094,
  "shadows": 10095,
  "tually": 10096,
  "williams": 10097,
  "let@@": 10098,
  "rainfall": 10099,
  "constit@@": 10100,
  "meaning@@": 10101,
  "wing@@": 10102,
  "rehabilitation": 10103,
  "sailing": 10104,
  "psychopath": 10105,
  "degradation": 10106,
  "watches": 10107,
  "worldview": 10108,
  "associ@@": 10109,
  "bmw": 10110,
  "venezuela": 10111,
  "v-@@": 10112,
  "publication": 10113,
  "mber@@": 10114,
  "bali": 10115,
  "ues": 10116,
  "rhin@@": 10117,
  "recipro@@": 10118,
  "ite@@": 10119,
  "oceano@@": 10120,
  "hadron": 10121,
  "sth@@": 10122,
  "lie@@": 10123,
  "twins": 10124,
  "theor@@": 10125,
  "tickets": 10126,
  "rotating": 10127,
  "2.5": 10128,
  "chers": 10129,
  "exist@@": 10130,
  "amin@@": 10131,
  "choreo@@": 10132,
  "archae@@": 10133,
  "andro@@": 10134,
  "priest": 10135,
  "cow@@": 10136,
  "appeti@@": 10137,
  "sri": 10138,
  "oun@@": 10139,
  "marin@@": 10140,
  "sent@@": 10141,
  "ky@@": 10142,
  "know@@": 10143,
  "lyn@@": 10144,
  "finite": 10145,
  "cists": 10146,
  "sole": 10147,
  "strains": 10148,
  "mble@@": 10149,
  "share@@": 10150,
  "mming": 10151,
  "nick@@": 10152,
  "um-@@": 10153,
  "tu": 10154,
  "cis@@": 10155,
  ".com.": 10156,
  "tuberculosis": 10157,
  "substantial": 10158,
  "doms": 10159,
  "fic@@": 10160,
  "remembering": 10161,
  "nanot@@": 10162,
  "raises": 10163,
  "unimagin@@": 10164,
  "hetero@@": 10165,
  "fool": 10166,
  "holocaust": 10167,
  "defin@@": 10168,
  "pel": 10169,
  "producer": 10170,
  "stering": 10171,
  "7,@@": 10172,
  "nano-@@": 10173,
  "prising": 10174,
  "ara@@": 10175,
  "fellows": 10176,
  "symboli@@": 10177,
  "scarce": 10178,
  "sat@@": 10179,
  "lings": 10180,
  "austri@@": 10181,
  "attra@@": 10182,
  "kim": 10183,
  "tyran@@": 10184,
  "leak": 10185,
  "oliver": 10186,
  "unlock": 10187,
  "ark": 10188,
  "georgia": 10189,
  "multinational": 10190,
  "s-on": 10191,
  "ans@@": 10192,
  "5-@@": 10193,
  "brick": 10194,
  "4,@@": 10195,
  "t-shirt": 10196,
  "ctivity": 10197,
  "oxy@@": 10198,
  "replicating": 10199,
  "effe@@": 10200,
  "ni": 10201,
  "wages": 10202,
  "dwell": 10203,
  "sten": 10204,
  "revolution@@": 10205,
  "intern@@": 10206,
  "spontaneously": 10207,
  "beats": 10208,
  "180": 10209,
  "compu@@": 10210,
  "gus": 10211,
  "shrink": 10212,
  "dallas": 10213,
  "dos": 10214,
  "respectful": 10215,
  "thic": 10216,
  "caregi@@": 10217,
  "reinventing": 10218,
  "trum@@": 10219,
  "offshore": 10220,
  "enced": 10221,
  "certainty": 10222,
  "adop@@": 10223,
  "hypothe@@": 10224,
  "utter": 10225,
  "settlement": 10226,
  "slices": 10227,
  "tweet": 10228,
  "hive": 10229,
  "astrolab@@": 10230,
  "dings": 10231,
  "biomimi@@": 10232,
  "differ@@": 10233,
  "qaeda": 10234,
  "thirdly": 10235,
  "macro@@": 10236,
  "beethoven": 10237,
  "dog@@": 10238,
  "reagan": 10239,
  "poland": 10240,
  "unpredictable": 10241,
  "icy": 10242,
  "can-@@": 10243,
  "uk": 10244,
  "ppers": 10245,
  "tourist": 10246,
  "operator": 10247,
  "underway": 10248,
  "ticals": 10249,
  "das": 10250,
  "parall@@": 10251,
  "fossils": 10252,
  "troubled": 10253,
  "hippo@@": 10254,
  "imp@@": 10255,
  "jen@@": 10256,
  "sync": 10257,
  "practiced": 10258,
  "state-of-the-art": 10259,
  "small-@@": 10260,
  "traumatic": 10261,
  "hallucin@@": 10262,
  "opposition": 10263,
  "essions": 10264,
  "programmer": 10265,
  "vibr@@": 10266,
  "empath@@": 10267,
  "pede@@": 10268,
  "profession@@": 10269,
  "do-@@": 10270,
  "rec@@": 10271,
  "ri": 10272,
  "bour@@": 10273,
  "83": 10274,
  "relevance": 10275,
  "dood@@": 10276,
  "nanotechnology": 10277,
  "heli@@": 10278,
  "esis": 10279,
  "strictly": 10280,
  "synapses": 10281,
  "respiratory": 10282,
  "tul@@": 10283,
  "pentagon": 10284,
  "employee": 10285,
  "cyber": 10286,
  "steering": 10287,
  "del": 10288,
  "ef@@": 10289,
  "mista@@": 10290,
  "scand@@": 10291,
  "citi@@": 10292,
  "treas@@": 10293,
  "strating": 10294,
  "hub@@": 10295,
  "cros@@": 10296,
  "12-@@": 10297,
  "million@@": 10298,
  "subsequ@@": 10299,
  "aire": 10300,
  "muni@@": 10301,
  "butt": 10302,
  "satisfying": 10303,
  "ety": 10304,
  "membrane": 10305,
  "siblings": 10306,
  "b.@@": 10307,
  "foun@@": 10308,
  "ey@@": 10309,
  "vism": 10310,
  "cali@@": 10311,
  "drift": 10312,
  "hob@@": 10313,
  "stumbled": 10314,
  "accompli@@": 10315,
  "surroundings": 10316,
  "thirds": 10317,
  "bath@@": 10318,
  "nairobi": 10319,
  "foc@@": 10320,
  "procedures": 10321,
  "cane": 10322,
  "inclusive": 10323,
  "suburban": 10324,
  "rap": 10325,
  "teurs": 10326,
  "tattoos": 10327,
  "potter": 10328,
  "varieties": 10329,
  "ox@@": 10330,
  "slu@@": 10331,
  "venter": 10332,
  "197@@": 10333,
  "paradise": 10334,
  "ceram@@": 10335,
  "cha": 10336,
  "therap@@": 10337,
  "playground": 10338,
  "interfaces": 10339,
  "uc@@": 10340,
  "epy": 10341,
  "transistor": 10342,
  "rightly": 10343,
  "tude": 10344,
  "redesign": 10345,
  "prizes": 10346,
  "stries": 10347,
  "mister": 10348,
  "ander": 10349,
  "briga@@": 10350,
  "hex@@": 10351,
  "onics": 10352,
  "stag@@": 10353,
  "plo@@": 10354,
  "tedx": 10355,
  "photogra@@": 10356,
  "earth-@@": 10357,
  "enzyme": 10358,
  "russi@@": 10359,
  "controller": 10360,
  "lifes@@": 10361,
  "toll": 10362,
  "tea@@": 10363,
  "40-@@": 10364,
  "alt": 10365,
  "portra@@": 10366,
  "jeans": 10367,
  "suspen@@": 10368,
  "laborat@@": 10369,
  "algebra": 10370,
  "dj": 10371,
  "right-@@": 10372,
  "sque@@": 10373,
  "tot@@": 10374,
  "register": 10375,
  "jon": 10376,
  "bury": 10377,
  "cess@@": 10378,
  "mmer": 10379,
  "wal-mart": 10380,
  "nicole": 10381,
  "cand@@": 10382,
  "1996": 10383,
  "subtra@@": 10384,
  "asis": 10385,
  "ara": 10386,
  "oting": 10387,
  "scrat@@": 10388,
  "minimal": 10389,
  "team@@": 10390,
  "biolumines@@": 10391,
  "een": 10392,
  "wrest@@": 10393,
  "famili@@": 10394,
  "hy": 10395,
  "camp@@": 10396,
  "vis": 10397,
  "zations": 10398,
  "450": 10399,
  "bump@@": 10400,
  "veget@@": 10401,
  "kes@@": 10402,
  "witn@@": 10403,
  "ung": 10404,
  "turtles": 10405,
  "method@@": 10406,
  "ctly": 10407,
  "bby": 10408,
  "interven@@": 10409,
  "pools": 10410,
  "connecticut": 10411,
  "aser": 10412,
  "clar@@": 10413,
  "scru@@": 10414,
  "ste": 10415,
  "apor@@": 10416,
  "barack": 10417,
  "dependen@@": 10418,
  "block@@": 10419,
  "gather@@": 10420,
  "77": 10421,
  "play-@@": 10422,
  "iq": 10423,
  "ier": 10424,
  "limitation": 10425,
  "anom@@": 10426,
  "gordon": 10427,
  "explorer": 10428,
  "arizona": 10429,
  "bell@@": 10430,
  "winn@@": 10431,
  "1986": 10432,
  "camer@@": 10433,
  "controll@@": 10434,
  "orn": 10435,
  "vy": 10436,
  "140": 10437,
  "sign@@": 10438,
  "tality": 10439,
  "refu@@": 10440,
  "ila": 10441,
  "jam@@": 10442,
  "jill": 10443,
  "mock@@": 10444,
  "generator": 10445,
  "sanit@@": 10446,
  "verte@@": 10447,
  "empower@@": 10448,
  "visitors": 10449,
  "montana": 10450,
  "carbonate": 10451,
  "vivi@@": 10452,
  "cairo": 10453,
  "pads": 10454,
  "ata": 10455,
  "abu": 10456,
  "fon@@": 10457,
  "59": 10458,
  "rigor@@": 10459,
  "irri@@": 10460,
  "ema": 10461,
  "empiri@@": 10462,
  "nings": 10463,
  "spiri@@": 10464,
  "ras@@": 10465,
  "extremes": 10466,
  "p.": 10467,
  "te-@@": 10468,
  "poor@@": 10469,
  "bulg@@": 10470,
  "iner@@": 10471,
  "aug@@": 10472,
  "dn@@": 10473,
  "git@@": 10474,
  "metaph@@": 10475,
  "bos@@": 10476,
  "log@@": 10477,
  "ception": 10478,
  "rsw": 10479,
  "saint": 10480,
  "pts": 10481,
  "prou@@": 10482,
  "julia": 10483,
  "bank@@": 10484,
  "ssi@@": 10485,
  "daun@@": 10486,
  "christopher": 10487,
  "stim@@": 10488,
  "regu@@": 10489,
  "dissi@@": 10490,
  "anne": 10491,
  "tops": 10492,
  "intrin@@": 10493,
  "inhal@@": 10494,
  "ag": 10495,
  "mite": 10496,
  "mae@@": 10497,
  "hs": 10498,
  "terminal": 10499,
  "bl": 10500,
  "roy": 10501,
  "inte@@": 10502,
  "mons": 10503,
  "eland": 10504,
  "bibli@@": 10505,
  "ry@@": 10506,
  "charts": 10507,
  "dd": 10508,
  "banker": 10509,
  "amateur": 10510,
  "continu@@": 10511,
  "victori@@": 10512,
  "clever@@": 10513,
  "yorker": 10514,
  "datab@@": 10515,
  "genu@@": 10516,
  "reflective": 10517,
  "orchestr@@": 10518,
  "nee@@": 10519,
  "corn@@": 10520,
  "barbar@@": 10521,
  "fort": 10522,
  "pop-@@": 10523,
  "sexu@@": 10524,
  "margaret": 10525,
  "band-@@": 10526,
  "catastrop@@": 10527,
  "recon@@": 10528,
  "i-@@": 10529,
  "sars": 10530,
  "inspi@@": 10531,
  "ening": 10532,
  "export": 10533,
  "mau@@": 10534,
  "vali@@": 10535,
  "compos@@": 10536,
  "lapse": 10537,
  "evident": 10538,
  "chie@@": 10539,
  "dary": 10540,
  "natalie": 10541,
  "stin@@": 10542,
  "rie": 10543,
  "80,000": 10544,
  "mini": 10545,
  "rex": 10546,
  "kilos": 10547,
  "darpa": 10548,
  "big@@": 10549,
  "sation": 10550,
  "echo@@": 10551,
  "idiot": 10552,
  "katrina": 10553,
  "1968": 10554,
  "roger": 10555,
  "doc": 10556,
  "rhetor@@": 10557,
  "ior": 10558,
  "nepal": 10559,
  "squat@@": 10560,
  "produ@@": 10561,
  "excellence": 10562,
  "nerd": 10563,
  "zimbabwe": 10564,
  "news@@": 10565,
  "hn@@": 10566,
  "ini": 10567,
  "intel": 10568,
  "costa": 10569,
  "freak": 10570,
  "chop@@": 10571,
  "eps": 10572,
  "dg": 10573,
  "serotonin": 10574,
  "mahmoud": 10575,
  "moses": 10576,
  "cooler": 10577,
  "allen": 10578,
  "id@@": 10579,
  "surge": 10580,
  "astronom@@": 10581,
  "highways": 10582,
  "process@@": 10583,
  "sponsor": 10584,
  "alber@@": 10585,
  "trek": 10586,
  "solu@@": 10587,
  "venus": 10588,
  "sydney": 10589,
  "aby@@": 10590,
  "captcha": 10591,
  "lement": 10592,
  "et-@@": 10593,
  "skelet@@": 10594,
  "vors": 10595,
  "vegas": 10596,
  "live@@": 10597,
  "eins": 10598,
  "iest": 10599,
  "coinci@@": 10600,
  "flash@@": 10601,
  "contradi@@": 10602,
  "kam@@": 10603,
  "diagra@@": 10604,
  "progressi@@": 10605,
  "eries": 10606,
  "15-@@": 10607,
  "gangs": 10608,
  "cephal@@": 10609,
  "jury": 10610,
  "coins": 10611,
  "ison": 10612,
  "amsterdam": 10613,
  "champion": 10614,
  "tos@@": 10615,
  "gyrus": 10616,
  "foxo": 10617,
  "movember": 10618,
  "anony@@": 10619,
  "cds": 10620,
  "western@@": 10621,
  "hunter": 10622,
  "placebo": 10623,
  "benef@@": 10624,
  "mamm@@": 10625,
  "alter@@": 10626,
  "jennifer": 10627,
  "110": 10628,
  "iny": 10629,
  "yr": 10630,
  "perfor@@": 10631,
  "oscar": 10632,
  "boson": 10633,
  "53": 10634,
  "ffer": 10635,
  "1918": 10636,
  "halt": 10637,
  "shuff@@": 10638,
  "got@@": 10639,
  "quiz": 10640,
  "vet@@": 10641,
  "shirts": 10642,
  "yn": 10643,
  "reco@@": 10644,
  "ingo": 10645,
  "touch@@": 10646,
  "rabbit": 10647,
  "idential": 10648,
  "1975": 10649,
  "som": 10650,
  "il-@@": 10651,
  "energe@@": 10652,
  "manifest": 10653,
  "aa@@": 10654,
  "uring": 10655,
  "labor@@": 10656,
  "progressive": 10657,
  "dor": 10658,
  "rg": 10659,
  "glas@@": 10660,
  "formu@@": 10661,
  "rabbits": 10662,
  "theore@@": 10663,
  "brutal": 10664,
  "formul@@": 10665,
  "aks": 10666,
  "ough@@": 10667,
  "plat@@": 10668,
  "30@@": 10669,
  "fe": 10670,
  "onate": 10671,
  "illa": 10672,
  "inno@@": 10673,
  "thur@@": 10674,
  "nollywood": 10675,
  "fum@@": 10676,
  "acumen": 10677,
  "deta@@": 10678,
  "hes@@": 10679,
  "mund@@": 10680,
  "dil@@": 10681,
  "ancy": 10682,
  "marines": 10683,
  "manifestation": 10684,
  "marri@@": 10685,
  "mmm": 10686,
  "tell@@": 10687,
  "stocks": 10688,
  "impor@@": 10689,
  "zar@@": 10690,
  "rey": 10691,
  "posit@@": 10692,
  "fin": 10693,
  "nm": 10694,
  "legiti@@": 10695,
  "enty": 10696,
  "galois": 10697,
  "sweat@@": 10698,
  "satur@@": 10699,
  "beck": 10700,
  "slas@@": 10701,
  "mble": 10702,
  "torna@@": 10703,
  "valent@@": 10704,
  "tahrir": 10705,
  "recept@@": 10706,
  "good@@": 10707,
  "alliance": 10708,
  "kra@@": 10709,
  "extrover@@": 10710,
  "len": 10711,
  "transistors": 10712,
  "m.@@": 10713,
  "are-@@": 10714,
  "libr@@": 10715,
  "performan@@": 10716,
  "94": 10717,
  "sic": 10718,
  "bili@@": 10719,
  "chat": 10720,
  "phas@@": 10721,
  "ar-@@": 10722,
  "gram@@": 10723,
  "ddler": 10724,
  "pus": 10725,
  "rus": 10726,
  "archie": 10727,
  "orable": 10728,
  "junior": 10729,
  "metrics": 10730,
  "intri@@": 10731,
  "57": 10732,
  "ones@@": 10733,
  "cameron": 10734,
  "supermassive": 10735,
  "ett": 10736,
  "colom@@": 10737,
  "emily": 10738,
  "paradox@@": 10739,
  "rot@@": 10740,
  "sculp@@": 10741,
  "oxide": 10742,
  "enlighten@@": 10743,
  "isaac": 10744,
  "way@@": 10745,
  "ony@@": 10746,
  "strips": 10747,
  "olive": 10748,
  "1993": 10749,
  "fans": 10750,
  "mark@@": 10751,
  "clas@@": 10752,
  "opo@@": 10753,
  "exhi@@": 10754,
  "ipad": 10755,
  "mug@@": 10756,
  "enri@@": 10757,
  "amanda": 10758,
  "humane": 10759,
  "dol@@": 10760,
  "fundraising": 10761,
  "mills": 10762,
  "vio@@": 10763,
  "mr": 10764,
  "goliath": 10765,
  "ie@@": 10766,
  "ingu@@": 10767,
  "oce@@": 10768,
  "impac@@": 10769,
  "orleans": 10770,
  "lithium": 10771,
  "bronze": 10772,
  "pepsi": 10773,
  "spin@@": 10774,
  "biom@@": 10775,
  "e.u.": 10776,
  "una": 10777,
  "balan@@": 10778,
  "roman": 10779,
  "ired": 10780,
  "senator": 10781,
  "mbers": 10782,
  "gour@@": 10783,
  "southwest": 10784,
  "mozart": 10785,
  "ceos": 10786,
  "emission": 10787,
  "automo@@": 10788,
  "handy": 10789,
  "professi@@": 10790,
  "kas@@": 10791,
  "anders": 10792,
  "nex@@": 10793,
  "nazi": 10794,
  "boots": 10795,
  "nano": 10796,
  "startu@@": 10797,
  "glori@@": 10798,
  "ades": 10799,
  "suffi@@": 10800,
  "graffiti": 10801,
  "doha": 10802,
  "bal": 10803,
  "anth@@": 10804,
  "alia": 10805,
  "surpris@@": 10806,
  "eva": 10807,
  "seven@@": 10808,
  "evolution@@": 10809,
  "1957": 10810,
  "cd": 10811,
  "ch-@@": 10812,
  "pepper": 10813,
  "lol@@": 10814,
  "sman": 10815,
  "superstar": 10816,
  "1982": 10817,
  "orthodo@@": 10818,
  "56": 10819,
  "cruise": 10820,
  "depen@@": 10821,
  "alli@@": 10822,
  "vinci": 10823,
  "fry": 10824,
  "diego": 10825,
  "vine": 10826,
  "gaby@@": 10827,
  "zu@@": 10828,
  "bator": 10829,
  "dex": 10830,
  "posts": 10831,
  "khmer": 10832,
  "28@@": 10833,
  "bonobo": 10834,
  "bach": 10835,
  "reg@@": 10836,
  "sook": 10837,
  "80@@": 10838,
  "flickr": 10839,
  "birth@@": 10840,
  "propulsion": 10841,
  "isol@@": 10842,
  "ho": 10843,
  "dawkins": 10844,
  "stit@@": 10845,
  "trauma": 10846,
  "innov@@": 10847,
  "milit@@": 10848,
  "rar@@": 10849,
  "aka": 10850,
  "overwhel@@": 10851,
  "tedglobal": 10852,
  "ternal": 10853,
  "aus": 10854,
  "tes@@": 10855,
  "bloo@@": 10856,
  "won@@": 10857,
  "sacrifi@@": 10858,
  "baby@@": 10859,
  "percei@@": 10860,
  "partici@@": 10861,
  "bonobos": 10862,
  "opp@@": 10863,
  "enzy@@": 10864,
  "44": 10865,
  "tles": 10866,
  "fried": 10867,
  "europa": 10868,
  "pers@@": 10869,
  "wiki@@": 10870,
  "epo@@": 10871,
  "elo@@": 10872,
  "nicholas": 10873,
  "leo": 10874,
  "spac@@": 10875,
  "rebel": 10876,
  "giants": 10877,
  "taxi": 10878,
  "stewar@@": 10879,
  "dy-@@": 10880,
  "az@@": 10881,
  "romo": 10882,
  "photograph@@": 10883,
  "inflation": 10884,
  "gehry": 10885,
  "achil@@": 10886,
  "quantitative": 10887,
  "hack": 10888,
  "substan@@": 10889,
  "harmon@@": 10890,
  "bertie": 10891,
  "plato": 10892,
  "epilep@@": 10893,
  "check@@": 10894,
  "ee@@": 10895,
  "phen@@": 10896,
  "sex@@": 10897,
  "homo@@": 10898,
  "philippe": 10899,
  "nikol@@": 10900,
  "cist": 10901,
  "opi@@": 10902,
  "dium": 10903,
  "sab@@": 10904,
  "navigation": 10905,
  "anthropolog@@": 10906,
  "jersey": 10907,
  "imitation": 10908,
  "transpor@@": 10909,
  "inferi@@": 10910,
  "premi@@": 10911,
  "embo@@": 10912,
  "moo@@": 10913,
  "ist@@": 10914,
  "suite": 10915,
  "ambulan@@": 10916,
  "surve@@": 10917,
  "maj@@": 10918,
  "ay@@": 10919,
  "nish": 10920,
  "1983": 10921,
  "impres@@": 10922,
  "uter@@": 10923,
  "turbul@@": 10924,
  "decisi@@": 10925,
  "embryo": 10926,
  "marshall": 10927,
  "harn@@": 10928,
  "lhc": 10929,
  "use@@": 10930,
  "joel": 10931,
  "walmart": 10932,
  "tropic@@": 10933,
  "myth@@": 10934,
  "programm@@": 10935,
  "rements": 10936,
  "arin": 10937,
  "spre@@": 10938,
  "c.@@": 10939,
  "europe@@": 10940,
  "of-the-@@": 10941,
  "south@@": 10942,
  "tennessee": 10943,
  "hyp@@": 10944,
  "ania": 10945,
  "embarras@@": 10946,
  "87": 10947,
  "mas": 10948,
  "stical": 10949,
  "neanderth@@": 10950,
  "strator": 10951,
  "cals": 10952,
[...]
