{
  "<PAD>": 0,
  "<SOS>": 1,
  "<EOS>": 2,
  "<UNK>": 3,
  ",": 4,
  ".": 5,
  "the": 6,
  "and": 7,
  "in": 8,
  "und": 9,
  "to": 10,
  "a": 11,
  "die": 12,
  "of": 13,
  "that": 14,
  "i": 15,
  "sie": 16,
  "it": 17,
  "es": 18,
  "das": 19,
  "der": 20,
  "ich": 21,
  "&quot;": 22,
  "ist": 23,
  "you": 24,
  "is": 25,
  "we": 26,
  "wir": 27,
  "&apos;s": 28,
  "so": 29,
  "zu": 30,
  "was": 31,
  "this": 32,
  "?": 33,
  "ein": 34,
  "an": 35,
  "s@@": 36,
  "eine": 37,
  ":": 38,
  "von": 39,
  "nicht": 40,
  "dass": 41,
  "e@@": 42,
  "t@@": 43,
  "den": 44,
  "--": 45,
  "they": 46,
  "p@@": 47,
  "in@@": 48,
  "on": 49,
  "er": 50,
  "mit": 51,
  "for": 52,
  "are": 53,
  "st@@": 54,
  "c@@": 55,
  "er@@": 56,
  "an@@": 57,
  "i@@": 58,
  "m@@": 59,
  "g@@": 60,
  "wie": 61,
  "have": 62,
  "what": 63,
  "k@@": 64,
  "d@@": 65,
  "but": 66,
  "auf": 67,
  "man": 68,
  "ver@@": 69,
  "r@@": 70,
  "re@@": 71,
  "l@@": 72,
  "with": 73,
  "sich": 74,
  "can": 75,
  "a@@": 76,
  "sind": 77,
  "aber": 78,
  "b@@": 79,
  "o@@": 80,
  "all": 81,
  "haben": 82,
  "&apos;t": 83,
  "für": 84,
  "un@@": 85,
  "n@@": 86,
  "en@@": 87,
  "s": 88,
  "f@@": 89,
  "ti@@": 90,
  "als": 91,
  "there": 92,
  "li@@": 93,
  "also": 94,
  "wenn": 95,
  "-@@": 96,
  "ch@@": 97,
  "about": 98,
  "h@@": 99,
  "as": 100,
  "at": 101,
  "be": 102,
  "um": 103,
  "war": 104,
  "be@@": 105,
  "do": 106,
  "diese": 107,
  "one": 108,
  "v@@": 109,
  "u@@": 110,
  "not": 111,
  "t": 112,
  "my": 113,
  "y@@": 114,
  "&apos;re": 115,
  "im": 116,
  "people": 117,
  "or": 118,
  "like": 119,
  "he": 120,
  "dem": 121,
  "ar@@": 122,
  "ab@@": 123,
  "from": 124,
  "if": 125,
  "di@@": 126,
  "einen": 127,
  "now": 128,
  "al@@": 129,
  "z@@": 130,
  "e": 131,
  "ge@@": 132,
  "or@@": 133,
  "uns": 134,
  "these": 135,
  "können": 136,
  "just": 137,
  "hier": 138,
  "me": 139,
  "le@@": 140,
  "on@@": 141,
  "sch@@": 142,
  "w@@": 143,
  "des": 144,
  "si@@": 145,
  "werden": 146,
  "aus": 147,
  "at@@": 148,
  "our": 149,
  "very": 150,
  "hat": 151,
  "th@@": 152,
  "ma@@": 153,
  "oder": 154,
  "because": 155,
  "ent@@": 156,
  "de@@": 157,
  "when": 158,
  "el@@": 159,
  "es@@": 160,
  "über": 161,
  "as@@": 162,
  "ol@@": 163,
  "y": 164,
  "out": 165,
  "ri@@": 166,
  "how": 167,
  "auch": 168,
  "by": 169,
  "know": 170,
  "einer": 171,
  "am@@": 172,
  "kann": 173,
  "up": 174,
  "sehr": 175,
  "them": 176,
  "going": 177,
  "te": 178,
  "here": 179,
  "dann": 180,
  "see": 181,
  "ing": 182,
  "einem": 183,
  "ei@@": 184,
  "ä@@": 185,
  "us": 186,
  "nur": 187,
  "think": 188,
  "more": 189,
  "en": 190,
  "wird": 191,
  "ed": 192,
  "–": 193,
  "pro@@": 194,
  "had": 195,
  "gibt": 196,
  "lo@@": 197,
  "which": 198,
  "ein@@": 199,
  "ac@@": 200,
  "your": 201,
  "really": 202,
  "ihnen": 203,
  "mich": 204,
  "sehen": 205,
  "menschen": 206,
  "ro@@": 207,
  "get": 208,
  "will": 209,
  "ü@@": 210,
  "po@@": 211,
  "vi@@": 212,
  "were": 213,
  "ten": 214,
  "then": 215,
  "who": 216,
  "sein": 217,
  "&apos;ve": 218,
  "se@@": 219,
  "would": 220,
  "their": 221,
  "ö@@": 222,
  "op@@": 223,
  "&apos;m": 224,
  "etwas": 225,
  "time": 226,
  "world": 227,
  "sp@@": 228,
  "au@@": 229,
  "some": 230,
  "noch": 231,
  "dieser": 232,
  "habe": 233,
  "om@@": 234,
  "don": 235,
  "nach": 236,
  "actually": 237,
  "has": 238,
  "al": 239,
  "g": 240,
  "te@@": 241,
  "am": 242,
  "mir": 243,
  "into": 244,
  "way": 245,
  "j@@": 246,
  "go": 247,
  "ra@@": 248,
  "things": 249,
  "ex@@": 250,
  "l": 251,
  "years": 252,
  "d": 253,
  "ter@@": 254,
  "alle": 255,
  "il@@": 256,
  "well": 257,
  "ne@@": 258,
  "mehr": 259,
  "no": 260,
  "con@@": 261,
  "vor": 262,
  "ur@@": 263,
  "ck@@": 264,
  "bei": 265,
  "where": 266,
  "ou@@": 267,
  "wi@@": 268,
  "other": 269,
  "welt": 270,
  "want": 271,
  "it@@": 272,
  "aus@@": 273,
  "o": 274,
  "da": 275,
  "meine": 276,
  "gi@@": 277,
  "mo@@": 278,
  "said": 279,
  "ung": 280,
  "im@@": 281,
  "m": 282,
  "could": 283,
  "-": 284,
  "is@@": 285,
  "nun": 286,
  "machen": 287,
  "leben": 288,
  "ihre": 289,
  "ff@@": 290,
  "ni@@": 291,
  "la@@": 292,
  "right": 293,
  "make": 294,
  "zum": 295,
  ";": 296,
  "dies": 297,
  "le": 298,
  "been": 299,
  "ge": 300,
  "weil": 301,
  "wirklich": 302,
  "wurde": 303,
  "me@@": 304,
  "new": 305,
  "something": 306,
  "dieses": 307,
  "mi@@": 308,
  "et@@": 309,
  "she": 310,
  "kind": 311,
  "um@@": 312,
  "first": 313,
  "co@@": 314,
  "ta@@": 315,
  "two": 316,
  "art": 317,
  "auf@@": 318,
  "gen": 319,
  "tun": 320,
  "x@@": 321,
  "gen@@": 322,
  "de": 323,
  "look": 324,
  "thing": 325,
  "than": 326,
  "immer": 327,
  "us@@": 328,
  "durch": 329,
  "those": 330,
  "jetzt": 331,
  "little": 332,
  "got": 333,
  "zeit": 334,
  "wissen": 335,
  "ihr": 336,
  "unsere": 337,
  "ot@@": 338,
  "hi@@": 339,
  "bi@@": 340,
  "his": 341,
  "zu@@": 342,
  "su@@": 343,
  "ru@@": 344,
  "qu@@": 345,
  "ci@@": 346,
  "much": 347,
  "h": 348,
  "hatte": 349,
  "keine": 350,
  "tr@@": 351,
  "back": 352,
  "k": 353,
  "say": 354,
  "ber@@": 355,
  "leute": 356,
  "life": 357,
  "ts": 358,
  "viel": 359,
  "problem": 360,
  "der@@": 361,
  "most": 362,
  "über@@": 363,
  "over": 364,
  "per@@": 365,
  "work": 366,
  "fi@@": 367,
  "tion": 368,
  "gr@@": 369,
  "sagte": 370,
  "viele": 371,
  "&apos;": 372,
  "her": 373,
  "sagen": 374,
  "end": 375,
  "diesem": 376,
  "only": 377,
  "pe@@": 378,
  "ul@@": 379,
  "du@@": 380,
  "eines": 381,
  "ter": 382,
  "ad@@": 383,
  "du": 384,
  "einfach": 385,
  "denn": 386,
  "zwei": 387,
  "take": 388,
  "even": 389,
  "em@@": 390,
  "dinge": 391,
  "did": 392,
  "bin": 393,
  "par@@": 394,
  "bo@@": 395,
  "diesen": 396,
  "ungen": 397,
  "n": 398,
  "need": 399,
  "tra@@": 400,
  "vor@@": 401,
  "sen@@": 402,
  "alles": 403,
  "ten@@": 404,
  "waren": 405,
  "many": 406,
  "good": 407,
  "no@@": 408,
  "se": 409,
  "gra@@": 410,
  "müssen": 411,
  "system": 412,
  "jahren": 413,
  "able": 414,
  "lot": 415,
  "why": 416,
  "andere": 417,
  "let": 418,
  "ha@@": 419,
  "around": 420,
  "wo": 421,
  "down": 422,
  "&apos;ll": 423,
  "br@@": 424,
  "pa@@": 425,
  "!": 426,
  "mein": 427,
  "geht": 428,
  "19@@": 429,
  "ger@@": 430,
  "mal": 431,
  "würde": 432,
  "tu@@": 433,
  "anderen": 434,
  "ted": 435,
  "different": 436,
  "and@@": 437,
  "den@@": 438,
  "damit": 439,
  "gut": 440,
  "every": 441,
  "ph@@": 442,
  "dis@@": 443,
  "use": 444,
  "vielleicht": 445,
  "bis": 446,
  "än@@": 447,
  "ie": 448,
  "sti@@": 449,
  "kon@@": 450,
  "zur": 451,
  "selbst": 452,
  "bu@@": 453,
  "come": 454,
  "fe@@": 455,
  "through": 456,
  "ing@@": 457,
  "do@@": 458,
  "man@@": 459,
  "0@@": 460,
  "ir@@": 461,
  "ste@@": 462,
  "p": 463,
  "com@@": 464,
  "to@@": 465,
  "day": 466,
  "her@@": 467,
  "jahre": 468,
  "gehen": 469,
  "c": 470,
  "same": 471,
  "sh@@": 472,
  "for@@": 473,
  "sten": 474,
  "ent": 475,
  "ers": 476,
  "mu@@": 477,
  "r": 478,
  "ch": 479,
  "put": 480,
  "doing": 481,
  "ds": 482,
  "he@@": 483,
  "zi@@": 484,
  "muss": 485,
  "st": 486,
  "being": 487,
  "res@@": 488,
  "heute": 489,
  "three": 490,
  "land": 491,
  "ly": 492,
  "ert": 493,
  "its": 494,
  "ho@@": 495,
  "sa@@": 496,
  "warum": 497,
  "schon": 498,
  "mar@@": 499,
  "na@@": 500,
  "called": 501,
  "tz@@": 502,
  "inter@@": 503,
  "geschichte": 504,
  "ende": 505,
  "any": 506,
  "ja": 507,
  "möchte": 508,
  "einige": 509,
  "kommen": 510,
  "min@@": 511,
  "percent": 512,
  "tri@@": 513,
  "10": 514,
  "made": 515,
  "tatsächlich": 516,
  "gh@@": 517,
  "gu@@": 518,
  "eren": 519,
  "macht": 520,
  "great": 521,
  "&apos;d": 522,
  "wieder": 523,
  "unter@@": 524,
  "da@@": 525,
  "b": 526,
  "pu@@": 527,
  "today": 528,
  "lassen": 529,
  "sk@@": 530,
  "denken": 531,
  "lich": 532,
  "tell": 533,
  "gesch@@": 534,
  "ation": 535,
  "por@@": 536,
  "after": 537,
  "talk": 538,
  "kl@@": 539,
  "big": 540,
  "person": 541,
  "ger": 542,
  "dort": 543,
  "davon": 544,
  "ganz": 545,
  "ag@@": 546,
  "men": 547,
  "year": 548,
  "sc@@": 549,
  "genau": 550,
  "3@@": 551,
  "mon@@": 552,
  "kinder": 553,
  "geben": 554,
  "another": 555,
  "ische": 556,
  "drei": 557,
  "hatten": 558,
  "human": 559,
  "gl@@": 560,
  "je@@": 561,
  "didn": 562,
  ".@@": 563,
  "ihn": 564,
  "lu@@": 565,
  "mit@@": 566,
  "war@@": 567,
  "wa@@": 568,
  "paar": 569,
  "ig@@": 570,
  "ß@@": 571,
  "ko@@": 572,
  "change": 573,
  "jahr": 574,
  "last": 575,
  "went": 576,
  "ischen": 577,
  "find": 578,
  "fact": 579,
  "own": 580,
  "ak@@": 581,
  "stellen": 582,
  "ges@@": 583,
  "gel@@": 584,
  "seine": 585,
  "könnte": 586,
  "started": 587,
  "darüber": 588,
  "should": 589,
  "ern": 590,
  "werde": 591,
  "20": 592,
  "idea": 593,
  "tt@@": 594,
  "wollen": 595,
  "pi@@": 596,
  "before": 597,
  "hl@@": 598,
  "ap@@": 599,
  "ated": 600,
  "pl@@": 601,
  "give": 602,
  "teil": 603,
  "show": 604,
  "ser@@": 605,
  "thought": 606,
  "meiner": 607,
  "rei@@": 608,
  "design": 609,
  "ar": 610,
  "ali@@": 611,
  "never": 612,
  "thank": 613,
  "course": 614,
  "pre@@": 615,
  "ob": 616,
  "tag": 617,
  "story": 618,
  "wei@@": 619,
  "form": 620,
  "again": 621,
  "wurden": 622,
  "the@@": 623,
  "ging": 624,
  "start": 625,
  "off": 626,
  "important": 627,
  "sta@@": 628,
  "we@@": 629,
  "does": 630,
  "kommt": 631,
  "5@@": 632,
  "ins": 633,
  "gab": 634,
  "ihren": 635,
  "ate": 636,
  "men@@": 637,
  "so@@": 638,
  "weg": 639,
  "liche": 640,
  "him": 641,
  "2@@": 642,
  "frage": 643,
  "car@@": 644,
  "better": 645,
  "still": 646,
  "gemacht": 647,
  "sen": 648,
  "beispiel": 649,
  "chen": 650,
  "denke": 651,
  "jeder": 652,
  "weise": 653,
  "x": 654,
  "ke@@": 655,
  "next": 656,
  "finden": 657,
  "ago": 658,
  "ok": 659,
  "used": 660,
  "ine": 661,
  "okay": 662,
  "während": 663,
  "ari@@": 664,
  "kein": 665,
  "bit": 666,
  "lichen": 667,
  "glaube": 668,
  "moment": 669,
  "ck": 670,
  "place": 671,
  "part": 672,
  "ell@@": 673,
  "mer@@": 674,
  "came": 675,
  "go@@": 676,
  "together": 677,
  "natürlich": 678,
  "might": 679,
  "brain": 680,
  "technology": 681,
  "50": 682,
  "...": 683,
  "doch": 684,
  "million": 685,
  "each": 686,
  "kom@@": 687,
  "dazu": 688,
  "wäre": 689,
  "neue": 690,
  "ungs@@": 691,
  "unser": 692,
  "fa@@": 693,
  "unserer": 694,
  "z": 695,
  "4@@": 696,
  "water": 697,
  "vom": 698,
  "computer": 699,
  "des@@": 700,
  "zeigen": 701,
  "nehmen": 702,
  "denen": 703,
  "w": 704,
  "sogar": 705,
  "tet": 706,
  "el": 707,
  "ere": 708,
  "nichts": 709,
  "fo@@": 710,
  "1@@": 711,
  "ori@@": 712,
  "9@@": 713,
  "einmal": 714,
  "few": 715,
  "ben@@": 716,
  "weiß": 717,
  "ce@@": 718,
  "weiter": 719,
  "arbeit": 720,
  "long": 721,
  "ohne": 722,
  "dr@@": 723,
  "tro@@": 724,
  "bringen": 725,
  "gerade": 726,
  "mean": 727,
  "school": 728,
  "tions": 729,
  "ous": 730,
  "too": 731,
  "hand": 732,
  "zwischen": 733,
  "between": 734,
  "gt": 735,
  "erste": 736,
  "lie@@": 737,
  "tes": 738,
  "ste": 739,
  "sondern": 740,
  "ihrer": 741,
  "point": 742,
  "oh": 743,
  "dafür": 744,
  "looking": 745,
  "pri@@": 746,
  "mis@@": 747,
  "lin@@": 748,
  "question": 749,
  "sieht": 750,
  "nie": 751,
  "passiert": 752,
  "doesn": 753,
  "ding": 754,
  "prozent": 755,
  "30": 756,
  "stra@@": 757,
  "würden": 758,
  "ft": 759,
  "bar@@": 760,
  "done": 761,
  "hin@@": 762,
  "lei@@": 763,
  "u": 764,
  "children": 765,
  "vielen": 766,
  "ob@@": 767,
  "information": 768,
  "zurück": 769,
  "hei@@": 770,
  "fall": 771,
  "love": 772,
  "ze@@": 773,
  "found": 774,
  "hn@@": 775,
  "less": 776,
  "verstehen": 777,
  "maybe": 778,
  "unter": 779,
  "arbeiten": 780,
  "bild": 781,
  "example": 782,
  "live": 783,
  "cu@@": 784,
  "ty": 785,
  "ersten": 786,
  "ce": 787,
  "sort": 788,
  "real": 789,
  "bl@@": 790,
  "hal@@": 791,
  "ken": 792,
  "millionen": 793,
  "fragen": 794,
  "wanted": 795,
  "große": 796,
  "ga@@": 797,
  "whole": 798,
  "8@@": 799,
  "daran": 800,
  "ke": 801,
  "ganze": 802,
  "konnte": 803,
  "data": 804,
  "sprechen": 805,
  "fl@@": 806,
  "ant": 807,
  "wer@@": 808,
  "understand": 809,
  "ever": 810,
  "har@@": 811,
  "ans": 812,
  "sagt": 813,
  "dollar": 814,
  "fast": 815,
  "seite": 816,
  "etwa": 817,
  "idee": 818,
  "ju@@": 819,
  "6@@": 820,
  "ating": 821,
  "four": 822,
  "pr@@": 823,
  "durch@@": 824,
  "2": 825,
  "call": 826,
  "7@@": 827,
  "lan@@": 828,
  "tion@@": 829,
  "may": 830,
  "bekommen": 831,
  "away": 832,
  "isch": 833,
  "sollte": 834,
  "kam": 835,
  "cht": 836,
  "äu@@": 837,
  "fü@@": 838,
  "är@@": 839,
  "times": 840,
  "ziemlich": 841,
  "always": 842,
  "wasser": 843,
  "ting": 844,
  "try": 845,
  "sy@@": 846,
  "f": 847,
  "light": 848,
  "letzten": 849,
  "working": 850,
  "everything": 851,
  "age": 852,
  "son": 853,
  "fin@@": 854,
  "old": 855,
  "ve": 856,
  "ts@@": 857,
  "dabei": 858,
  "women": 859,
  "money": 860,
  "ster": 861,
  "believe": 862,
  "feel": 863,
  "100": 864,
  "pres@@": 865,
  "wollte": 866,
  "meisten": 867,
  "fer@@": 868,
  "wor@@": 869,
  "sollten": 870,
  "internet": 871,
  "geld": 872,
  "könnten": 873,
  "bri@@": 874,
  "trans@@": 875,
  "five": 876,
  "meinem": 877,
  "trying": 878,
  "kids": 879,
  "second": 880,
  "using": 881,
  "power": 882,
  "frauen": 883,
  "col@@": 884,
  "bar": 885,
  "ki@@": 886,
  "wichtig": 887,
  "af@@": 888,
  "kt": 889,
  "meinen": 890,
  "gew@@": 891,
  "daten": 892,
  "welche": 893,
  "em": 894,
  "fr@@": 895,
  "space": 896,
  "red": 897,
  "stri@@": 898,
  "sache": 899,
  "str@@": 900,
  "nach@@": 901,
  "country": 902,
  "city": 903,
  "number": 904,
  "ves": 905,
  "lernen": 906,
  "hu@@": 907,
  "video": 908,
  "took": 909,
  "bes@@": 910,
  "help": 911,
  "erte": 912,
  "all@@": 913,
  "ür@@": 914,
  "china": 915,
  "thinking": 916,
  "kleinen": 917,
  "danke": 918,
  "food": 919,
  "ses": 920,
  "cht@@": 921,
  "technologie": 922,
  "zusammen": 923,
  "hr@@": 924,
  "pf@@": 925,
  "les": 926,
  "ally": 927,
  "darauf": 928,
  "pen@@": 929,
  "quite": 930,
  "besser": 931,
  "means": 932,
  "mann": 933,
  "create": 934,
  "hand@@": 935,
  "tre@@": 936,
  "kan@@": 937,
  "eigentlich": 938,
  "weniger": 939,
  "ven@@": 940,
  "ons": 941,
  "hy@@": 942,
  "che@@": 943,
  "ens": 944,
  "brauchen": 945,
  "gesehen": 946,
  "ben": 947,
  "ic@@": 948,
  "kr@@": 949,
  "vier": 950,
  "nor@@": 951,
  "wä@@": 952,
  "gan@@": 953,
  "ary": 954,
  "making": 955,
  "sense": 956,
  "become": 957,
  "probably": 958,
  "menge": 959,
  "small": 960,
  "re": 961,
  "ka@@": 962,
  "energy": 963,
  "rie@@": 964,
  "cor@@": 965,
  "nen": 966,
  "ange@@": 967,
  "king": 968,
  "enough": 969,
  "comes": 970,
  "geb@@": 971,
  "future": 972,
  "dachte": 973,
  "ks": 974,
  "happened": 975,
  "getting": 976,
  "side": 977,
  "kleine": 978,
  "best": 979,
  "building": 980,
  "raum": 981,
  "jo@@": 982,
  "half": 983,
  "ganzen": 984,
  "bedeutet": 985,
  "ker": 986,
  "without": 987,
  "glauben": 988,
  "left": 989,
  "15": 990,
  "pan@@": 991,
  "ie@@": 992,
  "3": 993,
  "besch@@": 994,
  "ihm": 995,
  "interesting": 996,
  "jemand": 997,
  "großen": 998,
  "halten": 999,
  "ps": 1000,
  "play": 1001,
  "los": 1002,
  "africa": 1003,
  "schauen": 1004,
  "sub@@": 1005,
  "e-@@": 1006,
  "zusammen@@": 1007,
  "8": 1008,
  "fen": 1009,
  "ment": 1010,
  "ne": 1011,
  "body": 1012,
  "nein": 1013,
  "stuff": 1014,
  "ach@@": 1015,
  "home": 1016,
  "wer": 1017,
  "unseren": 1018,
  "5": 1019,
  "tionen": 1020,
  "essen": 1021,
  "ors": 1022,
  "talking": 1023,
  "ges": 1024,
  "uni@@": 1025,
  "grund": 1026,
  "20@@": 1027,
  "says": 1028,
  "jedes": 1029,
  "spielen": 1030,
  "ab": 1031,
  "room": 1032,
  "hä@@": 1033,
  "versuchen": 1034,
  "fre@@": 1035,
  "ihrem": 1036,
  "stand": 1037,
  "dollars": 1038,
  "ort": 1039,
  "gehirn": 1040,
  "frau": 1041,
  "pretty": 1042,
  "mor@@": 1043,
  "ways": 1044,
  "&#91;": 1045,
  "sur@@": 1046,
  "&#93;": 1047,
  "eln": 1048,
  "gegen": 1049,
  "anything": 1050,
  "social": 1051,
  "science": 1052,
  "ze": 1053,
  "bel@@": 1054,
  "ken@@": 1055,
  "goes": 1056,
  "coming": 1057,
  "nu@@": 1058,
  "ms": 1059,
  "ele@@": 1060,
  "ask": 1061,
  "earth": 1062,
  "enden": 1063,
  "simple": 1064,
  "licher": 1065,
  "bio@@": 1066,
  "d-@@": 1067,
  "jeden": 1068,
  "ja@@": 1069,
  "schen": 1070,
  "eri@@": 1071,
  "set": 1072,
  "ded": 1073,
  "gute": 1074,
  "makes": 1075,
  "york": 1076,
  "gesagt": 1077,
  "zeigt": 1078,
  "bre@@": 1079,
  "cre@@": 1080,
  "days": 1081,
  "seen": 1082,
  "keinen": 1083,
  "gs": 1084,
  "wo@@": 1085,
  "ber": 1086,
  "teilen": 1087,
  "high": 1088,
  "chten": 1089,
  "ca@@": 1090,
  "seit": 1091,
  "else": 1092,
  "problems": 1093,
  "nutzen": 1094,
  "1": 1095,
  "told": 1096,
  "planet": 1097,
  "picture": 1098,
  "happen": 1099,
  "ant@@": 1100,
  "est": 1101,
  "job": 1102,
  "zukunft": 1103,
  "ale": 1104,
  "bauen": 1105,
  "bro@@": 1106,
  "wh@@": 1107,
  "living": 1108,
  "mal@@": 1109,
  "wahrscheinlich": 1110,
  "ic": 1111,
  "saw": 1112,
  "across": 1113,
  "hen": 1114,
  "film": 1115,
  "case": 1116,
  "lives": 1117,
  "mp@@": 1118,
  "yet": 1119,
  "sor@@": 1120,
  "zen": 1121,
  "while": 1122,
  "test": 1123,
  "happens": 1124,
  "schaffen": 1125,
  "erde": 1126,
  "ban@@": 1127,
  "zer@@": 1128,
  "fu@@": 1129,
  "ku@@": 1130,
  "once": 1131,
  "basically": 1132,
  "imagine": 1133,
  "global": 1134,
  "allen": 1135,
  "ellen": 1136,
  "project": 1137,
  "bad": 1138,
  "th": 1139,
  "hard": 1140,
  "sah": 1141,
  "später": 1142,
  "line": 1143,
  "det": 1144,
  "countries": 1145,
  "fünf": 1146,
  "40": 1147,
  "ver": 1148,
  "chte": 1149,
  "indem": 1150,
  "move": 1151,
  "ba@@": 1152,
  "asked": 1153,
  "eigenen": 1154,
  "tan@@": 1155,
  "ungefähr": 1156,
  "4": 1157,
  "beim": 1158,
  "licht": 1159,
  "kt@@": 1160,
  "such": 1161,
  "per": 1162,
  "build": 1163,
  "ll@@": 1164,
  "ung@@": 1165,
  "book": 1166,
  "fe": 1167,
  "health": 1168,
  "stadt": 1169,
  "heraus": 1170,
  "s-@@": 1171,
  "ct@@": 1172,
  "arten": 1173,
  "inside": 1174,
  "funktioniert": 1175,
  "hätte": 1176,
  "seiner": 1177,
  "tur@@": 1178,
  "having": 1179,
  "family": 1180,
  "ster@@": 1181,
  "richtig": 1182,
  "stehen": 1183,
  "ties": 1184,
  "mutter": 1185,
  "experience": 1186,
  "sicher": 1187,
  "dar@@": 1188,
  "name": 1189,
  "sure": 1190,
  "7": 1191,
  "jede": 1192,
  "everybody": 1193,
  "wenig": 1194,
  "care": 1195,
  "probleme": 1196,
  "team": 1197,
  "spe@@": 1198,
  "ideas": 1199,
  "car": 1200,
  "6": 1201,
  "learn": 1202,
  "pro": 1203,
  "erzählen": 1204,
  "schule": 1205,
  "punkt": 1206,
  "later": 1207,
  "cken": 1208,
  "heißt": 1209,
  "kor@@": 1210,
  "super@@": 1211,
  "reason": 1212,
  "ausge@@": 1213,
  "hin": 1214,
  "almost": 1215,
  "nothing": 1216,
  "cri@@": 1217,
  "six": 1218,
  "dank": 1219,
  "lang": 1220,
  "bur@@": 1221,
  "lich@@": 1222,
  "process": 1223,
  "business": 1224,
  "billion": 1225,
  "young": 1226,
  "ct": 1227,
  "looks": 1228,
  "both": 1229,
  "states": 1230,
  "konnten": 1231,
  "energie": 1232,
  "bisschen": 1233,
  "anti@@": 1234,
  "liebe": 1235,
  "rest": 1236,
  "hö@@": 1237,
  "ction": 1238,
  "helfen": 1239,
  "top": 1240,
  "mind": 1241,
  "schnell": 1242,
  "oft": 1243,
  "erst": 1244,
  "körper": 1245,
  "afrika": 1246,
  "dra@@": 1247,
  "nature": 1248,
  "tung": 1249,
  "buch": 1250,
  "wrong": 1251,
  "pos@@": 1252,
  "bau@@": 1253,
  "alen": 1254,
  "sts": 1255,
  "single": 1256,
  "tel@@": 1257,
  "remember": 1258,
  "begann": 1259,
  "within": 1260,
  "lange": 1261,
  "ve@@": 1262,
  "material": 1263,
  "elle": 1264,
  "neuen": 1265,
  "führen": 1266,
  "genug": 1267,
  "ner": 1268,
  "9": 1269,
  "child": 1270,
  "neu@@": 1271,
  "history": 1272,
  "bra@@": 1273,
  "tern": 1274,
  "anders": 1275,
  "true": 1276,
  "ler": 1277,
  "guy": 1278,
  "wen@@": 1279,
  "cells": 1280,
  "open": 1281,
  "setzen": 1282,
  "son@@": 1283,
  "ability": 1284,
  "reden": 1285,
  "far": 1286,
  "saying": 1287,
  "indi@@": 1288,
  "already": 1289,
  "star@@": 1290,
  "nächsten": 1291,
  "yes": 1292,
  "tic@@": 1293,
  "möglich": 1294,
  "ideen": 1295,
  "sion": 1296,
  "ely": 1297,
  "ther@@": 1298,
  "ity": 1299,
  "bas@@": 1300,
  "cher": 1301,
  "ches": 1302,
  "nis@@": 1303,
  "überall": 1304,
  "music": 1305,
  "lebens@@": 1306,
  "ings": 1307,
  "gehört": 1308,
  "kti@@": 1309,
  "fra@@": 1310,
  "ern@@": 1311,
  "heard": 1312,
  "hören": 1313,
  "%": 1314,
  "win@@": 1315,
  "manchmal": 1316,
  "pp@@": 1317,
  "under": 1318,
  "unserem": 1319,
  "state": 1320,
  "tic": 1321,
  "projekt": 1322,
  "cancer": 1323,
  "level": 1324,
  "looked": 1325,
  "ton": 1326,
  "answer": 1327,
  "keep": 1328,
  "gets": 1329,
  "et": 1330,
  "liches": 1331,
  "gruppe": 1332,
  "wal@@": 1333,
  "y-@@": 1334,
  "darum": 1335,
  "gern": 1336,
  "sto@@": 1337,
  "euch": 1338,
  "possible": 1339,
  "ents": 1340,
  "seinen": 1341,
  "prä@@": 1342,
  "elt": 1343,
  "tigen": 1344,
  "matter": 1345,
  "dro@@": 1346,
  "tieren": 1347,
  "erten": 1348,
  "liegt": 1349,
  "milliarden": 1350,
  "ces": 1351,
  "hope": 1352,
  "recht": 1353,
  "bring": 1354,
  "t-@@": 1355,
  "leuten": 1356,
  "zwei@@": 1357,
  "medi@@": 1358,
  "dan@@": 1359,
  "tete": 1360,
  "ani@@": 1361,
  "stellt": 1362,
  "heraus@@": 1363,
  "je": 1364,
  "fä@@": 1365,
  "beautiful": 1366,
  "often": 1367,
  "anzu@@": 1368,
  "erung": 1369,
  "systems": 1370,
  "flu@@": 1371,
  "eins": 1372,
  "months": 1373,
  "ell": 1374,
  "universe": 1375,
  "entwickelt": 1376,
  "ziehen": 1377,
  "mü@@": 1378,
  "built": 1379,
  "schul@@": 1380,
  "pla@@": 1381,
  "face": 1382,
  "india": 1383,
  "cks": 1384,
  "gkeit": 1385,
  "isn": 1386,
  "piece": 1387,
  "bevor": 1388,
  "ssen": 1389,
  "amazing": 1390,
  "planeten": 1391,
  "bil@@": 1392,
  "sagten": 1393,
  "read": 1394,
  "head": 1395,
  "god": 1396,
  "anderes": 1397,
  "works": 1398,
  "sometimes": 1399,
  "fil@@": 1400,
  "my@@": 1401,
  "ters": 1402,
  "zellen": 1403,
  "dri@@": 1404,
  "tige": 1405,
  "25": 1406,
  "kennen": 1407,
  "kre@@": 1408,
  "lli@@": 1409,
  "cra@@": 1410,
  "nennen": 1411,
  "machte": 1412,
  "situation": 1413,
  "tat": 1414,
  "since": 1415,
  "sche": 1416,
  "ws": 1417,
  "united": 1418,
  "sei": 1419,
  "unternehmen": 1420,
  "decided": 1421,
  "verändern": 1422,
  "ourselves": 1423,
  "words": 1424,
  "dna": 1425,
  "public": 1426,
  "frei@@": 1427,
  "wissenschaft": 1428,
  "ones": 1429,
  "rate": 1430,
  "mädchen": 1431,
  "turns": 1432,
  "ma": 1433,
  "someone": 1434,
  "gar@@": 1435,
  "und@@": 1436,
  "land@@": 1437,
  "fan@@": 1438,
  "myself": 1439,
  "cted": 1440,
  "els": 1441,
  "natur": 1442,
  "species": 1443,
  "until": 1444,
  "education": 1445,
  "generation": 1446,
  "bilder": 1447,
  "couple": 1448,
  "whether": 1449,
  "fol@@": 1450,
  "stück": 1451,
  "yeah": 1452,
  "group": 1453,
  "instead": 1454,
  "places": 1455,
  "deshalb": 1456,
  "turn": 1457,
  "stories": 1458,
  "revolution": 1459,
  "besonders": 1460,
  "exactly": 1461,
  "heit": 1462,
  "mother": 1463,
  "weit": 1464,
  "ates": 1465,
  "end@@": 1466,
  "fand": 1467,
  "12": 1468,
  "steht": 1469,
  "control": 1470,
  "mm@@": 1471,
  "klar": 1472,
  "taking": 1473,
  "minuten": 1474,
  "house": 1475,
  "ran@@": 1476,
  "ving": 1477,
  "informationen": 1478,
  "language": 1479,
  "happy": 1480,
  "oben": 1481,
  "completely": 1482,
  "usa": 1483,
  "order": 1484,
  "ged": 1485,
  "zurück@@": 1486,
  "cal": 1487,
  "ator": 1488,
  "v": 1489,
  "research": 1490,
  "word": 1491,
  "comp@@": 1492,
  "versch@@": 1493,
  "over@@": 1494,
  "everyone": 1495,
  "spiel": 1496,
  "ischer": 1497,
  "can@@": 1498,
  "though": 1499,
  "seinem": 1500,
  "government": 1501,
  "bereits": 1502,
  "community": 1503,
  "sprache": 1504,
  "namens": 1505,
  "erreichen": 1506,
  "ble": 1507,
  "must": 1508,
  "familie": 1509,
  "verschiedene": 1510,
  "antwort": 1511,
  "middle": 1512,
  "60": 1513,
  "benutzen": 1514,
  "ßen": 1515,
  "bei@@": 1516,
  "wasn": 1517,
  "ling": 1518,
  "somebody": 1519,
  "minutes": 1520,
  "gar": 1521,
  "lage": 1522,
  "itself": 1523,
  "sachen": 1524,
  "80": 1525,
  "iert": 1526,
  "erkennen": 1527,
  "wegen": 1528,
  "stop": 1529,
  "gerne": 1530,
  "vater": 1531,
  "braucht": 1532,
  "night": 1533,
  "third": 1534,
  "haus": 1535,
  "led": 1536,
  "musste": 1537,
  "kinds": 1538,
  "sage": 1539,
  "sechs": 1540,
  "che": 1541,
  "sol@@": 1542,
  "eu@@": 1543,
  "deu@@": 1544,
  "heart": 1545,
  "news": 1546,
  "cy": 1547,
  "woman": 1548,
  "rück@@": 1549,
  "alt": 1550,
  "experiment": 1551,
  "treffen": 1552,
  "indien": 1553,
  "became": 1554,
  ",@@": 1555,
  "lebens": 1556,
  "geschichten": 1557,
  "fri@@": 1558,
  "animals": 1559,
  "mas@@": 1560,
  "wert": 1561,
  "tig": 1562,
  "tä@@": 1563,
  "america": 1564,
  "hoch@@": 1565,
  "inv@@": 1566,
  "tal@@": 1567,
  "ations": 1568,
  "chti@@": 1569,
  "national": 1570,
  "musik": 1571,
  "front": 1572,
  "themselves": 1573,
  "model": 1574,
  "happening": 1575,
  "run": 1576,
  "dich": 1577,
  "wohn@@": 1578,
  "ies": 1579,
  "large": 1580,
  "gleich": 1581,
  "gefühl": 1582,
  "company": 1583,
  "evolution": 1584,
  "tive": 1585,
  "rather": 1586,
  "gene": 1587,
  "cal@@": 1588,
  "huge": 1589,
  "fas@@": 1590,
  "ance": 1591,
  "students": 1592,
  "share": 1593,
  "under@@": 1594,
  "gro@@": 1595,
  "kopf": 1596,
  "darin": 1597,
  "environment": 1598,
  "wasser@@": 1599,
  "mati@@": 1600,
  "study": 1601,
  "learned": 1602,
  "spiel@@": 1603,
  "oil": 1604,
  "niemand": 1605,
  "guys": 1606,
  "kei@@": 1607,
  "tiere": 1608,
  "century": 1609,
  "ry": 1610,
  "gesellschaft": 1611,
  "möglichkeit": 1612,
  "einzige": 1613,
  "hätten": 1614,
  "friends": 1615,
  "population": 1616,
  "schreiben": 1617,
  "schi@@": 1618,
  "american": 1619,
  "bal@@": 1620,
  "natural": 1621,
  "sound": 1622,
  "augen": 1623,
  "hear": 1624,
  "innovation": 1625,
  "verhalten": 1626,
  "along": 1627,
  "won": 1628,
  "irgendwie": 1629,
  "stand@@": 1630,
  "onen": 1631,
  "game": 1632,
  "gri@@": 1633,
  "besten": 1634,
  "falls": 1635,
  "hours": 1636,
  "innerhalb": 1637,
  "bewegen": 1638,
  "soll": 1639,
  "gott": 1640,
  "couldn": 1641,
  "created": 1642,
  "knew": 1643,
  "ard": 1644,
  "lichkeit": 1645,
  "fish": 1646,
  "gegen@@": 1647,
  "worked": 1648,
  "isi@@": 1649,
  "sin@@": 1650,
  "vorstellen": 1651,
  "learning": 1652,
  "lots": 1653,
  "flo@@": 1654,
  "cul@@": 1655,
  "late": 1656,
  "gebäude": 1657,
  "ändern": 1658,
  "ess": 1659,
  "stunden": 1660,
  "gleiche": 1661,
  "questions": 1662,
  "tische": 1663,
  "gave": 1664,
  "ys": 1665,
  "sau@@": 1666,
  "patienten": 1667,
  "zeit@@": 1668,
  "stu@@": 1669,
  "cher@@": 1670,
  "during": 1671,
  "against": 1672,
  "perhaps": 1673,
  "18@@": 1674,
  "machine": 1675,
  "ss": 1676,
  "air": 1677,
  "self-@@": 1678,
  "jedem": 1679,
  "zed": 1680,
  "society": 1681,
  "mä@@": 1682,
  "einander": 1683,
  "gre@@": 1684,
  "disease": 1685,
  "500": 1686,
  "finally": 1687,
  "bringt": 1688,
  "sam@@": 1689,
  "einigen": 1690,
  "teile": 1691,
  "lau@@": 1692,
  "center": 1693,
  "del@@": 1694,
  "tiert": 1695,
  "lesen": 1696,
  "bs": 1697,
  "pat@@": 1698,
  "lässt": 1699,
  "cy@@": 1700,
  "ved": 1701,
  "kal@@": 1702,
  "particular": 1703,
  "kar@@": 1704,
  "ocean": 1705,
  "beiden": 1706,
  "grund@@": 1707,
  "kindern": 1708,
  "moving": 1709,
  "schl@@": 1710,
  "sal@@": 1711,
  "don@@": 1712,
  "meter": 1713,
  "regierung": 1714,
  "wollten": 1715,
  "wieder@@": 1716,
  "wand@@": 1717,
  "bitte": 1718,
  "based": 1719,
  "takes": 1720,
  "tten": 1721,
  "weiter@@": 1722,
  "eltern": 1723,
  "ful": 1724,
  "gung": 1725,
  "din@@": 1726,
  "early": 1727,
  "difference": 1728,
  "auszu@@": 1729,
  "area": 1730,
  "führt": 1731,
  "san@@": 1732,
  "gleichen": 1733,
  "os": 1734,
  "erhalten": 1735,
  "vis@@": 1736,
  "others": 1737,
  "menschlichen": 1738,
  "figure": 1739,
  "länder": 1740,
  "tragen": 1741,
  "tin@@": 1742,
  "200": 1743,
  "market": 1744,
  "entwickeln": 1745,
  "schwer": 1746,
  "unglaublich": 1747,
  "ren@@": 1748,
  "gte": 1749,
  "version": 1750,
  "glück": 1751,
  "wonderful": 1752,
  "ness": 1753,
  "arm": 1754,
  "kri@@": 1755,
  "past": 1756,
  "tisch": 1757,
  "herum": 1758,
  "lose": 1759,
  "far@@": 1760,
  "daher": 1761,
  "dung": 1762,
  "beginnen": 1763,
  "aren": 1764,
  "obwohl": 1765,
  "cke": 1766,
  "nimmt": 1767,
  "needs": 1768,
  "view": 1769,
  "free": 1770,
  "verschiedenen": 1771,
  "wahr@@": 1772,
  "möglichkeiten": 1773,
  "position": 1774,
  "groß@@": 1775,
  "sing": 1776,
  "least": 1777,
  "dir": 1778,
  "scale": 1779,
  "hän@@": 1780,
  "stellte": 1781,
  "ence": 1782,
  "patient": 1783,
  "cell": 1784,
  "zing": 1785,
  "zei@@": 1786,
  "taken": 1787,
  "cr@@": 1788,
  "wär@@": 1789,
  "pal@@": 1790,
  "kten": 1791,
  "schw@@": 1792,
  "seven": 1793,
  "plan": 1794,
  "verändert": 1795,
  "chance": 1796,
  "vision": 1797,
  "nächste": 1798,
  "entire": 1799,
  "überhaupt": 1800,
  "outside": 1801,
  "—": 1802,
  "genommen": 1803,
  "hoch": 1804,
  "cur@@": 1805,
  "kunst": 1806,
  "kraft": 1807,
  "damals": 1808,
  "universum": 1809,
  "ven": 1810,
  "männer": 1811,
  "wohl": 1812,
  "close": 1813,
  "verwenden": 1814,
  "mer": 1815,
  "online": 1816,
  "stelle": 1817,
  "sinn": 1818,
  "thousands": 1819,
  "laufen": 1820,
  "easy": 1821,
  "hiv": 1822,
  "fahren": 1823,
  "changed": 1824,
  "18": 1825,
  "interested": 1826,
  "google": 1827,
  "hause": 1828,
  "david": 1829,
  "/": 1830,
  "app@@": 1831,
  "gebracht": 1832,
  "parts": 1833,
  "mt": 1834,
  "ess@@": 1835,
  "lösen": 1836,
  "cool": 1837,
  "versucht": 1838,
  "wort": 1839,
  "isches": 1840,
  "fühlen": 1841,
  "angst": 1842,
  "cannot": 1843,
  "aller": 1844,
  "tut": 1845,
  "parents": 1846,
  "formen": 1847,
  "teil@@": 1848,
  "lösung": 1849,
  "bewegung": 1850,
  "zahl": 1851,
  "schie@@": 1852,
  "shows": 1853,
  "ide@@": 1854,
  "wirtschaft": 1855,
  "staaten": 1856,
  "turned": 1857,
  "nämlich": 1858,
  "yourself": 1859,
  "green": 1860,
  "lation": 1861,
  "given": 1862,
  "ics": 1863,
  "tau@@": 1864,
  "unten": 1865,
  "beginning": 1866,
  "leave": 1867,
  "getan": 1868,
  "kamen": 1869,
  "stell@@": 1870,
  "gleich@@": 1871,
  "ckt": 1872,
  "na": 1873,
  "image": 1874,
  "culture": 1875,
  "legen": 1876,
  "cing": 1877,
  "mel@@": 1878,
  "alten": 1879,
  "sel@@": 1880,
  "zahlen": 1881,
  "junge": 1882,
  "fahr@@": 1883,
  "sei@@": 1884,
  "eight": 1885,
  "mil@@": 1886,
  "kop@@": 1887,
  "ft@@": 1888,
  "ying": 1889,
  "mittel": 1890,
  "maschine": 1891,
  "west": 1892,
  "tional": 1893,
  "wind": 1894,
  "difficult": 1895,
  "fähigkeit": 1896,
  "radi@@": 1897,
  "auto": 1898,
  "buy": 1899,
  "va@@": 1900,
  "spr@@": 1901,
  "bor@@": 1902,
  "behind": 1903,
  "entwicklung": 1904,
  "sed": 1905,
  "software": 1906,
  "dessen": 1907,
  "weitere": 1908,
  "size": 1909,
  "grow": 1910,
  "groß": 1911,
  "letzte": 1912,
  "cost": 1913,
  "modell": 1914,
  "ka": 1915,
  "hilfe": 1916,
  "ball": 1917,
  "cat@@": 1918,
  "spro@@": 1919,
  "seeing": 1920,
  "kurz": 1921,
  "cro@@": 1922,
  "stage": 1923,
  "bru@@": 1924,
  "wür@@": 1925,
  "media": 1926,
  "whatever": 1927,
  "common": 1928,
  "aufge@@": 1929,
  "normal": 1930,
  "eyes": 1931,
  "schließlich": 1932,
  "spend": 1933,
  "tions@@": 1934,
  "berei@@": 1935,
  "baby": 1936,
  "cap@@": 1937,
  "walk": 1938,
  "ah": 1939,
  "tor@@": 1940,
  "wachsen": 1941,
  "needed": 1942,
  "schü@@": 1943,
  "powerful": 1944,
  "began": 1945,
  "week": 1946,
  "menschliche": 1947,
  "audience": 1948,
  "mission": 1949,
  "gend": 1950,
  "selbst@@": 1951,
  "known": 1952,
  "kultur": 1953,
  "grunde": 1954,
  "born": 1955,
  "zä@@": 1956,
  "sterben": 1957,
  "books": 1958,
  "unterschied": 1959,
  "gest@@": 1960,
  "fly": 1961,
  "tage": 1962,
  "black": 1963,
  "hren": 1964,
  "jedoch": 1965,
  "11": 1966,
  "sicht@@": 1967,
  "worden": 1968,
  "force": 1969,
  "los@@": 1970,
  "certain": 1971,
  "tischen": 1972,
  "economic": 1973,
  "schön": 1974,
  "kaufen": 1975,
  "region": 1976,
  "nachdem": 1977,
  "paper": 1978,
  "u.s.": 1979,
  "ship": 1980,
  "friend": 1981,
  "krebs": 1982,
  "tried": 1983,
  "kat@@": 1984,
  "zwar": 1985,
  "terms": 1986,
  "father": 1987,
  "full": 1988,
  "wach@@": 1989,
  "gone": 1990,
  "dingen": 1991,
  "cities": 1992,
  "stan@@": 1993,
  "roboter": 1994,
  "boden": 1995,
  "ets": 1996,
  "labor": 1997,
  "pas@@": 1998,
  "bot@@": 1999,
  "death": 2000,
  "street": 2001,
  "not@@": 2002,
  "longer": 2003,
  "allem": 2004,
  "wan@@": 2005,
  "alter": 2006,
  "mittel@@": 2007,
  "erfahrung": 2008,
  "oren": 2009,
  "wing": 2010,
  "eher": 2011,
  "üb@@": 2012,
  "local": 2013,
  "kü@@": 2014,
  "schei@@": 2015,
  "richtung": 2016,
  "drei@@": 2017,
  "gestellt": 2018,
  "wissenschaftler": 2019,
  "kam@@": 2020,
  "welt@@": 2021,
  "simply": 2022,
  "ously": 2023,
  "wider@@": 2024,
  "amount": 2025,
  "betrachten": 2026,
  "eigene": 2027,
  "incredible": 2028,
  "tru@@": 2029,
  "ments": 2030,
  "meines": 2031,
  "sü@@": 2032,
  "bt": 2033,
  "humans": 2034,
  "gang": 2035,
  "wil@@": 2036,
  "act": 2037,
  "gebaut": 2038,
  "muster": 2039,
  "rel@@": 2040,
  "virus": 2041,
  "fliegen": 2042,
  "stic": 2043,
  "körper@@": 2044,
  "hands": 2045,
  "nahm": 2046,
  "sex": 2047,
  "growth": 2048,
  "feet": 2049,
  "lehrer": 2050,
  "findet": 2051,
  "0": 2052,
  "dern": 2053,
  "falsch": 2054,
  "zweite": 2055,
  "web": 2056,
  "mag": 2057,
  "interessant": 2058,
  "kosten": 2059,
  "platz": 2060,
  "ziel": 2061,
  "anfang": 2062,
  "ser": 2063,
  "ground": 2064,
  "prozess": 2065,
  "en-@@": 2066,
  "gener@@": 2067,
  "field": 2068,
  "structure": 2069,
  "verk@@": 2070,
  "beste": 2071,
  "fanden": 2072,
  "deren": 2073,
  "mö@@": 2074,
  "guten": 2075,
  "wahr": 2076,
  "erinnern": 2077,
  "hold": 2078,
  "woche": 2079,
  "code": 2080,
  "nä@@": 2081,
  "bildung": 2082,
  "watch": 2083,
  "spent": 2084,
  "jungen": 2085,
  "complex": 2086,
  "größte": 2087,
  "neu": 2088,
  "deal": 2089,
  "gten": 2090,
  "step": 2091,
  "ang@@": 2092,
  "realized": 2093,
  "bleiben": 2094,
  "kö@@": 2095,
  "girl": 2096,
  "oni@@": 2097,
  "kur@@": 2098,
  "welches": 2099,
  "surface": 2100,
  "south": 2101,
  "key": 2102,
  "voll": 2103,
  "university": 2104,
  "genauso": 2105,
  "table": 2106,
  "hü@@": 2107,
  "publikum": 2108,
  "quickly": 2109,
  "mussten": 2110,
  "solche": 2111,
  "ene": 2112,
  "bare": 2113,
  "thema": 2114,
  "lang@@": 2115,
  "a-@@": 2116,
  "treten": 2117,
  "markt": 2118,
  "char@@": 2119,
  "führ@@": 2120,
  "value": 2121,
  "fort@@": 2122,
  "vo@@": 2123,
  "ice": 2124,
  "blue": 2125,
  "sieben": 2126,
  "hinter": 2127,
  "voll@@": 2128,
  "gas": 2129,
  "lö@@": 2130,
  "schla@@": 2131,
  "fragte": 2132,
  "wouldn": 2133,
  "cts": 2134,
  "white": 2135,
  "animal": 2136,
  "pay": 2137,
  "ris@@": 2138,
  "sollen": 2139,
  "blick": 2140,
  "minute": 2141,
  "hey": 2142,
  "eat": 2143,
  "sea": 2144,
  "weg@@": 2145,
  "phone": 2146,
  "lost": 2147,
  "up@@": 2148,
  "danach": 2149,
  "fangen": 2150,
  "verbindung": 2151,
  "companies": 2152,
  "bereich": 2153,
  "direkt": 2154,
  "mat@@": 2155,
  "sitting": 2156,
  "multi@@": 2157,
  "fun": 2158,
  "reality": 2159,
  "namen": 2160,
  "either": 2161,
  "felt": 2162,
  "suchen": 2163,
  "patients": 2164,
  "bank": 2165,
  "forschung": 2166,
  "forward": 2167,
  "weeks": 2168,
  "write": 2169,
  "sch": 2170,
  "fli@@": 2171,
  "met": 2172,
  "box": 2173,
  "designer": 2174,
  "behavior": 2175,
  "70": 2176,
  "lä@@": 2177,
  "ß": 2178,
  "wären": 2179,
  "gefunden": 2180,
  "nice": 2181,
  "zuvor": 2182,
  "out@@": 2183,
  "nt": 2184,
  "hast": 2185,
  "brought": 2186,
  "struktur": 2187,
  "gemein@@": 2188,
  "wrote": 2189,
  "ziert": 2190,
  "einzu@@": 2191,
  "chen@@": 2192,
  "wusste": 2193,
  "ieren": 2194,
  "dy": 2195,
  "miles": 2196,
  "oc@@": 2197,
  "krieg": 2198,
  "nahmen": 2199,
  "theorie": 2200,
  "neues": 2201,
  "ander@@": 2202,
  "squ@@": 2203,
  "cally": 2204,
  "monate": 2205,
  "gegeben": 2206,
  "john": 2207,
  "gedanken": 2208,
  "len": 2209,
  "ders": 2210,
  "ment@@": 2211,
  "telling": 2212,
  "autos": 2213,
  "fel@@": 2214,
  "tzen": 2215,
  "anderer": 2216,
  "ia": 2217,
  "opportunity": 2218,
  "glücklich": 2219,
  "college": 2220,
  "sat@@": 2221,
  "90": 2222,
  "gän@@": 2223,
  "changes": 2224,
  "feeling": 2225,
  "cut": 2226,
  "ure": 2227,
  "ht": 2228,
  "plötzlich": 2229,
  "ank@@": 2230,
  "zuerst": 2231,
  "brei@@": 2232,
  "tö@@": 2233,
  "growing": 2234,
  "mache": 2235,
  "lieben": 2236,
  "potential": 2237,
  "bin@@": 2238,
  "freunde": 2239,
  "zie@@": 2240,
  "manche": 2241,
  "average": 2242,
  "besteht": 2243,
  "theory": 2244,
  "links": 2245,
  "wochen": 2246,
  "poor": 2247,
  "economy": 2248,
  "kra@@": 2249,
  "zehn": 2250,
  "ften": 2251,
  "speak": 2252,
  "scheint": 2253,
  "enten": 2254,
  "kte": 2255,
  "reise": 2256,
  "größe": 2257,
  "10@@": 2258,
  "ihres": 2259,
  "anyone": 2260,
  "ked": 2261,
  "political": 2262,
  "positive": 2263,
  "scientists": 2264,
  "fied": 2265,
  "beginnt": 2266,
  "religion": 2267,
  "gewesen": 2268,
  "genannt": 2269,
  "amerika": 2270,
  "ner@@": 2271,
  "technologies": 2272,
  "sicht": 2273,
  "developed": 2274,
  "knowledge": 2275,
  "neuro@@": 2276,
  "luft": 2277,
  "bed": 2278,
  "schaft": 2279,
  "jobs": 2280,
  "funktionieren": 2281,
  "technologien": 2282,
  "fest": 2283,
  "möchten": 2284,
  "pe": 2285,
  "numbers": 2286,
  "stoff@@": 2287,
  "moral": 2288,
  "sha@@": 2289,
  "sehe": 2290,
  "ha": 2291,
  "len@@": 2292,
  "giving": 2293,
  "fer": 2294,
  "museum": 2295,
  "wunder@@": 2296,
  "han@@": 2297,
  "died": 2298,
  "baren": 2299,
  "stimmt": 2300,
  "bottom": 2301,
  "bereit": 2302,
  "stre@@": 2303,
  "val@@": 2304,
  "erschaffen": 2305,
  "wand": 2306,
  "dr.": 2307,
  "völlig": 2308,
  "seems": 2309,
  "images": 2310,
  "sted": 2311,
  "schwierig": 2312,
  "karte": 2313,
  "cker": 2314,
  "discovered": 2315,
  "short": 2316,
  "grün@@": 2317,
  "ker@@": 2318,
  "aussehen": 2319,
  "bekannt": 2320,
  "zieren": 2321,
  "tiven": 2322,
  "draußen": 2323,
  "student": 2324,
  "technik": 2325,
  "anfangen": 2326,
  "chris": 2327,
  "nobody": 2328,
  "schritt": 2329,
  "starting": 2330,
  "reihe": 2331,
  "program": 2332,
  "morning": 2333,
  "fest@@": 2334,
  "tages": 2335,
  "bist": 2336,
  "geworden": 2337,
  "ff": 2338,
  "gelernt": 2339,
  "board": 2340,
  "running": 2341,
  "mars": 2342,
  "pping": 2343,
  "stoff": 2344,
  "hervor@@": 2345,
  "dig": 2346,
  "jahrhundert": 2347,
  "passieren": 2348,
  "gs@@": 2349,
  "attention": 2350,
  "general": 2351,
  "trä@@": 2352,
  "systeme": 2353,
  "playing": 2354,
  "gives": 2355,
  "brachte": 2356,
  "plan@@": 2357,
  "aufzu@@": 2358,
  "ppen": 2359,
  "einge@@": 2360,
  "hom@@": 2361,
  "gerät": 2362,
  "ien": 2363,
  "literally": 2364,
  "teten": 2365,
  "viel@@": 2366,
  "bücher": 2367,
  "zes": 2368,
  "niemals": 2369,
  "ear@@": 2370,
  "acht": 2371,
  "haupt@@": 2372,
  "personal": 2373,
  "physical": 2374,
  "shape": 2375,
  "absolutely": 2376,
  "deep": 2377,
  "beide": 2378,
  "map": 2379,
  "stimme": 2380,
  "english": 2381,
  "movement": 2382,
  "ländern": 2383,
  "low": 2384,
  "alone": 2385,
  "micro@@": 2386,
  "digen": 2387,
  "produce": 2388,
  "cli@@": 2389,
  "pped": 2390,
  "studenten": 2391,
  "challenge": 2392,
  "firma": 2393,
  "mikro@@": 2394,
  "zen@@": 2395,
  "kleines": 2396,
  "law": 2397,
  "bewusst": 2398,
  "gingen": 2399,
  "ning": 2400,
  "realize": 2401,
  "climate": 2402,
  "16": 2403,
  "jemals": 2404,
  "recently": 2405,
  "anzahl": 2406,
  "ta": 2407,
  "sicherheit": 2408,
  "ctive": 2409,
  "areas": 2410,
  "uses": 2411,
  "tation": 2412,
  "forms": 2413,
  "arbeitet": 2414,
  "pur@@": 2415,
  "egal": 2416,
  "hinter@@": 2417,
  "anybody": 2418,
  "fallen": 2419,
  "north": 2420,
  "cars": 2421,
  "gemeinschaft": 2422,
  "daraus": 2423,
  "mensch": 2424,
  "individual": 2425,
  "fle@@": 2426,
  "herr@@": 2427,
  "sive": 2428,
  "miteinander": 2429,
  "300": 2430,
  "tief@@": 2431,
  "obviously": 2432,
  "bekommt": 2433,
  "rech@@": 2434,
  "gruppen": 2435,
  "morgen": 2436,
  "seem": 2437,
  "knows": 2438,
  "afghanistan": 2439,
  "erklären": 2440,
  "cting": 2441,
  "0,000": 2442,
  "non-@@": 2443,
  "zer": 2444,
  "aufgabe": 2445,
  "nachdenken": 2446,
  "ig": 2447,
  ".000": 2448,
  "unseres": 2449,
  "incredibly": 2450,
  "ständig": 2451,
  "wir@@": 2452,
  "cent": 2453,
  "blood": 2454,
  "ente": 2455,
  "verwendet": 2456,
  "tatsache": 2457,
  "sun": 2458,
  "foto": 2459,
  "000": 2460,
  "schrieb": 2461,
  "zt": 2462,
  "größten": 2463,
  "wahrheit": 2464,
  "gesundheit": 2465,
  "changing": 2466,
  "tiv": 2467,
  "focus": 2468,
  "scht": 2469,
  "straße": 2470,
  "quality": 2471,
  "öl@@": 2472,
  "krankheit": 2473,
  "issue": 2474,
  "aids": 2475,
  "eg@@": 2476,
  "gezeigt": 2477,
  "1,@@": 2478,
  "ed@@": 2479,
  "liegen": 2480,
  "haus@@": 2481,
  "geboren": 2482,
  "innen": 2483,
  "dark": 2484,
  "rau@@": 2485,
  "eng@@": 2486,
  "industry": 2487,
  "gesicht": 2488,
  "eller": 2489,
  "oberfläche": 2490,
  "schu@@": 2491,
  "relationship": 2492,
  "ss@@": 2493,
  "kontrolle": 2494,
  "leicht": 2495,
  "kun@@": 2496,
  "mass": 2497,
  "poli@@": 2498,
  "designed": 2499,
  "creating": 2500,
  "hen@@": 2501,
  "ums": 2502,
  "lab": 2503,
  "hälfte": 2504,
  "kid": 2505,
  "tics": 2506,
  "chinese": 2507,
  "understanding": 2508,
  "interessiert": 2509,
  "offen@@": 2510,
  "showed": 2511,
  "richtige": 2512,
  "netz@@": 2513,
  "tend": 2514,
  "testen": 2515,
  "product": 2516,
  "druck@@": 2517,
  "soziale": 2518,
  "compassion": 2519,
  "girls": 2520,
  "0ern": 2521,
  "london": 2522,
  "result": 2523,
  "schlecht": 2524,
  "guess": 2525,
  "please": 2526,
  "seiten": 2527,
  "ars": 2528,
  "kli@@": 2529,
  "bilden": 2530,
  "allein": 2531,
  "preis": 2532,
  "cl@@": 2533,
  "rolle": 2534,
  "kul@@": 2535,
  "modern": 2536,
  "save": 2537,
  "gie": 2538,
  "zo@@": 2539,
  "hundreds": 2540,
  "herz@@": 2541,
  "entfernt": 2542,
  "geschrieben": 2543,
  "wall": 2544,
  "folgen": 2545,
  "millions": 2546,
  "clear": 2547,
  "haven": 2548,
  "ative": 2549,
  "umgebung": 2550,
  "games": 2551,
  "vortrag": 2552,
  "enen": 2553,
  "hält": 2554,
  "vorstellung": 2555,
  "gebiet": 2556,
  "tools": 2557,
  "lebt": 2558,
  "hi": 2559,
  "effect": 2560,
  "städte": 2561,
  "zeiten": 2562,
  "sonst": 2563,
  "qui@@": 2564,
  "clo@@": 2565,
  "meet": 2566,
  "development": 2567,
  "taten": 2568,
  "verbunden": 2569,
  "talked": 2570,
  "connected": 2571,
  "cam@@": 2572,
  "support": 2573,
  "class": 2574,
  "nacht": 2575,
  "begin": 2576,
  "kleiner": 2577,
  "regeln": 2578,
  "tiny": 2579,
  "anstatt": 2580,
  "kin@@": 2581,
  "cked": 2582,
  "nutz@@": 2583,
  "ced": 2584,
  "tier@@": 2585,
  "spezi@@": 2586,
  "soon": 2587,
  "schulen": 2588,
  "happiness": 2589,
  "ley": 2590,
  "meinung": 2591,
  "benutzt": 2592,
  "website": 2593,
  "hour": 2594,
  "veränderung": 2595,
  "developing": 2596,
  "jahr@@": 2597,
  "finger": 2598,
  "heiten": 2599,
  "fully": 2600,
  "ory": 2601,
  "access": 2602,
  "finde": 2603,
  "park": 2604,
  "jemanden": 2605,
  "id": 2606,
  "perfect": 2607,
  "erreicht": 2608,
  "solution": 2609,
  "län@@": 2610,
  "bedeutung": 2611,
  "mitte": 2612,
  "beyond": 2613,
  "heutzutage": 2614,
  "schau@@": 2615,
  "stark": 2616,
  "europe": 2617,
  "uren": 2618,
  "color": 2619,
  "ler@@": 2620,
  "einfache": 2621,
  "pra@@": 2622,
  "ur": 2623,
  "fehler": 2624,
  "available": 2625,
  "computer@@": 2626,
  "teach": 2627,
  "pictures": 2628,
  "hil@@": 2629,
  "especially": 2630,
  "pflanzen": 2631,
  "za@@": 2632,
  "gesprochen": 2633,
  "action": 2634,
  "becomes": 2635,
  "medical": 2636,
  "east": 2637,
  "ats": 2638,
  "offensichtlich": 2639,
  "fehl@@": 2640,
  "bewegt": 2641,
  "hoffe": 2642,
  "freund": 2643,
  "writing": 2644,
  "voice": 2645,
  "mögen": 2646,
  "absolut": 2647,
  "chan@@": 2648,
  "komplett": 2649,
  "lived": 2650,
  "hier@@": 2651,
  "statt": 2652,
  "hnen": 2653,
  "major": 2654,
  "computers": 2655,
  "bat@@": 2656,
  "boy": 2657,
  "cking": 2658,
  "ism": 2659,
  "type": 2660,
  "drive": 2661,
  "tausende": 2662,
  "solve": 2663,
  "explain": 2664,
  "les@@": 2665,
  "o-@@": 2666,
  "machten": 2667,
  "sho@@": 2668,
  "satz": 2669,
  "beziehung": 2670,
  "allow": 2671,
  "politik": 2672,
  "towards": 2673,
  "groups": 2674,
  "road": 2675,
  "kinder@@": 2676,
  "hlen": 2677,
  "spar@@": 2678,
  "mus": 2679,
  "reasons": 2680,
  "gekommen": 2681,
  "verloren": 2682,
  "zelle": 2683,
  "nation": 2684,
  "richard": 2685,
  "chi@@": 2686,
  "bekam": 2687,
  "versuche": 2688,
  "vers": 2689,
  "resources": 2690,
  "ye@@": 2691,
  "special": 2692,
  "office": 2693,
  "teachers": 2694,
  "worth": 2695,
  "dachten": 2696,
  "kle@@": 2697,
  "rat@@": 2698,
  "materials": 2699,
  "zeige": 2700,
  "similar": 2701,
  "zus@@": 2702,
  "several": 2703,
  "weisen": 2704,
  "star": 2705,
  "erzählt": 2706,
  "fähigkeiten": 2707,
  "sters": 2708,
  "tier": 2709,
  "digital": 2710,
  "auto@@": 2711,
  "trau@@": 2712,
  "dead": 2713,
  "ically": 2714,
  "spricht": 2715,
  "laden": 2716,
  "starts": 2717,
  "ordnung": 2718,
  "wann": 2719,
  "training": 2720,
  "linie": 2721,
  "robot": 2722,
  "nennt": 2723,
  "cru@@": 2724,
  "network": 2725,
  "ei": 2726,
  "present": 2727,
  "vereinigten": 2728,
  "ca": 2729,
  "basis": 2730,
  "fear": 2731,
  "rules": 2732,
  "device": 2733,
  "dete": 2734,
  "plat@@": 2735,
  "on-@@": 2736,
  "bigger": 2737,
  "gegenüber": 2738,
  "yo@@": 2739,
  "certainly": 2740,
  "notice": 2741,
  "denkt": 2742,
  "ppe": 2743,
  "schließen": 2744,
  "hel@@": 2745,
  "trotzdem": 2746,
  "ansehen": 2747,
  "wieso": 2748,
  "sions": 2749,
  "shi@@": 2750,
  "evidence": 2751,
  "putting": 2752,
  "sounds": 2753,
  "tzt": 2754,
  "gei@@": 2755,
  "sä@@": 2756,
  "everywhere": 2757,
  "halb": 2758,
  "ebene": 2759,
  "il": 2760,
  "ad": 2761,
  "break": 2762,
  "gearbeitet": 2763,
  "sofort": 2764,
  "male": 2765,
  "vier@@": 2766,
  "hundred": 2767,
  "öl": 2768,
  "wachstum": 2769,
  "normalerweise": 2770,
  "sie@@": 2771,
  "indeed": 2772,
  "total": 2773,
  "speed": 2774,
  "nine": 2775,
  "lines": 2776,
  "einzelne": 2777,
  "gesamte": 2778,
  "truth": 2779,
  "risk": 2780,
  "sonne": 2781,
  "activity": 2782,
  "security": 2783,
  "14": 2784,
  "onto": 2785,
  "wait": 2786,
  "mental": 2787,
  "wants": 2788,
  "wichtige": 2789,
  "gel": 2790,
  "tically": 2791,
  "scientific": 2792,
  "impact": 2793,
  "$": 2794,
  "ably": 2795,
  "schools": 2796,
  "suddenly": 2797,
  "nar@@": 2798,
  "grew": 2799,
  "herausforderung": 2800,
  "ward": 2801,
  "sorgen": 2802,
  "examples": 2803,
  "door": 2804,
  "eye": 2805,
  "ähnlich": 2806,
  "listen": 2807,
  "studie": 2808,
  "deten": 2809,
  "st-@@": 2810,
  "geschieht": 2811,
  "asking": 2812,
  "abzu@@": 2813,
  "gewinnen": 2814,
  "ple@@": 2815,
  "month": 2816,
  "involved": 2817,
  "village": 2818,
  "messen": 2819,
  "zeug": 2820,
  "mark": 2821,
  "strong": 2822,
  "anyway": 2823,
  "sahen": 2824,
  "bon@@": 2825,
  "choice": 2826,
  "lieren": 2827,
  "ture": 2828,
  "tat@@": 2829,
  "skin": 2830,
  "tigt": 2831,
  "schn@@": 2832,
  "stay": 2833,
  "erfolg": 2834,
  "ober@@": 2835,
  "gesundheits@@": 2836,
  "bill": 2837,
  "programm": 2838,
  "basic": 2839,
  "exciting": 2840,
  "mitgefühl": 2841,
  "demo@@": 2842,
  "punkte": 2843,
  "ready": 2844,
  "ße": 2845,
  "fische": 2846,
  "flug@@": 2847,
  "hört": 2848,
  "ently": 2849,
  "passierte": 2850,
  "ned": 2851,
  "source": 2852,
  "list": 2853,
  "eben": 2854,
  "message": 2855,
  "walking": 2856,
  "dly": 2857,
  "stimmen": 2858,
  "halte": 2859,
  "realität": 2860,
  "holen": 2861,
  "wish": 2862,
  "gende": 2863,
  "begannen": 2864,
  "stellten": 2865,
  "moved": 2866,
  "hoffnung": 2867,
  "issues": 2868,
  "flü@@": 2869,
  "voller": 2870,
  "pattern": 2871,
  "main": 2872,
  "0.000": 2873,
  "kannst": 2874,
  "j": 2875,
  "mus@@": 2876,
  "alte": 2877,
  "ergebnis": 2878,
  "sting": 2879,
  "größer": 2880,
  "sent": 2881,
  "extremely": 2882,
  "wel@@": 2883,
  "entscheidungen": 2884,
  "kunst@@": 2885,
  "monaten": 2886,
  "totally": 2887,
  "geo@@": 2888,
  "bevölkerung": 2889,
  "sprach": 2890,
  "gue": 2891,
  "rein@@": 2892,
  "tagen": 2893,
  "klein@@": 2894,
  ",000": 2895,
  "möglichen": 2896,
  "town": 2897,
  "bald": 2898,
  "spiele": 2899,
  "gemeinsam": 2900,
  "übrigens": 2901,
  "solar": 2902,
  "fälle": 2903,
  "ants": 2904,
  "richtigen": 2905,
  "aufmerksamkeit": 2906,
  "deine": 2907,
  "ctions": 2908,
  "la": 2909,
  "hum@@": 2910,
  "las@@": 2911,
  "head@@": 2912,
  "band": 2913,
  "mine": 2914,
  "further": 2915,
  "biggest": 2916,
  "grenzen": 2917,
  "plants": 2918,
  "smart": 2919,
  "wohl@@": 2920,
  "lat@@": 2921,
  "krankheiten": 2922,
  "vergessen": 2923,
  "ching": 2924,
  "spaß": 2925,
  "vorher": 2926,
  "page": 2927,
  "ined": 2928,
  "schneller": 2929,
  "projects": 2930,
  "läuft": 2931,
  "langsam": 2932,
  "text": 2933,
  "400": 2934,
  "überleben": 2935,
  "sobald": 2936,
  "hospital": 2937,
  "high-@@": 2938,
  "wussten": 2939,
  "japan": 2940,
  "largest": 2941,
  "particularly": 2942,
  "verlieren": 2943,
  "großer": 2944,
  "showing": 2945,
  "tod": 2946,
  "setzt": 2947,
  "ine@@": 2948,
  "umwelt@@": 2949,
  "unge@@": 2950,
  "länger": 2951,
  "ended": 2952,
  "zogen": 2953,
  "wow": 2954,
  "ths": 2955,
  "eigen@@": 2956,
  "ality": 2957,
  "hit": 2958,
  "fisch": 2959,
  "object": 2960,
  "weltweit": 2961,
  "foot": 2962,
  "q@@": 2963,
  "nachrichten": 2964,
  "ität": 2965,
  "partner": 2966,
  "sitzen": 2967,
  "pick": 2968,
  "bewusstsein": 2969,
  "zier@@": 2970,
  "journey": 2971,
  "mul@@": 2972,
  "carbon": 2973,
  "wesen": 2974,
  "außer": 2975,
  "haut": 2976,
  "measure": 2977,
  "enz": 2978,
  "professor": 2979,
  "air@@": 2980,
  "fire": 2981,
  "orte": 2982,
  "bestimmt": 2983,
  "produkt": 2984,
  "abge@@": 2985,
  "gutes": 2986,
  "herum@@": 2987,
  "arbeits@@": 2988,
  "industrie": 2989,
  "europa": 2990,
  "lehr@@": 2991,
  "interest": 2992,
  "13": 2993,
  "druck": 2994,
  "nis": 2995,
  "herauszufinden": 2996,
  "24": 2997,
  "wahl": 2998,
  "beispiele": 2999,
  "points": 3000,
  "anschauen": 3001,
  "medicine": 3002,
  "reach": 3003,
  "künstler": 3004,
  "hab@@": 3005,
  "großes": 3006,
  "beobachten": 3007,
  "ase": 3008,
  "klasse": 3009,
  "store": 3010,
  "sit": 3011,
  "follow": 3012,
  "island": 3013,
  "nuclear": 3014,
  "daten@@": 3015,
  "atom@@": 3016,
  "lead": 3017,
  "aten": 3018,
  "add": 3019,
  "folge": 3020,
  "babies": 3021,
  "row": 3022,
  "send": 3023,
  "führte": 3024,
  "fall@@": 3025,
  "gy": 3026,
  "feld": 3027,
  "ators": 3028,
  "sand": 3029,
  "medien": 3030,
  "stoffe": 3031,
  "tells": 3032,
  "definition": 3033,
  "gleichzeitig": 3034,
  "aussieht": 3035,
  "named": 3036,
  "halt": 3037,
  "african": 3038,
  "stern": 3039,
  "ey": 3040,
  "außerdem": 3041,
  "interessante": 3042,
  "geschehen": 3043,
  "endlich": 3044,
  "hör@@": 3045,
  "tel": 3046,
  "gers": 3047,
  "lt": 3048,
  "rich": 3049,
  "wichtiger": 3050,
  "organization": 3051,
  "selben": 3052,
  "ther": 3053,
  "visual": 3054,
  "operation": 3055,
  "pris@@": 3056,
  "develop": 3057,
  "extraordinary": 3058,
  "washington": 3059,
  "bessere": 3060,
  "umwelt": 3061,
  "lung": 3062,
  "soci@@": 3063,
  "peace": 3064,
  "zweiten": 3065,
  "mom": 3066,
  "chter": 3067,
  "teacher": 3068,
  "tze": 3069,
  "fern@@": 3070,
  "sozialen": 3071,
  "democracy": 3072,
  "zy@@": 3073,
  "san": 3074,
  "farbe": 3075,
  "dance": 3076,
  "arbeitete": 3077,
  "tem": 3078,
  "tik": 3079,
  "continue": 3080,
  "medizin": 3081,
  "produzieren": 3082,
  "stisch": 3083,
  "bestimmten": 3084,
  "stei@@": 3085,
  "usually": 3086,
  "expensive": 3087,
  "blu@@": 3088,
  "zz@@": 3089,
  "versuchte": 3090,
  "videos": 3091,
  "bleibt": 3092,
  "wirk@@": 3093,
  "dige": 3094,
  "alized": 3095,
  "likely": 3096,
  "serious": 3097,
  "ns": 3098,
  "stau@@": 3099,
  "aler": 3100,
  "buildings": 3101,
  "nen@@": 3102,
  "sekunden": 3103,
  "poverty": 3104,
  "gegangen": 3105,
  "chtet": 3106,
  "ales": 3107,
  "dlich": 3108,
  "handelt": 3109,
  "doctor": 3110,
  "1.@@": 3111,
  "gal@@": 3112,
  "orten": 3113,
  "schaften": 3114,
  "success": 3115,
  "ren": 3116,
  "larger": 3117,
  "biology": 3118,
  "firmen": 3119,
  "fantastic": 3120,
  "dreht": 3121,
  "zentrum": 3122,
  "song": 3123,
  "electricity": 3124,
  "sammeln": 3125,
  "einzelnen": 3126,
  "arbei@@": 3127,
  "co2": 3128,
  "among": 3129,
  "watching": 3130,
  "private": 3131,
  "tt": 3132,
  "expect": 3133,
  "hab": 3134,
  "berg": 3135,
  "demokratie": 3136,
  "genden": 3137,
  "verstanden": 3138,
  "werk": 3139,
  "sozi@@": 3140,
  "acht@@": 3141,
  "except": 3142,
  "international": 3143,
  "sprachen": 3144,
  "goal": 3145,
  "trees": 3146,
  "liste": 3147,
  "methode": 3148,
  "ton@@": 3149,
  "einfluss": 3150,
  "nachricht": 3151,
  "objects": 3152,
  "safe": 3153,
  "essentially": 3154,
  "ish": 3155,
  "amerikaner": 3156,
  "zü@@": 3157,
  "al-@@": 3158,
  "series": 3159,
  "schlagen": 3160,
  "period": 3161,
  "frei": 3162,
  "konzept": 3163,
  "movie": 3164,
  "arzt": 3165,
  "standing": 3166,
  "fing": 3167,
  "talks": 3168,
  "großartige": 3169,
  "verbessern": 3170,
  "amerikanischen": 3171,
  "werte": 3172,
  "ktion": 3173,
  "rede": 3174,
  "fis@@": 3175,
  "warten": 3176,
  "schaut": 3177,
  "seconds": 3178,
  "fällt": 3179,
  "verb@@": 3180,
  "entdecken": 3181,
  "universität": 3182,
  "ingly": 3183,
  "papier": 3184,
  "sowohl": 3185,
  "killed": 3186,
  "spezies": 3187,
  "zustand": 3188,
  "perspective": 3189,
  "eventually": 3190,
  "results": 3191,
  "schwer@@": 3192,
  "somewhere": 3193,
  "thousand": 3194,
  "sicher@@": 3195,
  "beauty": 3196,
  "bel": 3197,
  "zeichen": 3198,
  "dadurch": 3199,
  "nenne": 3200,
  "paul": 3201,
  "wife": 3202,
  "higher": 3203,
  "ise": 3204,
  "products": 3205,
  "hrt": 3206,
  "klein": 3207,
  "himself": 3208,
  "personen": 3209,
  "traditional": 3210,
  "written": 3211,
  "crazy": 3212,
  "zero": 3213,
  "cause": 3214,
  "complicated": 3215,
  "befinden": 3216,
  "wirklichkeit": 3217,
  "conditions": 3218,
  "tom": 3219,
  "dorf": 3220,
  "geschwindigkeit": 3221,
  "fine": 3222,
  "touch": 3223,
  "response": 3224,
  "impossible": 3225,
  "igen": 3226,
  "nummer": 3227,
  "sorts": 3228,
  "facebook": 3229,
  "scher": 3230,
  "nachzudenken": 3231,
  "k-@@": 3232,
  "glück@@": 3233,
  "schicken": 3234,
  "leaders": 3235,
  "zumindest": 3236,
  "mensch@@": 3237,
  "shot": 3238,
  "trag@@": 3239,
  "approach": 3240,
  "toll": 3241,
  "vergangenheit": 3242,
  "mc@@": 3243,
  "35": 3244,
  "45": 3245,
  "strei@@": 3246,
  "architecture": 3247,
  "forsch@@": 3248,
  "site": 3249,
  "upon": 3250,
  "stars": 3251,
  "einzel@@": 3252,
  "spread": 3253,
  "strom": 3254,
  "creative": 3255,
  "minds": 3256,
  "kes": 3257,
  "handeln": 3258,
  "screen": 3259,
  "production": 3260,
  "older": 3261,
  "suche": 3262,
  "hau@@": 3263,
  "charles": 3264,
  "prinzip": 3265,
  "allowed": 3266,
  "elte": 3267,
  "typ": 3268,
  "income": 3269,
  "fte": 3270,
  "ils": 3271,
  "van@@": 3272,
  "yed": 3273,
  "rechte": 3274,
  "wert@@": 3275,
  "tter": 3276,
  "favorite": 3277,
  "erlaubt": 3278,
  "werfen": 3279,
  "bacteria": 3280,
  "ls": 3281,
  "organisation": 3282,
  "tree": 3283,
  "ology": 3284,
  "bühne": 3285,
  "camera": 3286,
  "individuals": 3287,
  "grad": 3288,
  "mathematik": 3289,
  "pieces": 3290,
  "herstellen": 3291,
  "thanks": 3292,
  "17@@": 3293,
  "verlassen": 3294,
  "hinaus": 3295,
  "monat": 3296,
  "solchen": 3297,
  "sam": 3298,
  "brains": 3299,
  "party": 3300,
  "military": 3301,
  "99": 3302,
  "kept": 3303,
  "hörte": 3304,
  "finding": 3305,
  "tively": 3306,
  "vertrauen": 3307,
  "äre": 3308,
  "successful": 3309,
  "models": 3310,
  "plant": 3311,
  "sell": 3312,
  "früher": 3313,
  "führung": 3314,
  "zation": 3315,
  "fotos": 3316,
  "17": 3317,
  "wed": 3318,
  "rechts": 3319,
  "eli@@": 3320,
  "sli@@": 3321,
  "somehow": 3322,
  "truly": 3323,
  "menschheit": 3324,
  "ines": 3325,
  "treatment": 3326,
  "crisis": 3327,
  "bus@@": 3328,
  "taught": 3329,
  "hundert": 3330,
  "erzeugen": 3331,
  "lauf@@": 3332,
  "tungen": 3333,
  "gründen": 3334,
  "wählen": 3335,
  "context": 3336,
  "zunehmen": 3337,
  "chern": 3338,
  "excited": 3339,
  "dritte": 3340,
  "ismus": 3341,
  "bus": 3342,
  "worte": 3343,
  "alive": 3344,
  "150": 3345,
  "explo@@": 3346,
  "öffnen": 3347,
  "ozean": 3348,
  "theater": 3349,
  "ach": 3350,
  "neurons": 3351,
  "aufgrund": 3352,
  "schein@@": 3353,
  "gründe": 3354,
  "ier@@": 3355,
  "drugs": 3356,
  "diejenigen": 3357,
  "behandlung": 3358,
  "für@@": 3359,
  "dasselbe": 3360,
  "blind": 3361,
  "masse": 3362,
  "interesse": 3363,
  "faster": 3364,
  "rise": 3365,
  "irgendwo": 3366,
  "western": 3367,
  "gewalt": 3368,
  "supposed": 3369,
  "above": 3370,
  "station": 3371,
  "worse": 3372,
  "cation": 3373,
  "shown": 3374,
  "geist": 3375,
  "arbeite": 3376,
  "physics": 3377,
  "meaning": 3378,
  "med": 3379,
  "gefähr@@": 3380,
  "befindet": 3381,
  "down@@": 3382,
  "neben": 3383,
  "role": 3384,
  "spielt": 3385,
  "artikel": 3386,
  "reading": 3387,
  "genen": 3388,
  "range": 3389,
  "famous": 3390,
  "verstand": 3391,
  "antworten": 3392,
  "george": 3393,
  "tool": 3394,
  "connect": 3395,
  "unmöglich": 3396,
  "drehen": 3397,
  "materialien": 3398,
  "»": 3399,
  "bodies": 3400,
  "beings": 3401,
  "schüler": 3402,
  "fy": 3403,
  "welcher": 3404,
  "osten": 3405,
  "sky": 3406,
  "concept": 3407,
  "geh@@": 3408,
  "entdeckt": 3409,
  "kranken@@": 3410,
  "therefore": 3411,
  "zugang": 3412,
  "steigen": 3413,
  "stunde": 3414,
  "weight": 3415,
  "gefragt": 3416,
  "globalen": 3417,
  "one-@@": 3418,
  "vorher@@": 3419,
  "studien": 3420,
  "bul@@": 3421,
  "kill": 3422,
  "del": 3423,
  "ots": 3424,
  "traf": 3425,
  "fundamental": 3426,
  "sohn": 3427,
  "radio": 3428,
  "schen@@": 3429,
  "spieler": 3430,
  "gesetzt": 3431,
  "nahrung": 3432,
  "tumor": 3433,
  "us-@@": 3434,
  "architektur": 3435,
  "co": 3436,
  "einfachen": 3437,
  "haft": 3438,
  "geschäft": 3439,
  "tungs@@": 3440,
  "naja": 3441,
  "ologie": 3442,
  "betrachtet": 3443,
  "genes": 3444,
  "dream": 3445,
  "entschieden": 3446,
  "«": 3447,
  "riesige": 3448,
  "pfen": 3449,
  "wood": 3450,
  "fla@@": 3451,
  "trust": 3452,
  "active": 3453,
  "dness": 3454,
  "progress": 3455,
  "geln": 3456,
  "including": 3457,
  "eless": 3458,
  "licht@@": 3459,
  "details": 3460,
  "choose": 3461,
  "malaria": 3462,
  "langen": 3463,
  "meant": 3464,
  "emp@@": 3465,
  "sinne": 3466,
  "stischen": 3467,
  "schle@@": 3468,
  "kn@@": 3469,
  "england": 3470,
  "fal@@": 3471,
  "leisten": 3472,
  "2000": 3473,
  "sonnen@@": 3474,
  "zimmer": 3475,
  "neun": 3476,
  "großartig": 3477,
  "lösungen": 3478,
  "drug": 3479,
  "sinn@@": 3480,
  "schä@@": 3481,
  "biologie": 3482,
  "leider": 3483,
  "communities": 3484,
  "produkte": 3485,
  "central": 3486,
  "ungsk@@": 3487,
  "maschinen": 3488,
  "hilft": 3489,
  "familien": 3490,
  "leben@@": 3491,
  "invented": 3492,
  "himmel": 3493,
  "kollegen": 3494,
  "reichen": 3495,
  "however": 3496,
  "mic": 3497,
  "dor@@": 3498,
  "earlier": 3499,
  "families": 3500,
  "service": 3501,
  "costs": 3502,
  "kern": 3503,
  "zeich@@": 3504,
  "clearly": 3505,
  "armut": 3506,
  "throughout": 3507,
  "lies": 3508,
  "fight": 3509,
  "wirtschafts@@": 3510,
  "dangerous": 3511,
  "legs": 3512,
  "ited": 3513,
  "eis": 3514,
  "passt": 3515,
  "americans": 3516,
  "strange": 3517,
  "pain": 3518,
  "entweder": 3519,
  "machines": 3520,
  "netz": 3521,
  "ergebnisse": 3522,
  "versuch": 3523,
  "fläche": 3524,
  "trägt": 3525,
  "record": 3526,
  "two-@@": 3527,
  "aid": 3528,
  "hot": 3529,
  "schnitt": 3530,
  "einstein": 3531,
  "studies": 3532,
  "smaller": 3533,
  "content": 3534,
  "fasst": 3535,
  "wur@@": 3536,
  "freiheit": 3537,
  "kommen@@": 3538,
  "zunächst": 3539,
  "slow": 3540,
  "argument": 3541,
  "familiar": 3542,
  "verständnis": 3543,
  "&amp;": 3544,
  "meer": 3545,
  "kaum": 3546,
  "zeigte": 3547,
  "ebenso": 3548,
  "extrem": 3549,
  "lon@@": 3550,
  "bunch": 3551,
  "verbinden": 3552,
  "related": 3553,
  "plastic": 3554,
  "nigeria": 3555,
  "policy": 3556,
  "irgend@@": 3557,
  "price": 3558,
  "ehe@@": 3559,
  "600": 3560,
  "zin@@": 3561,
  "untersuchen": 3562,
  "keiner": 3563,
  "fällen": 3564,
  "actual": 3565,
  "meeres@@": 3566,
  "cs": 3567,
  "chung": 3568,
  "leb@@": 3569,
  "nte": 3570,
  "spitze": 3571,
  "massive": 3572,
  "increase": 3573,
  "ige": 3574,
  "direction": 3575,
  "listening": 3576,
  "magic": 3577,
  "bestimmte": 3578,
  "erstens": 3579,
  "james": 3580,
  "rights": 3581,
  "näher": 3582,
  "schlechte": 3583,
  "beginn": 3584,
  "wü@@": 3585,
  "menschen@@": 3586,
  "although": 3587,
  "greater": 3588,
  "dog": 3589,
  "haup@@": 3590,
  "schafft": 3591,
  "new@@": 3592,
  "solutions": 3593,
  "iran": 3594,
  "ca.": 3595,
  "schönheit": 3596,
  "leiden": 3597,
  "waiting": 3598,
  "leistung": 3599,
  "square": 3600,
  "dad": 3601,
  "unfortunately": 3602,
  "ender": 3603,
  "pen": 3604,
  "deswegen": 3605,
  "press": 3606,
  "tv": 3607,
  "verkaufen": 3608,
  "0-@@": 3609,
  "hielt": 3610,
  "bisher": 3611,
  "energie@@": 3612,
  "passen": 3613,
  "alität": 3614,
  "cases": 3615,
  "dein": 3616,
  "gefä@@": 3617,
  "ebenfalls": 3618,
  "michael": 3619,
  "sm@@": 3620,
  "robots": 3621,
  "mieren": 3622,
  "ermöglicht": 3623,
  "healthy": 3624,
  "uhr": 3625,
  "ressourcen": 3626,
  "fühlt": 3627,
  "entscheiden": 3628,
  "seh@@": 3629,
  "om": 3630,
  "slide": 3631,
  "driving": 3632,
  "zieht": 3633,
  "fluss": 3634,
  "allows": 3635,
  "recognize": 3636,
  "reaktion": 3637,
  "herzustellen": 3638,
  "waste": 3639,
  "wichtigste": 3640,
  "fertig": 3641,
  "raus": 3642,
  "komme": 3643,
  "ließ": 3644,
  "arbeit@@": 3645,
  "hände": 3646,
  "violence": 3647,
  "herz": 3648,
  "immediately": 3649,
  "bedingungen": 3650,
  "block": 3651,
  "siert": 3652,
  "endes": 3653,
  "ese": 3654,
  "er-@@": 3655,
  "objekt": 3656,
  "ziel@@": 3657,
  "gelegenheit": 3658,
  "walked": 3659,
  "ford": 3660,
  "ched": 3661,
  "tests": 3662,
  "none": 3663,
  "flow": 3664,
  "außerhalb": 3665,
  "connection": 3666,
  "kunden": 3667,
  "motor": 3668,
  "tiger": 3669,
  "zell@@": 3670,
  "date": 3671,
  "kampf": 3672,
  "skills": 3673,
  "exist": 3674,
  "train": 3675,
  "function": 3676,
  "surgery": 3677,
  "forget": 3678,
  "gesamten": 3679,
  "retten": 3680,
  "lag": 3681,
  "aller@@": 3682,
  "to-@@": 3683,
  "studio": 3684,
  "lasst": 3685,
  "unglaubliche": 3686,
  "signal": 3687,
  "bakterien": 3688,
  "kamera": 3689,
  "intelligence": 3690,
  "legt": 3691,
  "voraus@@": 3692,
  "rechten": 3693,
  "bürger@@": 3694,
  "heben": 3695,
  "anymore": 3696,
  "getroffen": 3697,
  "bis@@": 3698,
  "conversation": 3699,
  "trifft": 3700,
  "sorry": 3701,
  "specific": 3702,
  "treat": 3703,
  "bahn": 3704,
  "projekte": 3705,
  "aging": 3706,
  "decisions": 3707,
  "wu@@": 3708,
  "verrückt": 3709,
  "letztes": 3710,
  "israel": 3711,
  "sil@@": 3712,
  "patterns": 3713,
  "säu@@": 3714,
  "staat@@": 3715,
  "2008": 3716,
  "raum@@": 3717,
  "freedom": 3718,
  "win": 3719,
  "ehrlich": 3720,
  "unterschiede": 3721,
  "gotten": 3722,
  "kostet": 3723,
  "ran": 3724,
  "consider": 3725,
  "krankenhaus": 3726,
  "erzählte": 3727,
  "protect": 3728,
  "travel": 3729,
  "luft@@": 3730,
  "effective": 3731,
  "fähig": 3732,
  "aware": 3733,
  "nehme": 3734,
  "sieren": 3735,
  "rule": 3736,
  "ore": 3737,
  "math": 3738,
  "pull": 3739,
  "fassen": 3740,
  "minister": 3741,
  "draw": 3742,
  "nten": 3743,
  "status": 3744,
  "wonder": 3745,
  "understood": 3746,
  "erwarten": 3747,
  "greatest": 3748,
  "gesetz": 3749,
  "hole": 3750,
  "in-@@": 3751,
  "zeitpunkt": 3752,
  "iger": 3753,
  "humanity": 3754,
  "grand@@": 3755,
  "zehn@@": 3756,
  "spreche": 3757,
  "km": 3758,
  "subject": 3759,
  "current": 3760,
  "diversity": 3761,
  "tigkeit": 3762,
  "einzigen": 3763,
  "gehirn@@": 3764,
  "ham@@": 3765,
  "erfolgreich": 3766,
  "dy@@": 3767,
  "unterschiedliche": 3768,
  "pit@@": 3769,
  "armen": 3770,
  "leid": 3771,
  "flying": 3772,
  "lower": 3773,
  "fuhr": 3774,
  "bau": 3775,
  "wege": 3776,
  "geschaffen": 3777,
  "survive": 3778,
  "president": 3779,
  "forest": 3780,
  "währ@@": 3781,
  "sse": 3782,
  "erklärt": 3783,
  "useful": 3784,
  "genetic": 3785,
  "natur@@": 3786,
  "remarkable": 3787,
  "leidenschaft": 3788,
  "clean": 3789,
  "ped": 3790,
  "auge": 3791,
  "lernte": 3792,
  "eigenschaften": 3793,
  "erinnere": 3794,
  "glass": 3795,
  "photograph": 3796,
  "ehr@@": 3797,
  "ette": 3798,
  "critical": 3799,
  "krise": 3800,
  "cultural": 3801,
  "nasa": 3802,
  "geschäfts@@": 3803,
  "performance": 3804,
  "plus": 3805,
  "nicht-@@": 3806,
  "weren": 3807,
  "provide": 3808,
  "agree": 3809,
  "anywhere": 3810,
  "schätzen": 3811,
  "landes": 3812,
  "grade": 3813,
  "stick": 3814,
  "mau@@": 3815,
  "traum": 3816,
  "artist": 3817,
  "obvious": 3818,
  "twitter": 3819,
  "rund": 3820,
  "conflict": 3821,
  "erfahren": 3822,
  "zweitens": 3823,
  "schützen": 3824,
  "straßen": 3825,
  "re-@@": 3826,
  "wagen": 3827,
  "worten": 3828,
  "gehe": 3829,
  "strukturen": 3830,
  "non@@": 3831,
  "greifen": 3832,
  "freund@@": 3833,
  "typen": 3834,
  "mostly": 3835,
  "ian": 3836,
  "zeichnet": 3837,
  "cold": 3838,
  "freude": 3839,
  "herausfinden": 3840,
  "self": 3841,
  "environmental": 3842,
  "brechen": 3843,
  "practice": 3844,
  "enormous": 3845,
  "conference": 3846,
  "loved": 3847,
  "darwin": 3848,
  "eating": 3849,
  "teaching": 3850,
  "ases": 3851,
  "television": 3852,
  "edi@@": 3853,
  "evolved": 3854,
  "hunderte": 3855,
  "elektro@@": 3856,
  "ahnung": 3857,
  "values": 3858,
  "fuel": 3859,
  "played": 3860,
  "seines": 3861,
  "organisationen": 3862,
  "s.": 3863,
  "englisch": 3864,
  "stes": 3865,
  "sten@@": 3866,
  "vielfalt": 3867,
  "swe@@": 3868,
  "beziehungen": 3869,
  "funktion@@": 3870,
  "industri@@": 3871,
  "raise": 3872,
  "cover": 3873,
  "doctors": 3874,
  "vorzu@@": 3875,
  "complete": 3876,
  "september": 3877,
  "forces": 3878,
  "abend": 3879,
  "politics": 3880,
  "scientist": 3881,
  "ffen": 3882,
  "blin@@": 3883,
  "depression": 3884,
  "becoming": 3885,
  "stische": 3886,
  "bezug": 3887,
  "geräte": 3888,
  "schrei@@": 3889,
  "pun@@": 3890,
  "dan": 3891,
  "regel": 3892,
  "floor": 3893,
  "creativity": 3894,
  "regen@@": 3895,
  "tief": 3896,
  "engineering": 3897,
  "öffentlichen": 3898,
  "netzwerk": 3899,
  "heu@@": 3900,
  "various": 3901,
  "gedacht": 3902,
  "physik": 3903,
  "schutz": 3904,
  "ration": 3905,
  "schli@@": 3906,
  "back@@": 3907,
  "ctor": 3908,
  "auen": 3909,
  "wikipedia": 3910,
  "urban": 3911,
  "brauchte": 3912,
  "kraft@@": 3913,
  "markets": 3914,
  "erd@@": 3915,
  "westen": 3916,
  "flugzeug": 3917,
  "wn": 3918,
  "lights": 3919,
  "erfunden": 3920,
  "laptop": 3921,
  "angefangen": 3922,
  "phase": 3923,
  "alternative": 3924,
  "gehirns": 3925,
  "produktion": 3926,
  "dat@@": 3927,
  "ing-@@": 3928,
  "wohin": 3929,
  "konferenz": 3930,
  "final": 3931,
  "teilt": 3932,
  "bäume": 3933,
  "hängt": 3934,
  "daughter": 3935,
  "tex@@": 3936,
  "temperature": 3937,
  "instrument": 3938,
  "nete": 3939,
  "fen@@": 3940,
  "erleben": 3941,
  "globale": 3942,
  "birds": 3943,
  "steckt": 3944,
  "mehrere": 3945,
  "auswirkungen": 3946,
  "mitten": 3947,
  "verantwortung": 3948,
  "aufgaben": 3949,
  "mini@@": 3950,
  "behandeln": 3951,
  "z.b.": 3952,
  "near": 3953,
  "regel@@": 3954,
  "geschah": 3955,
  "desto": 3956,
  "cies": 3957,
  "bild@@": 3958,
  "phones": 3959,
  "rat": 3960,
  "anti-@@": 3961,
  "matic": 3962,
  "twice": 3963,
  "gebe": 3964,
  "miert": 3965,
  "solar@@": 3966,
  "services": 3967,
  "mögliche": 3968,
  "erfahrungen": 3969,
  "budget": 3970,
  "ßt": 3971,
  "search": 3972,
  "2007": 3973,
  "produced": 3974,
  "gold": 3975,
  "75": 3976,
  "quick": 3977,
  "zug": 3978,
  "element": 3979,
  "regierungen": 3980,
  "restaurant": 3981,
  "nahe": 3982,
  "entschied": 3983,
  "sekunde": 3984,
  "sustainable": 3985,
  "gesellschaften": 3986,
  "mate": 3987,
  "passion": 3988,
  "ärzte": 3989,
  "consciousness": 3990,
  "elles": 3991,
  "karten": 3992,
  "steve": 3993,
  "heim@@": 3994,
  "feed": 3995,
  "seien": 3996,
  "ras@@": 3997,
  "protein": 3998,
  "farben": 3999,
  "apple": 4000,
  "lief": 4001,
  "pass": 4002,
  "possibly": 4003,
  "stat@@": 4004,
  "decade": 4005,
  "capacity": 4006,
  "schluss": 4007,
  "slightly": 4008,
  "echt": 4009,
  "ads": 4010,
  "büro": 4011,
  "institutions": 4012,
  "stecken": 4013,
  "klima@@": 4014,
  "heat": 4015,
  "hl": 4016,
  "denk@@": 4017,
  "runter": 4018,
  "nieder@@": 4019,
  "lam@@": 4020,
  "path": 4021,
  "weiss": 4022,
  "bewe@@": 4023,
  "ganzes": 4024,
  "thomas": 4025,
  "wichtigsten": 4026,
  "ahead": 4027,
  "speaking": 4028,
  "ical": 4029,
  "funny": 4030,
  "fragt": 4031,
  "treiben": 4032,
  "gaben": 4033,
  "causes": 4034,
  "hinein": 4035,
  "dische": 4036,
  "ball@@": 4037,
  "tlich": 4038,
  "form@@": 4039,
  "sicherlich": 4040,
  "jahrhunderts": 4041,
  "types": 4042,
  "ered": 4043,
  "she@@": 4044,
  "verbindungen": 4045,
  "medikamente": 4046,
  "discover": 4047,
  "helped": 4048,
  "unique": 4049,
  "gender": 4050,
  "tradition": 4051,
  "year-old": 4052,
  "instance": 4053,
  "wuchs": 4054,
  "winter": 4055,
  "sat": 4056,
  "stattdessen": 4057,
  "neuronen": 4058,
  "le-@@": 4059,
  "bought": 4060,
  "networks": 4061,
  "recent": 4062,
  "infrastructure": 4063,
  "erstaunlich": 4064,
  "physi@@": 4065,
  "fühlte": 4066,
  "vollen": 4067,
  "experiments": 4068,
  "geführt": 4069,
  "genome": 4070,
  "echte": 4071,
  "volle": 4072,
  "significant": 4073,
  "medium": 4074,
  "werkzeuge": 4075,
  "financial": 4076,
  "mobile": 4077,
  "character": 4078,
  "designers": 4079,
  "societies": 4080,
  "größeren": 4081,
  "chemical": 4082,
  "guter": 4083,
  "moon": 4084,
  "jemandem": 4085,
  "fern": 4086,
  "auff@@": 4087,
  "loch": 4088,
  "lagen": 4089,
  "efficient": 4090,
  "shared": 4091,
  "begonnen": 4092,
  "veränderungen": 4093,
  "charge": 4094,
  "glichen": 4095,
  "waffen": 4096,
  "ckte": 4097,
  "mag@@": 4098,
  "herzen": 4099,
  "dün@@": 4100,
  "sign": 4101,
  "push": 4102,
  "wenden": 4103,
  "5,000": 4104,
  "ky": 4105,
  "directly": 4106,
  "meeting": 4107,
  "ancient": 4108,
  "following": 4109,
  "größere": 4110,
  "degrees": 4111,
  "wunsch": 4112,
  "net": 4113,
  "richten": 4114,
  "erstes": 4115,
  "konzentrieren": 4116,
  "original": 4117,
  "geschafft": 4118,
  "shed": 4119,
  "jene": 4120,
  "schöne": 4121,
  "modelle": 4122,
  "häuser": 4123,
  "ble@@": 4124,
  "fuß": 4125,
  "terrible": 4126,
  "extra": 4127,
  "tausend": 4128,
  "existiert": 4129,
  "tochter": 4130,
  "sharing": 4131,
  "lauf": 4132,
  "produziert": 4133,
  "gefühle": 4134,
  "communication": 4135,
  "track": 4136,
  "kilometer": 4137,
  "tot@@": 4138,
  "verbringen": 4139,
  "wenige": 4140,
  "verursacht": 4141,
  "complexity": 4142,
  "alter@@": 4143,
  "indian": 4144,
  "workers": 4145,
  "industrial": 4146,
  "below": 4147,
  "purpose": 4148,
  "höhe": 4149,
  "ny": 4150,
  "institute": 4151,
  "focused": 4152,
  "beeinflusst": 4153,
  "worry": 4154,
  "carry": 4155,
  "rufen": 4156,
  "genutzt": 4157,
  "police": 4158,
  "brot": 4159,
  "buch@@": 4160,
  "tele@@": 4161,
  "komplexität": 4162,
  "stet": 4163,
  "frühen": 4164,
  "heutigen": 4165,
  "infrastruktur": 4166,
  "blut@@": 4167,
  "secret": 4168,
  "tritt": 4169,
  "tür": 4170,
  "freunden": 4171,
  "qualität": 4172,
  "wahl@@": 4173,
  "pressure": 4174,
  "staat": 4175,
  "stein": 4176,
  "valley": 4177,
  "term": 4178,
  "era": 4179,
  "bac@@": 4180,
  "career": 4181,
  "amerikanische": 4182,
  "recht@@": 4183,
  "straight": 4184,
  "reich": 4185,
  "paid": 4186,
  "aktivität": 4187,
  "boys": 4188,
  "governments": 4189,
  "summer": 4190,
  "fernsehen": 4191,
  "inspired": 4192,
  "schwester": 4193,
  "eigenes": 4194,
  "erzeugt": 4195,
  "vorbei": 4196,
  "trade": 4197,
  "fuß@@": 4198,
  "einkommen": 4199,
  "levels": 4200,
  "ages": 4201,
  "pakistan": 4202,
  "stro@@": 4203,
  "leg@@": 4204,
  "folgendes": 4205,
  "emotional": 4206,
  "fühle": 4207,
  "reisen": 4208,
  "dorthin": 4209,
  "ernst": 4210,
  "fleisch": 4211,
  "artists": 4212,
  "schutz@@": 4213,
  "whose": 4214,
  "biological": 4215,
  "kommunikation": 4216,
  "senden": 4217,
  "diseases": 4218,
  "unterstützen": 4219,
  "willing": 4220,
  "ließen": 4221,
  "materi@@": 4222,
  "wörter": 4223,
  "nächstes": 4224,
  "gelöst": 4225,
  "foundation": 4226,
  "balance": 4227,
  "capital": 4228,
  "birth": 4229,
  "anz": 4230,
  "dent": 4231,
  "fein@@": 4232,
  "log@@": 4233,
  "sleep": 4234,
  "etc": 4235,
  "creates": 4236,
  "mess@@": 4237,
  "event": 4238,
  "stream": 4239,
  "erlauben": 4240,
  "küste": 4241,
  "gol@@": 4242,
  "meters": 4243,
  "francisco": 4244,
  "robert": 4245,
  "dauert": 4246,
  "bly": 4247,
  "closer": 4248,
  "kreis": 4249,
  "youtube": 4250,
  "effects": 4251,
  "forth": 4252,
  "ute": 4253,
  "augen@@": 4254,
  "linken": 4255,
  "zeichnen": 4256,
  "zusammenhang": 4257,
  "oxygen": 4258,
  "differences": 4259,
  "detail": 4260,
  "funktion": 4261,
  "kriegen": 4262,
  "14@@": 4263,
  "selb@@": 4264,
  "arme": 4265,
  "laws": 4266,
  "gewebe": 4267,
  "stücke": 4268,
  "harvard": 4269,
  "tolle": 4270,
  "apart": 4271,
  "drop": 4272,
  "structures": 4273,
  "challenges": 4274,
  "schien": 4275,
  "memory": 4276,
  "molecules": 4277,
  "gewicht": 4278,
  "sucht": 4279,
  "speci@@": 4280,
  "cycle": 4281,
  "ausdruck": 4282,
  "stock": 4283,
  "trouble": 4284,
  "cas@@": 4285,
  "tsch@@": 4286,
  "entscheidung": 4287,
  "atmosphere": 4288,
  "boston": 4289,
  "somit": 4290,
  "trial": 4291,
  "gem": 4292,
  "gehalten": 4293,
  "supply": 4294,
  "hotel": 4295,
  "innen@@": 4296,
  "barkeit": 4297,
  "bing": 4298,
  "bung": 4299,
  "begriff": 4300,
  "fit": 4301,
  "flu": 4302,
  "weiterhin": 4303,
  "explore": 4304,
  "chs": 4305,
  "fenster": 4306,
  "allerdings": 4307,
  "kreativität": 4308,
  "linien": 4309,
  "raten": 4310,
  "particles": 4311,
  "deutlich": 4312,
  "prakti@@": 4313,
  "trick": 4314,
  "sphere": 4315,
  "rooms": 4316,
  "sper@@": 4317,
  "zog": 4318,
  "yellow": 4319,
  "stolz": 4320,
  "dying": 4321,
  "roten": 4322,
  "lern@@": 4323,
  "mes": 4324,
  "quelle": 4325,
  "rock": 4326,
  "islam": 4327,
  "spending": 4328,
  "lets": 4329,
  "losen": 4330,
  "work@@": 4331,
  "teams": 4332,
  "schafts@@": 4333,
  "asia": 4334,
  "bares": 4335,
  "devices": 4336,
  "stone": 4337,
  "ted-@@": 4338,
  "pers": 4339,
  "seemed": 4340,
  "baum": 4341,
  "familien@@": 4342,
  "broken": 4343,
  "ausbildung": 4344,
  "2010": 4345,
  "organisms": 4346,
  "tail": 4347,
  "inspiration": 4348,
  "published": 4349,
  "aufnahme": 4350,
  "ären": 4351,
  "feuer": 4352,
  "materie": 4353,
  "aufgenommen": 4354,
  "nerven@@": 4355,
  "wirtschaft@@": 4356,
  "klingt": 4357,
  "flies": 4358,
  "noticed": 4359,
  "wirst": 4360,
  "affen": 4361,
  "10,000": 4362,
  "entstehen": 4363,
  "designs": 4364,
  "trotz": 4365,
  "bildungs@@": 4366,
  "schrift": 4367,
  "graph": 4368,
  "benötigt": 4369,
  "fei@@": 4370,
  "lie": 4371,
  "colleagues": 4372,
  "california": 4373,
  "vergleich": 4374,
  "sun@@": 4375,
  "easily": 4376,
  "faces": 4377,
  "sla@@": 4378,
  "marketing": 4379,
  "worst": 4380,
  "sozusagen": 4381,
  "botschaft": 4382,
  "hearing": 4383,
  "beine": 4384,
  "bestehen": 4385,
  "paris": 4386,
  "counter@@": 4387,
  "studying": 4388,
  "highly": 4389,
  "hart": 4390,
  "reg@@": 4391,
  "ping": 4392,
  "irgendwann": 4393,
  "answers": 4394,
  "wen": 4395,
  "wechsel@@": 4396,
  "nord@@": 4397,
  "prison": 4398,
  "universums": 4399,
  "popular": 4400,
  "filme": 4401,
  "fair": 4402,
  "turning": 4403,
  "chair": 4404,
  "zone": 4405,
  "electric": 4406,
  "selber": 4407,
  "decide": 4408,
  "habt": 4409,
  "passed": 4410,
  "nochmal": 4411,
  "süd@@": 4412,
  "pollen": 4413,
  "decades": 4414,
  "phenomenon": 4415,
  "glaubt": 4416,
  "erwartet": 4417,
  "ik": 4418,
  "soldaten": 4419,
  "condition": 4420,
  "stopped": 4421,
  "gelegt": 4422,
  "nähe": 4423,
  "wahrscheinlichkeit": 4424,
  "ecke": 4425,
  "massen@@": 4426,
  "bringing": 4427,
  "effekt": 4428,
  "perspektive": 4429,
  "folgt": 4430,
  "west@@": 4431,
  "einsatz": 4432,
  "choices": 4433,
  "necessarily": 4434,
  "sterne": 4435,
  "lucky": 4436,
  "21": 4437,
  "einfacher": 4438,
  "sodass": 4439,
  "erin": 4440,
  "scheinen": 4441,
  "check": 4442,
  "laut": 4443,
  "großbritannien": 4444,
  "sand@@": 4445,
  "offen": 4446,
  "conver@@": 4447,
  "darf": 4448,
  "kämpfen": 4449,
  "fun@@": 4450,
  "lautet": 4451,
  "responsibility": 4452,
  "politischen": 4453,
  "tin": 4454,
  "communicate": 4455,
  "natürliche": 4456,
  "gas@@": 4457,
  "modernen": 4458,
  "task": 4459,
  "print": 4460,
  "tremendous": 4461,
  "töten": 4462,
  "politische": 4463,
  "benötigen": 4464,
  "standen": 4465,
  "daß": 4466,
  "dh": 4467,
  "frieden": 4468,
  "bildern": 4469,
  "iraq": 4470,
  "bitten": 4471,
  "bezahlen": 4472,
  "chicago": 4473,
  "schwe@@": 4474,
  "knowing": 4475,
  "noise": 4476,
  "früh@@": 4477,
  "schlag": 4478,
  "weiteres": 4479,
  "bits": 4480,
  "1,000": 4481,
  "fort": 4482,
  "investieren": 4483,
  "verfügung": 4484,
  "feels": 4485,
  "bird": 4486,
  "wander@@": 4487,
  "haufen": 4488,
  "surprising": 4489,
  "window": 4490,
  "nahrungs@@": 4491,
  "städten": 4492,
  "mountain": 4493,
  "fying": 4494,
  "dagegen": 4495,
  "aktiv": 4496,
  "hunger": 4497,
  "coffee": 4498,
  "kontrollieren": 4499,
  "wald": 4500,
  "decision": 4501,
  "erforschen": 4502,
  "improve": 4503,
  "gilt": 4504,
  "golf": 4505,
  "mur@@": 4506,
  "sparen": 4507,
  "versorgung": 4508,
  "engine": 4509,
  "steigt": 4510,
  "erinnert": 4511,
  "vermutlich": 4512,
  "possibility": 4513,
  "kenne": 4514,
  "räume": 4515,
  "edge": 4516,
  "fortschritt": 4517,
  "corner": 4518,
  "gesetze": 4519,
  "low-@@": 4520,
  "dritten": 4521,
  "leads": 4522,
  "baut": 4523,
  "programs": 4524,
  "farmers": 4525,
  "achieve": 4526,
  "männern": 4527,
  "hes": 4528,
  "weiteren": 4529,
  "civil": 4530,
  "pounds": 4531,
  "wissenschaftliche": 4532,
  "sitzt": 4533,
  "tere": 4534,
  "ansatz": 4535,
  "ctors": 4536,
  "kräfte": 4537,
  "werkzeug": 4538,
  "ändert": 4539,
  "bone": 4540,
  "fix": 4541,
  "mond": 4542,
  "helping": 4543,
  "amp": 4544,
  "return": 4545,
  "-year-old": 4546,
  "dennoch": 4547,
  "intelligenz": 4548,
  "2005": 4549,
  "boot": 4550,
  "vollkommen": 4551,
  "verkauft": 4552,
  "gsten": 4553,
  "korea": 4554,
  "formed": 4555,
  "relationships": 4556,
  "objekte": 4557,
  "sir": 4558,
  "polio": 4559,
  "fairly": 4560,
  "zuhause": 4561,
  "organismen": 4562,
  "nearly": 4563,
  "throw": 4564,
  "gelassen": 4565,
  "fiel": 4566,
  "tissue": 4567,
  "verdienen": 4568,
  "lying": 4569,
  "verfolgen": 4570,
  "bewegungen": 4571,
  "wesentlichen": 4572,
  "address": 4573,
  "vollständig": 4574,
  "starb": 4575,
  "perfekt": 4576,
  "20.": 4577,
  "finanz@@": 4578,
  "stuhl": 4579,
  "klang": 4580,
  "ktionen": 4581,
  "yer": 4582,
  "fold": 4583,
  "ought": 4584,
  "hinein@@": 4585,
  "missing": 4586,
  "brings": 4587,
  "chaos": 4588,
  "welchen": 4589,
  "typical": 4590,
  "entwickelten": 4591,
  "video@@": 4592,
  "reagieren": 4593,
  "tauchen": 4594,
  "behalten": 4595,
  "rö@@": 4596,
  "kurzem": 4597,
  "kontakt": 4598,
  "giant": 4599,
  "teste": 4600,
  "hnt": 4601,
  "methoden": 4602,
  "entlang": 4603,
  "obama": 4604,
  "gewonnen": 4605,
  "titel": 4606,
  "problemen": 4607,
  "elements": 4608,
  "entwerfen": 4609,
  "hirn@@": 4610,
  "interact": 4611,
  "electro@@": 4612,
  "gestern": 4613,
  "teilchen": 4614,
  "wiederum": 4615,
  "race": 4616,
  "risiko": 4617,
  "justice": 4618,
  "steuern": 4619,
  "organ": 4620,
  "fragten": 4621,
  "saß": 4622,
  "atmosphäre": 4623,
  "beschäftigt": 4624,
  "moments": 4625,
  "ierte": 4626,
  "differently": 4627,
  "reduce": 4628,
  "moleküle": 4629,
  "standard": 4630,
  "durchgeführt": 4631,
  "gewi@@": 4632,
  "gramm": 4633,
  "schlag@@": 4634,
  "besitzen": 4635,
  "möglicherweise": 4636,
  "figured": 4637,
  "lungen": 4638,
  "phänomen": 4639,
  "mark@@": 4640,
  "bf": 4641,
  "mothers": 4642,
  "musi@@": 4643,
  "dischen": 4644,
  "ermöglichen": 4645,
  "flight": 4646,
  "sum@@": 4647,
  "held": 4648,
  "religious": 4649,
  "beschreiben": 4650,
  "organizations": 4651,
  "meistens": 4652,
  "wächst": 4653,
  "gemeinde": 4654,
  "core": 4655,
  "suffering": 4656,
  "load": 4657,
  "haiti": 4658,
  "riesigen": 4659,
  "graphy": 4660,
  "imagination": 4661,
  "benefits": 4662,
  "join": 4663,
  "behandelt": 4664,
  "opportunities": 4665,
  "garten": 4666,
  "ink": 4667,
  "herausgefunden": 4668,
  "&apos;@@": 4669,
  "river": 4670,
  "gestalten": 4671,
  "grenze": 4672,
  "finished": 4673,
  "unbedingt": 4674,
  "dieselbe": 4675,
  "lebte": 4676,
  "boat": 4677,
  "shift": 4678,
  "lachen": 4679,
  "derzeit": 4680,
  "ra": 4681,
  "eis@@": 4682,
  "hair": 4683,
  "iled": 4684,
  "spo@@": 4685,
  "planets": 4686,
  "french": 4687,
  "mouse": 4688,
  "gebiete": 4689,
  "ering": 4690,
  "landscape": 4691,
  "lin": 4692,
  "benefit": 4693,
  "unterschiedlichen": 4694,
  "mr.": 4695,
  "asien": 4696,
  "bread": 4697,
  "breast": 4698,
  "conscious": 4699,
  "arbeiter": 4700,
  "sites": 4701,
  "creatures": 4702,
  "est@@": 4703,
  "wirkung": 4704,
  "card": 4705,
  "umge@@": 4706,
  "tures": 4707,
  "competition": 4708,
  "neben@@": 4709,
  "glich": 4710,
  "hergestellt": 4711,
  "veröffentlicht": 4712,
  "alisieren": 4713,
  "zufällig": 4714,
  "engineers": 4715,
  "afraid": 4716,
  "wahre": 4717,
  "mehr@@": 4718,
  "schalten": 4719,
  "woher": 4720,
  "davor": 4721,
  "setzte": 4722,
  "brü@@": 4723,
  "milliarde": 4724,
  "bridge": 4725,
  "lass": 4726,
  "gelangen": 4727,
  "hoffentlich": 4728,
  "kern@@": 4729,
  "stress": 4730,
  "stem": 4731,
  "elemente": 4732,
  "hauptsächlich": 4733,
  "comfortable": 4734,
  "drittel": 4735,
  "zuhören": 4736,
  "letztendlich": 4737,
  "hea@@": 4738,
  "colors": 4739,
  "unterstützung": 4740,
  "streets": 4741,
  "wunderbare": 4742,
  "gefängnis": 4743,
  "well-@@": 4744,
  "resi@@": 4745,
  "noten": 4746,
  "tiver": 4747,
  "kennt": 4748,
  "kommunizieren": 4749,
  "19": 4750,
  "mütter": 4751,
  "bieten": 4752,
  "ends": 4753,
  "hielten": 4754,
  "forever": 4755,
  "organic": 4756,
  "lichsten": 4757,
  "tan": 4758,
  "meilen": 4759,
  "temperatur": 4760,
  "heads": 4761,
  "irgendetwas": 4762,
  "fields": 4763,
  "basiert": 4764,
  "stufe": 4765,
  "notion": 4766,
  "bla@@": 4767,
  "enter": 4768,
  "prize": 4769,
  "british": 4770,
  "holding": 4771,
  "slowly": 4772,
  "profit": 4773,
  "graben": 4774,
  "jahres": 4775,
  "visit": 4776,
  "sel": 4777,
  "moves": 4778,
  "lesson": 4779,
  "rein": 4780,
  "fung": 4781,
  "bett": 4782,
  "gun": 4783,
  "describe": 4784,
  "dahin": 4785,
  "matters": 4786,
  "worüber": 4787,
  "mathematics": 4788,
  "sommer": 4789,
  "meat": 4790,
  "vely": 4791,
  "tierte": 4792,
  "catch": 4793,
  "ray": 4794,
  "erstellen": 4795,
  "magne@@": 4796,
  "mung": 4797,
  "rain": 4798,
  "insects": 4799,
  "insekten": 4800,
  "laufe": 4801,
  "symbol": 4802,
  "citizens": 4803,
  "umgehen": 4804,
  "negative": 4805,
  "themen": 4806,
  "buchstäblich": 4807,
  "miss@@": 4808,
  "fischen": 4809,
  "begins": 4810,
  "blog": 4811,
  "ameisen": 4812,
  "reicht": 4813,
  "experimente": 4814,
  "saving": 4815,
  "base": 4816,
  "despite": 4817,
  "falsche": 4818,
  "calls": 4819,
  "circle": 4820,
  "campaign": 4821,
  "experiences": 4822,
  "wunderbar": 4823,
  "walls": 4824,
  "verbracht": 4825,
  "perfectly": 4826,
  "hohe": 4827,
  "events": 4828,
  "2009": 4829,
  "lebten": 4830,
  "degree": 4831,
  "wirkt": 4832,
  "discovery": 4833,
  "llen": 4834,
  "coast": 4835,
  "mischen": 4836,
  "lige": 4837,
  "weder": 4838,
  "jungs": 4839,
  "traffic": 4840,
  "kurze": 4841,
  "otherwise": 4842,
  "schwarze": 4843,
  "billions": 4844,
  "pet@@": 4845,
  "klimawandel": 4846,
  "helps": 4847,
  "zusammenarbeit": 4848,
  "offer": 4849,
  "ring": 4850,
  "präsident": 4851,
  "easier": 4852,
  "effort": 4853,
  "hohen": 4854,
  "täglich": 4855,
  "opened": 4856,
  "nations": 4857,
  "distance": 4858,
  "sport": 4859,
  "todes@@": 4860,
  "studied": 4861,
  "begeistert": 4862,
  "vermögen": 4863,
  "übertragen": 4864,
  "erende": 4865,
  "chip": 4866,
  "fore@@": 4867,
  "bürger": 4868,
  "factory": 4869,
  "brilliant": 4870,
  "beeinflussen": 4871,
  "shop": 4872,
  "fach@@": 4873,
  "necessary": 4874,
  "entirely": 4875,
  "painting": 4876,
  "members": 4877,
  "emotions": 4878,
  "brief": 4879,
  "hund": 4880,
  "count": 4881,
  "glücklicherweise": 4882,
  "karriere": 4883,
  "photo": 4884,
  "brauche": 4885,
  "contra@@": 4886,
  "fication": 4887,
  "responsible": 4888,
  "mach@@": 4889,
  "bling": 4890,
  "sector": 4891,
  "entwickelte": 4892,
  "ultimately": 4893,
  "placed": 4894,
  "erzähle": 4895,
  "sister": 4896,
  "normally": 4897,
  "viren": 4898,
  "prote@@": 4899,
  "post@@": 4900,
  "afford": 4901,
  "opposite": 4902,
  "female": 4903,
  "mouth": 4904,
  "wandel": 4905,
  "magazine": 4906,
  "umzu@@": 4907,
  "alleine": 4908,
  "frank": 4909,
  "apply": 4910,
  "wisdom": 4911,
  "tech": 4912,
  "zig": 4913,
  "landschaft": 4914,
  "profound": 4915,
  "trend": 4916,
  "statistics": 4917,
  "adults": 4918,
  "knochen": 4919,
  "tz": 4920,
  "verantwortlich": 4921,
  "forscher": 4922,
  "anten": 4923,
  "dauern": 4924,
  "report": 4925,
  "geburt": 4926,
  "großteil": 4927,
  "enjoy": 4928,
  "gewissen": 4929,
  "maus": 4930,
  "gedanke": 4931,
  "nannte": 4932,
  "seriously": 4933,
  "trained": 4934,
  "morgens": 4935,
  "operating": 4936,
  "2004": 4937,
  "leading": 4938,
  "dar": 4939,
  "foreign": 4940,
  "tations": 4941,
  "engineer": 4942,
  "u.k.": 4943,
  "ghana": 4944,
  "entsteht": 4945,
  "film@@": 4946,
  "quar@@": 4947,
  "krebs@@": 4948,
  "27": 4949,
  "sold": 4950,
  "aufhören": 4951,
  "kümmern": 4952,
  "dlichen": 4953,
  "caught": 4954,
  "supp@@": 4955,
  "desert": 4956,
  "stoßen": 4957,
  "wear": 4958,
  "verhindern": 4959,
  "puts": 4960,
  "steps": 4961,
  "neuer": 4962,
  "adam": 4963,
  "schwimmen": 4964,
  "handel": 4965,
  "alisiert": 4966,
  "endet": 4967,
  "principles": 4968,
  "investment": 4969,
  "griff": 4970,
  "inner": 4971,
  "peter": 4972,
  "spring": 4973,
  "experten": 4974,
  "bekannten": 4975,
  "militär@@": 4976,
  "galaxies": 4977,
  "erenden": 4978,
  "bildschirm": 4979,
  "influence": 4980,
  "fashion": 4981,
  "versuchten": 4982,
  "brachten": 4983,
  "alize": 4984,
  "betrifft": 4985,
  "opfer": 4986,
  "angle": 4987,
  "könnt": 4988,
  "motion": 4989,
  "according": 4990,
  "ziele": 4991,
  "respect": 4992,
  "rücken": 4993,
  "oxford": 4994,
  "dieren": 4995,
  "spiegel": 4996,
  "gefahr": 4997,
  "fill": 4998,
  "cheap": 4999,
  "65": 5000,
  "rief": 5001,
  "engage": 5002,
  "sick": 5003,
  "erster": 5004,
  "dene": 5005,
  "shouldn": 5006,
  "normale": 5007,
  "extreme": 5008,
  "attack": 5009,
  "zählen": 5010,
  "blei@@": 5011,
  "gespielt": 5012,
  "elten": 5013,
  "herr": 5014,
  "verbreitet": 5015,
  "theit": 5016,
  "blut": 5017,
  "identity": 5018,
  "internet@@": 5019,
  "texas": 5020,
  "fingen": 5021,
  "lernt": 5022,
  "oceans": 5023,
  "zurückzu@@": 5024,
  "tiefe": 5025,
  "constantly": 5026,
  "drücken": 5027,
  "wirtschaftlichen": 5028,
  "getötet": 5029,
  "promise": 5030,
  "limited": 5031,
  "iphone": 5032,
  "vergleichen": 5033,
  "loss": 5034,
  "besseren": 5035,
  "wisst": 5036,
  "failed": 5037,
  "argue": 5038,
  "consumption": 5039,
  "fourth": 5040,
  "zierten": 5041,
  "thinks": 5042,
  "frem@@": 5043,
  "tab@@": 5044,
  "lieber": 5045,
  "2006": 5046,
  "commercial": 5047,
  "geheim@@": 5048,
  "stuck": 5049,
  "normalen": 5050,
  "angeles": 5051,
  "legal": 5052,
  "wissenschaftlichen": 5053,
  "dungs@@": 5054,
  "anderem": 5055,
  "hopefully": 5056,
  "drückt": 5057,
  "vorteil": 5058,
  "werbung": 5059,
  "wild": 5060,
  "metaphor": 5061,
  "bility": 5062,
  "airplane": 5063,
  "quote": 5064,
  "person@@": 5065,
  "mengen": 5066,
  "sozial@@": 5067,
  "capable": 5068,
  "vögel": 5069,
  "hang": 5070,
  "sequence": 5071,
  "gerü@@": 5072,
  "zeitalter": 5073,
  "raised": 5074,
  "dry": 5075,
  "wealth": 5076,
  "fighting": 5077,
  "bü@@": 5078,
  "graphic": 5079,
  "smo@@": 5080,
  "hat@@": 5081,
  "filled": 5082,
  "zahl@@": 5083,
  "22": 5084,
  "meister": 5085,
  "predict": 5086,
  "leaving": 5087,
  "respond": 5088,
  "raus@@": 5089,
  "babys": 5090,
  "praktisch": 5091,
  "invest": 5092,
  "transform": 5093,
  "sche@@": 5094,
  "prevent": 5095,
  "husband": 5096,
  "roman@@": 5097,
  "shoes": 5098,
  "überzeugen": 5099,
  "kontext": 5100,
  "agriculture": 5101,
  "ähnliche": 5102,
  "werke": 5103,
  "lebewesen": 5104,
  "beat": 5105,
  "hintergrund": 5106,
  "tue": 5107,
  "dynamic": 5108,
  "verlangen": 5109,
  "followed": 5110,
  "lied": 5111,
  "sis": 5112,
  "harder": 5113,
  "spüren": 5114,
  "three-@@": 5115,
  "importantly": 5116,
  "bereiche": 5117,
  "führten": 5118,
  "bemerkt": 5119,
  "kalifornien": 5120,
  "büro@@": 5121,
  "sches": 5122,
  "alism": 5123,
  "article": 5124,
  "sorge": 5125,
  "2,000": 5126,
  "herunter@@": 5127,
  "stellung": 5128,
  "schicht": 5129,
  "equal": 5130,
  "background": 5131,
  "diabetes": 5132,
  "las": 5133,
  "stab@@": 5134,
  "gehabt": 5135,
  "virtual": 5136,
  "interessieren": 5137,
  "relativ": 5138,
  "fascinating": 5139,
  "landwirtschaft": 5140,
  "neten": 5141,
  "erstaunliche": 5142,
  "kürzlich": 5143,
  "dreams": 5144,
  "arms": 5145,
  "due": 5146,
  "arbeiteten": 5147,
  "führer": 5148,
  "gate": 5149,
  "überzeugt": 5150,
  "igkeit": 5151,
  "passionate": 5152,
  "brauchten": 5153,
  "therapy": 5154,
  "believed": 5155,
  "bein@@": 5156,
  "markt@@": 5157,
  "sauerstoff": 5158,
  "roll": 5159,
  "hate": 5160,
  "tens": 5161,
  "distribution": 5162,
  "creation": 5163,
  "crime": 5164,
  "languages": 5165,
  "inen": 5166,
  "kb": 5167,
  "damage": 5168,
  "existieren": 5169,
  "inneren": 5170,
  "bees": 5171,
  "erkannte": 5172,
  "werten": 5173,
  "fünf@@": 5174,
  "samen": 5175,
  "desire": 5176,
  "tomorrow": 5177,
  "fährt": 5178,
  "hinweg": 5179,
  "pair": 5180,
  "fordert": 5181,
  "hinzu@@": 5182,
  "tough": 5183,
  "uner@@": 5184,
  "keln": 5185,
  "flächen": 5186,
  "starke": 5187,
  "invisible": 5188,
  "majority": 5189,
  "doppelt": 5190,
  "organized": 5191,
  "insel": 5192,
  "viruses": 5193,
  "moderne": 5194,
  "träume": 5195,
  "uganda": 5196,
  "eure": 5197,
  "irak": 5198,
  "maß@@": 5199,
  "fängt": 5200,
  "kung": 5201,
  "zte": 5202,
  "tischer": 5203,
  "unbe@@": 5204,
  "tives": 5205,
  "spirit": 5206,
  "spaces": 5207,
  "random": 5208,
  "iges": 5209,
  "ktiv": 5210,
  "brother": 5211,
  "advantage": 5212,
  "gehirne": 5213,
  "weißen": 5214,
  "geschickt": 5215,
  "dinner": 5216,
  "derek": 5217,
  "mitteln": 5218,
  "wide": 5219,
  "survival": 5220,
  "schaute": 5221,
  "generate": 5222,
  "bietet": 5223,
  "val": 5224,
  "speech": 5225,
  "überrascht": 5226,
  "ruf": 5227,
  "forschungs@@": 5228,
  "molecule": 5229,
  "roll@@": 5230,
  "drin": 5231,
  "dge": 5232,
  ".com": 5233,
  "whenever": 5234,
  "sy": 5235,
  "weile": 5236,
  "schönen": 5237,
  "verschwinden": 5238,
  "bauern": 5239,
  "caused": 5240,
  "paint": 5241,
  "weird": 5242,
  "galaxien": 5243,
  "driven": 5244,
  "zit@@": 5245,
  "equivalent": 5246,
  "pages": 5247,
  "grün": 5248,
  "hne": 5249,
  "rätsel": 5250,
  "malen": 5251,
  "älter": 5252,
  "belief": 5253,
  "kapit@@": 5254,
  "gestorben": 5255,
  "ansicht": 5256,
  "außen@@": 5257,
  "note": 5258,
  "failure": 5259,
  "yesterday": 5260,
  "sad": 5261,
  "weißt": 5262,
  "compare": 5263,
  "microsoft": 5264,
  "sl@@": 5265,
  "ites": 5266,
  "treated": 5267,
  "2003": 5268,
  "principle": 5269,
  "weite": 5270,
  "lichkeiten": 5271,
  "motivation": 5272,
  "tricks": 5273,
  "dichte": 5274,
  "digung": 5275,
  "interagieren": 5276,
  "moral@@": 5277,
  "10.000": 5278,
  "economics": 5279,
  "genauer": 5280,
  "wearing": 5281,
  "farm": 5282,
  "seitdem": 5283,
  "bauten": 5284,
  "erhält": 5285,
  "unless": 5286,
  "deeply": 5287,
  "impf@@": 5288,
  "annehmen": 5289,
  "drüben": 5290,
  "verwandeln": 5291,
  "starten": 5292,
  "autor@@": 5293,
  "wave": 5294,
  "är": 5295,
  "bezahlt": 5296,
  "th-@@": 5297,
  "sowie": 5298,
  "schmerz": 5299,
  "gelesen": 5300,
  "herausforderungen": 5301,
  "mindestens": 5302,
  "intelligent": 5303,
  "dimensions": 5304,
  "bedeuten": 5305,
  "meiste": 5306,
  "teilung": 5307,
  "childhood": 5308,
  "opening": 5309,
  "poster": 5310,
  "komplexe": 5311,
  "acts": 5312,
  "erfinden": 5313,
  "händen": 5314,
  "illusion": 5315,
  "neighborhood": 5316,
  "20th": 5317,
  "managed": 5318,
  "leaves": 5319,
  "null": 5320,
  "soil": 5321,
  "versus": 5322,
  "institutionen": 5323,
  "deinen": 5324,
  "privat@@": 5325,
  "mortality": 5326,
  "bloß": 5327,
  "lack": 5328,
  "ak": 5329,
  "musst": 5330,
  "unterscheiden": 5331,
  "gerung": 5332,
  "worried": 5333,
  "kulturen": 5334,
  "dinosaurs": 5335,
  "barer": 5336,
  "kopf@@": 5337,
  "gste": 5338,
  "hed": 5339,
  "construction": 5340,
  "ppt": 5341,
  "gespräch": 5342,
  "95": 5343,
  "warming": 5344,
  "verbreiten": 5345,
  "wahrnehmung": 5346,
  "tiges": 5347,
  "zauber@@": 5348,
  "proud": 5349,
  "ii": 5350,
  "bekamen": 5351,
  "leiten": 5352,
  "gehören": 5353,
  "gefährlich": 5354,
  "digt": 5355,
  "heisst": 5356,
  "märkte": 5357,
  "erscheinen": 5358,
  "abhängig": 5359,
  "sexual": 5360,
  "zusammenzu@@": 5361,
  "echten": 5362,
  "nicht@@": 5363,
  "wirken": 5364,
  "wake": 5365,
  "dürfen": 5366,
  "represent": 5367,
  "anwenden": 5368,
  "concerned": 5369,
  "lichem": 5370,
  "electrical": 5371,
  "bear": 5372,
  "covered": 5373,
  "names": 5374,
  "muscle": 5375,
  "everyday": 5376,
  "nah": 5377,
  "section": 5378,
  "gezogen": 5379,
  "therapie": 5380,
  "schlüssel@@": 5381,
  "traditionellen": 5382,
  "einheit": 5383,
  "körpers": 5384,
  "unternehmer": 5385,
  "2001": 5386,
  "surprise": 5387,
  "galaxy": 5388,
  "shapes": 5389,
  "aufnahmen": 5390,
  "paying": 5391,
  "church": 5392,
  "launched": 5393,
  "houses": 5394,
  "suit": 5395,
  "suppose": 5396,
  "weapons": 5397,
  "mentioned": 5398,
  "brand": 5399,
  "drawing": 5400,
  "increasingly": 5401,
  "telefon": 5402,
  "schlüssel": 5403,
  "mittleren": 5404,
  "erkenntnis": 5405,
  "ph": 5406,
  "netzwerke": 5407,
  "hängen": 5408,
  "hung": 5409,
  "eingesetzt": 5410,
  "öffentliche": 5411,
  "facts": 5412,
  "emotionen": 5413,
  "einsetzen": 5414,
  "photos": 5415,
  "has@@": 5416,
  "stein@@": 5417,
  "define": 5418,
  "actions": 5419,
  "krank": 5420,
  "treibt": 5421,
  "ol": 5422,
  "schlimmer": 5423,
  "super": 5424,
  "civilization": 5425,
  "camp": 5426,
  "mach": 5427,
  "gefahren": 5428,
  "medizin@@": 5429,
  "described": 5430,
  "dach": 5431,
  "alists": 5432,
  "steine": 5433,
  "einiger": 5434,
  "fantastisch": 5435,
  "entdeckung": 5436,
  "alismus": 5437,
  "classroom": 5438,
  "ierten": 5439,
  "bright": 5440,
  "rid": 5441,
  "roughly": 5442,
  "vehicle": 5443,
  "professional": 5444,
  "regionen": 5445,
  "26": 5446,
  "nah@@": 5447,
  "wunder": 5448,
  "bedarf": 5449,
  "expression": 5450,
  "gab@@": 5451,
  "fisch@@": 5452,
  "geld@@": 5453,
  "designing": 5454,
  "letter": 5455,
  "rahmen": 5456,
  "grundlegende": 5457,
  "european": 5458,
  "currently": 5459,
  "appear": 5460,
  "holes": 5461,
  "sudden": 5462,
  "kurzen": 5463,
  "kenya": 5464,
  "hörten": 5465,
  "rechts@@": 5466,
  "stands": 5467,
  "deliver": 5468,
  "vast": 5469,
  "leadership": 5470,
  "option": 5471,
  "fell": 5472,
  "bat": 5473,
  "gegenteil": 5474,
  "wenigen": 5475,
  "mexico": 5476,
  "arts": 5477,
  "debate": 5478,
  "copy": 5479,
  "berg@@": 5480,
  "losing": 5481,
  "lunch": 5482,
  "plane": 5483,
  "angenommen": 5484,
  "schuhe": 5485,
  "wichtigen": 5486,
  "japanese": 5487,
  "universal": 5488,
  "graduate": 5489,
  "jung@@": 5490,
  "spielte": 5491,
  "affect": 5492,
  "westlichen": 5493,
  "strategie": 5494,
  "sar@@": 5495,
  "ligen": 5496,
  "coral": 5497,
  "ash": 5498,
  "hell": 5499,
  "cloud": 5500,
  "schlechten": 5501,
  "invited": 5502,
  "mmen": 5503,
  "schneiden": 5504,
  "pfer@@": 5505,
  "züge": 5506,
  "hidden": 5507,
  "rote": 5508,
  "aries": 5509,
  "threat": 5510,
  "bereichen": 5511,
  "spot": 5512,
  "bles": 5513,
  "grandmother": 5514,
  "mut": 5515,
  "honest": 5516,
  "rü@@": 5517,
  "sprach@@": 5518,
  "polizei": 5519,
  "blau": 5520,
  "voices": 5521,
  "vertrau@@": 5522,
  "gain": 5523,
  "anischen": 5524,
  "garden": 5525,
  "holz": 5526,
  "23": 5527,
  "smell": 5528,
  "notwendig": 5529,
  "nachbarn": 5530,
  "häufig": 5531,
  "exists": 5532,
  "identität": 5533,
  "seat": 5534,
  "toward": 5535,
  "ners": 5536,
  "ordinary": 5537,
  "interaction": 5538,
  "horse": 5539,
  "awful": 5540,
  "heavy": 5541,
  "separate": 5542,
  "selten": 5543,
  "250": 5544,
  "continent": 5545,
  "stoffen": 5546,
  "teeth": 5547,
  "öffentlichkeit": 5548,
  "besondere": 5549,
  "eindruck": 5550,
  "gegensatz": 5551,
  "rio": 5552,
  "kurs": 5553,
  "nationen": 5554,
  "producing": 5555,
  "bienen": 5556,
  "soviel": 5557,
  "fernseh@@": 5558,
  "natürlichen": 5559,
  "streben": 5560,
  "hoffen": 5561,
  "emotion": 5562,
  "collective": 5563,
  "acting": 5564,
  "lehren": 5565,
  "forming": 5566,
  "bestimmen": 5567,
  "zeitung": 5568,
  "actor": 5569,
  "mund": 5570,
  "handy": 5571,
  "direct": 5572,
  "finish": 5573,
  "verhältnis": 5574,
  "gewisse": 5575,
  "zerstören": 5576,
  "strategy": 5577,
  "gegend": 5578,
  "associated": 5579,
  "wards": 5580,
  "notes": 5581,
  "tanz": 5582,
  "magnetic": 5583,
  "sugar": 5584,
  "höher": 5585,
  "trip": 5586,
  "planning": 5587,
  "dinosaurier": 5588,
  "trug": 5589,
  "fahrer": 5590,
  "steel": 5591,
  "graphie": 5592,
  "link": 5593,
  "sight": 5594,
  "experts": 5595,
  "mile": 5596,
  "lager": 5597,
  "underneath": 5598,
  "studieren": 5599,
  "stammt": 5600,
  "nutzt": 5601,
  "beantworten": 5602,
  "martin": 5603,
  "solch": 5604,
  "programme": 5605,
  "früh": 5606,
  "verhaltens@@": 5607,
  "hasn": 5608,
  "erklärung": 5609,
  "erter": 5610,
  "lieblings@@": 5611,
  "flug": 5612,
  "ologen": 5613,
  "aufre@@": 5614,
  "newspaper": 5615,
  "teuer": 5616,
  "compared": 5617,
  "leader": 5618,
  "charakter": 5619,
  "keeping": 5620,
  "abschluss": 5621,
  "schwarzen": 5622,
  "feuer@@": 5623,
  "800": 5624,
  "individuen": 5625,
  "definitely": 5626,
  "evil": 5627,
  "aspekt": 5628,
  "wechseln": 5629,
  "surprised": 5630,
  "verbrachte": 5631,
  "ize": 5632,
  "vorfahren": 5633,
  "benen": 5634,
  "eres": 5635,
  "collect": 5636,
  "glas": 5637,
  "sitz@@": 5638,
  "erscheint": 5639,
  "wein@@": 5640,
  "dimension": 5641,
  "kerl": 5642,
  "feelings": 5643,
  "entstanden": 5644,
  "grundsätzlich": 5645,
  "soldiers": 5646,
  "cure": 5647,
  "grünen": 5648,
  "signale": 5649,
  "rural": 5650,
  "kurz@@": 5651,
  "unterricht": 5652,
  "fat": 5653,
  "durchschnittliche": 5654,
  "verfügbar": 5655,
  "chemicals": 5656,
  "pre-@@": 5657,
  "wechsel": 5658,
  "entspricht": 5659,
  "accident": 5660,
  "augenblick": 5661,
  "haltung": 5662,
  "inspiriert": 5663,
  "usw.": 5664,
  "generationen": 5665,
  "equipment": 5666,
  "bestand": 5667,
  "fördern": 5668,
  "signals": 5669,
  "sides": 5670,
  "interface": 5671,
  "blatt": 5672,
  "berührt": 5673,
  "erer": 5674,
  "hallo": 5675,
  "quasi": 5676,
  "genom": 5677,
  "fabrik": 5678,
  "grown": 5679,
  "jump": 5680,
  "prime": 5681,
  "worldwide": 5682,
  "beweise": 5683,
  "rot": 5684,
  "multiple": 5685,
  "sum": 5686,
  "zerstört": 5687,
  "angesehen": 5688,
  "trinken": 5689,
  "demand": 5690,
  "resource": 5691,
  "atory": 5692,
  "entwicklungs@@": 5693,
  "entworfen": 5694,
  "schmerzen": 5695,
  "union": 5696,
  "transformation": 5697,
  "controlled": 5698,
  "bekann@@": 5699,
  "facing": 5700,
  "corruption": 5701,
  "halbe": 5702,
  "consequences": 5703,
  "highest": 5704,
  "chemistry": 5705,
  "geändert": 5706,
  "beschlossen": 5707,
  "independent": 5708,
  "cognitive": 5709,
  "komplex": 5710,
  "folie": 5711,
  "defini@@": 5712,
  "konflikt": 5713,
  "erungen": 5714,
  "married": 5715,
  "essential": 5716,
  "gram": 5717,
  "schiff": 5718,
  "architekten": 5719,
  "joy": 5720,
  "gst": 5721,
  "diagramm": 5722,
  "gefallen": 5723,
  "hinsicht": 5724,
  "schau": 5725,
  "artificial": 5726,
  "müsste": 5727,
  "joe": 5728,
  "double": 5729,
  "closed": 5730,
  "generations": 5731,
  "powered": 5732,
  "weiße": 5733,
  "emerging": 5734,
  "christ@@": 5735,
  "whom": 5736,
  "importance": 5737,
  "gefällt": 5738,
  "gross@@": 5739,
  "musik@@": 5740,
  "library": 5741,
  "vote": 5742,
  "contact": 5743,
  "warm": 5744,
  "gäbe": 5745,
  "zeichnungen": 5746,
  "ours": 5747,
  "email": 5748,
  "ladies": 5749,
  "kultur@@": 5750,
  "selling": 5751,
  "euer": 5752,
  "elektrizität": 5753,
  "sub-@@": 5754,
  "definieren": 5755,
  "wind@@": 5756,
  "dran": 5757,
  "miss": 5758,
  "layer": 5759,
  "australia": 5760,
  "sty": 5761,
  "afrikanischen": 5762,
  "wars": 5763,
  "norden": 5764,
  "aufregend": 5765,
  "100,000": 5766,
  "aufbauen": 5767,
  "killing": 5768,
  "nervous": 5769,
  "cultures": 5770,
  "quellen": 5771,
  "gebeten": 5772,
  "cortex": 5773,
  "northern": 5774,
  "typically": 5775,
  "rational": 5776,
  "chicken": 5777,
  "richtungen": 5778,
  "falten": 5779,
  "pole": 5780,
  "stood": 5781,
  "alization": 5782,
  "spiegel@@": 5783,
  "beobachtet": 5784,
  "müll": 5785,
  "sende": 5786,
  "dimensionen": 5787,
  "property": 5788,
  "arm@@": 5789,
  "tausenden": 5790,
  "medien@@": 5791,
  "sicherheits@@": 5792,
  "g-@@": 5793,
  "empty": 5794,
  "blieb": 5795,
  "unterrichten": 5796,
  "verbindet": 5797,
  "letters": 5798,
  "spoke": 5799,
  "operate": 5800,
  "bahn@@": 5801,
  "fro@@": 5802,
  "regen": 5803,
  "technical": 5804,
  "welle": 5805,
  "verbessert": 5806,
  "inhalt": 5807,
  "faktor": 5808,
  "molecular": 5809,
  "decken": 5810,
  "shall": 5811,
  "wire": 5812,
  "que": 5813,
  "verteilt": 5814,
  "player": 5815,
  "folks": 5816,
  "alisierung": 5817,
  "strom@@": 5818,
  "solved": 5819,
  "c.": 5820,
  "hero": 5821,
  "kindheit": 5822,
  "kochen": 5823,
  "spectrum": 5824,
  "viertel": 5825,
  "zierte": 5826,
  "herren": 5827,
  "erlebt": 5828,
  "verfahren": 5829,
  "statistiken": 5830,
  "vermitteln": 5831,
  "atmen": 5832,
  "schaden": 5833,
  "forced": 5834,
  "mid@@": 5835,
  "aufgebaut": 5836,
  "fellow": 5837,
  "lebenden": 5838,
  "master": 5839,
  "relatively": 5840,
  "picked": 5841,
  "deeper": 5842,
  "wired": 5843,
  "dogs": 5844,
  "army": 5845,
  "kehrt": 5846,
  "reduzieren": 5847,
  "hre": 5848,
  "department": 5849,
  "flat": 5850,
  "stil": 5851,
  "dä@@": 5852,
  "avoid": 5853,
  "users": 5854,
  "regular": 5855,
  "sharks": 5856,
  "breath": 5857,
  "5.000": 5858,
  "roots": 5859,
  "practical": 5860,
  "match": 5861,
  "kampagne": 5862,
  "brown": 5863,
  "mix": 5864,
  "tered": 5865,
  "langer": 5866,
  "lektion": 5867,
  "characters": 5868,
  "ination": 5869,
  "bende": 5870,
  "wirtschaftliche": 5871,
  "lady": 5872,
  "blauen": 5873,
  "efficiency": 5874,
  "achse": 5875,
  "prove": 5876,
  "seln": 5877,
  "gam@@": 5878,
  "account": 5879,
  "kosten@@": 5880,
  "adult": 5881,
  "intellectual": 5882,
  "bruder": 5883,
  "digitalen": 5884,
  "protection": 5885,
  "dots": 5886,
  "ernährung": 5887,
  "schnell@@": 5888,
  "curious": 5889,
  "weather": 5890,
  "violent": 5891,
  "wesentlich": 5892,
  "gemeinden": 5893,
  "va": 5894,
  "thoughts": 5895,
  "motor@@": 5896,
  "politiker": 5897,
  "entdeckte": 5898,
  "mathematical": 5899,
  "grosse": 5900,
  "persönlich": 5901,
  "homes": 5902,
  "invention": 5903,
  "berichten": 5904,
  "round": 5905,
  "nützlich": 5906,
  "kilometers": 5907,
  "mexiko": 5908,
  "furcht@@": 5909,
  "wobei": 5910,
  "mountains": 5911,
  "lustig": 5912,
  "suggest": 5913,
  "ktes": 5914,
  "daily": 5915,
  "calling": 5916,
  "senses": 5917,
  "dliche": 5918,
  "medizinische": 5919,
  "seltsam": 5920,
  "wirklichen": 5921,
  "tot": 5922,
  "britain": 5923,
  "junger": 5924,
  "leg": 5925,
  "schreib@@": 5926,
  "online-@@": 5927,
  "pleasure": 5928,
  "zweck": 5929,
  "organs": 5930,
  "helden": 5931,
  "beweisen": 5932,
  "vorge@@": 5933,
  "clinical": 5934,
  "klo@@": 5935,
  "bekannte": 5936,
  "fresh": 5937,
  "damen": 5938,
  "coal": 5939,
  "lasse": 5940,
  "photographs": 5941,
  "experienced": 5942,
  "nde": 5943,
  "korruption": 5944,
  "sonder@@": 5945,
  "affected": 5946,
  "canada": 5947,
  "remote": 5948,
  "einrichtungen": 5949,
  "absolute": 5950,
  "medikament": 5951,
  "lands": 5952,
  "verlust": 5953,
  "sätze": 5954,
  "diet": 5955,
  "cards": 5956,
  "feststellen": 5957,
  "kompliziert": 5958,
  "straßen@@": 5959,
  "erfindung": 5960,
  "geschlagen": 5961,
  "movies": 5962,
  "baute": 5963,
  "chain": 5964,
  "reaction": 5965,
  "fire@@": 5966,
  "erwähnt": 5967,
  "lessons": 5968,
  "brazil": 5969,
  "achten": 5970,
  "dunkle": 5971,
  "beinahe": 5972,
  "possibilities": 5973,
  "effectively": 5974,
  "mitarbeiter": 5975,
  "disaster": 5976,
  "bang": 5977,
  "lediglich": 5978,
  "relevant": 5979,
  "introduced": 5980,
  "momente": 5981,
  "überzeu@@": 5982,
  "method": 5983,
  "persönliche": 5984,
  "addition": 5985,
  "scene": 5986,
  "gesundheitswesen": 5987,
  "vorstellungen": 5988,
  "tlichen": 5989,
  "long-term": 5990,
  "kriege": 5991,
  "heißen": 5992,
  "pil@@": 5993,
  "fishing": 5994,
  "nutzung": 5995,
  "wüste": 5996,
  "kitchen": 5997,
  "gewe@@": 5998,
  "arrived": 5999,
  "erstellt": 6000,
  "bein": 6001,
  "waves": 6002,
  "unterstützt": 6003,
  "schlafen": 6004,
  "clock": 6005,
  "persönlichen": 6006,
  "drink": 6007,
  "management": 6008,
  "löcher": 6009,
  "bush": 6010,
  "springen": 6011,
  "rollen": 6012,
  "considered": 6013,
  "großmutter": 6014,
  "grüne": 6015,
  "bildet": 6016,
  "saved": 6017,
  "maßstab": 6018,
  "anteil": 6019,
  "systemen": 6020,
  "grand": 6021,
  "nachts": 6022,
  "axis": 6023,
  "penguins": 6024,
  "by@@": 6025,
  "schrecklich": 6026,
  "sentence": 6027,
  "sowas": 6028,
  "metapher": 6029,
  "überlegen": 6030,
  "hyper@@": 6031,
  "nor": 6032,
  "unabhängig": 6033,
  "selbstverständlich": 6034,
  "van": 6035,
  "faktoren": 6036,
  "ersetzen": 6037,
  "hot@@": 6038,
  "dealing": 6039,
  "enorme": 6040,
  "galaxie": 6041,
  "vorne": 6042,
  "radiation": 6043,
  "nötig": 6044,
  "maps": 6045,
  "nahme": 6046,
  "kriegs@@": 6047,
  "wissenschaften": 6048,
  "metal": 6049,
  "digitale": 6050,
  "präsentation": 6051,
  "bedürfnisse": 6052,
  "epidemic": 6053,
  "gerechtigkeit": 6054,
  "mitglieder": 6055,
  "beweis": 6056,
  "3d": 6057,
  "afrikas": 6058,
  "3,000": 6059,
  "received": 6060,
  "gravity": 6061,
  "kaffee": 6062,
  "geheimnis": 6063,
  "wise": 6064,
  "moralische": 6065,
  "außen": 6066,
  "molekül": 6067,
  "germany": 6068,
  "marine": 6069,
  "webseite": 6070,
  "übrig": 6071,
  "freundin": 6072,
  "wettbewerb": 6073,
  "employees": 6074,
  "hadn": 6075,
  "legte": 6076,
  "den-@@": 6077,
  "seht": 6078,
  "effektiv": 6079,
  "innere": 6080,
  "büchern": 6081,
  "specifically": 6082,
  "besuchen": 6083,
  "productive": 6084,
  "cooking": 6085,
  "players": 6086,
  "aufbau": 6087,
  "hall": 6088,
  "wofür": 6089,
  "cross": 6090,
  "struggle": 6091,
  "diert": 6092,
  "brücke": 6093,
  "menschlicher": 6094,
  "buying": 6095,
  "stin": 6096,
  "setting": 6097,
  "liebte": 6098,
  "sle@@": 6099,
  "gift": 6100,
  "eastern": 6101,
  "switch": 6102,
  "requires": 6103,
  "selbe": 6104,
  "fehlen": 6105,
  "valuable": 6106,
  "transition": 6107,
  "location": 6108,
  "witz": 6109,
  "australien": 6110,
  "ships": 6111,
  "verkehr": 6112,
  "beach": 6113,
  "cutting": 6114,
  "testing": 6115,
  "singen": 6116,
  "mention": 6117,
  "bogen": 6118,
  "aner": 6119,
  "leistungs@@": 6120,
  "national@@": 6121,
  "jedenfalls": 6122,
  "rand": 6123,
  "exercise": 6124,
  "grafik": 6125,
  "fossil": 6126,
  "fahrt": 6127,
  "analysis": 6128,
  "stärker": 6129,
  "gebraucht": 6130,
  "lokalen": 6131,
  "mistake": 6132,
  "meer@@": 6133,
  "beinhaltet": 6134,
  "beschloss": 6135,
  "situationen": 6136,
  "fail": 6137,
  "liked": 6138,
  "businesses": 6139,
  "fügen": 6140,
  "radical": 6141,
  "schimpansen": 6142,
  "liefer@@": 6143,
  "cated": 6144,
  "southern": 6145,
  "gesund": 6146,
  "versteht": 6147,
  "atoms": 6148,
  "sitz": 6149,
  "herstellung": 6150,
  "wieviel": 6151,
  "gras": 6152,
  "proben": 6153,
  "bit@@": 6154,
  "sektor": 6155,
  "tons": 6156,
  "erkennt": 6157,
  "stärke": 6158,
  "nden": 6159,
  "liefert": 6160,
  "hinten": 6161,
  "appropriate": 6162,
  "nett": 6163,
  "stärken": 6164,
  "trials": 6165,
  "mistakes": 6166,
  "folgende": 6167,
  "democratic": 6168,
  "strahlung": 6169,
  "silk": 6170,
  "irgendjemand": 6171,
  "ecosystem": 6172,
  "express": 6173,
  "reward": 6174,
  "ished": 6175,
  "erwachsene": 6176,
  "broke": 6177,
  "landen": 6178,
  "feedback": 6179,
  "introduce": 6180,
  "gesichter": 6181,
  "zahn@@": 6182,
  "post-@@": 6183,
  "wellen": 6184,
  "verteilung": 6185,
  "wirkliche": 6186,
  "mern": 6187,
  "schwierigkeiten": 6188,
  "properties": 6189,
  "lifetime": 6190,
  "unusual": 6191,
  "jährigen": 6192,
  "theme": 6193,
  "brach": 6194,
  "pop": 6195,
  "danken": 6196,
  "mutter@@": 6197,
  "anwendung": 6198,
  "inseln": 6199,
  "chemikalien": 6200,
  "psychology": 6201,
  "milk": 6202,
  "kreieren": 6203,
  "21.": 6204,
  "empfin@@": 6205,
  "süden": 6206,
  "kap@@": 6207,
  "five-@@": 6208,
  "behaviors": 6209,
  "rever@@": 6210,
  "components": 6211,
  "primary": 6212,
  "manage": 6213,
  "factor": 6214,
  "consumer": 6215,
  "unlike": 6216,
  "target": 6217,
  "existence": 6218,
  "techniques": 6219,
  "click": 6220,
  "arab": 6221,
  "prepared": 6222,
  "kannte": 6223,
  "internationalen": 6224,
  "display": 6225,
  "schritte": 6226,
  "zitat": 6227,
  "macher": 6228,
  "freien": 6229,
  "prinzipien": 6230,
  "beispielsweise": 6231,
  "increasing": 6232,
  "bubble": 6233,
  "ausmaß": 6234,
  "gap": 6235,
  "poetry": 6236,
  "evolutionary": 6237,
  "accept": 6238,
  "infected": 6239,
  "überraschend": 6240,
  "geräusch": 6241,
  "schlechter": 6242,
  "rare": 6243,
  "teure": 6244,
  "unfall": 6245,
  "politicians": 6246,
  "represents": 6247,
  "unterhaltung": 6248,
  "grossen": 6249,
  "quantum": 6250,
  "diskussion": 6251,
  "anhand": 6252,
  "allgemeinen": 6253,
  "aufzubauen": 6254,
  "writer": 6255,
  "rennen": 6256,
  "meist": 6257,
  "höre": 6258,
  "bekomme": 6259,
  "entstand": 6260,
  "visible": 6261,
  "fewer": 6262,
  "safety": 6263,
  "proteins": 6264,
  "bottle": 6265,
  "carrying": 6266,
  "whereas": 6267,
  "naturally": 6268,
  "analyse": 6269,
  "generally": 6270,
  "dü@@": 6271,
  "einiges": 6272,
  "via": 6273,
  "connections": 6274,
  "user": 6275,
  "versagen": 6276,
  "ohren": 6277,
  "watched": 6278,
  "faith": 6279,
  "convince": 6280,
  "vorhersagen": 6281,
  "presse": 6282,
  "schauten": 6283,
  "üben": 6284,
  "kenia": 6285,
  "speziellen": 6286,
  "identify": 6287,
  "é": 6288,
  "bet": 6289,
  "neighbors": 6290,
  "credit": 6291,
  "gegründet": 6292,
  "füllen": 6293,
  "müll@@": 6294,
  "capture": 6295,
  "schuld": 6296,
  "swim": 6297,
  "honor": 6298,
  "processes": 6299,
  "solange": 6300,
  "gebieten": 6301,
  "untersuchung": 6302,
  "jährige": 6303,
  "dauerte": 6304,
  "variety": 6305,
  "runs": 6306,
  "roof": 6307,
  "sets": 6308,
  "erkannt": 6309,
  "telefon@@": 6310,
  "willst": 6311,
  "gekauft": 6312,
  "rechnen": 6313,
  "setzten": 6314,
  "chemie": 6315,
  "geber": 6316,
  "rad": 6317,
  "makers": 6318,
  "unit": 6319,
  "bene": 6320,
  "serie": 6321,
  "hing": 6322,
  "anfing": 6323,
  "untersucht": 6324,
  "bedenken": 6325,
  "ancestors": 6326,
  "member": 6327,
  "vorzustellen": 6328,
  "interessantes": 6329,
  "perception": 6330,
  "verbreitung": 6331,
  "probieren": 6332,
  "string": 6333,
  "pulled": 6334,
  "gegenwart": 6335,
  "unglaublichen": 6336,
  "error": 6337,
  "serve": 6338,
  "situations": 6339,
  "blase": 6340,
  "ozeane": 6341,
  "researchers": 6342,
  "u.n.": 6343,
  "battle": 6344,
  "gleichgewicht": 6345,
  "personally": 6346,
  "vertraut": 6347,
  "tasche": 6348,
  "satellite": 6349,
  "brothers": 6350,
  "zivilisation": 6351,
  "kurve": 6352,
  "sech@@": 6353,
  "saal": 6354,
  "zähne": 6355,
  "driver": 6356,
  "zwischen@@": 6357,
  "expected": 6358,
  "cat": 6359,
  "schte": 6360,
  "anstelle": 6361,
  "pfund": 6362,
  "crash": 6363,
  "sprü@@": 6364,
  "-up": 6365,
  "style": 6366,
  "continued": 6367,
  "platform": 6368,
  "exchange": 6369,
  "novel": 6370,
  "solcher": 6371,
  "fake": 6372,
  "verstehe": 6373,
  "mirror": 6374,
  "195@@": 6375,
  "ep": 6376,
  "tries": 6377,
  "stammzellen": 6378,
  "holz@@": 6379,
  "recorded": 6380,
  "toten": 6381,
  "grundlage": 6382,
  "males": 6383,
  "clip": 6384,
  "südafrika": 6385,
  "tag@@": 6386,
  "bemerken": 6387,
  "äußerst": 6388,
  "former": 6389,
  "depends": 6390,
  "marriage": 6391,
  "closely": 6392,
  "woran": 6393,
  "cents": 6394,
  "weltweiten": 6395,
  "estimate": 6396,
  "bezüglich": 6397,
  "liquid": 6398,
  "peak": 6399,
  "gemeinsame": 6400,
  "reached": 6401,
  "burning": 6402,
  "unterschiedlich": 6403,
  "kapital": 6404,
  "erwachsenen": 6405,
  "lay": 6406,
  "gulf": 6407,
  "gelebt": 6408,
  "kirche": 6409,
  "defined": 6410,
  "genetische": 6411,
  "här@@": 6412,
  "rates": 6413,
  "goods": 6414,
  "kombination": 6415,
  "pollution": 6416,
  "anlage": 6417,
  "advanced": 6418,
  "stehe": 6419,
  "heran@@": 6420,
  "vorhanden": 6421,
  "geräusche": 6422,
  "lichste": 6423,
  "risks": 6424,
  "deutschland": 6425,
  "blocks": 6426,
  "burn": 6427,
  "cry": 6428,
  "vieles": 6429,
  "gy@@": 6430,
  "ears": 6431,
  "aufnehmen": 6432,
  "kanada": 6433,
  "willen": 6434,
  "nas@@": 6435,
  "geschenk": 6436,
  "meinte": 6437,
  "momentan": 6438,
  "grippe": 6439,
  "architect": 6440,
  "vaccine": 6441,
  "entfernen": 6442,
  "stupid": 6443,
  "require": 6444,
  "schreibt": 6445,
  "joke": 6446,
  "pin@@": 6447,
  "sequenz": 6448,
  "flasche": 6449,
  "correct": 6450,
  "müssten": 6451,
  "beschäftigen": 6452,
  "sunlight": 6453,
  "amounts": 6454,
  "relate": 6455,
  "freie": 6456,
  "sensitive": 6457,
  "zeichnung": 6458,
  "hierher": 6459,
  "absicht": 6460,
  "entwicklungsländern": 6461,
  "glas@@": 6462,
  "tonnen": 6463,
  "ausstellung": 6464,
  "resultat": 6465,
  "battery": 6466,
  "kapitel": 6467,
  "dna-@@": 6468,
  "gerufen": 6469,
  "goals": 6470,
  "gemeinschaften": 6471,
  "sources": 6472,
  "gegenseitig": 6473,
  "aufs": 6474,
  "tanzen": 6475,
  "empathy": 6476,
  "halb@@": 6477,
  "frame": 6478,
  "kers": 6479,
  "movements": 6480,
  "healthcare": 6481,
  "kleidung": 6482,
  "glaubte": 6483,
  "sees": 6484,
  "akzeptieren": 6485,
  "gentlemen": 6486,
  "menschliches": 6487,
  "environments": 6488,
  "aspect": 6489,
  "19.": 6490,
  "ultimate": 6491,
  "wovon": 6492,
  "felder": 6493,
  "fortunate": 6494,
  "post": 6495,
  "algorithms": 6496,
  "gay": 6497,
  "risiken": 6498,
  "emissions": 6499,
  "schaue": 6500,
  "änderungen": 6501,
  "hoping": 6502,
  "brust": 6503,
  "quiet": 6504,
  "solving": 6505,
  "beibringen": 6506,
  "traveling": 6507,
  "welchem": 6508,
  "nase": 6509,
  "taste": 6510,
  "zugänglich": 6511,
  "seid": 6512,
  "dient": 6513,
  "plastik": 6514,
  "liefern": 6515,
  "percentage": 6516,
  "mitglied": 6517,
  "religionen": 6518,
  "einfaches": 6519,
  "ride": 6520,
  "konzentriert": 6521,
  "reiche": 6522,
  "lebe": 6523,
  "discussion": 6524,
  "collaboration": 6525,
  "proteine": 6526,
  "zucker": 6527,
  "dienst": 6528,
  "inzwischen": 6529,
  "psychologie": 6530,
  "dish": 6531,
  "schwieriger": 6532,
  "three-dimensional": 6533,
  "opinion": 6534,
  "hafte": 6535,
  "weiterer": 6536,
  "fasziniert": 6537,
  "schönes": 6538,
  "ausgeben": 6539,
  "automatisch": 6540,
  "geholfen": 6541,
  "shaped": 6542,
  "soweit": 6543,
  "hinzu": 6544,
  "erhöhen": 6545,
  "brasilien": 6546,
  "carefully": 6547,
  "destruction": 6548,
  "sending": 6549,
  "interests": 6550,
  "remain": 6551,
  "besessen": 6552,
  "merken": 6553,
  "bevölkerungs@@": 6554,
  "stable": 6555,
  "physiker": 6556,
  "dramatic": 6557,
  "wine": 6558,
  "fach": 6559,
  "topic": 6560,
  "figures": 6561,
  "pinguine": 6562,
  "replace": 6563,
  "vermeiden": 6564,
  "erweitern": 6565,
  "é@@": 6566,
  "trat": 6567,
  "wünschte": 6568,
  "fakten": 6569,
  "shark": 6570,
  "insbesondere": 6571,
  "exploration": 6572,
  "convinced": 6573,
  "gens": 6574,
  "collection": 6575,
  "shake": 6576,
  "lehre": 6577,
  "besitzt": 6578,
  "centers": 6579,
  "wondering": 6580,
  "verlauf": 6581,
  "darunter": 6582,
  "übernehmen": 6583,
  "applied": 6584,
  "beschä@@": 6585,
  "durchführen": 6586,
  "pointed": 6587,
  "handlungen": 6588,
  "mittels": 6589,
  "manchen": 6590,
  "ized": 6591,
  "tape": 6592,
  "signs": 6593,
  "stag": 6594,
  "shoot": 6595,
  "autor": 6596,
  "pol@@": 6597,
  "darstellen": 6598,
  "realen": 6599,
  "protected": 6600,
  "eric": 6601,
  "handlung": 6602,
  "stamm@@": 6603,
  "zählt": 6604,
  "annahme": 6605,
  "positiv": 6606,
  "froh": 6607,
  "awareness": 6608,
  "dieselben": 6609,
  "lebensmittel": 6610,
  "vulnerable": 6611,
  "schatten": 6612,
  "faszinierend": 6613,
  "survey": 6614,
  "zuzu@@": 6615,
  "drucken": 6616,
  "schlu@@": 6617,
  "chinesische": 6618,
  "irgendeine": 6619,
  "elektrische": 6620,
  "skill": 6621,
  "schließt": 6622,
  "betrieben": 6623,
  "länge": 6624,
  "haften": 6625,
  "risiko@@": 6626,
  "technological": 6627,
  "marke": 6628,
  "debatte": 6629,
  "kontrolliert": 6630,
  "b.": 6631,
  "regierungs@@": 6632,
  "durchschnitt": 6633,
  "holds": 6634,
  "applications": 6635,
  "gendes": 6636,
  "100.000": 6637,
  "include": 6638,
  "curve": 6639,
  "added": 6640,
  "hydrogen": 6641,
  "islands": 6642,
  "fehlt": 6643,
  "schienen": 6644,
  "ttert": 6645,
  "crowd": 6646,
  "hits": 6647,
  "electronic": 6648,
  "strength": 6649,
  "tac@@": 6650,
  "plays": 6651,
  "religions": 6652,
  "inner@@": 6653,
  "chteten": 6654,
  "falling": 6655,
  "existenz": 6656,
  "sophisticated": 6657,
  "explanation": 6658,
  "algorithmen": 6659,
  "effizienz": 6660,
  "redu@@": 6661,
  "laboratory": 6662,
  "ernsthaft": 6663,
  "zweimal": 6664,
  "kontinent": 6665,
  "internationale": 6666,
  "blicken": 6667,
  "glücklicher": 6668,
  "feeding": 6669,
  "dropped": 6670,
  "birthday": 6671,
  "existing": 6672,
  "computing": 6673,
  "bones": 6674,
  "bericht": 6675,
  "wirft": 6676,
  "schwestern": 6677,
  "besseres": 6678,
  "tie": 6679,
  "logic": 6680,
  "folgenden": 6681,
  "fortschritte": 6682,
  "überwinden": 6683,
  "erlebnis": 6684,
  "bomb": 6685,
  "kabel": 6686,
  "institution": 6687,
  "welten": 6688,
  "spektrum": 6689,
  "mehrheit": 6690,
  "bag": 6691,
  "sample": 6692,
  "breaking": 6693,
  "tube": 6694,
  "1.000": 6695,
  "organisieren": 6696,
  "veränderte": 6697,
  "hoben": 6698,
  "channel": 6699,
  "insight": 6700,
  "literature": 6701,
  "combination": 6702,
  "fund": 6703,
  "increased": 6704,
  "conventional": 6705,
  "economists": 6706,
  "transportation": 6707,
  "verwandelt": 6708,
  "smile": 6709,
  "perfekte": 6710,
  "singing": 6711,
  "leiter": 6712,
  "windows": 6713,
  "sprecher": 6714,
  "boxes": 6715,
  "claim": 6716,
  "interaktion": 6717,
  "gebäuden": 6718,
  "nose": 6719,
  "kreb@@": 6720,
  "sammlung": 6721,
  "wohlstand": 6722,
  "mittlerweile": 6723,
  "encourage": 6724,
  "aussage": 6725,
  "gefangen": 6726,
  "stieg": 6727,
  "heim": 6728,
  "literatur": 6729,
  "fürs": 6730,
  "komm": 6731,
  "konsequenzen": 6732,
  "remains": 6733,
  "großartigen": 6734,
  "gebrochen": 6735,
  "lig": 6736,
  "hip": 6737,
  "ursprünglich": 6738,
  "water@@": 6739,
  "gdp": 6740,
  "ingenieure": 6741,
  "partners": 6742,
  "advice": 6743,
  "sichtbar": 6744,
  "ergibt": 6745,
  "pacific": 6746,
  "confidence": 6747,
  "upper": 6748,
  "aufgewachsen": 6749,
  "armee": 6750,
  "voraus": 6751,
  "beenden": 6752,
  "kaufte": 6753,
  "seltsame": 6754,
  "unteren": 6755,
  "gewinn": 6756,
  "previous": 6757,
  "hurt": 6758,
  "trillion": 6759,
  "kugel": 6760,
  "relative": 6761,
  "solid": 6762,
  "cameras": 6763,
  "accurate": 6764,
  "fundamentally": 6765,
  "fantastische": 6766,
  "lächeln": 6767,
  "gert": 6768,
  "hervor": 6769,
  "enthält": 6770,
  "odd": 6771,
  "hunde": 6772,
  "maker": 6773,
  "hof": 6774,
  "blaue": 6775,
  "ausgaben": 6776,
  "combined": 6777,
  "verbrechen": 6778,
  "besagt": 6779,
  "eien": 6780,
  "sw@@": 6781,
  "worauf": 6782,
  "keeps": 6783,
  "tracking": 6784,
  "tiefen": 6785,
  "flowers": 6786,
  "neither": 6787,
  "vogel@@": 6788,
  "grid": 6789,
  "11.": 6790,
  "test@@": 6791,
  "ertes": 6792,
  "behaupten": 6793,
  "jener": 6794,
  "cast": 6795,
  "monkeys": 6796,
  "gemeinsamen": 6797,
  "geschäfte": 6798,
  "presence": 6799,
  "worum": 6800,
  "enorm": 6801,
  "vorbei@@": 6802,
  "volk": 6803,
  "medizinischen": 6804,
  "title": 6805,
  "gespräche": 6806,
  "spät": 6807,
  "reverse": 6808,
  "cow": 6809,
  "lügen": 6810,
  "ances": 6811,
  "leuchten": 6812,
  "linked": 6813,
  "starben": 6814,
  "roads": 6815,
  "fingers": 6816,
  "microbes": 6817,
  "rocket": 6818,
  "epidemie": 6819,
  "shares": 6820,
  "sweet": 6821,
  "entfernung": 6822,
  "presentation": 6823,
  "sal": 6824,
  "jung": 6825,
  "tja": 6826,
  "horrible": 6827,
  "entertainment": 6828,
  "musiker": 6829,
  "muskeln": 6830,
  "zusätzlich": 6831,
  "outcome": 6832,
  "length": 6833,
  "organe": 6834,
  "equation": 6835,
  "patent": 6836,
  "ähnlichen": 6837,
  "director": 6838,
  "nachgedacht": 6839,
  "factors": 6840,
  "betreiben": 6841,
  "telescope": 6842,
  "auseinander": 6843,
  "afrikaner": 6844,
  "schäd@@": 6845,
  "wahrnehmen": 6846,
  "fed": 6847,
  "atten@@": 6848,
  "collapse": 6849,
  "unver@@": 6850,
  "gewisser": 6851,
  "vierte": 6852,
  "böse": 6853,
  "component": 6854,
  "circumstances": 6855,
  "farb@@": 6856,
  "diger": 6857,
  "chancen": 6858,
  "ge-@@": 6859,
  "explains": 6860,
  "gottes": 6861,
  "fokus": 6862,
  "shame": 6863,
  "funktionierte": 6864,
  "bay": 6865,
  "vogel": 6866,
  "entrepreneurs": 6867,
  "wartet": 6868,
  "suggests": 6869,
  "occur": 6870,
  "darstellung": 6871,
  "tü@@": 6872,
  "macht@@": 6873,
  "waffe": 6874,
  "options": 6875,
  "magie": 6876,
  "expand": 6877,
  "pack": 6878,
  "framework": 6879,
  "behavioral": 6880,
  "doubt": 6881,
  "architects": 6882,
  "surgeon": 6883,
  "corporate": 6884,
  "gewählt": 6885,
  "einstellung": 6886,
  "staff": 6887,
  "enthalten": 6888,
  "genetischen": 6889,
  "authority": 6890,
  "mikroben": 6891,
  "gedicht": 6892,
  "recording": 6893,
  "signed": 6894,
  "krieges": 6895,
  "remind": 6896,
  "deaths": 6897,
  "buchstaben": 6898,
  "genius": 6899,
  "boring": 6900,
  "worlds": 6901,
  "finance": 6902,
  "branche": 6903,
  "änderung": 6904,
  "detect": 6905,
  "well-being": 6906,
  "anschaut": 6907,
  "symmetry": 6908,
  "funding": 6909,
  "flew": 6910,
  "küche": 6911,
  "pferd": 6912,
  "besorgt": 6913,
  "grain": 6914,
  "mystery": 6915,
  "queen": 6916,
  "graphics": 6917,
  "räumen": 6918,
  "musical": 6919,
  "bibel": 6920,
  "dancing": 6921,
  "gesamt@@": 6922,
  "zeigten": 6923,
  "manufacturing": 6924,
  "thin": 6925,
  "simplicity": 6926,
  "films": 6927,
  "ebenen": 6928,
  "hospitals": 6929,
  "rapidly": 6930,
  "younger": 6931,
  "weshalb": 6932,
  "chinesen": 6933,
  "philosophy": 6934,
  "eingeladen": 6935,
  "kostenlos": 6936,
  "tonight": 6937,
  "angeht": 6938,
  "anische": 6939,
  "selection": 6940,
  "nahen": 6941,
  "ökosystem": 6942,
  "derer": 6943,
  "hydro@@": 6944,
  "lokale": 6945,
  "raising": 6946,
  "wondered": 6947,
  "features": 6948,
  "milch": 6949,
  "höhere": 6950,
  "nachzu@@": 6951,
  "ansieht": 6952,
  "determine": 6953,
  "lebende": 6954,
  "ehe": 6955,
  "aufgeregt": 6956,
  "mechanical": 6957,
  "aktion": 6958,
  "illness": 6959,
  "clouds": 6960,
  "blau@@": 6961,
  "wurzeln": 6962,
  "climb": 6963,
  "activities": 6964,
  "performing": 6965,
  "indischen": 6966,
  "mathematiker": 6967,
  "ante": 6968,
  "starken": 6969,
  "mid-@@": 6970,
  "internal": 6971,
  "gemälde": 6972,
  "kameras": 6973,
  "wenigstens": 6974,
  "treating": 6975,
  "emissionen": 6976,
  "wheel": 6977,
  "kümmert": 6978,
  "programmieren": 6979,
  "feiern": 6980,
  "sculpture": 6981,
  "etc.": 6982,
  "x-@@": 6983,
  "hiv-@@": 6984,
  "tested": 6985,
  "subjects": 6986,
  "lake": 6987,
  "träumen": 6988,
  "alities": 6989,
  "wireless": 6990,
  "preise": 6991,
  "organism": 6992,
  "vielmehr": 6993,
  "innovationen": 6994,
  "bemerkte": 6995,
  "vehicles": 6996,
  "regions": 6997,
  "aktivitäten": 6998,
  "innovative": 6999,
  "pure": 7000,
  "cm": 7001,
  "katastrophe": 7002,
  "occurred": 7003,
  "reduziert": 7004,
  "victims": 7005,
  "beschrieben": 7006,
  "stronger": 7007,
  "spuren": 7008,
  "obsessed": 7009,
  "vorteile": 7010,
  "verglichen": 7011,
  "ischem": 7012,
  "verschwunden": 7013,
  "männchen": 7014,
  "afternoon": 7015,
  "bibliothek": 7016,
  "blumen": 7017,
  "bank@@": 7018,
  "weisheit": 7019,
  "abstract": 7020,
  "comfort": 7021,
  "entdeckungen": 7022,
  "unexpected": 7023,
  "nowhere": 7024,
  "distributed": 7025,
  "decline": 7026,
  "walks": 7027,
  "ereignisse": 7028,
  "seele": 7029,
  "statement": 7030,
  "pocket": 7031,
  "ologists": 7032,
  "prices": 7033,
  "release": 7034,
  "schwarz": 7035,
  "ereignis": 7036,
  "particle": 7037,
  "mechanism": 7038,
  "origami": 7039,
  "zerstörung": 7040,
  "forests": 7041,
  "älteren": 7042,
  "touched": 7043,
  "technique": 7044,
  "paradigm": 7045,
  "ägypten": 7046,
  "potenzial": 7047,
  "letzter": 7048,
  "tisches": 7049,
  "photo@@": 7050,
  "teren": 7051,
  "tea": 7052,
  "vorbereitet": 7053,
  "computern": 7054,
  "verliert": 7055,
  "kulturelle": 7056,
  "printing": 7057,
  "gesammelt": 7058,
  "meaningful": 7059,
  "combine": 7060,
  "resultate": 7061,
  "eggs": 7062,
  "defense": 7063,
  "swimming": 7064,
  "beachten": 7065,
  "raw": 7066,
  "creature": 7067,
  "conclusion": 7068,
  "haie": 7069,
  "hinzufügen": 7070,
  "sport@@": 7071,
  "metern": 7072,
  "illegal": 7073,
  "sach@@": 7074,
  "dauer": 7075,
  "sustainability": 7076,
  "vessels": 7077,
  "teufel": 7078,
  "unclear": 7079,
  "quarter": 7080,
  "lebendig": 7081,
  "niveau": 7082,
  "könig": 7083,
  "schlägt": 7084,
  "educational": 7085,
  "author": 7086,
  "mitnehmen": 7087,
  "eindeutig": 7088,
  "q": 7089,
  "co2-@@": 7090,
  "bedrohung": 7091,
  "wherever": 7092,
  "exact": 7093,
  "voneinander": 7094,
  "scheinbar": 7095,
  "fan": 7096,
  "uns@@": 7097,
  "functional": 7098,
  "handle": 7099,
  "arabischen": 7100,
  "dargestellt": 7101,
  "scan": 7102,
  "heroes": 7103,
  "brust@@": 7104,
  "konta@@": 7105,
  "wichtiges": 7106,
  "africans": 7107,
  "schwierige": 7108,
  "schlug": 7109,
  "jahrzehnt": 7110,
  "trafen": 7111,
  "langsamer": 7112,
  "explained": 7113,
  "chose": 7114,
  "required": 7115,
  "celebrate": 7116,
  "hinterlassen": 7117,
  "genügend": 7118,
  "womit": 7119,
  "lighting": 7120,
  "potentially": 7121,
  "egypt": 7122,
  "verursachen": 7123,
  "plans": 7124,
  "wem": 7125,
  "transformed": 7126,
  "eingeführt": 7127,
  "instrumente": 7128,
  "election": 7129,
  "button": 7130,
  "launch": 7131,
  "sechs@@": 7132,
  "21st": 7133,
  "schießen": 7134,
  "careful": 7135,
  "schichten": 7136,
  "jahrzehnten": 7137,
  "art.": 7138,
  "informations@@": 7139,
  "umfeld": 7140,
  "funktionen": 7141,
  "schweden": 7142,
  "aspekte": 7143,
  "clothes": 7144,
  "surely": 7145,
  "engaged": 7146,
  "ähnliches": 7147,
  "largely": 7148,
  "grundlegenden": 7149,
  "processing": 7150,
  "intense": 7151,
  "golden": 7152,
  "attempt": 7153,
  "collected": 7154,
  "schild": 7155,
  "investitionen": 7156,
  "probe": 7157,
  "erinnerung": 7158,
  "mama": 7159,
  "angel@@": 7160,
  "generated": 7161,
  "mangel": 7162,
  "proof": 7163,
  "interessanter": 7164,
  "drives": 7165,
  "verfolgt": 7166,
  "basierend": 7167,
  "stahl": 7168,
  "kühl@@": 7169,
  "wärme": 7170,
  "underwater": 7171,
  "losigkeit": 7172,
  "gleichung": 7173,
  "mächtig": 7174,
  "drogen": 7175,
  "suchte": 7176,
  "ologist": 7177,
  "erhielt": 7178,
  "darstellt": 7179,
  "schrieben": 7180,
  "directions": 7181,
  "globe": 7182,
  "nebenbei": 7183,
  "messages": 7184,
  "frankly": 7185,
  "drittens": 7186,
  "ologe": 7187,
  "begrenzt": 7188,
  "severe": 7189,
  "laugh": 7190,
  "piano": 7191,
  "respekt": 7192,
  "winzig": 7193,
  "ältere": 7194,
  "3d-@@": 7195,
  "court": 7196,
  "bewohner": 7197,
  "measured": 7198,
  "fliegt": 7199,
  "paintings": 7200,
  "stift": 7201,
  "beschreibt": 7202,
  "participate": 7203,
  "berechnen": 7204,
  "60s": 7205,
  "evening": 7206,
  "identical": 7207,
  "biologische": 7208,
  "teilweise": 7209,
  "mad": 7210,
  "equally": 7211,
  "poem": 7212,
  "dynamik": 7213,
  "embrace": 7214,
  "bible": 7215,
  "ausrüstung": 7216,
  "planen": 7217,
  "gien": 7218,
  "sticks": 7219,
  "komponenten": 7220,
  "techniken": 7221,
  "instruments": 7222,
  "dense": 7223,
  "somewhat": 7224,
  "economies": 7225,
  "zufall": 7226,
  "erforscht": 7227,
  "anscheinend": 7228,
  "bricht": 7229,
  "lovely": 7230,
  "sely": 7231,
  "admit": 7232,
  "funk@@": 7233,
  "grows": 7234,
  "wolken": 7235,
  "19th": 7236,
  "released": 7237,
  "arctic": 7238,
  "stayed": 7239,
  "anstieg": 7240,
  "iron": 7241,
  "ya": 7242,
  "täuschung": 7243,
  "plate": 7244,
  "zufrieden": 7245,
  "anwendungen": 7246,
  "german": 7247,
  "fliege": 7248,
  "volume": 7249,
  "retro@@": 7250,
  "weak": 7251,
  "beln": 7252,
  "puzzle": 7253,
  "bedeutete": 7254,
  "neuigkeiten": 7255,
  "fahrzeuge": 7256,
  "anzusehen": 7257,
  "definiert": 7258,
  "gesundheit@@": 7259,
  "gericht": 7260,
  "speziell": 7261,
  "16@@": 7262,
  "deiner": 7263,
  "geburtstag": 7264,
  "militär": 7265,
  "echtzeit": 7266,
  "derselben": 7267,
  "resistance": 7268,
  "stadt@@": 7269,
  "benden": 7270,
  "plattform": 7271,
  "sonnenlicht": 7272,
  "geleitet": 7273,
  "physically": 7274,
  "vorgang": 7275,
  "nets": 7276,
  "operationen": 7277,
  "erhöht": 7278,
  "schicksal": 7279,
  "tiefer": 7280,
  "pile": 7281,
  "überraschung": 7282,
  "berge": 7283,
  "visuelle": 7284,
  "divide": 7285,
  "berühren": 7286,
  "flügel": 7287,
  "zusammenarbeiten": 7288,
  "muslim": 7289,
  "eigenschaft": 7290,
  "isieren": 7291,
  "wände": 7292,
  "overall": 7293,
  "divided": 7294,
  "röntgen@@": 7295,
  "bergen": 7296,
  "chocolate": 7297,
  "sweden": 7298,
  "cook": 7299,
  "false": 7300,
  "batterie": 7301,
  "antwortete": 7302,
  "kohle": 7303,
  "machst": 7304,
  "unknown": 7305,
  "+": 7306,
  "geteilt": 7307,
  "auswahl": 7308,
  "umständen": 7309,
  "split": 7310,
  "root": 7311,
  "welcome": 7312,
  "hello": 7313,
  "einfachheit": 7314,
  "chapter": 7315,
  "fuels": 7316,
  "betroffen": 7317,
  "erkrankungen": 7318,
  "begegnen": 7319,
  "faced": 7320,
  "scared": 7321,
  "usual": 7322,
  "soul": 7323,
  "fortune": 7324,
  "moralischen": 7325,
  "dringen": 7326,
  "umgeben": 7327,
  "immune": 7328,
  "decke": 7329,
  "niemanden": 7330,
  "greenhouse": 7331,
  "whales": 7332,
  "vorstellungskraft": 7333,
  "by-@@": 7334,
  "ergeben": 7335,
  "co-@@": 7336,
  "ursache": 7337,
  "congress": 7338,
  "prototype": 7339,
  "posing": 7340,
  "meister@@": 7341,
  "lenken": 7342,
  "trieb": 7343,
  "pläne": 7344,
  "dirty": 7345,
  "savings": 7346,
  "ernähren": 7347,
  "billionen": 7348,
  "weltraum": 7349,
  "france": 7350,
  "feature": 7351,
  "busy": 7352,
  "soft": 7353,
  "streiten": 7354,
  "zoom": 7355,
  "ära": 7356,
  "dame": 7357,
  "incentives": 7358,
  "perform": 7359,
  "anlagen": 7360,
  "zentrale": 7361,
  "50,000": 7362,
  "measuring": 7363,
  "hieß": 7364,
  "joined": 7365,
  "kingdom": 7366,
  "stiftung": 7367,
  "capit@@": 7368,
  "besonderen": 7369,
  "passing": 7370,
  "nachbarschaft": 7371,
  "plastik@@": 7372,
  "artigen": 7373,
  "four-@@": 7374,
  "christmas": 7375,
  "infinite": 7376,
  "such@@": 7377,
  "kation": 7378,
  "obesity": 7379,
  "besucht": 7380,
  "komplexen": 7381,
  "nationale": 7382,
  "offenen": 7383,
  "fordern": 7384,
  "flower": 7385,
  "lebenserwartung": 7386,
  "disappeared": 7387,
  "secondly": 7388,
  "schwere": 7389,
  "dunkel": 7390,
  "furniture": 7391,
  "spreading": 7392,
  "dunkelheit": 7393,
  "leichter": 7394,
  "philosophie": 7395,
  "pregnant": 7396,
  "riesen@@": 7397,
  "blick@@": 7398,
  "eier": 7399,
  "sheep": 7400,
  "übersetzen": 7401,
  "consumers": 7402,
  "zufriedenheit": 7403,
  "invent": 7404,
  "einst": 7405,
  "carried": 7406,
  "gabe": 7407,
  "connecting": 7408,
  "maß": 7409,
  "shock": 7410,
  "kreativen": 7411,
  "bezeichnen": 7412,
  "tall": 7413,
  "clinic": 7414,
  "depend": 7415,
  "automatically": 7416,
  "reaching": 7417,
  "infiziert": 7418,
  "bike": 7419,
  "stoppen": 7420,
  "struck": 7421,
  "silence": 7422,
  "agreed": 7423,
  "housing": 7424,
  "drehte": 7425,
  "mehreren": 7426,
  "density": 7427,
  "offered": 7428,
  "köpfe": 7429,
  "commitment": 7430,
  "fressen": 7431,
  "abgesehen": 7432,
  "bemerkenswert": 7433,
  "wunderbaren": 7434,
  "session": 7435,
  "klinik": 7436,
  "happier": 7437,
  "klassenzimmer": 7438,
  "existed": 7439,
  "inspirieren": 7440,
  "traurig": 7441,
  "erneut": 7442,
  "songs": 7443,
  "interview": 7444,
  "vorhin": 7445,
  "ökonomen": 7446,
  "schlussendlich": 7447,
  "20,000": 7448,
  "elektrischen": 7449,
  "geruch": 7450,
  "teilnehmer": 7451,
  "pflanze": 7452,
  "granted": 7453,
  "veröffentlichen": 7454,
  "dahinter": 7455,
  "intuitive": 7456,
  "half-@@": 7457,
  "präsidenten": 7458,
  "knapp": 7459,
  "ear": 7460,
  "shut": 7461,
  "implications": 7462,
  "ländlichen": 7463,
  "drauf": 7464,
  "exploring": 7465,
  "probability": 7466,
  "anpassen": 7467,
  "bären": 7468,
  "ursprung": 7469,
  "clever": 7470,
  "altern": 7471,
  "irgendwelche": 7472,
  "dolphins": 7473,
  "villages": 7474,
  "nannten": 7475,
  "march": 7476,
  "raub@@": 7477,
  "functions": 7478,
  "beteiligt": 7479,
  "input": 7480,
  "ruhe": 7481,
  "narrative": 7482,
  "nest": 7483,
  "späten": 7484,
  "suffer": 7485,
  "studium": 7486,
  "parking": 7487,
  "scheitern": 7488,
  "bezeichnet": 7489,
  "vergangenen": 7490,
  "romantic": 7491,
  "handys": 7492,
  "dienst@@": 7493,
  "biologen": 7494,
  "causing": 7495,
  "wolke": 7496,
  "katze": 7497,
  "verdient": 7498,
  "isierung": 7499,
  "organisiert": 7500,
  "0,@@": 7501,
  "pig": 7502,
  "stations": 7503,
  "attacks": 7504,
  "riesiges": 7505,
  "poly@@": 7506,
  "grab": 7507,
  "interactive": 7508,
  "falschen": 7509,
  "appreciate": 7510,
  "frucht@@": 7511,
  "interestingly": 7512,
  "year-olds": 7513,
  "tower": 7514,
  "extinct": 7515,
  "translate": 7516,
  "flugzeuge": 7517,
  "symptoms": 7518,
  "ists": 7519,
  "gates": 7520,
  "height": 7521,
  "inspiring": 7522,
  "besuchte": 7523,
  "see@@": 7524,
  "till": 7525,
  "border": 7526,
  "awesome": 7527,
  "circuit": 7528,
  "breathe": 7529,
  "painful": 7530,
  "long-@@": 7531,
  "organismus": 7532,
  "technischen": 7533,
  "apparently": 7534,
  "öffnet": 7535,
  "weltkrieg": 7536,
  "agency": 7537,
  "akt": 7538,
  "wahlen": 7539,
  "microscope": 7540,
  "club": 7541,
  "chart": 7542,
  "gebrauch": 7543,
  "werbe@@": 7544,
  "gray": 7545,
  "classic": 7546,
  "spider": 7547,
  "genießen": 7548,
  "stamm": 7549,
  "danger": 7550,
  "erinnerungen": 7551,
  "synthetic": 7552,
  "golf@@": 7553,
  "lifestyle": 7554,
  "fließen": 7555,
  "spezielle": 7556,
  "zuschauer": 7557,
  "unterwegs": 7558,
  "biologischen": 7559,
  "flüssigkeit": 7560,
  "binden": 7561,
  "wünsche": 7562,
  "depending": 7563,
  "x-ray": 7564,
  "geistes@@": 7565,
  "dienen": 7566,
  "phrase": 7567,
  "steuer@@": 7568,
  "enable": 7569,
  "störungen": 7570,
  "reference": 7571,
  "neulich": 7572,
  "grass": 7573,
  "wozu": 7574,
  "friendly": 7575,
  "entered": 7576,
  "powers": 7577,
  "higgs": 7578,
  "un": 7579,
  "gewöhnt": 7580,
  "silicon": 7581,
  "circa": 7582,
  "fließt": 7583,
  "trennen": 7584,
  "calculate": 7585,
  "constant": 7586,
  "properly": 7587,
  "oberen": 7588,
  "teilte": 7589,
  "konfrontiert": 7590,
  "latin": 7591,
  "wanting": 7592,
  "vorschlag": 7593,
  "belohnung": 7594,
  "heiß": 7595,
  "corn": 7596,
  "samkeit": 7597,
  "tasks": 7598,
  "application": 7599,
  "beigebracht": 7600,
  "bewahren": 7601,
  "herunter": 7602,
  "dot": 7603,
  "bell": 7604,
  "dunklen": 7605,
  "watt": 7606,
  "islamic": 7607,
  "latest": 7608,
  "hill": 7609,
  "script": 7610,
  "heran": 7611,
  "interessanten": 7612,
  "zunehmend": 7613,
  "umzugehen": 7614,
  "anführer": 7615,
  "verkehrs@@": 7616,
  "fortunately": 7617,
  "ehre": 7618,
  "records": 7619,
  "secure": 7620,
  "verwendung": 7621,
  "concrete": 7622,
  "geworfen": 7623,
  "disorder": 7624,
  "beruf": 7625,
  "rising": 7626,
  "bekämpfen": 7627,
  "spoken": 7628,
  "balloon": 7629,
  "mess": 7630,
  "tenden": 7631,
  "arguments": 7632,
  "jahrzehnte": 7633,
  "assume": 7634,
  "chinesischen": 7635,
  "samples": 7636,
  "inch": 7637,
  "versorgen": 7638,
  "á@@": 7639,
  "cats": 7640,
  "volles": 7641,
  "gegenden": 7642,
  "determined": 7643,
  "70s": 7644,
  "reflect": 7645,
  "snow": 7646,
  "dinger": 7647,
  "physische": 7648,
  "insgesamt": 7649,
  "sender": 7650,
  "inspire": 7651,
  "wissenschaftlern": 7652,
  "symmetrie": 7653,
  "diges": 7654,
  "kontroll@@": 7655,
  "dozen": 7656,
  "schlechtes": 7657,
  "gemüse": 7658,
  "dramatically": 7659,
  "beides": 7660,
  "chemische": 7661,
  "score": 7662,
  "kindes": 7663,
  "empfinden": 7664,
  "remove": 7665,
  "altes": 7666,
  "bewirken": 7667,
  "begreifen": 7668,
  "kette": 7669,
  "chest": 7670,
  "reputation": 7671,
  "frankreich": 7672,
  "shell": 7673,
  "irgendeinem": 7674,
  "curiosity": 7675,
  "teilten": 7676,
  "blätter": 7677,
  "centuries": 7678,
  "optimistic": 7679,
  "ausgesetzt": 7680,
  "behave": 7681,
  "congo": 7682,
  "magazin": 7683,
  "chtes": 7684,
  "capitalism": 7685,
  "gefüllt": 7686,
  "wunderschöne": 7687,
  "toxic": 7688,
  "tied": 7689,
  "liver": 7690,
  "judge": 7691,
  "aside": 7692,
  "recovery": 7693,
  "letztlich": 7694,
  "geographic": 7695,
  "angriff": 7696,
  "prefer": 7697,
  "breathing": 7698,
  "shoulder": 7699,
  "mainly": 7700,
  "fahrzeug": 7701,
  "linear": 7702,
  "slides": 7703,
  "klima": 7704,
  "stille": 7705,
  "zentral@@": 7706,
  "winkel": 7707,
  "reaktionen": 7708,
  "könne": 7709,
  "standards": 7710,
  "tour": 7711,
  "elephant": 7712,
  "exhibition": 7713,
  "zugeben": 7714,
  "all-@@": 7715,
  "lens": 7716,
  "blasen": 7717,
  "abhängigkeit": 7718,
  "afrikanische": 7719,
  "neigen": 7720,
  "packen": 7721,
  "kasten": 7722,
  "cute": 7723,
  "scary": 7724,
  "1000": 7725,
  "dependent": 7726,
  "maße": 7727,
  "drinking": 7728,
  "identifizieren": 7729,
  "kalt": 7730,
  "advertising": 7731,
  "versteckt": 7732,
  "käfer": 7733,
  "ignore": 7734,
  "katastrophen": 7735,
  "zeitraum": 7736,
  "ausmachen": 7737,
  "whale": 7738,
  "plätze": 7739,
  "disorders": 7740,
  "offene": 7741,
  "studiert": 7742,
  "langweilig": 7743,
  "disappear": 7744,
  "außergewöhnlich": 7745,
  "productivity": 7746,
  "lebensmittel@@": 7747,
  "classes": 7748,
  "breaks": 7749,
  "distant": 7750,
  "hide": 7751,
  "russia": 7752,
  "zweifel": 7753,
  "legacy": 7754,
  "destroy": 7755,
  "conservation": 7756,
  "vorsichtig": 7757,
  "ideal": 7758,
  "appears": 7759,
  "destroyed": 7760,
  "ain": 7761,
  "positiven": 7762,
  "visuellen": 7763,
  "orbit": 7764,
  "parent": 7765,
  "clay": 7766,
  "reduction": 7767,
  "charity": 7768,
  "telephone": 7769,
  "meetings": 7770,
  "transparency": 7771,
  "units": 7772,
  "attached": 7773,
  "adapt": 7774,
  "seed": 7775,
  "populations": 7776,
  "kreative": 7777,
  "op": 7778,
  "enemy": 7779,
  "concepts": 7780,
  "educated": 7781,
  "spenden": 7782,
  "verschieden": 7783,
  "thrown": 7784,
  "darkness": 7785,
  "papier@@": 7786,
  "aktuelle": 7787,
  "wale": 7788,
  "spur": 7789,
  "virtually": 7790,
  "extent": 7791,
  "auftrag": 7792,
  "gelt": 7793,
  "füße": 7794,
  "fixed": 7795,
  "erwähnen": 7796,
  "sichtweise": 7797,
  "berechnungen": 7798,
  "organize": 7799,
  "fett": 7800,
  "neuron": 7801,
  "afterwards": 7802,
  "tragedy": 7803,
  "getrennt": 7804,
  "erwärmung": 7805,
  "facial": 7806,
  "physicist": 7807,
  "physischen": 7808,
  "teenager": 7809,
  "apartment": 7810,
  "trage": 7811,
  "wea@@": 7812,
  "vorträge": 7813,
  "outcomes": 7814,
  "desk": 7815,
  "nurses": 7816,
  "season": 7817,
  "projekten": 7818,
  "contrast": 7819,
  "fotografiert": 7820,
  "wälder": 7821,
  "jenseits": 7822,
  "zentren": 7823,
  "headed": 7824,
  "january": 7825,
  "surrounded": 7826,
  "winzigen": 7827,
  "sogenannte": 7828,
  "höhepunkt": 7829,
  "historical": 7830,
  "conversations": 7831,
  "locked": 7832,
  "chimpanzees": 7833,
  "monkey": 7834,
  "punkten": 7835,
  "sions@@": 7836,
  "geschmack": 7837,
  "prozesse": 7838,
  "dynamics": 7839,
  "parallel": 7840,
  "höchsten": 7841,
  "maßnahmen": 7842,
  "mechanismus": 7843,
  "traveled": 7844,
  "memories": 7845,
  "flog": 7846,
  "vulnerability": 7847,
  "seide": 7848,
  "entstehung": 7849,
  "erklärte": 7850,
  "el-@@": 7851,
  "irgendwas": 7852,
  "papers": 7853,
  "blow": 7854,
  "videospiele": 7855,
  "figur": 7856,
  "traditionelle": 7857,
  "hinblick": 7858,
  "interessen": 7859,
  "appeared": 7860,
  "ridiculous": 7861,
  "backwards": 7862,
  "verrückte": 7863,
  "autism": 7864,
  "atlantic": 7865,
  "seats": 7866,
  "dioxide": 7867,
  "herself": 7868,
  "sheet": 7869,
  "embedded": 7870,
  "hardly": 7871,
  "tee": 7872,
  "heaven": 7873,
  "saßen": 7874,
  "dichter": 7875,
  "stirbt": 7876,
  "positions": 7877,
  "talent": 7878,
  "frequenz": 7879,
  "challenging": 7880,
  "orange": 7881,
  "produces": 7882,
  "gewann": 7883,
  "institut": 7884,
  "bösen": 7885,
  "worker": 7886,
  "verschiedener": 7887,
  "ugly": 7888,
  "verschwindet": 7889,
  "gestartet": 7890,
  "tende": 7891,
  "filter": 7892,
  "presented": 7893,
  "photography": 7894,
  "wein": 7895,
  "excuse": 7896,
  "overcome": 7897,
  "landed": 7898,
  "investiert": 7899,
  "übung": 7900,
  "teleskop": 7901,
  "exakt": 7902,
  "beitrag": 7903,
  "weibliche": 7904,
  "academic": 7905,
  "hoher": 7906,
  "emotionale": 7907,
  "cheaper": 7908,
  "muscles": 7909,
  "echtes": 7910,
  "zurückgehen": 7911,
  "hassen": 7912,
  "tierten": 7913,
  "symptome": 7914,
  "erfüllen": 7915,
  "heilen": 7916,
  "80s": 7917,
  "britischen": 7918,
  "resolution": 7919,
  "ausdrücken": 7920,
  "stufen": 7921,
  "kuchen": 7922,
  "bee": 7923,
  "currency": 7924,
  "weltbevölkerung": 7925,
  "kanal": 7926,
  "krab@@": 7927,
  "spannung": 7928,
  "oldest": 7929,
  "umso": 7930,
  "fifth": 7931,
  "spiritual": 7932,
  "i-@@": 7933,
  "denselben": 7934,
  "stämme": 7935,
  "cup": 7936,
  "ausgegeben": 7937,
  "benutze": 7938,
  "zukommen": 7939,
  "denkweise": 7940,
  "accessible": 7941,
  "smoke": 7942,
  "frequency": 7943,
  "haare": 7944,
  "fiber": 7945,
  "tired": 7946,
  "opens": 7947,
  "bias": 7948,
  "einheiten": 7949,
  "schickte": 7950,
  "controlling": 7951,
  "gedächtnis": 7952,
  "increases": 7953,
  "floating": 7954,
  "ending": 7955,
  "so-called": 7956,
  "anger": 7957,
  "gebildet": 7958,
  "eigentliche": 7959,
  "kohlenstoff": 7960,
  "soviet": 7961,
  "jeweils": 7962,
  "andererseits": 7963,
  "zukünftigen": 7964,
  "jack": 7965,
  "morality": 7966,
  "inklusive": 7967,
  "involves": 7968,
  "willkommen": 7969,
  "nervös": 7970,
  "benutzte": 7971,
  "includes": 7972,
  "sprung": 7973,
  "naked": 7974,
  "erfassen": 7975,
  "gerettet": 7976,
  "truck": 7977,
  "stanford": 7978,
  "frozen": 7979,
  "rice": 7980,
  "pause": 7981,
  "gewöhnlich": 7982,
  "funded": 7983,
  "kongo": 7984,
  "official": 7985,
  "lehrern": 7986,
  "pushing": 7987,
  "lecture": 7988,
  "hinunter": 7989,
  "komplizierte": 7990,
  "pflege": 7991,
  "ener": 7992,
  "grundlegend": 7993,
  "adding": 7994,
  "reef": 7995,
  "verletzungen": 7996,
  "hitze": 7997,
  "sms": 7998,
  "schätzung": 7999,
  "schwerer": 8000,
  "verbrauch": 8001,
  "globalisierung": 8002,
  "poorest": 8003,
  "tax": 8004,
  "wiederholt": 8005,
  "wundervolle": 8006,
  "smallpox": 8007,
  "50.000": 8008,
  "repräsentiert": 8009,
  "rum@@": 8010,
  "berichtet": 8011,
  "atoren": 8012,
  "pace": 8013,
  "logik": 8014,
  "feind": 8015,
  "zeitungen": 8016,
  "kapitalismus": 8017,
  "bewegungs@@": 8018,
  "gründete": 8019,
  "plenty": 8020,
  "filmen": 8021,
  "geraten": 8022,
  "design@@": 8023,
  "super-@@": 8024,
  "sports": 8025,
  "wieviele": 8026,
  "personality": 8027,
  "drawn": 8028,
  "provides": 8029,
  "static": 8030,
  "ingenieur": 8031,
  "expert": 8032,
  "wetter": 8033,
  "ignorieren": 8034,
  "spots": 8035,
  "maintain": 8036,
  "volunteers": 8037,
  "achieved": 8038,
  "photographed": 8039,
  "gelb": 8040,
  "colony": 8041,
  "chosen": 8042,
  "gedanken@@": 8043,
  "muslims": 8044,
  "yours": 8045,
  "schwanz": 8046,
  "kommunikations@@": 8047,
  "missed": 8048,
  "entscheidende": 8049,
  "discoveries": 8050,
  "globalization": 8051,
  "practices": 8052,
  "nachrichten@@": 8053,
  "theorien": 8054,
  "interessanterweise": 8055,
  "psychological": 8056,
  "trucks": 8057,
  "effizient": 8058,
  "drill": 8059,
  "weltall": 8060,
  "erfinder": 8061,
  "laid": 8062,
  "foods": 8063,
  "falle": 8064,
  "uni": 8065,
  "asks": 8066,
  "aufstieg": 8067,
  "killer": 8068,
  "demonstrate": 8069,
  "habitat": 8070,
  "eng": 8071,
  "persönlichkeit": 8072,
  "vergnügen": 8073,
  "versprechen": 8074,
  "knopf": 8075,
  "fluid": 8076,
  "strecken": 8077,
  "rush": 8078,
  "reduced": 8079,
  "lichter": 8080,
  "profitieren": 8081,
  "toilet": 8082,
  "continues": 8083,
  "umgang": 8084,
  "allowing": 8085,
  "köpfen": 8086,
  "benutzten": 8087,
  "journalist": 8088,
  "billig": 8089,
  "writers": 8090,
  "host": 8091,
  "sogenannten": 8092,
  "copyright": 8093,
  "spä@@": 8094,
  "entscheidend": 8095,
  "1.": 8096,
  "dazwischen": 8097,
  "hearts": 8098,
  "staats@@": 8099,
  "thick": 8100,
  "ausnahme": 8101,
  "allo@@": 8102,
  "universitäten": 8103,
  "gesunde": 8104,
  "summe": 8105,
  "lift": 8106,
  "blickwinkel": 8107,
  "diesmal": 8108,
  "silent": 8109,
  "beer": 8110,
  "kreislauf": 8111,
  "lernten": 8112,
  "fears": 8113,
  "precisely": 8114,
  "gib": 8115,
  "excellent": 8116,
  "messer": 8117,
  "ten-@@": 8118,
  "anbieten": 8119,
  "kaputt": 8120,
  "effekte": 8121,
  "rarely": 8122,
  "brand@@": 8123,
  "agenda": 8124,
  "streit": 8125,
  "lieder": 8126,
  "kiste": 8127,
  "szene": 8128,
  "strecke": 8129,
  "fiction": 8130,
  "0.@@": 8131,
  "capita": 8132,
  "nachhaltige": 8133,
  "tribes": 8134,
  "provided": 8135,
  "facility": 8136,
  "kulturellen": 8137,
  "konflikte": 8138,
  "doppel@@": 8139,
  "diagram": 8140,
  "hungry": 8141,
  "folgte": 8142,
  "angry": 8143,
  "cable": 8144,
  "emergency": 8145,
  "gps": 8146,
  "harte": 8147,
  "nachdenkt": 8148,
  "removed": 8149,
  "extract": 8150,
  "wahren": 8151,
  "fabulous": 8152,
  "hinauf": 8153,
  "dedicated": 8154,
  "glamorous": 8155,
  "höchste": 8156,
  "storm": 8157,
  "terrorism": 8158,
  "zugleich": 8159,
  "searching": 8160,
  "technische": 8161,
  "-jährige": 8162,
  "fache": 8163,
  "courage": 8164,
  "fascinated": 8165,
  "fabriken": 8166,
  "sternen": 8167,
  "orchestra": 8168,
  "with@@": 8169,
  "drogen@@": 8170,
  "speakers": 8171,
  "güter": 8172,
  "ethiopia": 8173,
  "schlimm": 8174,
  "elefanten": 8175,
  "gold@@": 8176,
  "ruhig": 8177,
  "glaubten": 8178,
  "finds": 8179,
  "letting": 8180,
  "umstände": 8181,
  "strategien": 8182,
  "sag": 8183,
  "höheren": 8184,
  "imagined": 8185,
  "license": 8186,
  "sieb@@": 8187,
  "earthquake": 8188,
  "besitz": 8189,
  "schnelle": 8190,
  "güte": 8191,
  "astonishing": 8192,
  "statistik": 8193,
  "boards": 8194,
  "opposed": 8195,
  "native": 8196,
  "schöner": 8197,
  "ausschließlich": 8198,
  "intuition": 8199,
  "z.": 8200,
  "doktor": 8201,
  "tolles": 8202,
  "integrated": 8203,
  "anruf": 8204,
  "hollywood": 8205,
  "liest": 8206,
  "gging": 8207,
  "glasses": 8208,
  "angetrieben": 8209,
  "jail": 8210,
  "schlimmsten": 8211,
  "klassen@@": 8212,
  "reichtum": 8213,
  "schulter": 8214,
  "entwicklungsländer": 8215,
  "keinem": 8216,
  "crying": 8217,
  "ausmacht": 8218,
  "bicycle": 8219,
  "erwartungen": 8220,
  "nurse": 8221,
  "erdbeben": 8222,
  "clients": 8223,
  "explaining": 8224,
  "fasern": 8225,
  "transparenz": 8226,
  "20.000": 8227,
  "ethical": 8228,
  "sozialer": 8229,
  "pilot": 8230,
  "allgemein": 8231,
  "e-mail": 8232,
  "werdet": 8233,
  "limits": 8234,
  "kolonie": 8235,
  "analysieren": 8236,
  "conclude": 8237,
  "drove": 8238,
  "qualities": 8239,
  "affordable": 8240,
  "shooting": 8241,
  "früheren": 8242,
  "weitermachen": 8243,
  "elsewhere": 8244,
  "pflanzen@@": 8245,
  "recognition": 8246,
  "dert": 8247,
  "pyramid": 8248,
  "skull": 8249,
  "permanent": 8250,
  "jenen": 8251,
  "dumm": 8252,
  "zurückkehren": 8253,
  "väter": 8254,
  "13@@": 8255,
  "gegessen": 8256,
  "jugend": 8257,
  "matischen": 8258,
  "leistungen": 8259,
  "likes": 8260,
  "grandfather": 8261,
  "bars": 8262,
  "loud": 8263,
  "berühmt": 8264,
  "controls": 8265,
  "begriffen": 8266,
  "cambridge": 8267,
  "konsum": 8268,
  "reicher": 8269,
  "künstliche": 8270,
  "surfaces": 8271,
  "motoren": 8272,
  "rechner": 8273,
  "januar": 8274,
  "recognized": 8275,
  "react": 8276,
  "strand": 8277,
  "korallen": 8278,
  "brustkrebs": 8279,
  "angesichts": 8280,
  "flaschen": 8281,
  "4,000": 8282,
  "informed": 8283,
  "suggesting": 8284,
  "dust": 8285,
  "linke": 8286,
  "verließ": 8287,
  "neugierig": 8288,
  "agricultural": 8289,
  "review": 8290,
  "escape": 8291,
  "halben": 8292,
  "dollar-@@": 8293,
  "saturn": 8294,
  "polar": 8295,
  "transport": 8296,
  "gegenstand": 8297,
  "diskutieren": 8298,
  "russland": 8299,
  "wundervoll": 8300,
  "…": 8301,
  "fahrrad": 8302,
  "ältesten": 8303,
  "origin": 8304,
  "cap": 8305,
  "reparieren": 8306,
  "gipfel": 8307,
  "knee": 8308,
  "wiederholen": 8309,
  "intelligente": 8310,
  "autismus": 8311,
  "tank": 8312,
  "succeed": 8313,
  "nerven": 8314,
  "figuring": 8315,
  "m-@@": 8316,
  "dick": 8317,
  "pool": 8318,
  "receive": 8319,
  "dignity": 8320,
  "protecting": 8321,
  "gezwungen": 8322,
  "alisierten": 8323,
  "dienstleistungen": 8324,
  "architectural": 8325,
  "suicide": 8326,
  "emerge": 8327,
  "hirn": 8328,
  "artistic": 8329,
  "consume": 8330,
  "verliebt": 8331,
  "aircraft": 8332,
  "bescheid": 8333,
  "returned": 8334,
  "z-@@": 8335,
  "contains": 8336,
  "architekt": 8337,
  "nobel": 8338,
  "consequence": 8339,
  "picking": 8340,
  "anzeige": 8341,
  "circles": 8342,
  "figuren": 8343,
  "bewegte": 8344,
  "collecting": 8345,
  "aufrecht": 8346,
  "airport": 8347,
  "würdest": 8348,
  "erlangen": 8349,
  "gore": 8350,
  "eröffnet": 8351,
  "entschuldigung": 8352,
  "störung": 8353,
  "chief": 8354,
  "preis@@": 8355,
  "observation": 8356,
  "economist": 8357,
  "übertragung": 8358,
  "trends": 8359,
  "waschen": 8360,
  "customers": 8361,
  "angebot": 8362,
  "harm": 8363,
  "verbesserung": 8364,
  "biologists": 8365,
  "rum": 8366,
  "geh": 8367,
  "entwurf": 8368,
  "wohnen": 8369,
  "verbrauchen": 8370,
  "kalten": 8371,
  "standpunkt": 8372,
  "kas@@": 8373,
  "landete": 8374,
  "bip": 8375,
  "initial": 8376,
  "privaten": 8377,
  "festgestellt": 8378,
  "mikroskop": 8379,
  "ratten": 8380,
  "chirurgen": 8381,
  "hinsichtlich": 8382,
  "psycho@@": 8383,
  "westliche": 8384,
  "tote": 8385,
  "becken": 8386,
  "überprüfen": 8387,
  "einziges": 8388,
  "nahezu": 8389,
  "heiraten": 8390,
  "borders": 8391,
  "mining": 8392,
  "cave": 8393,
  "deckt": 8394,
  "variation": 8395,
  "june": 8396,
  "cartoon": 8397,
  "rocks": 8398,
  "musicians": 8399,
  "jewish": 8400,
  "stammen": 8401,
  "dienste": 8402,
  "represented": 8403,
  "photographer": 8404,
  "scales": 8405,
  "nachhaltigkeit": 8406,
  "chirurg": 8407,
  "separated": 8408,
  "offers": 8409,
  "predictions": 8410,
  "focusing": 8411,
  "neural": 8412,
  "120": 8413,
  "palm": 8414,
  "abendessen": 8415,
  "speicher": 8416,
  "elled": 8417,
  "sharp": 8418,
  "repair": 8419,
  "realm": 8420,
  "quest": 8421,
  "alien": 8422,
  "underground": 8423,
  "englischen": 8424,
  "cash": 8425,
  "rescue": 8426,
  "mammals": 8427,
  "bears": 8428,
  "mice": 8429,
  "stad@@": 8430,
  "poet": 8431,
  "sensory": 8432,
  "proper": 8433,
  "crossing": 8434,
  "regret": 8435,
  "schreibe": 8436,
  "layers": 8437,
  "encounter": 8438,
  "accidents": 8439,
  "jagen": 8440,
  "rwanda": 8441,
  "europäischen": 8442,
  "gesunden": 8443,
  "wandern": 8444,
  "kauft": 8445,
  "vable": 8446,
  "optimismus": 8447,
  "neighbor": 8448,
  "jährlich": 8449,
  "climbing": 8450,
  "sicherer": 8451,
  "durchzuführen": 8452,
  "providing": 8453,
  "zug@@": 8454,
  "kreiert": 8455,
  "rebuild": 8456,
  "openness": 8457,
  "brian": 8458,
  "fathers": 8459,
  "precise": 8460,
  "deinem": 8461,
  "transparent": 8462,
  "computation": 8463,
  "glamour": 8464,
  "diverse": 8465,
  "konsumenten": 8466,
  "watts": 8467,
  "injury": 8468,
  "allgemeine": 8469,
  "someday": 8470,
  "aber@@": 8471,
  "sales": 8472,
  "shelf": 8473,
  "gathering": 8474,
  "buried": 8475,
  "ministerium": 8476,
  "rechnung": 8477,
  "pulling": 8478,
  "unterhalb": 8479,
  "enormen": 8480,
  "2.000": 8481,
  "electronics": 8482,
  "diagnosed": 8483,
  "schlau": 8484,
  "vorn": 8485,
  "amongst": 8486,
  "concern": 8487,
  "dress": 8488,
  "bord": 8489,
  "pump": 8490,
  "kleinere": 8491,
  "reports": 8492,
  "owned": 8493,
  "vacuum": 8494,
  "unterhalten": 8495,
  "monitor": 8496,
  "dialog": 8497,
  "highway": 8498,
  "mines": 8499,
  "neuroscience": 8500,
  "gefängnis@@": 8501,
  "prototypen": 8502,
  "seil": 8503,
  "october": 8504,
  "übersetzt": 8505,
  "isten": 8506,
  "characteristics": 8507,
  "zurückkommen": 8508,
  "glückliche": 8509,
  "devil": 8510,
  "einzigartig": 8511,
  "beinen": 8512,
  "abends": 8513,
  "zucker@@": 8514,
  "brüder": 8515,
  "antrieb": 8516,
  "strategies": 8517,
  "schwarzes": 8518,
  "kongress": 8519,
  "behörde": 8520,
  "design-@@": 8521,
  "fotografie": 8522,
  "indiens": 8523,
  "hire": 8524,
  "praxis": 8525,
  "te-@@": 8526,
  "interactions": 8527,
  "vertical": 8528,
  "ballon": 8529,
  "geblieben": 8530,
  "constructed": 8531,
  "1990s": 8532,
  "gestaltung": 8533,
  "verbraucht": 8534,
  "vieler": 8535,
  "barely": 8536,
  "n-@@": 8537,
  "mochte": 8538,
  "ängste": 8539,
  "politisch": 8540,
  "symbols": 8541,
  "loop": 8542,
  "angehen": 8543,
  "knie": 8544,
  "fremden": 8545,
  "lebensqualität": 8546,
  "bedeckt": 8547,
  "sierung": 8548,
  "nimm": 8549,
  "hardware": 8550,
  "unbelievable": 8551,
  "betrieb": 8552,
  "befreien": 8553,
  "ecosystems": 8554,
  "optimism": 8555,
  "reagiert": 8556,
  "durfte": 8557,
  "boundaries": 8558,
  "dutzend": 8559,
  "quer@@": 8560,
  "output": 8561,
  "weapon": 8562,
  "bedienen": 8563,
  "inches": 8564,
  "speaker": 8565,
  "selektion": 8566,
  "classical": 8567,
  "backs": 8568,
  "richer": 8569,
  "manhattan": 8570,
  "farmer": 8571,
  "policies": 8572,
  "governance": 8573,
  "failing": 8574,
  "zweites": 8575,
  "dolphin": 8576,
  "smooth": 8577,
  "exposed": 8578,
  "efforts": 8579,
  "pointing": 8580,
  "rely": 8581,
  "hanging": 8582,
  "lac@@": 8583,
  "favor": 8584,
  "unlikely": 8585,
  "interacting": 8586,
  "mixed": 8587,
  "reported": 8588,
  "app": 8589,
  "seek": 8590,
  "revenue": 8591,
  "tumors": 8592,
  "innovations": 8593,
  "council": 8594,
  "pushed": 8595,
  "detection": 8596,
  "ingredients": 8597,
  "seeds": 8598,
  "crops": 8599,
  "mode": 8600,
  "emerged": 8601,
  "insurance": 8602,
  "hingehen": 8603,
  "flip": 8604,
  "-like": 8605,
  "lehrerin": 8606,
  "marks": 8607,
  "fruit": 8608,
  "wohlbefinden": 8609,
  "humor": 8610,
  "dinosaur": 8611,
  "stages": 8612,
  "ersetzt": 8613,
  "zusätzliche": 8614,
  "einrichtung": 8615,
  "hinweise": 8616,
  "treatments": 8617,
  "bemerkenswerte": 8618,
  "vital": 8619,
  "klingen": 8620,
  "anfängt": 8621,
  "dreimal": 8622,
  "limb": 8623,
  "federal": 8624,
  "onkel": 8625,
  "schreckliche": 8626,
  "geöffnet": 8627,
  "außergewöhnliche": 8628,
  "asteroid": 8629,
  "auswirkung": 8630,
  "eingehen": 8631,
  "700": 8632,
  "..": 8633,
  "aufregende": 8634,
  "winning": 8635,
  "tisch@@": 8636,
  "chef": 8637,
  "mall": 8638,
  "privilege": 8639,
  "2.": 8640,
  "frog": 8641,
  "gebäudes": 8642,
  "essence": 8643,
  "grä@@": 8644,
  "tension": 8645,
  "impfstoff": 8646,
  "wünschen": 8647,
  "verlangt": 8648,
  "nachfrage": 8649,
  "bandbreite": 8650,
  "ansichten": 8651,
  "ausgebildet": 8652,
  "unterscheidet": 8653,
  "atome": 8654,
  "dramatisch": 8655,
  "dose": 8656,
  "katzen": 8657,
  "wut": 8658,
  "änderte": 8659,
  "plot": 8660,
  "harvest": 8661,
  "mittelpunkt": 8662,
  "legten": 8663,
  "damn": 8664,
  "kohle@@": 8665,
  "oktober": 8666,
  "errichten": 8667,
  "preserve": 8668,
  "erledigt": 8669,
  "bottles": 8670,
  "grafie": 8671,
  "tony": 8672,
  "geräten": 8673,
  "skeleton": 8674,
  "originally": 8675,
  "erinnerte": 8676,
  "domestic": 8677,
  "gewalt@@": 8678,
  "vorgestellt": 8679,
  "spielten": 8680,
  "durchmesser": 8681,
  "announced": 8682,
  "amerikas": 8683,
  "sleeping": 8684,
  "bedürfnis": 8685,
  "kg": 8686,
  "gemessen": 8687,
  "silly": 8688,
  "aktuellen": 8689,
  "subway": 8690,
  "wunderschön": 8691,
  "trainieren": 8692,
  "footprint": 8693,
  "anstellen": 8694,
  "entdeckten": 8695,
  "1960": 8696,
  "beitragen": 8697,
  "hinweis": 8698,
  "shrimp": 8699,
  "ologische": 8700,
  "laser": 8701,
  "zentimeter": 8702,
  "served": 8703,
  "kombinieren": 8704,
  "berechnung": 8705,
  "procedure": 8706,
  "auszudrücken": 8707,
  "historic": 8708,
  "bier": 8709,
  "manager": 8710,
  "streifen": 8711,
  "cooperation": 8712,
  "spinal": 8713,
  "nationalen": 8714,
  "schlimmste": 8715,
  "conflicts": 8716,
  "bahnen": 8717,
  "großartiger": 8718,
  "depressed": 8719,
  "beschreibung": 8720,
  "parties": 8721,
  "robotic": 8722,
  "investition": 8723,
  "gewinnt": 8724,
  "methods": 8725,
  "mannes": 8726,
  "öffnete": 8727,
  "amazon": 8728,
  "beginne": 8729,
  "guide": 8730,
  "32": 8731,
  "evolve": 8732,
  "ausgehen": 8733,
  "skulptur": 8734,
  "wunderschönen": 8735,
  "engaging": 8736,
  "schafften": 8737,
  "toes": 8738,
  "shopping": 8739,
  "document": 8740,
  "committed": 8741,
  "meal": 8742,
  "stones": 8743,
  "getestet": 8744,
  "besides": 8745,
  "atem": 8746,
  "schaffte": 8747,
  "löst": 8748,
  "schlange": 8749,
  "deuten": 8750,
  "hersteller": 8751,
  "sentences": 8752,
  "wash": 8753,
  "anreize": 8754,
  "successfully": 8755,
  "dive": 8756,
  "liberal": 8757,
  "globally": 8758,
  "hauses": 8759,
  "ausgabe": 8760,
  "stores": 8761,
  "consistent": 8762,
  "religiöse": 8763,
  "weltweite": 8764,
  "taschen": 8765,
  "may@@": 8766,
  "scratch": 8767,
  "nochmals": 8768,
  "teenagers": 8769,
  "komisch": 8770,
  "struggling": 8771,
  "besonderes": 8772,
  "gentleman": 8773,
  "garbage": 8774,
  "‹": 8775,
  "›": 8776,
  "°": 8777,
  ")": 8778,
  "½": 8779,
  "=": 8780,
  "ó@@": 8781,
  "²": 8782,
  "í@@": 8783,
  "‟": 8784,
  "#": 8785,
  "‚": 8786,
  "è@@": 8787,
  "ñ@@": 8788,
  "à": 8789,
  "@": 8790,
  "(": 8791,
  "^": 8792,
  "ü": 8793,
  "‒": 8794,
  "β@@": 8795,
  "ç@@": 8796,
  "ã@@": 8797,
  "": 8798,
  "ê@@": 8799,
  "í": 8800,
  "â@@": 8801,
  "ó": 8802,
  "": 8803,
  "": 8804,
  "­": 8805,
  "ā@@": 8806,
  "¥": 8807,
  "อ@@": 8808,
  "`": 8809,
  "": 8810,
  "ö": 8811,
  "ä": 8812,
  "": 8813,
  "â": 8814,
  "": 8815,
  "ø@@": 8816,
  "ú@@": 8817,
  "*": 8818,
  "³": 8819,
  "¼": 8820,
  "β": 8821,
  "×": 8822,
  "ô@@": 8823,
  "å@@": 8824,
  "送@@": 8825,
  "่": 8826,
  "®": 8827,
  "©": 8828,
  "`@@": 8829,
  "你@@": 8830,
  "_": 8831,
  "è": 8832,
  "ë@@": 8833,
  "ร": 8834,
  "ï@@": 8835,
  "葱": 8836,
  "\\": 8837,
  "£": 8838,
  "ย@@": 8839,
  "¾": 8840,
  "ō@@": 8841,
  "，": 8842,
  "﻿": 8843,
  "š@@": 8844,
  "à@@": 8845,
  "ý@@": 8846,
  "ӓ@@": 8847,
  "œ@@": 8848,
  "ē": 8849,
  "ć": 8850,
  "€": 8851,
  "ť": 8852,
  "ă@@": 8853,
  "ย": 8854
}
