{
  "<PAD>": 0,
  "<SOS>": 1,
  "<EOS>": 2,
  "<UNK>": 3,
  ",": 4,
  ".": 5,
  "the": 6,
  "and": 7,
  "to": 8,
  "of": 9,
  "a": 10,
  "that": 11,
  "i": 12,
  "in": 13,
  "it": 14,
  "you": 15,
  "is": 16,
  "we": 17,
  "&apos;s": 18,
  "this": 19,
  "so": 20,
  "&quot;": 21,
  "they": 22,
  "was": 23,
  "for": 24,
  "on": 25,
  "are": 26,
  "have": 27,
  "what": 28,
  "but": 29,
  "--": 30,
  "with": 31,
  "?": 32,
  "can": 33,
  "&apos;t": 34,
  "there": 35,
  "about": 36,
  "at": 37,
  "as": 38,
  "be": 39,
  "e@@": 40,
  "all": 41,
  "do": 42,
  "c@@": 43,
  "an": 44,
  "not": 45,
  "one": 46,
  "in@@": 47,
  "my": 48,
  "&apos;re": 49,
  "p@@": 50,
  "s@@": 51,
  "people": 52,
  "like": 53,
  "from": 54,
  "if": 55,
  "he": 56,
  "now": 57,
  "i@@": 58,
  "re@@": 59,
  "m@@": 60,
  "or": 61,
  "t@@": 62,
  "these": 63,
  "just": 64,
  "g@@": 65,
  "st@@": 66,
  ":": 67,
  "our": 68,
  "very": 69,
  "because": 70,
  "a@@": 71,
  "when": 72,
  "me": 73,
  "li@@": 74,
  "out": 75,
  "how": 76,
  "r@@": 77,
  "by": 78,
  "o@@": 79,
  "know": 80,
  "l@@": 81,
  "up": 82,
  "d@@": 83,
  "ti@@": 84,
  "them": 85,
  "going": 86,
  "here": 87,
  "ing": 88,
  "an@@": 89,
  "see": 90,
  "think": 91,
  "more": 92,
  "s": 93,
  "f@@": 94,
  "had": 95,
  "which": 96,
  "b@@": 97,
  "your": 98,
  "really": 99,
  "ed": 100,
  "get": 101,
  "us": 102,
  "v@@": 103,
  "en@@": 104,
  "were": 105,
  "then": 106,
  "who": 107,
  "&apos;ve": 108,
  "would": 109,
  "their": 110,
  "-@@": 111,
  "un@@": 112,
  "&apos;m": 113,
  "time": 114,
  "es": 115,
  "some": 116,
  "h@@": 117,
  "world": 118,
  "er@@": 119,
  "don": 120,
  "actually": 121,
  "has": 122,
  "de@@": 123,
  "di@@": 124,
  "al@@": 125,
  "y@@": 126,
  "into": 127,
  "way": 128,
  "as@@": 129,
  "things": 130,
  "k@@": 131,
  "ar@@": 132,
  "on@@": 133,
  "years": 134,
  "go": 135,
  "el@@": 136,
  "will": 137,
  "well": 138,
  "ac@@": 139,
  "no": 140,
  "con@@": 141,
  "or@@": 142,
  "ma@@": 143,
  "where": 144,
  "th@@": 145,
  "n@@": 146,
  "other": 147,
  "y": 148,
  "u@@": 149,
  "ch@@": 150,
  "want": 151,
  "said": 152,
  "could": 153,
  "w@@": 154,
  "right": 155,
  "make": 156,
  "at@@": 157,
  "been": 158,
  "si@@": 159,
  "something": 160,
  "she": 161,
  "first": 162,
  "two": 163,
  "t": 164,
  "al": 165,
  "look": 166,
  "thing": 167,
  "than": 168,
  "those": 169,
  "little": 170,
  "got": 171,
  "also": 172,
  "po@@": 173,
  "ol@@": 174,
  "his": 175,
  "lo@@": 176,
  "pro@@": 177,
  "new": 178,
  "ri@@": 179,
  "ab@@": 180,
  "much": 181,
  "es@@": 182,
  "back": 183,
  "say": 184,
  "ro@@": 185,
  "op@@": 186,
  "life": 187,
  "most": 188,
  "er": 189,
  "over": 190,
  "work": 191,
  "vi@@": 192,
  "e": 193,
  "ex@@": 194,
  "only": 195,
  "le@@": 196,
  "take": 197,
  "even": 198,
  "kind": 199,
  "co@@": 200,
  "ci@@": 201,
  "did": 202,
  "need": 203,
  "se@@": 204,
  "many": 205,
  "ou@@": 206,
  "good": 207,
  "am@@": 208,
  "able": 209,
  "lot": 210,
  "why": 211,
  "let": 212,
  "il@@": 213,
  "around": 214,
  "down": 215,
  "&apos;ll": 216,
  "ent@@": 217,
  ";": 218,
  "different": 219,
  "every": 220,
  "te@@": 221,
  "use": 222,
  "her": 223,
  "come": 224,
  "through": 225,
  "om@@": 226,
  "ra@@": 227,
  "com@@": 228,
  "day": 229,
  "au@@": 230,
  "z@@": 231,
  "same": 232,
  "im@@": 233,
  "l": 234,
  "o": 235,
  "su@@": 236,
  "doing": 237,
  "put": 238,
  "it@@": 239,
  "being": 240,
  "three": 241,
  "ly": 242,
  "d": 243,
  "its": 244,
  "j@@": 245,
  "ad@@": 246,
  "pe@@": 247,
  "ted": 248,
  "called": 249,
  "ter@@": 250,
  "any": 251,
  "is@@": 252,
  "percent": 253,
  "ts": 254,
  "made": 255,
  "em@@": 256,
  "great": 257,
  "&apos;d": 258,
  "x@@": 259,
  "today": 260,
  "mo@@": 261,
  "le": 262,
  "tell": 263,
  "after": 264,
  "talk": 265,
  "per@@": 266,
  "ne@@": 267,
  "year": 268,
  "dis@@": 269,
  "me@@": 270,
  "sp@@": 271,
  "another": 272,
  "gi@@": 273,
  "ta@@": 274,
  "human": 275,
  "big": 276,
  "didn": 277,
  "mi@@": 278,
  "change": 279,
  "last": 280,
  "went": 281,
  "ot@@": 282,
  "find": 283,
  "fact": 284,
  "own": 285,
  "h": 286,
  "ver@@": 287,
  "tion": 288,
  "ul@@": 289,
  "m": 290,
  "started": 291,
  "should": 292,
  "idea": 293,
  "before": 294,
  "ds": 295,
  "ated": 296,
  "pl@@": 297,
  "give": 298,
  "us@@": 299,
  "thought": 300,
  "ers": 301,
  "never": 302,
  "thank": 303,
  "course": 304,
  "gh@@": 305,
  "pre@@": 306,
  "story": 307,
  "bu@@": 308,
  "ge@@": 309,
  "again": 310,
  "du@@": 311,
  "c": 312,
  "off": 313,
  "important": 314,
  "does": 315,
  "qu@@": 316,
  "sh@@": 317,
  "ei@@": 318,
  "and@@": 319,
  "par@@": 320,
  "problem": 321,
  "la@@": 322,
  "him": 323,
  "ur@@": 324,
  "show": 325,
  "sc@@": 326,
  "better": 327,
  "tra@@": 328,
  "bo@@": 329,
  "fi@@": 330,
  "start": 331,
  "be@@": 332,
  "hi@@": 333,
  "next": 334,
  "ni@@": 335,
  "ago": 336,
  "used": 337,
  "et@@": 338,
  "bit": 339,
  "res@@": 340,
  "system": 341,
  "still": 342,
  "place": 343,
  "p": 344,
  "part": 345,
  "ation": 346,
  "te": 347,
  "end": 348,
  "came": 349,
  "man": 350,
  "together": 351,
  "might": 352,
  "pa@@": 353,
  "brain": 354,
  "technology": 355,
  "each": 356,
  "g": 357,
  "bi@@": 358,
  "water": 359,
  "ent": 360,
  "no@@": 361,
  "ff@@": 362,
  "ck@@": 363,
  "k": 364,
  "ate": 365,
  "0@@": 366,
  "tu@@": 367,
  "few": 368,
  "ph@@": 369,
  "long": 370,
  "wi@@": 371,
  "mean": 372,
  "tions": 373,
  "ous": 374,
  "too": 375,
  "between": 376,
  "gra@@": 377,
  "point": 378,
  "ru@@": 379,
  "looking": 380,
  "min@@": 381,
  "question": 382,
  "doesn": 383,
  "19@@": 384,
  "done": 385,
  "children": 386,
  "tri@@": 387,
  "love": 388,
  "found": 389,
  "am": 390,
  "less": 391,
  "do@@": 392,
  "maybe": 393,
  "example": 394,
  "man@@": 395,
  "cu@@": 396,
  "ty": 397,
  "ce": 398,
  "sort": 399,
  "to@@": 400,
  "wanted": 401,
  "whole": 402,
  "school": 403,
  "ce@@": 404,
  "ir@@": 405,
  "million": 406,
  "data": 407,
  "understand": 408,
  "ever": 409,
  "&apos;": 410,
  "gu@@": 411,
  "mar@@": 412,
  "real": 413,
  "ating": 414,
  "four": 415,
  "call": 416,
  "live": 417,
  "may": 418,
  "ap@@": 419,
  "car@@": 420,
  "away": 421,
  "n": 422,
  "um@@": 423,
  "always": 424,
  "ting": 425,
  "try": 426,
  "sy@@": 427,
  "light": 428,
  "working": 429,
  "everything": 430,
  "age": 431,
  "for@@": 432,
  "ve": 433,
  "old": 434,
  "10": 435,
  "women": 436,
  "money": 437,
  "believe": 438,
  "feel": 439,
  "en": 440,
  "lu@@": 441,
  "five": 442,
  "trying": 443,
  "kids": 444,
  "power": 445,
  "using": 446,
  "second": 447,
  "col@@": 448,
  "sa@@": 449,
  "person": 450,
  "design": 451,
  "por@@": 452,
  "space": 453,
  "red": 454,
  "tr@@": 455,
  "country": 456,
  "number": 457,
  "!": 458,
  "ves": 459,
  "ten@@": 460,
  "ag@@": 461,
  "times": 462,
  "took": 463,
  "help": 464,
  "thinking": 465,
  "ar": 466,
  "pi@@": 467,
  "food": 468,
  "de": 469,
  "les": 470,
  "ally": 471,
  "fe@@": 472,
  "inter@@": 473,
  "quite": 474,
  "ine": 475,
  "means": 476,
  "create": 477,
  "information": 478,
  "ha@@": 479,
  "ho@@": 480,
  "br@@": 481,
  "ter": 482,
  "ic@@": 483,
  "ary": 484,
  "making": 485,
  "sense": 486,
  "become": 487,
  "probably": 488,
  "da@@": 489,
  "small": 490,
  "energy": 491,
  "enough": 492,
  "comes": 493,
  "ding": 494,
  "ber@@": 495,
  "future": 496,
  "happened": 497,
  "getting": 498,
  "he@@": 499,
  "side": 500,
  "best": 501,
  "building": 502,
  "without": 503,
  "left": 504,
  "go@@": 505,
  "pu@@": 506,
  "interesting": 507,
  "na@@": 508,
  "africa": 509,
  "play": 510,
  "mon@@": 511,
  "gen@@": 512,
  "um": 513,
  "ment": 514,
  "body": 515,
  "stuff": 516,
  "home": 517,
  ".@@": 518,
  "als": 519,
  "ors": 520,
  "talking": 521,
  "den@@": 522,
  "says": 523,
  "room": 524,
  "r": 525,
  "pres@@": 526,
  "dollars": 527,
  "b": 528,
  "pretty": 529,
  "city": 530,
  "ways": 531,
  "anything": 532,
  "social": 533,
  "science": 534,
  "half": 535,
  "goes": 536,
  "ist": 537,
  "coming": 538,
  "ask": 539,
  "earth": 540,
  "se": 541,
  "20": 542,
  "simple": 543,
  "ch": 544,
  "ck": 545,
  "ded": 546,
  "set": 547,
  "w": 548,
  "makes": 549,
  "mu@@": 550,
  "cre@@": 551,
  "days": 552,
  "seen": 553,
  "ans": 554,
  "des@@": 555,
  "gr@@": 556,
  "der@@": 557,
  "else": 558,
  "told": 559,
  "picture": 560,
  "happen": 561,
  "est": 562,
  "ari@@": 563,
  "ant": 564,
  "king": 565,
  "wh@@": 566,
  "living": 567,
  "ic": 568,
  "across": 569,
  "saw": 570,
  "case": 571,
  "lives": 572,
  "yet": 573,
  "ons": 574,
  "the@@": 575,
  "while": 576,
  "happens": 577,
  "sti@@": 578,
  "once": 579,
  "basically": 580,
  "imagine": 581,
  "ell@@": 582,
  "okay": 583,
  "project": 584,
  "fo@@": 585,
  "bad": 586,
  "th": 587,
  "hard": 588,
  "ok": 589,
  "line": 590,
  "countries": 591,
  "je@@": 592,
  "art": 593,
  "men": 594,
  "her@@": 595,
  "move": 596,
  "cor@@": 597,
  "asked": 598,
  "hand": 599,
  "x": 600,
  "such": 601,
  "form": 602,
  "build": 603,
  "book": 604,
  "health": 605,
  "ct@@": 606,
  "inside": 607,
  "having": 608,
  "family": 609,
  "ties": 610,
  "der": 611,
  "experience": 612,
  "problems": 613,
  "everybody": 614,
  "sure": 615,
  "ing@@": 616,
  "moment": 617,
  "care": 618,
  "high": 619,
  "learn": 620,
  "car": 621,
  "ideas": 622,
  "ig@@": 623,
  "pri@@": 624,
  "sur@@": 625,
  "3@@": 626,
  "later": 627,
  "5@@": 628,
  "reason": 629,
  "almost": 630,
  "oh": 631,
  "nothing": 632,
  "cri@@": 633,
  "six": 634,
  "computer": 635,
  "2@@": 636,
  "process": 637,
  "so@@": 638,
  "billion": 639,
  "business": 640,
  "young": 641,
  "looks": 642,
  "ct": 643,
  "both": 644,
  "states": 645,
  "planet": 646,
  "ste@@": 647,
  "ction": 648,
  "global": 649,
  "50": 650,
  "top": 651,
  "mind": 652,
  "ali@@": 653,
  "nature": 654,
  "wrong": 655,
  "pos@@": 656,
  "sts": 657,
  "single": 658,
  "within": 659,
  "remember": 660,
  "ses": 661,
  "child": 662,
  "history": 663,
  "ju@@": 664,
  "true": 665,
  "trans@@": 666,
  "guy": 667,
  "son": 668,
  "ca@@": 669,
  "cells": 670,
  "ori@@": 671,
  "ability": 672,
  "far": 673,
  "saying": 674,
  "already": 675,
  "tic@@": 676,
  "yes": 677,
  "ps": 678,
  "sion": 679,
  "ely": 680,
  "ity": 681,
  "land": 682,
  "music": 683,
  "ings": 684,
  "war": 685,
  "ser@@": 686,
  "ke": 687,
  "heard": 688,
  "we@@": 689,
  "stri@@": 690,
  "under": 691,
  "ven@@": 692,
  "tic": 693,
  "state": 694,
  "looked": 695,
  "cancer": 696,
  "answer": 697,
  "keep": 698,
  "gets": 699,
  "possible": 700,
  "ents": 701,
  "sub@@": 702,
  "har@@": 703,
  "matter": 704,
  "pen@@": 705,
  "ob@@": 706,
  "ces": 707,
  "hope": 708,
  "bring": 709,
  "per": 710,
  "video": 711,
  "mis@@": 712,
  "beautiful": 713,
  "4@@": 714,
  "often": 715,
  "wa@@": 716,
  "sen@@": 717,
  "months": 718,
  "universe": 719,
  "30": 720,
  "9@@": 721,
  "ge": 722,
  "built": 723,
  "face": 724,
  "india": 725,
  "piece": 726,
  "isn": 727,
  "read": 728,
  "open": 729,
  "amazing": 730,
  "head": 731,
  "god": 732,
  "works": 733,
  "1@@": 734,
  "sometimes": 735,
  "che@@": 736,
  "ke@@": 737,
  "cra@@": 738,
  "since": 739,
  "united": 740,
  "ws": 741,
  "decided": 742,
  "ks": 743,
  "ourselves": 744,
  "sta@@": 745,
  "words": 746,
  "ones": 747,
  "public": 748,
  "bar@@": 749,
  "turns": 750,
  "someone": 751,
  "myself": 752,
  "und@@": 753,
  "cted": 754,
  "...": 755,
  "species": 756,
  "until": 757,
  "education": 758,
  "whether": 759,
  "couple": 760,
  "ga@@": 761,
  "yeah": 762,
  "places": 763,
  "group": 764,
  "instead": 765,
  "stories": 766,
  "gl@@": 767,
  "turn": 768,
  "hu@@": 769,
  "ins": 770,
  "mother": 771,
  "exactly": 772,
  "ates": 773,
  "taking": 774,
  "control": 775,
  "house": 776,
  "ving": 777,
  "language": 778,
  "happy": 779,
  "completely": 780,
  "order": 781,
  "ged": 782,
  "cal": 783,
  "research": 784,
  "stra@@": 785,
  "comp@@": 786,
  "word": 787,
  "over@@": 788,
  "jo@@": 789,
  "everyone": 790,
  "though": 791,
  "can@@": 792,
  "government": 793,
  "community": 794,
  "lin@@": 795,
  "ble": 796,
  "must": 797,
  "job": 798,
  "middle": 799,
  "internet": 800,
  "wasn": 801,
  "minutes": 802,
  "somebody": 803,
  "itself": 804,
  "stop": 805,
  "ze": 806,
  "third": 807,
  "led": 808,
  "night": 809,
  "kinds": 810,
  "level": 811,
  "7@@": 812,
  "news": 813,
  "cy": 814,
  "war@@": 815,
  "heart": 816,
  "woman": 817,
  "became": 818,
  "animals": 819,
  "8@@": 820,
  "america": 821,
  "pr@@": 822,
  "ations": 823,
  "inv@@": 824,
  "model": 825,
  "front": 826,
  "happening": 827,
  "run": 828,
  "themselves": 829,
  "ies": 830,
  "bl@@": 831,
  "company": 832,
  "fa@@": 833,
  "large": 834,
  "des": 835,
  "tive": 836,
  "100": 837,
  "rather": 838,
  "u": 839,
  "ms": 840,
  "cal@@": 841,
  "huge": 842,
  "students": 843,
  "share": 844,
  "ance": 845,
  "under@@": 846,
  "environment": 847,
  "el": 848,
  "study": 849,
  "name": 850,
  "learned": 851,
  "china": 852,
  "oil": 853,
  "guys": 854,
  "ry": 855,
  "century": 856,
  "nu@@": 857,
  "friends": 858,
  "sound": 859,
  "hy@@": 860,
  "american": 861,
  "natural": 862,
  "hear": 863,
  "won": 864,
  "along": 865,
  "game": 866,
  "ve@@": 867,
  "hours": 868,
  "couldn": 869,
  "knew": 870,
  "created": 871,
  "fish": 872,
  "worked": 873,
  "learning": 874,
  "lots": 875,
  "cul@@": 876,
  "late": 877,
  "ess": 878,
  "tro@@": 879,
  "gave": 880,
  "questions": 881,
  "against": 882,
  "during": 883,
  "self-@@": 884,
  "ach@@": 885,
  "machine": 886,
  "&#93;": 887,
  "&#91;": 888,
  "perhaps": 889,
  "air": 890,
  "zed": 891,
  "society": 892,
  "finally": 893,
  "gre@@": 894,
  "disease": 895,
  "cy@@": 896,
  "particular": 897,
  "ved": 898,
  "d-@@": 899,
  "test": 900,
  "ocean": 901,
  "moving": 902,
  "based": 903,
  "takes": 904,
  "ful": 905,
  "ie": 906,
  "early": 907,
  "area": 908,
  "difference": 909,
  "vis@@": 910,
  "others": 911,
  "sk@@": 912,
  "pan@@": 913,
  "figure": 914,
  "tin@@": 915,
  "market": 916,
  "ness": 917,
  "wonderful": 918,
  "past": 919,
  "ger@@": 920,
  "needs": 921,
  "view": 922,
  "free": 923,
  "e-@@": 924,
  "sing": 925,
  "least": 926,
  "scale": 927,
  "ence": 928,
  "zing": 929,
  "cell": 930,
  "re": 931,
  "taken": 932,
  "cr@@": 933,
  "seven": 934,
  "entire": 935,
  "outside": 936,
  "ki@@": 937,
  "cur@@": 938,
  "systems": 939,
  "close": 940,
  "ling": 941,
  "15": 942,
  "thousands": 943,
  "easy": 944,
  "changed": 945,
  "y-@@": 946,
  "interested": 947,
  "bro@@": 948,
  "parts": 949,
  "6@@": 950,
  "population": 951,
  "tes": 952,
  "cannot": 953,
  "parents": 954,
  "fin@@": 955,
  "bra@@": 956,
  "20@@": 957,
  "shows": 958,
  "spe@@": 959,
  "turned": 960,
  "yourself": 961,
  "given": 962,
  "green": 963,
  "lation": 964,
  "ics": 965,
  "leave": 966,
  "beginning": 967,
  "2": 968,
  "image": 969,
  "cing": 970,
  "culture": 971,
  "bri@@": 972,
  "eight": 973,
  "ying": 974,
  "tional": 975,
  "ther@@": 976,
  "bur@@": 977,
  "difficult": 978,
  "bio@@": 979,
  "va@@": 980,
  "buy": 981,
  "cks": 982,
  "behind": 983,
  "sed": 984,
  "fer@@": 985,
  "grow": 986,
  "size": 987,
  "york": 988,
  "cat@@": 989,
  "cost": 990,
  "stage": 991,
  "seeing": 992,
  "cro@@": 993,
  "bre@@": 994,
  "media": 995,
  "whatever": 996,
  "common": 997,
  "eyes": 998,
  "fre@@": 999,
  "spend": 1000,
  "walk": 1001,
  "cap@@": 1002,
  "needed": 1003,
  "wor@@": 1004,
  "powerful": 1005,
  "tur@@": 1006,
  "began": 1007,
  "week": 1008,
  "audience": 1009,
  "born": 1010,
  "known": 1011,
  "rest": 1012,
  "black": 1013,
  "fly": 1014,
  "books": 1015,
  "ging": 1016,
  "ator": 1017,
  "force": 1018,
  "ters": 1019,
  "certain": 1020,
  "economic": 1021,
  "paper": 1022,
  "friend": 1023,
  "u.s.": 1024,
  "tried": 1025,
  "ship": 1026,
  "fl@@": 1027,
  "father": 1028,
  "terms": 1029,
  "gone": 1030,
  "full": 1031,
  "cities": 1032,
  "mor@@": 1033,
  "ets": 1034,
  "8": 1035,
  "mit@@": 1036,
  "death": 1037,
  "team": 1038,
  "center": 1039,
  "longer": 1040,
  "wing": 1041,
  "local": 1042,
  "simply": 1043,
  "incredible": 1044,
  "ously": 1045,
  "amount": 1046,
  "ments": 1047,
  "humans": 1048,
  "fu@@": 1049,
  "rate": 1050,
  "act": 1051,
  "tt@@": 1052,
  "stic": 1053,
  "rel@@": 1054,
  "growth": 1055,
  "hands": 1056,
  "feet": 1057,
  "mer@@": 1058,
  "ground": 1059,
  "f": 1060,
  "field": 1061,
  "structure": 1062,
  "hold": 1063,
  "pla@@": 1064,
  "ges": 1065,
  "lan@@": 1066,
  "watch": 1067,
  "complex": 1068,
  "spent": 1069,
  "ver": 1070,
  "deal": 1071,
  "step": 1072,
  "super@@": 1073,
  "realized": 1074,
  "ster": 1075,
  "girl": 1076,
  "national": 1077,
  "key": 1078,
  "table": 1079,
  "surface": 1080,
  "et": 1081,
  "south": 1082,
  "quickly": 1083,
  "40": 1084,
  "ches": 1085,
  "ice": 1086,
  "value": 1087,
  "char@@": 1088,
  "vo@@": 1089,
  "fra@@": 1090,
  "blue": 1091,
  "wouldn": 1092,
  "cts": 1093,
  "white": 1094,
  "pay": 1095,
  "animal": 1096,
  "sea": 1097,
  "eat": 1098,
  "dna": 1099,
  "lost": 1100,
  "west": 1101,
  "phone": 1102,
  "up@@": 1103,
  "companies": 1104,
  "sitting": 1105,
  "bs": 1106,
  "fun": 1107,
  "uni@@": 1108,
  "reality": 1109,
  "either": 1110,
  "felt": 1111,
  "medi@@": 1112,
  "3": 1113,
  "patients": 1114,
  "forward": 1115,
  "nor@@": 1116,
  "tan@@": 1117,
  "ys": 1118,
  "write": 1119,
  "weeks": 1120,
  "met": 1121,
  "behavior": 1122,
  "z": 1123,
  "men@@": 1124,
  "nice": 1125,
  "ba@@": 1126,
  "brought": 1127,
  "out@@": 1128,
  "wrote": 1129,
  "oc@@": 1130,
  "dy": 1131,
  "squ@@": 1132,
  "miles": 1133,
  "cally": 1134,
  "fast": 1135,
  "telling": 1136,
  "ders": 1137,
  "ia": 1138,
  "opportunity": 1139,
  "changes": 1140,
  "feeling": 1141,
  "cut": 1142,
  "die": 1143,
  "ure": 1144,
  "growing": 1145,
  "patient": 1146,
  "average": 1147,
  "poor": 1148,
  "economy": 1149,
  "theory": 1150,
  "anti@@": 1151,
  "speak": 1152,
  "ban@@": 1153,
  "ked": 1154,
  "political": 1155,
  "anyone": 1156,
  "scientists": 1157,
  "fied": 1158,
  "developed": 1159,
  "knowledge": 1160,
  "t-@@": 1161,
  "technologies": 1162,
  "7": 1163,
  "bed": 1164,
  "numbers": 1165,
  "sha@@": 1166,
  "ma": 1167,
  "street": 1168,
  "fil@@": 1169,
  "giving": 1170,
  "material": 1171,
  "bottom": 1172,
  "died": 1173,
  "seems": 1174,
  "images": 1175,
  "gs": 1176,
  "bas@@": 1177,
  "sted": 1178,
  "discovered": 1179,
  "short": 1180,
  "9": 1181,
  "1": 1182,
  "ani@@": 1183,
  "nobody": 1184,
  "starting": 1185,
  "morning": 1186,
  "program": 1187,
  "wo@@": 1188,
  "running": 1189,
  "dra@@": 1190,
  "board": 1191,
  "pping": 1192,
  "attention": 1193,
  "ger": 1194,
  "gives": 1195,
  "playing": 1196,
  "hom@@": 1197,
  "4": 1198,
  "ear@@": 1199,
  "literally": 1200,
  "physical": 1201,
  "personal": 1202,
  "absolutely": 1203,
  "deep": 1204,
  "shape": 1205,
  "map": 1206,
  "ben@@": 1207,
  "5": 1208,
  "english": 1209,
  "micro@@": 1210,
  "movement": 1211,
  "alone": 1212,
  "low": 1213,
  "pped": 1214,
  "challenge": 1215,
  "produce": 1216,
  "vision": 1217,
  "cli@@": 1218,
  "ning": 1219,
  "law": 1220,
  "realize": 1221,
  "climate": 1222,
  "recently": 1223,
  "pur@@": 1224,
  "areas": 1225,
  "ard": 1226,
  "uses": 1227,
  "tation": 1228,
  "ctive": 1229,
  "forms": 1230,
  "anybody": 1231,
  "cars": 1232,
  "individual": 1233,
  "north": 1234,
  "film": 1235,
  "fle@@": 1236,
  "obviously": 1237,
  "sive": 1238,
  "12": 1239,
  "my@@": 1240,
  "ant@@": 1241,
  "seem": 1242,
  "non-@@": 1243,
  "0,000": 1244,
  "cting": 1245,
  "dr@@": 1246,
  "knows": 1247,
  "incredibly": 1248,
  "6": 1249,
  "mit": 1250,
  "ber": 1251,
  "blood": 1252,
  "sun": 1253,
  "ja@@": 1254,
  "quality": 1255,
  "focus": 1256,
  "changing": 1257,
  "issue": 1258,
  "dark": 1259,
  "ton": 1260,
  "industry": 1261,
  "cool": 1262,
  "relationship": 1263,
  "mass": 1264,
  "creating": 1265,
  "designed": 1266,
  "normal": 1267,
  "25": 1268,
  "tics": 1269,
  "showed": 1270,
  "lab": 1271,
  "chinese": 1272,
  "understanding": 1273,
  "kid": 1274,
  "compassion": 1275,
  "product": 1276,
  "university": 1277,
  "tend": 1278,
  "ars": 1279,
  "result": 1280,
  "guess": 1281,
  "please": 1282,
  "girls": 1283,
  "cl@@": 1284,
  "save": 1285,
  "modern": 1286,
  "hundreds": 1287,
  "clear": 1288,
  "haven": 1289,
  "ative": 1290,
  "millions": 1291,
  "wall": 1292,
  "indi@@": 1293,
  "position": 1294,
  "games": 1295,
  "qui@@": 1296,
  "meet": 1297,
  "clo@@": 1298,
  "effect": 1299,
  "ens": 1300,
  "tools": 1301,
  "box": 1302,
  "development": 1303,
  "connected": 1304,
  "cam@@": 1305,
  "experiment": 1306,
  "talked": 1307,
  "son@@": 1308,
  "dan@@": 1309,
  "class": 1310,
  "revolution": 1311,
  "els": 1312,
  "begin": 1313,
  "support": 1314,
  "tiny": 1315,
  "generation": 1316,
  "stand": 1317,
  "fall": 1318,
  "cked": 1319,
  "st": 1320,
  "ced": 1321,
  "happiness": 1322,
  "tor@@": 1323,
  "evolution": 1324,
  "soon": 1325,
  "ory": 1326,
  "fully": 1327,
  "developing": 1328,
  "gar@@": 1329,
  "hour": 1330,
  "access": 1331,
  "fri@@": 1332,
  "id": 1333,
  "perfect": 1334,
  "web": 1335,
  "solution": 1336,
  "mal@@": 1337,
  "beyond": 1338,
  "innovation": 1339,
  "europe": 1340,
  "available": 1341,
  "pra@@": 1342,
  "color": 1343,
  "pictures": 1344,
  "don@@": 1345,
  "teach": 1346,
  "especially": 1347,
  "action": 1348,
  "ats": 1349,
  "medical": 1350,
  "becomes": 1351,
  "east": 1352,
  "online": 1353,
  "writing": 1354,
  "chan@@": 1355,
  "lived": 1356,
  "voice": 1357,
  "star@@": 1358,
  "bat@@": 1359,
  "major": 1360,
  "cking": 1361,
  "flu@@": 1362,
  "ism": 1363,
  "computers": 1364,
  "type": 1365,
  "boy": 1366,
  "solve": 1367,
  "dar@@": 1368,
  "explain": 1369,
  "drive": 1370,
  "sho@@": 1371,
  "groups": 1372,
  "allow": 1373,
  "aren": 1374,
  "towards": 1375,
  "road": 1376,
  "dro@@": 1377,
  "reasons": 1378,
  "situation": 1379,
  "bor@@": 1380,
  "worth": 1381,
  "tre@@": 1382,
  "teachers": 1383,
  "special": 1384,
  "materials": 1385,
  "vers": 1386,
  "resources": 1387,
  "ye@@": 1388,
  "office": 1389,
  "similar": 1390,
  "several": 1391,
  "sters": 1392,
  "mission": 1393,
  "ren@@": 1394,
  "dead": 1395,
  "digital": 1396,
  "starts": 1397,
  "ically": 1398,
  "cru@@": 1399,
  "network": 1400,
  "robot": 1401,
  "present": 1402,
  "rules": 1403,
  "fear": 1404,
  "device": 1405,
  "bigger": 1406,
  "yo@@": 1407,
  "notice": 1408,
  "baby": 1409,
  "wind": 1410,
  "da": 1411,
  "certainly": 1412,
  "sions": 1413,
  "evidence": 1414,
  "shi@@": 1415,
  "hand@@": 1416,
  "putting": 1417,
  "sounds": 1418,
  "everywhere": 1419,
  "ad": 1420,
  "il": 1421,
  "break": 1422,
  "indeed": 1423,
  "nine": 1424,
  "speed": 1425,
  "general": 1426,
  "lines": 1427,
  "hundred": 1428,
  "security": 1429,
  "activity": 1430,
  "risk": 1431,
  "truth": 1432,
  "chance": 1433,
  "onto": 1434,
  "mental": 1435,
  "wait": 1436,
  "impact": 1437,
  "80": 1438,
  "ably": 1439,
  "grew": 1440,
  "schools": 1441,
  "suddenly": 1442,
  "app@@": 1443,
  "scientific": 1444,
  "wants": 1445,
  "tically": 1446,
  "gro@@": 1447,
  "door": 1448,
  "examples": 1449,
  "flo@@": 1450,
  "listen": 1451,
  "eye": 1452,
  "ward": 1453,
  "asking": 1454,
  "village": 1455,
  "involved": 1456,
  "ple@@": 1457,
  "month": 1458,
  "ture": 1459,
  "strong": 1460,
  "bon@@": 1461,
  "anyway": 1462,
  "choice": 1463,
  "moral": 1464,
  "skin": 1465,
  "stay": 1466,
  "ready": 1467,
  "basic": 1468,
  "bal@@": 1469,
  "exciting": 1470,
  "message": 1471,
  "source": 1472,
  "minute": 1473,
  "ently": 1474,
  "dly": 1475,
  "ran@@": 1476,
  "ball": 1477,
  "list": 1478,
  "version": 1479,
  "walking": 1480,
  "ned": 1481,
  "moved": 1482,
  "wish": 1483,
  "bel@@": 1484,
  "60": 1485,
  "eu@@": 1486,
  "issues": 1487,
  "pattern": 1488,
  "main": 1489,
  "sent": 1490,
  "student": 1491,
  "sto@@": 1492,
  "sting": 1493,
  "extremely": 1494,
  "gue": 1495,
  "gas": 1496,
  "totally": 1497,
  "college": 1498,
  ",000": 1499,
  "den": 1500,
  "ctions": 1501,
  "solar": 1502,
  "town": 1503,
  "ants": 1504,
  "further": 1505,
  "plants": 1506,
  "potential": 1507,
  "smart": 1508,
  "mine": 1509,
  "biggest": 1510,
  "hiv": 1511,
  "head@@": 1512,
  "ching": 1513,
  "af@@": 1514,
  "positive": 1515,
  "ined": 1516,
  "projects": 1517,
  "page": 1518,
  "pat@@": 1519,
  "high-@@": 1520,
  "particularly": 1521,
  "largest": 1522,
  "hospital": 1523,
  "showing": 1524,
  "ine@@": 1525,
  "ended": 1526,
  "object": 1527,
  "software": 1528,
  "ths": 1529,
  "ality": 1530,
  "hit": 1531,
  "11": 1532,
  "pick": 1533,
  "foot": 1534,
  "journey": 1535,
  "18@@": 1536,
  "mul@@": 1537,
  "carbon": 1538,
  "code": 1539,
  "fire": 1540,
  "gener@@": 1541,
  "air@@": 1542,
  "measure": 1543,
  "cent": 1544,
  "interest": 1545,
  "500": 1546,
  "points": 1547,
  "lose": 1548,
  "os": 1549,
  "medicine": 1550,
  "dri@@": 1551,
  "reach": 1552,
  "ase": 1553,
  "nuclear": 1554,
  "lead": 1555,
  "follow": 1556,
  "sit": 1557,
  "send": 1558,
  "add": 1559,
  "row": 1560,
  "store": 1561,
  "san@@": 1562,
  "ators": 1563,
  "plan": 1564,
  "din@@": 1565,
  "gy": 1566,
  "win@@": 1567,
  "google": 1568,
  "tells": 1569,
  "african": 1570,
  "named": 1571,
  "ey": 1572,
  "rich": 1573,
  "organization": 1574,
  "gers": 1575,
  "val@@": 1576,
  "visual": 1577,
  "ther": 1578,
  "peace": 1579,
  "extraordinary": 1580,
  "pris@@": 1581,
  "mom": 1582,
  "mas@@": 1583,
  "develop": 1584,
  "soci@@": 1585,
  "teacher": 1586,
  "dance": 1587,
  "democracy": 1588,
  "expensive": 1589,
  "zz@@": 1590,
  "continue": 1591,
  "usually": 1592,
  "likely": 1593,
  "ns": 1594,
  "alized": 1595,
  "serious": 1596,
  "poverty": 1597,
  "buildings": 1598,
  "doctor": 1599,
  "larger": 1600,
  "among": 1601,
  "watching": 1602,
  "electricity": 1603,
  "success": 1604,
  "biology": 1605,
  "fantastic": 1606,
  "sex": 1607,
  "expect": 1608,
  "trees": 1609,
  "except": 1610,
  "international": 1611,
  "goal": 1612,
  "200": 1613,
  "safe": 1614,
  "ish": 1615,
  "sor@@": 1616,
  "essentially": 1617,
  "objects": 1618,
  "series": 1619,
  "movie": 1620,
  "period": 1621,
  "talks": 1622,
  "david": 1623,
  "seconds": 1624,
  "ingly": 1625,
  "standing": 1626,
  "perspective": 1627,
  "eventually": 1628,
  "ner": 1629,
  "results": 1630,
  "killed": 1631,
  "higher": 1632,
  "written": 1633,
  "traditional": 1634,
  "thousand": 1635,
  "sol@@": 1636,
  "beauty": 1637,
  "wife": 1638,
  "products": 1639,
  "sal@@": 1640,
  "ise": 1641,
  "somewhere": 1642,
  "himself": 1643,
  "fine": 1644,
  "complicated": 1645,
  "18": 1646,
  "cause": 1647,
  "crazy": 1648,
  "conditions": 1649,
  "zero": 1650,
  "hal@@": 1651,
  "touch": 1652,
  "response": 1653,
  "impossible": 1654,
  "sorts": 1655,
  "ker": 1656,
  "leaders": 1657,
  "approach": 1658,
  "pe": 1659,
  "shot": 1660,
  "stars": 1661,
  "spread": 1662,
  "site": 1663,
  "architecture": 1664,
  "upon": 1665,
  "kes": 1666,
  "older": 1667,
  "production": 1668,
  "minds": 1669,
  "screen": 1670,
  "jobs": 1671,
  "creative": 1672,
  "allowed": 1673,
  "income": 1674,
  "pal@@": 1675,
  "/": 1676,
  "ils": 1677,
  "wal@@": 1678,
  "multi@@": 1679,
  "bacteria": 1680,
  "yed": 1681,
  "van@@": 1682,
  "favorite": 1683,
  "tree": 1684,
  "ology": 1685,
  "ls": 1686,
  "arm": 1687,
  "camera": 1688,
  "pieces": 1689,
  "thanks": 1690,
  "individuals": 1691,
  "brains": 1692,
  "tively": 1693,
  "military": 1694,
  "0": 1695,
  "kept": 1696,
  "finding": 1697,
  "sell": 1698,
  "zation": 1699,
  "wed": 1700,
  "treatment": 1701,
  "somehow": 1702,
  "truly": 1703,
  "successful": 1704,
  "ines": 1705,
  "plant": 1706,
  "models": 1707,
  "sli@@": 1708,
  "excited": 1709,
  "crisis": 1710,
  "taught": 1711,
  "context": 1712,
  "explo@@": 1713,
  "alive": 1714,
  "em": 1715,
  "neurons": 1716,
  "drugs": 1717,
  "rise": 1718,
  "—": 1719,
  "worse": 1720,
  "shown": 1721,
  "cation": 1722,
  "faster": 1723,
  "training": 1724,
  "far@@": 1725,
  "supposed": 1726,
  "above": 1727,
  "western": 1728,
  "reading": 1729,
  "ka@@": 1730,
  "med": 1731,
  "down@@": 1732,
  "famous": 1733,
  "physics": 1734,
  "meaning": 1735,
  "role": 1736,
  "range": 1737,
  "tool": 1738,
  "connect": 1739,
  "del@@": 1740,
  ",@@": 1741,
  "concept": 1742,
  "beings": 1743,
  "bodies": 1744,
  "sky": 1745,
  "fy": 1746,
  "ots": 1747,
  "region": 1748,
  "kill": 1749,
  "bul@@": 1750,
  "weight": 1751,
  "therefore": 1752,
  "one-@@": 1753,
  "fundamental": 1754,
  "hey": 1755,
  "dream": 1756,
  "genes": 1757,
  "virus": 1758,
  "choose": 1759,
  "progress": 1760,
  "fla@@": 1761,
  "active": 1762,
  "eless": 1763,
  "trust": 1764,
  "meant": 1765,
  "wood": 1766,
  "dness": 1767,
  "including": 1768,
  "central": 1769,
  "communities": 1770,
  "s-@@": 1771,
  "drug": 1772,
  "ss": 1773,
  "mic": 1774,
  "fight": 1775,
  "earlier": 1776,
  "costs": 1777,
  "families": 1778,
  "invented": 1779,
  "throughout": 1780,
  "clearly": 1781,
  "however": 1782,
  "service": 1783,
  "lies": 1784,
  "machines": 1785,
  "pain": 1786,
  "strange": 1787,
  "dangerous": 1788,
  "legs": 1789,
  "star": 1790,
  "ited": 1791,
  "tru@@": 1792,
  "americans": 1793,
  "studies": 1794,
  "hot": 1795,
  "two-@@": 1796,
  "record": 1797,
  "smaller": 1798,
  "ft": 1799,
  "aid": 1800,
  "ten": 1801,
  "familiar": 1802,
  "lon@@": 1803,
  "slow": 1804,
  "content": 1805,
  "bunch": 1806,
  "related": 1807,
  "policy": 1808,
  "actual": 1809,
  "price": 1810,
  "plastic": 1811,
  "ah": 1812,
  "increase": 1813,
  "massive": 1814,
  "cs": 1815,
  "although": 1816,
  "listening": 1817,
  "dog": 1818,
  "greater": 1819,
  "magic": 1820,
  "rights": 1821,
  "new@@": 1822,
  "direction": 1823,
  "solutions": 1824,
  "press": 1825,
  "square": 1826,
  "tv": 1827,
  "dad": 1828,
  "waiting": 1829,
  "unfortunately": 1830,
  "cases": 1831,
  "robots": 1832,
  "ler": 1833,
  "healthy": 1834,
  "om": 1835,
  "slide": 1836,
  "recognize": 1837,
  "allows": 1838,
  "waste": 1839,
  "driving": 1840,
  "walked": 1841,
  "ese": 1842,
  "immediately": 1843,
  "violence": 1844,
  "flow": 1845,
  "dollar": 1846,
  "connection": 1847,
  "ched": 1848,
  "none": 1849,
  "skills": 1850,
  "forget": 1851,
  "function": 1852,
  "zes": 1853,
  "date": 1854,
  "exist": 1855,
  "train": 1856,
  "to-@@": 1857,
  "surgery": 1858,
  "specific": 1859,
  "sorry": 1860,
  "website": 1861,
  "intelligence": 1862,
  "treat": 1863,
  "anymore": 1864,
  "conversation": 1865,
  "freedom": 1866,
  "aging": 1867,
  "decisions": 1868,
  "patterns": 1869,
  "museum": 1870,
  "win": 1871,
  "st-@@": 1872,
  "consider": 1873,
  "pull": 1874,
  "effective": 1875,
  "ran": 1876,
  "protect": 1877,
  "rule": 1878,
  "ore": 1879,
  "aware": 1880,
  "travel": 1881,
  "math": 1882,
  "gotten": 1883,
  "greatest": 1884,
  "draw": 1885,
  "wonder": 1886,
  "understood": 1887,
  "hole": 1888,
  "pit@@": 1889,
  "ham@@": 1890,
  "current": 1891,
  "dy@@": 1892,
  "on-@@": 1893,
  "humanity": 1894,
  "ta": 1895,
  "diversity": 1896,
  "subject": 1897,
  "grand@@": 1898,
  "flying": 1899,
  "lower": 1900,
  "survive": 1901,
  "forest": 1902,
  "president": 1903,
  "v": 1904,
  "remarkable": 1905,
  "useful": 1906,
  "babies": 1907,
  "genetic": 1908,
  "clean": 1909,
  "ped": 1910,
  "glass": 1911,
  "critical": 1912,
  "song": 1913,
  "private": 1914,
  "cultural": 1915,
  "provide": 1916,
  "john": 1917,
  "stick": 1918,
  "anywhere": 1919,
  "weren": 1920,
  "agree": 1921,
  "photograph": 1922,
  "performance": 1923,
  "grade": 1924,
  "artist": 1925,
  "conflict": 1926,
  "re-@@": 1927,
  "non@@": 1928,
  "obvious": 1929,
  "70": 1930,
  "mostly": 1931,
  "aids": 1932,
  "han@@": 1933,
  "practice": 1934,
  "bank": 1935,
  "self": 1936,
  "enormous": 1937,
  "ian": 1938,
  "environmental": 1939,
  "cold": 1940,
  "played": 1941,
  "television": 1942,
  "religion": 1943,
  "ases": 1944,
  "mat@@": 1945,
  "teaching": 1946,
  "fuel": 1947,
  "loved": 1948,
  "evolved": 1949,
  "ide@@": 1950,
  "mars": 1951,
  "edi@@": 1952,
  "eating": 1953,
  "conference": 1954,
  "values": 1955,
  "complete": 1956,
  "oni@@": 1957,
  "raise": 1958,
  "cover": 1959,
  "forces": 1960,
  "swe@@": 1961,
  "doctors": 1962,
  "politics": 1963,
  "becoming": 1964,
  "pun@@": 1965,
  "scientist": 1966,
  "floor": 1967,
  "creativity": 1968,
  "engineering": 1969,
  "urban": 1970,
  "ctor": 1971,
  "ration": 1972,
  "markets": 1973,
  "gene": 1974,
  "back@@": 1975,
  "various": 1976,
  "ff": 1977,
  "final": 1978,
  "wn": 1979,
  "lights": 1980,
  "gri@@": 1981,
  "dr.": 1982,
  "temperature": 1983,
  "birds": 1984,
  "daughter": 1985,
  "hi": 1986,
  "near": 1987,
  "cies": 1988,
  "90": 1989,
  "phones": 1990,
  "fli@@": 1991,
  "services": 1992,
  "search": 1993,
  "twice": 1994,
  "matic": 1995,
  "produced": 1996,
  "quick": 1997,
  "ris@@": 1998,
  "mate": 1999,
  "ed@@": 2000,
  "consciousness": 2001,
  "passion": 2002,
  "feed": 2003,
  "sustainable": 2004,
  "slightly": 2005,
  "capacity": 2006,
  "ads": 2007,
  "ha": 2008,
  "island": 2009,
  "possibly": 2010,
  "pass": 2011,
  "institutions": 2012,
  "stat@@": 2013,
  "heat": 2014,
  "decade": 2015,
  "ical": 2016,
  "lam@@": 2017,
  "ahead": 2018,
  "nar@@": 2019,
  "funny": 2020,
  "path": 2021,
  "speaking": 2022,
  "unique": 2023,
  "ered": 2024,
  "she@@": 2025,
  "types": 2026,
  "year-old": 2027,
  "helped": 2028,
  "sat": 2029,
  "causes": 2030,
  "discover": 2031,
  "instance": 2032,
  "afghanistan": 2033,
  "genome": 2034,
  "bought": 2035,
  "chris": 2036,
  "le-@@": 2037,
  "experiments": 2038,
  "significant": 2039,
  "infrastructure": 2040,
  "16": 2041,
  "networks": 2042,
  "recent": 2043,
  "societies": 2044,
  "radi@@": 2045,
  "character": 2046,
  "chemical": 2047,
  "wil@@": 2048,
  "nation": 2049,
  "efficient": 2050,
  "mobile": 2051,
  "moon": 2052,
  "financial": 2053,
  "shared": 2054,
  "designers": 2055,
  "meeting": 2056,
  "net": 2057,
  "following": 2058,
  "original": 2059,
  "push": 2060,
  "ancient": 2061,
  "degrees": 2062,
  "land@@": 2063,
  "sign": 2064,
  "charge": 2065,
  "5,000": 2066,
  "ky": 2067,
  "shed": 2068,
  "directly": 2069,
  "park": 2070,
  "ble@@": 2071,
  "sharing": 2072,
  "extra": 2073,
  "terrible": 2074,
  "track": 2075,
  "communication": 2076,
  "len@@": 2077,
  "purpose": 2078,
  "police": 2079,
  "london": 2080,
  "carry": 2081,
  "worry": 2082,
  "industrial": 2083,
  "ny": 2084,
  "below": 2085,
  "complexity": 2086,
  "ley": 2087,
  "indian": 2088,
  "workers": 2089,
  "focused": 2090,
  "secret": 2091,
  "mark": 2092,
  "300": 2093,
  "pressure": 2094,
  "boys": 2095,
  "governments": 2096,
  "career": 2097,
  "paid": 2098,
  "era": 2099,
  "straight": 2100,
  "bac@@": 2101,
  "term": 2102,
  "summer": 2103,
  "emotional": 2104,
  "levels": 2105,
  "ages": 2106,
  "inspired": 2107,
  "trade": 2108,
  "capital": 2109,
  "willing": 2110,
  "10@@": 2111,
  "artists": 2112,
  "diseases": 2113,
  "whose": 2114,
  "balance": 2115,
  "a-@@": 2116,
  "biological": 2117,
  "dent": 2118,
  "foundation": 2119,
  "birth": 2120,
  "event": 2121,
  "etc": 2122,
  "forth": 2123,
  "sleep": 2124,
  "effects": 2125,
  "closer": 2126,
  "stream": 2127,
  "meters": 2128,
  "creates": 2129,
  "bly": 2130,
  "ca": 2131,
  "ute": 2132,
  "oxygen": 2133,
  "differences": 2134,
  "challenges": 2135,
  "speci@@": 2136,
  "laws": 2137,
  "apart": 2138,
  "drop": 2139,
  "molecules": 2140,
  "memory": 2141,
  "cycle": 2142,
  "structures": 2143,
  "flu": 2144,
  "text": 2145,
  "na": 2146,
  "trial": 2147,
  "explore": 2148,
  "bill": 2149,
  "bing": 2150,
  "cas@@": 2151,
  "atmosphere": 2152,
  "supply": 2153,
  "fit": 2154,
  "trouble": 2155,
  "end@@": 2156,
  "o-@@": 2157,
  "$": 2158,
  "particles": 2159,
  "rooms": 2160,
  "dying": 2161,
  "sphere": 2162,
  "yellow": 2163,
  "stone": 2164,
  "spending": 2165,
  "rock": 2166,
  "asia": 2167,
  "work@@": 2168,
  "im": 2169,
  "lets": 2170,
  "devices": 2171,
  "broken": 2172,
  "sin@@": 2173,
  "organisms": 2174,
  "pers": 2175,
  "flies": 2176,
  "published": 2177,
  "tail": 2178,
  "seemed": 2179,
  "party": 2180,
  "noticed": 2181,
  "faces": 2182,
  "chi@@": 2183,
  "california": 2184,
  "easily": 2185,
  "radio": 2186,
  "sla@@": 2187,
  "lie": 2188,
  "10,000": 2189,
  "sun@@": 2190,
  "graph": 2191,
  "worst": 2192,
  "colleagues": 2193,
  "studying": 2194,
  "total": 2195,
  "ne": 2196,
  "highly": 2197,
  "answers": 2198,
  "counter@@": 2199,
  "popular": 2200,
  "ping": 2201,
  "prison": 2202,
  "hearing": 2203,
  "fair": 2204,
  "phenomenon": 2205,
  "chair": 2206,
  "decades": 2207,
  "blind": 2208,
  "turning": 2209,
  "passed": 2210,
  "decide": 2211,
  "electric": 2212,
  "lucky": 2213,
  "check": 2214,
  "condition": 2215,
  "choices": 2216,
  "bringing": 2217,
  "stopped": 2218,
  "necessarily": 2219,
  "task": 2220,
  "responsibility": 2221,
  "conver@@": 2222,
  "communicate": 2223,
  "tremendous": 2224,
  "q@@": 2225,
  "knowing": 2226,
  "iraq": 2227,
  "noise": 2228,
  "print": 2229,
  "fying": 2230,
  "coffee": 2231,
  "feels": 2232,
  "bits": 2233,
  "richard": 2234,
  "surprising": 2235,
  "1,000": 2236,
  "decision": 2237,
  "bird": 2238,
  "mountain": 2239,
  "ko@@": 2240,
  "window": 2241,
  "edge": 2242,
  "&amp;": 2243,
  "corner": 2244,
  "low-@@": 2245,
  "neuro@@": 2246,
  "leads": 2247,
  "al-@@": 2248,
  "possibility": 2249,
  "improve": 2250,
  "mur@@": 2251,
  "engine": 2252,
  "achieve": 2253,
  "basis": 2254,
  "helping": 2255,
  "ctors": 2256,
  "hes": 2257,
  "return": 2258,
  "farmers": 2259,
  "-year-old": 2260,
  "programs": 2261,
  "pounds": 2262,
  "fix": 2263,
  "civil": 2264,
  "bone": 2265,
  "nearly": 2266,
  "argument": 2267,
  "formed": 2268,
  "fairly": 2269,
  "relationships": 2270,
  "throw": 2271,
  "designer": 2272,
  "tissue": 2273,
  "fold": 2274,
  "ought": 2275,
  "brings": 2276,
  "missing": 2277,
  "address": 2278,
  "yer": 2279,
  "lt": 2280,
  "lying": 2281,
  "electro@@": 2282,
  "typical": 2283,
  "giant": 2284,
  "definition": 2285,
  "elements": 2286,
  "hum@@": 2287,
  "meter": 2288,
  "interact": 2289,
  "race": 2290,
  "14": 2291,
  "flight": 2292,
  "justice": 2293,
  "standard": 2294,
  "moments": 2295,
  "differently": 2296,
  "mothers": 2297,
  "figured": 2298,
  "reduce": 2299,
  "join": 2300,
  "graphy": 2301,
  "imagination": 2302,
  "ink": 2303,
  "benefits": 2304,
  "opportunities": 2305,
  "not@@": 2306,
  "&apos;@@": 2307,
  "suffering": 2308,
  "organizations": 2309,
  "load": 2310,
  "core": 2311,
  "river": 2312,
  "1.@@": 2313,
  "religious": 2314,
  "finished": 2315,
  "held": 2316,
  "j": 2317,
  "landscape": 2318,
  "mouse": 2319,
  "french": 2320,
  "professor": 2321,
  "hair": 2322,
  "spo@@": 2323,
  "ra": 2324,
  "ering": 2325,
  "planets": 2326,
  "iled": 2327,
  "shift": 2328,
  "boat": 2329,
  "creatures": 2330,
  "mr.": 2331,
  "breast": 2332,
  "conscious": 2333,
  "bread": 2334,
  "sites": 2335,
  "engineers": 2336,
  "benefit": 2337,
  "competition": 2338,
  "tures": 2339,
  "tom": 2340,
  "sand": 2341,
  "afraid": 2342,
  "card": 2343,
  "stem": 2344,
  "bridge": 2345,
  "well-@@": 2346,
  "1,@@": 2347,
  "organic": 2348,
  "streets": 2349,
  "colors": 2350,
  "resi@@": 2351,
  "comfortable": 2352,
  "tan": 2353,
  "forever": 2354,
  "ends": 2355,
  "hea@@": 2356,
  "profit": 2357,
  "holding": 2358,
  "british": 2359,
  "fields": 2360,
  "bla@@": 2361,
  "block": 2362,
  "enter": 2363,
  "lesson": 2364,
  "heads": 2365,
  "moves": 2366,
  "notion": 2367,
  "prize": 2368,
  "visit": 2369,
  "slowly": 2370,
  "rain": 2371,
  "catch": 2372,
  "calls": 2373,
  "campaign": 2374,
  "begins": 2375,
  "negative": 2376,
  "base": 2377,
  "circle": 2378,
  "vely": 2379,
  "meat": 2380,
  "matters": 2381,
  "gun": 2382,
  "describe": 2383,
  "mathematics": 2384,
  "despite": 2385,
  "saving": 2386,
  "insects": 2387,
  "citizens": 2388,
  "ray": 2389,
  "otherwise": 2390,
  "perfectly": 2391,
  "coast": 2392,
  "walls": 2393,
  "pet@@": 2394,
  "helps": 2395,
  "events": 2396,
  "billions": 2397,
  "experiences": 2398,
  "discovery": 2399,
  "degree": 2400,
  "traffic": 2401,
  "effort": 2402,
  "necessary": 2403,
  "studied": 2404,
  "shop": 2405,
  "opened": 2406,
  "ring": 2407,
  "entirely": 2408,
  "brilliant": 2409,
  "offer": 2410,
  "painting": 2411,
  "easier": 2412,
  "fore@@": 2413,
  "nations": 2414,
  "factory": 2415,
  "distance": 2416,
  "prote@@": 2417,
  "fication": 2418,
  "count": 2419,
  "japan": 2420,
  "afford": 2421,
  "emotions": 2422,
  "responsible": 2423,
  "bling": 2424,
  "normally": 2425,
  "members": 2426,
  "ultimately": 2427,
  "placed": 2428,
  "sister": 2429,
  "contra@@": 2430,
  "sector": 2431,
  "photo": 2432,
  "report": 2433,
  "mouth": 2434,
  "apply": 2435,
  "statistics": 2436,
  "opposite": 2437,
  "profound": 2438,
  "enjoy": 2439,
  "adults": 2440,
  "tech": 2441,
  "female": 2442,
  "wisdom": 2443,
  "magazine": 2444,
  "sold": 2445,
  "13": 2446,
  "seriously": 2447,
  "tations": 2448,
  "wear": 2449,
  "400": 2450,
  "operating": 2451,
  "facebook": 2452,
  "caught": 2453,
  "supp@@": 2454,
  "quar@@": 2455,
  "foreign": 2456,
  "u.k.": 2457,
  "trained": 2458,
  "leading": 2459,
  "desert": 2460,
  "engineer": 2461,
  "la": 2462,
  "principles": 2463,
  "galaxies": 2464,
  "respect": 2465,
  "wow": 2466,
  "investment": 2467,
  "according": 2468,
  "motion": 2469,
  "angle": 2470,
  "spring": 2471,
  "alize": 2472,
  "inner": 2473,
  "steps": 2474,
  "plus": 2475,
  "fashion": 2476,
  "puts": 2477,
  "influence": 2478,
  "station": 2479,
  "fill": 2480,
  "identity": 2481,
  "engage": 2482,
  "extreme": 2483,
  "shouldn": 2484,
  "attack": 2485,
  "sick": 2486,
  "cheap": 2487,
  "loss": 2488,
  "fourth": 2489,
  "argue": 2490,
  "commercial": 2491,
  "limited": 2492,
  "stuck": 2493,
  "constantly": 2494,
  "promise": 2495,
  "oceans": 2496,
  "thinks": 2497,
  "consumption": 2498,
  "failed": 2499,
  "legal": 2500,
  "wild": 2501,
  "quote": 2502,
  "in-@@": 2503,
  "graphic": 2504,
  "dry": 2505,
  "fighting": 2506,
  "san": 2507,
  "airplane": 2508,
  "bility": 2509,
  "sequence": 2510,
  "tumor": 2511,
  "smo@@": 2512,
  "raised": 2513,
  "capable": 2514,
  "filled": 2515,
  "hat@@": 2516,
  "metaphor": 2517,
  "hopefully": 2518,
  "wealth": 2519,
  "beat": 2520,
  "shoes": 2521,
  "invest": 2522,
  "transform": 2523,
  "predict": 2524,
  "agriculture": 2525,
  "respond": 2526,
  "husband": 2527,
  "dynamic": 2528,
  "prevent": 2529,
  "24": 2530,
  "followed": 2531,
  "co2": 2532,
  "leaving": 2533,
  "2,000": 2534,
  "arms": 2535,
  "harder": 2536,
  "male": 2537,
  "virtual": 2538,
  "article": 2539,
  "three-@@": 2540,
  "due": 2541,
  "labor": 2542,
  "equal": 2543,
  "alism": 2544,
  "importantly": 2545,
  "sis": 2546,
  "dreams": 2547,
  "fascinating": 2548,
  "background": 2549,
  "gate": 2550,
  "tough": 2551,
  "distribution": 2552,
  "passionate": 2553,
  "believed": 2554,
  "tens": 2555,
  "washington": 2556,
  "roll": 2557,
  "finger": 2558,
  "desire": 2559,
  "tomorrow": 2560,
  "therapy": 2561,
  "languages": 2562,
  "crime": 2563,
  "pair": 2564,
  "creation": 2565,
  "bees": 2566,
  "hate": 2567,
  "damage": 2568,
  "co": 2569,
  "majority": 2570,
  "brother": 2571,
  "viruses": 2572,
  "bar": 2573,
  "spirit": 2574,
  "invisible": 2575,
  "organized": 2576,
  "dinner": 2577,
  "spaces": 2578,
  "advantage": 2579,
  "random": 2580,
  "sy": 2581,
  "apple": 2582,
  "val": 2583,
  "generate": 2584,
  "wide": 2585,
  "pages": 2586,
  "whenever": 2587,
  "speech": 2588,
  "dge": 2589,
  "survival": 2590,
  "driven": 2591,
  "paint": 2592,
  "caused": 2593,
  "molecule": 2594,
  "equivalent": 2595,
  "bot@@": 2596,
  "weird": 2597,
  "compare": 2598,
  "belief": 2599,
  "wearing": 2600,
  "los": 2601,
  "ites": 2602,
  "treated": 2603,
  "economics": 2604,
  "sad": 2605,
  "sl@@": 2606,
  "yesterday": 2607,
  "failure": 2608,
  "note": 2609,
  "principle": 2610,
  "farm": 2611,
  "wave": 2612,
  "childhood": 2613,
  "unless": 2614,
  "intelligent": 2615,
  "deeply": 2616,
  "dimensions": 2617,
  "acts": 2618,
  "20th": 2619,
  "th-@@": 2620,
  "neighborhood": 2621,
  "opening": 2622,
  "theater": 2623,
  "managed": 2624,
  "soil": 2625,
  "ii": 2626,
  "proud": 2627,
  "worried": 2628,
  "lack": 2629,
  "leaves": 2630,
  "rein@@": 2631,
  "paul": 2632,
  "construction": 2633,
  "versus": 2634,
  "hed": 2635,
  "warming": 2636,
  "dinosaurs": 2637,
  "mortality": 2638,
  "mc@@": 2639,
  "malaria": 2640,
  "ak": 2641,
  "17": 2642,
  "wake": 2643,
  "names": 2644,
  "everyday": 2645,
  "electrical": 2646,
  "ka": 2647,
  "sexual": 2648,
  "bear": 2649,
  "paying": 2650,
  "surprise": 2651,
  "shapes": 2652,
  "covered": 2653,
  "represent": 2654,
  "concerned": 2655,
  "muscle": 2656,
  "charles": 2657,
  "church": 2658,
  "galaxy": 2659,
  "section": 2660,
  "suit": 2661,
  "brand": 2662,
  "drawing": 2663,
  "facts": 2664,
  "ph": 2665,
  "suppose": 2666,
  "define": 2667,
  "increasingly": 2668,
  "actions": 2669,
  "weapons": 2670,
  "ol": 2671,
  "houses": 2672,
  "launched": 2673,
  "mentioned": 2674,
  "photos": 2675,
  "professional": 2676,
  "european": 2677,
  "rid": 2678,
  "currently": 2679,
  "designing": 2680,
  "vehicle": 2681,
  "sudden": 2682,
  "holes": 2683,
  "cker": 2684,
  "described": 2685,
  "alists": 2686,
  "expression": 2687,
  "civilization": 2688,
  "protein": 2689,
  "classroom": 2690,
  "bright": 2691,
  "institute": 2692,
  "letter": 2693,
  "appear": 2694,
  "camp": 2695,
  "roughly": 2696,
  "coral": 2697,
  "leadership": 2698,
  "arts": 2699,
  "ash": 2700,
  "mexico": 2701,
  "cloud": 2702,
  "debate": 2703,
  "hidden": 2704,
  "copy": 2705,
  "george": 2706,
  "fell": 2707,
  "deliver": 2708,
  "invited": 2709,
  "losing": 2710,
  "stands": 2711,
  "japanese": 2712,
  "hell": 2713,
  "option": 2714,
  "graduate": 2715,
  "affect": 2716,
  "universal": 2717,
  "lat@@": 2718,
  "vast": 2719,
  "plane": 2720,
  "kenya": 2721,
  "lunch": 2722,
  "35": 2723,
  "honest": 2724,
  "gain": 2725,
  "ners": 2726,
  "smell": 2727,
  "grandmother": 2728,
  "spot": 2729,
  "exists": 2730,
  "toward": 2731,
  "threat": 2732,
  "teeth": 2733,
  "horse": 2734,
  "aries": 2735,
  "ordinary": 2736,
  "garden": 2737,
  "heavy": 2738,
  "interaction": 2739,
  "awful": 2740,
  "continent": 2741,
  "seat": 2742,
  "bles": 2743,
  "separate": 2744,
  "voices": 2745,
  "producing": 2746,
  "geo@@": 2747,
  "99": 2748,
  "finish": 2749,
  "collective": 2750,
  "actor": 2751,
  "emotion": 2752,
  "direct": 2753,
  "gold": 2754,
  "forming": 2755,
  "einstein": 2756,
  "strategy": 2757,
  "depression": 2758,
  "acting": 2759,
  "hasn": 2760,
  "definitely": 2761,
  "leader": 2762,
  "steel": 2763,
  "mile": 2764,
  "evil": 2765,
  "wards": 2766,
  "link": 2767,
  "compared": 2768,
  "newspaper": 2769,
  "cher": 2770,
  "magnetic": 2771,
  "trip": 2772,
  "nigeria": 2773,
  "signal": 2774,
  "experts": 2775,
  "surprised": 2776,
  "underneath": 2777,
  "keeping": 2778,
  "notes": 2779,
  "sight": 2780,
  "associated": 2781,
  "sugar": 2782,
  "planning": 2783,
  "valley": 2784,
  "chemicals": 2785,
  "pre-@@": 2786,
  "ize": 2787,
  "soldiers": 2788,
  "rural": 2789,
  "cure": 2790,
  "45": 2791,
  "accident": 2792,
  "fat": 2793,
  "dies": 2794,
  "feelings": 2795,
  "collect": 2796,
  "equipment": 2797,
  "jump": 2798,
  "sum": 2799,
  "prime": 2800,
  "demand": 2801,
  "multiple": 2802,
  "17@@": 2803,
  "worldwide": 2804,
  "grown": 2805,
  "signals": 2806,
  "sides": 2807,
  "resource": 2808,
  "interface": 2809,
  "powered": 2810,
  "union": 2811,
  "essential": 2812,
  "zo@@": 2813,
  "facing": 2814,
  "studio": 2815,
  "gram": 2816,
  "independent": 2817,
  "highest": 2818,
  "chemistry": 2819,
  "budget": 2820,
  "double": 2821,
  "joy": 2822,
  "generations": 2823,
  "transformation": 2824,
  "artificial": 2825,
  "cognitive": 2826,
  "consequences": 2827,
  "married": 2828,
  "atory": 2829,
  "closed": 2830,
  "controlled": 2831,
  "corruption": 2832,
  "importance": 2833,
  "100,000": 2834,
  "cultures": 2835,
  "status": 2836,
  "layer": 2837,
  "sub-@@": 2838,
  "killing": 2839,
  "selling": 2840,
  "warm": 2841,
  "ours": 2842,
  "nervous": 2843,
  "australia": 2844,
  "contact": 2845,
  "whom": 2846,
  "ladies": 2847,
  "email": 2848,
  "sty": 2849,
  "wars": 2850,
  "vote": 2851,
  "miss": 2852,
  "library": 2853,
  "emerging": 2854,
  "150": 2855,
  "operate": 2856,
  "northern": 2857,
  "spoke": 2858,
  "molecular": 2859,
  "pole": 2860,
  "rational": 2861,
  "cortex": 2862,
  "stood": 2863,
  "property": 2864,
  "typically": 2865,
  "technical": 2866,
  "empty": 2867,
  "alization": 2868,
  "letters": 2869,
  "iran": 2870,
  "chicken": 2871,
  "mid@@": 2872,
  "wired": 2873,
  "shall": 2874,
  "department": 2875,
  "player": 2876,
  "c.": 2877,
  "relatively": 2878,
  "folks": 2879,
  "avoid": 2880,
  "wire": 2881,
  "deeper": 2882,
  "israel": 2883,
  "forced": 2884,
  "stu@@": 2885,
  "solved": 2886,
  "england": 2887,
  "spectrum": 2888,
  "master": 2889,
  "dogs": 2890,
  "hero": 2891,
  "fellow": 2892,
  "picked": 2893,
  "que": 2894,
  "flat": 2895,
  "army": 2896,
  "james": 2897,
  "gam@@": 2898,
  "weather": 2899,
  "efficiency": 2900,
  "prove": 2901,
  "curious": 2902,
  "sharks": 2903,
  "intellectual": 2904,
  "dots": 2905,
  "match": 2906,
  "characters": 2907,
  "mix": 2908,
  "account": 2909,
  "violent": 2910,
  "brown": 2911,
  "ination": 2912,
  "regular": 2913,
  "adult": 2914,
  "tered": 2915,
  "users": 2916,
  "roots": 2917,
  "breath": 2918,
  "anti-@@": 2919,
  "practical": 2920,
  "lady": 2921,
  "protection": 2922,
  "britain": 2923,
  "invention": 2924,
  "leg": 2925,
  "homes": 2926,
  "bus": 2927,
  "va": 2928,
  "round": 2929,
  "suggest": 2930,
  "daily": 2931,
  "mountains": 2932,
  "detail": 2933,
  "kilometers": 2934,
  "mathematical": 2935,
  "michael": 2936,
  "thoughts": 2937,
  "alternative": 2938,
  "calling": 2939,
  "senses": 2940,
  "possibilities": 2941,
  "fresh": 2942,
  "photographs": 2943,
  "twitter": 2944,
  "nasa": 2945,
  "movies": 2946,
  "pleasure": 2947,
  "clinical": 2948,
  "remote": 2949,
  "diet": 2950,
  "fire@@": 2951,
  "coal": 2952,
  "affected": 2953,
  "organs": 2954,
  "cards": 2955,
  "absolute": 2956,
  "experienced": 2957,
  "brazil": 2958,
  "reaction": 2959,
  "marketing": 2960,
  "canada": 2961,
  "lands": 2962,
  "chain": 2963,
  "lessons": 2964,
  "relevant": 2965,
  "clock": 2966,
  "method": 2967,
  "600": 2968,
  "pil@@": 2969,
  "introduced": 2970,
  "kitchen": 2971,
  "scene": 2972,
  "effectively": 2973,
  "long-term": 2974,
  "bang": 2975,
  "fishing": 2976,
  "addition": 2977,
  "disaster": 2978,
  "minister": 2979,
  "arrived": 2980,
  "waves": 2981,
  "axis": 2982,
  "management": 2983,
  "details": 2984,
  "by@@": 2985,
  "bush": 2986,
  "considered": 2987,
  "kar@@": 2988,
  "saved": 2989,
  "hot@@": 2990,
  "tele@@": 2991,
  "maps": 2992,
  "radiation": 2993,
  "dealing": 2994,
  "penguins": 2995,
  "metal": 2996,
  "nor": 2997,
  "partner": 2998,
  "van": 2999,
  "drink": 3000,
  "grand": 3001,
  "sentence": 3002,
  "received": 3003,
  "cross": 3004,
  "hadn": 3005,
  "sle@@": 3006,
  "3,000": 3007,
  "hall": 3008,
  "epidemic": 3009,
  "buying": 3010,
  "setting": 3011,
  "productive": 3012,
  "gravity": 3013,
  "players": 3014,
  "marine": 3015,
  "3d": 3016,
  "wise": 3017,
  "specifically": 3018,
  "employees": 3019,
  "germany": 3020,
  "winter": 3021,
  "cooking": 3022,
  "struggle": 3023,
  "gift": 3024,
  "radical": 3025,
  "beach": 3026,
  "southern": 3027,
  "ships": 3028,
  "requires": 3029,
  "transition": 3030,
  "location": 3031,
  "mistake": 3032,
  "liked": 3033,
  "eastern": 3034,
  "valuable": 3035,
  "2008": 3036,
  "cutting": 3037,
  "laptop": 3038,
  "fossil": 3039,
  "fail": 3040,
  "exercise": 3041,
  "cated": 3042,
  "switch": 3043,
  "mention": 3044,
  "businesses": 3045,
  "analysis": 3046,
  "darwin": 3047,
  "testing": 3048,
  "tests": 3049,
  "broke": 3050,
  "introduce": 3051,
  "atoms": 3052,
  "dan": 3053,
  "feedback": 3054,
  "mistakes": 3055,
  "trials": 3056,
  "sil@@": 3057,
  "democratic": 3058,
  "ecosystem": 3059,
  "reward": 3060,
  "appropriate": 3061,
  "express": 3062,
  "silk": 3063,
  "post-@@": 3064,
  "ished": 3065,
  "tons": 3066,
  "five-@@": 3067,
  "unlike": 3068,
  "psychology": 3069,
  "click": 3070,
  "existence": 3071,
  "rever@@": 3072,
  "unusual": 3073,
  "manage": 3074,
  "behaviors": 3075,
  "prepared": 3076,
  "milk": 3077,
  "motor": 3078,
  "restaurant": 3079,
  "factor": 3080,
  "techniques": 3081,
  "properties": 3082,
  "arab": 3083,
  "target": 3084,
  "pop": 3085,
  "components": 3086,
  "lifetime": 3087,
  "theme": 3088,
  "primary": 3089,
  "consumer": 3090,
  "poetry": 3091,
  "videos": 3092,
  "display": 3093,
  "carrying": 3094,
  "medium": 3095,
  "rare": 3096,
  "increasing": 3097,
  "accept": 3098,
  "visible": 3099,
  "generally": 3100,
  "quantum": 3101,
  "infected": 3102,
  "represents": 3103,
  "fewer": 3104,
  "instrument": 3105,
  "writer": 3106,
  "safety": 3107,
  "whereas": 3108,
  "evolutionary": 3109,
  "politicians": 3110,
  "bottle": 3111,
  "proteins": 3112,
  "via": 3113,
  "gap": 3114,
  "naturally": 3115,
  "bubble": 3116,
  "sets": 3117,
  "berg": 3118,
  "bet": 3119,
  "honor": 3120,
  "processes": 3121,
  "swim": 3122,
  "runs": 3123,
  "roof": 3124,
  "capture": 3125,
  "watched": 3126,
  "convince": 3127,
  "identify": 3128,
  "credit": 3129,
  "neighbors": 3130,
  "variety": 3131,
  "wikipedia": 3132,
  "connections": 3133,
  "sir": 3134,
  "user": 3135,
  "faith": 3136,
  "battle": 3137,
  "situations": 3138,
  "brothers": 3139,
  "driver": 3140,
  "hing": 3141,
  "satellite": 3142,
  "ancestors": 3143,
  "unit": 3144,
  "style": 3145,
  "novel": 3146,
  "crash": 3147,
  "-": 3148,
  "researchers": 3149,
  "string": 3150,
  "makers": 3151,
  "ken": 3152,
  "member": 3153,
  "perception": 3154,
  "u.n.": 3155,
  "expected": 3156,
  "error": 3157,
  "cat": 3158,
  "continued": 3159,
  "pulled": 3160,
  "-up": 3161,
  "serve": 3162,
  "platform": 3163,
  "stock": 3164,
  "personally": 3165,
  "exchange": 3166,
  "risks": 3167,
  "mirror": 3168,
  "marriage": 3169,
  "blocks": 3170,
  "tries": 3171,
  "peak": 3172,
  "liquid": 3173,
  "pollution": 3174,
  "cry": 3175,
  "fake": 3176,
  "goods": 3177,
  "rates": 3178,
  "advanced": 3179,
  "gulf": 3180,
  "reached": 3181,
  "estimate": 3182,
  "closely": 3183,
  "recorded": 3184,
  "burn": 3185,
  "males": 3186,
  "clip": 3187,
  "cents": 3188,
  "burning": 3189,
  "former": 3190,
  "ep": 3191,
  "zone": 3192,
  "depends": 3193,
  "lay": 3194,
  "defined": 3195,
  "joke": 3196,
  "goals": 3197,
  "2007": 3198,
  "vaccine": 3199,
  "battery": 3200,
  "require": 3201,
  "tradition": 3202,
  "sources": 3203,
  "relate": 3204,
  "ears": 3205,
  "architect": 3206,
  "stupid": 3207,
  "pin@@": 3208,
  "gy@@": 3209,
  "correct": 3210,
  "sensitive": 3211,
  "sunlight": 3212,
  "steve": 3213,
  "amounts": 3214,
  "ride": 3215,
  "ultimate": 3216,
  "75": 3217,
  "quiet": 3218,
  "hoping": 3219,
  "aspect": 3220,
  "taste": 3221,
  "movements": 3222,
  "environments": 3223,
  "frame": 3224,
  "traveling": 3225,
  "sees": 3226,
  "pollen": 3227,
  "thomas": 3228,
  "gentlemen": 3229,
  "discussion": 3230,
  "algorithms": 3231,
  "gay": 3232,
  "post": 3233,
  "empathy": 3234,
  "percentage": 3235,
  "healthcare": 3236,
  "solving": 3237,
  "collaboration": 3238,
  "kers": 3239,
  "emissions": 3240,
  "fortunate": 3241,
  "organ": 3242,
  "dish": 3243,
  "wine": 3244,
  "topic": 3245,
  "destruction": 3246,
  "figures": 3247,
  "remain": 3248,
  "band": 3249,
  "three-dimensional": 3250,
  "dramatic": 3251,
  "trick": 3252,
  "carefully": 3253,
  "stable": 3254,
  "hotel": 3255,
  "shaped": 3256,
  "interests": 3257,
  "opinion": 3258,
  "replace": 3259,
  "sending": 3260,
  "signs": 3261,
  "ized": 3262,
  "eric": 3263,
  "survey": 3264,
  "shake": 3265,
  "centers": 3266,
  "collection": 3267,
  "awareness": 3268,
  "shark": 3269,
  "wondering": 3270,
  "vulnerable": 3271,
  "convinced": 3272,
  "protected": 3273,
  "applied": 3274,
  "exploration": 3275,
  "youtube": 3276,
  "tape": 3277,
  "operation": 3278,
  "element": 3279,
  "pointed": 3280,
  "shoot": 3281,
  "feeding": 3282,
  "electronic": 3283,
  "harvard": 3284,
  "stress": 3285,
  "curve": 3286,
  "technological": 3287,
  "applications": 3288,
  "crowd": 3289,
  "hydrogen": 3290,
  "laboratory": 3291,
  "francisco": 3292,
  "islands": 3293,
  "tac@@": 3294,
  "falling": 3295,
  "holds": 3296,
  "include": 3297,
  "added": 3298,
  "hits": 3299,
  "skill": 3300,
  "amp": 3301,
  "birthday": 3302,
  "bones": 3303,
  "plays": 3304,
  "religions": 3305,
  "strength": 3306,
  "sophisticated": 3307,
  "explanation": 3308,
  "computing": 3309,
  "dropped": 3310,
  "existing": 3311,
  "remains": 3312,
  "tie": 3313,
  "tube": 3314,
  "nose": 3315,
  "insight": 3316,
  "breaking": 3317,
  "institution": 3318,
  "bag": 3319,
  "bomb": 3320,
  "polio": 3321,
  "robert": 3322,
  "singing": 3323,
  "fund": 3324,
  "smile": 3325,
  "sample": 3326,
  "channel": 3327,
  "encourage": 3328,
  "combination": 3329,
  "claim": 3330,
  "logic": 3331,
  "boxes": 3332,
  "economists": 3333,
  "transportation": 3334,
  "pakistan": 3335,
  "literature": 3336,
  "conventional": 3337,
  "increased": 3338,
  "boston": 3339,
  "windows": 3340,
  "relative": 3341,
  "cameras": 3342,
  "previous": 3343,
  "hip": 3344,
  "gdp": 3345,
  "partners": 3346,
  "maker": 3347,
  "confidence": 3348,
  "fundamentally": 3349,
  "tracking": 3350,
  "sw@@": 3351,
  "hurt": 3352,
  "trillion": 3353,
  "advice": 3354,
  "neither": 3355,
  "combined": 3356,
  "accurate": 3357,
  "solid": 3358,
  "flowers": 3359,
  "grid": 3360,
  "keeps": 3361,
  "odd": 3362,
  "upper": 3363,
  "pacific": 3364,
  "2000": 3365,
  "islam": 3366,
  "water@@": 3367,
  "entertainment": 3368,
  "presentation": 3369,
  "bin": 3370,
  "21": 3371,
  "reverse": 3372,
  "linked": 3373,
  "falls": 3374,
  "horrible": 3375,
  "fingers": 3376,
  "rocket": 3377,
  "cow": 3378,
  "microbes": 3379,
  "sweet": 3380,
  "presence": 3381,
  "monkeys": 3382,
  "outcome": 3383,
  "sal": 3384,
  "roads": 3385,
  "ances": 3386,
  "cast": 3387,
  "title": 3388,
  "length": 3389,
  "shares": 3390,
  "shame": 3391,
  "equation": 3392,
  "circumstances": 3393,
  "explains": 3394,
  "telescope": 3395,
  "entrepreneurs": 3396,
  "bay": 3397,
  "director": 3398,
  "suggests": 3399,
  "framework": 3400,
  "pack": 3401,
  "component": 3402,
  "occur": 3403,
  "expand": 3404,
  "fed": 3405,
  "options": 3406,
  "factors": 3407,
  "atten@@": 3408,
  "patent": 3409,
  "collapse": 3410,
  "mystery": 3411,
  "boring": 3412,
  "dancing": 3413,
  "films": 3414,
  "thin": 3415,
  "simplicity": 3416,
  "funding": 3417,
  "grain": 3418,
  "younger": 3419,
  "worlds": 3420,
  "queen": 3421,
  "architects": 3422,
  "manufacturing": 3423,
  "flew": 3424,
  "behavioral": 3425,
  "authority": 3426,
  "remind": 3427,
  "genius": 3428,
  "hospitals": 3429,
  "recording": 3430,
  "surgeon": 3431,
  "musical": 3432,
  "symmetry": 3433,
  "deaths": 3434,
  "doubt": 3435,
  "rapidly": 3436,
  "signed": 3437,
  "2010": 3438,
  "staff": 3439,
  "corporate": 3440,
  "paris": 3441,
  "detect": 3442,
  "finance": 3443,
  "well-being": 3444,
  "graphics": 3445,
  "wheel": 3446,
  "determine": 3447,
  "features": 3448,
  "alities": 3449,
  "lake": 3450,
  "philosophy": 3451,
  "performing": 3452,
  "organism": 3453,
  "mid-@@": 3454,
  "tonight": 3455,
  "activities": 3456,
  "hydro@@": 3457,
  "wondered": 3458,
  "tested": 3459,
  "post@@": 3460,
  "wireless": 3461,
  "illness": 3462,
  "raising": 3463,
  "inspiration": 3464,
  "chicago": 3465,
  "sculpture": 3466,
  "clouds": 3467,
  "selection": 3468,
  "climb": 3469,
  "internal": 3470,
  "subjects": 3471,
  "treating": 3472,
  "mechanical": 3473,
  "innovative": 3474,
  "pure": 3475,
  "distributed": 3476,
  "victims": 3477,
  "vehicles": 3478,
  "nowhere": 3479,
  "afternoon": 3480,
  "paradigm": 3481,
  "touched": 3482,
  "particle": 3483,
  "mechanism": 3484,
  "tea": 3485,
  "photo@@": 3486,
  "technique": 3487,
  "statement": 3488,
  "abstract": 3489,
  "obsessed": 3490,
  "prices": 3491,
  "comfort": 3492,
  "unexpected": 3493,
  "ologists": 3494,
  "occurred": 3495,
  "regions": 3496,
  "walks": 3497,
  "origami": 3498,
  "forests": 3499,
  "release": 3500,
  "decline": 3501,
  "pocket": 3502,
  "stronger": 3503,
  "sustainability": 3504,
  "meaningful": 3505,
  "designs": 3506,
  "vessels": 3507,
  "handle": 3508,
  "exact": 3509,
  "africans": 3510,
  "printing": 3511,
  "educational": 3512,
  "fan": 3513,
  "illegal": 3514,
  "creature": 3515,
  "raw": 3516,
  "conclusion": 3517,
  "combine": 3518,
  "uns@@": 3519,
  "wherever": 3520,
  "scan": 3521,
  "eggs": 3522,
  "functional": 3523,
  "phase": 3524,
  "author": 3525,
  "chose": 3526,
  "heroes": 3527,
  "celebrate": 3528,
  "required": 3529,
  "defense": 3530,
  "unclear": 3531,
  "swimming": 3532,
  "dh": 3533,
  "explained": 3534,
  "quarter": 3535,
  "underwater": 3536,
  "intense": 3537,
  "lighting": 3538,
  "surely": 3539,
  "egypt": 3540,
  "golden": 3541,
  "plans": 3542,
  "ologist": 3543,
  "messages": 3544,
  "processing": 3545,
  "globe": 3546,
  "generated": 3547,
  "careful": 3548,
  "21st": 3549,
  "clothes": 3550,
  "launch": 3551,
  "frankly": 3552,
  "proof": 3553,
  "potentially": 3554,
  "blog": 3555,
  "engaged": 3556,
  "election": 3557,
  "largely": 3558,
  "button": 3559,
  "collected": 3560,
  "transformed": 3561,
  "directions": 3562,
  "attempt": 3563,
  "drives": 3564,
  "instruments": 3565,
  "somewhat": 3566,
  "severe": 3567,
  "measured": 3568,
  "19th": 3569,
  "piano": 3570,
  "dense": 3571,
  "60s": 3572,
  "arctic": 3573,
  "trend": 3574,
  "court": 3575,
  "ya": 3576,
  "embrace": 3577,
  "grows": 3578,
  "poem": 3579,
  "released": 3580,
  "obama": 3581,
  "pen": 3582,
  "bible": 3583,
  "equally": 3584,
  "iron": 3585,
  "stayed": 3586,
  "paintings": 3587,
  "participate": 3588,
  "sticks": 3589,
  "identical": 3590,
  "mad": 3591,
  "evening": 3592,
  "sely": 3593,
  "german": 3594,
  "admit": 3595,
  "ford": 3596,
  "plate": 3597,
  "economies": 3598,
  "laugh": 3599,
  "lovely": 3600,
  "gender": 3601,
  "retro@@": 3602,
  "chapter": 3603,
  "chocolate": 3604,
  "volume": 3605,
  "overall": 3606,
  "pile": 3607,
  "14@@": 3608,
  "root": 3609,
  "divided": 3610,
  "puzzle": 3611,
  "hello": 3612,
  "resistance": 3613,
  "fuels": 3614,
  "split": 3615,
  "unknown": 3616,
  "muslim": 3617,
  "haiti": 3618,
  "cook": 3619,
  "weak": 3620,
  "16@@": 3621,
  "nets": 3622,
  "false": 3623,
  "korea": 3624,
  "sweden": 3625,
  "physically": 3626,
  "divide": 3627,
  "welcome": 3628,
  "zoom": 3629,
  "passing": 3630,
  "flower": 3631,
  "savings": 3632,
  "spar@@": 3633,
  "greenhouse": 3634,
  "incentives": 3635,
  "co-@@": 3636,
  "christmas": 3637,
  "perform": 3638,
  "posing": 3639,
  "faced": 3640,
  "obesity": 3641,
  "infinite": 3642,
  "soul": 3643,
  "capit@@": 3644,
  "congress": 3645,
  "september": 3646,
  "feature": 3647,
  "joined": 3648,
  "by-@@": 3649,
  "immune": 3650,
  "fortune": 3651,
  "prototype": 3652,
  "whales": 3653,
  "dirty": 3654,
  "france": 3655,
  "scared": 3656,
  "chip": 3657,
  "soft": 3658,
  "bf": 3659,
  "usual": 3660,
  "50,000": 3661,
  "ing-@@": 3662,
  "kingdom": 3663,
  "busy": 3664,
  "measuring": 3665,
  "four-@@": 3666,
  "density": 3667,
  "silence": 3668,
  "happier": 3669,
  "offered": 3670,
  "existed": 3671,
  "bike": 3672,
  "struck": 3673,
  "furniture": 3674,
  "commitment": 3675,
  "teams": 3676,
  "lung": 3677,
  "pregnant": 3678,
  "secondly": 3679,
  "carried": 3680,
  "sheep": 3681,
  "clinic": 3682,
  "agreed": 3683,
  "depend": 3684,
  "automatically": 3685,
  "frank": 3686,
  "session": 3687,
  "spreading": 3688,
  "tall": 3689,
  "connecting": 3690,
  "invent": 3691,
  "consumers": 3692,
  "shock": 3693,
  "housing": 3694,
  "reaching": 3695,
  "disappeared": 3696,
  "probability": 3697,
  "granted": 3698,
  "20,000": 3699,
  "implications": 3700,
  "villages": 3701,
  "march": 3702,
  "interview": 3703,
  "functions": 3704,
  "dolphins": 3705,
  "narrative": 3706,
  "intuitive": 3707,
  "dor@@": 3708,
  "ear": 3709,
  "suffer": 3710,
  "19": 3711,
  "hunger": 3712,
  "parking": 3713,
  "songs": 3714,
  "romantic": 3715,
  "nest": 3716,
  "exploring": 3717,
  "shut": 3718,
  "half-@@": 3719,
  "input": 3720,
  "2005": 3721,
  "clever": 3722,
  "till": 3723,
  "depending": 3724,
  "ku@@": 3725,
  "translate": 3726,
  "gates": 3727,
  "grab": 3728,
  "apparently": 3729,
  "symptoms": 3730,
  "enable": 3731,
  "border": 3732,
  "phrase": 3733,
  "club": 3734,
  "appreciate": 3735,
  "pig": 3736,
  "interestingly": 3737,
  "stations": 3738,
  "extinct": 3739,
  "gray": 3740,
  "long-@@": 3741,
  "ists": 3742,
  "painful": 3743,
  "breathe": 3744,
  "spider": 3745,
  "circuit": 3746,
  "awesome": 3747,
  "tower": 3748,
  "year-olds": 3749,
  "causing": 3750,
  "x-ray": 3751,
  "attacks": 3752,
  "danger": 3753,
  "agency": 3754,
  "synthetic": 3755,
  "height": 3756,
  "interactive": 3757,
  "classic": 3758,
  "chart": 3759,
  "lifestyle": 3760,
  "microscope": 3761,
  "inspiring": 3762,
  "hill": 3763,
  "mess": 3764,
  "ben": 3765,
  "spoken": 3766,
  "islamic": 3767,
  "links": 3768,
  "friendly": 3769,
  "fortunately": 3770,
  "constant": 3771,
  "entered": 3772,
  "script": 3773,
  "iphone": 3774,
  "records": 3775,
  "arguments": 3776,
  "reference": 3777,
  "calculate": 3778,
  "higgs": 3779,
  "silicon": 3780,
  "assume": 3781,
  "wanting": 3782,
  "powers": 3783,
  "grass": 3784,
  "application": 3785,
  "latest": 3786,
  "rising": 3787,
  "balloon": 3788,
  "latin": 3789,
  "2009": 3790,
  "bell": 3791,
  "properly": 3792,
  "secure": 3793,
  "tasks": 3794,
  "disorder": 3795,
  "corn": 3796,
  "samples": 3797,
  "dot": 3798,
  "concrete": 3799,
  "aside": 3800,
  "geographic": 3801,
  "centuries": 3802,
  "optimistic": 3803,
  "tag": 3804,
  "breathing": 3805,
  "toxic": 3806,
  "reputation": 3807,
  "snow": 3808,
  "curiosity": 3809,
  "shell": 3810,
  "liver": 3811,
  "prefer": 3812,
  "recovery": 3813,
  "oxford": 3814,
  "judge": 3815,
  "inch": 3816,
  "congo": 3817,
  "symbol": 3818,
  "ghana": 3819,
  "cats": 3820,
  "remove": 3821,
  "chest": 3822,
  "shoulder": 3823,
  "dozen": 3824,
  "dramatically": 3825,
  "determined": 3826,
  "behave": 3827,
  "reflect": 3828,
  "70s": 3829,
  "capitalism": 3830,
  "score": 3831,
  "tied": 3832,
  "inspire": 3833,
  "illusion": 3834,
  "lens": 3835,
  "slides": 3836,
  "ignore": 3837,
  "productivity": 3838,
  "advertising": 3839,
  "scary": 3840,
  "linear": 3841,
  "cute": 3842,
  "disorders": 3843,
  "whale": 3844,
  "hang": 3845,
  "2004": 3846,
  "mainly": 3847,
  "dependent": 3848,
  "standards": 3849,
  "all-@@": 3850,
  "russia": 3851,
  "hide": 3852,
  "27": 3853,
  "exhibition": 3854,
  "texas": 3855,
  "drinking": 3856,
  "adam": 3857,
  "breaks": 3858,
  "les@@": 3859,
  "disappear": 3860,
  "distant": 3861,
  "tour": 3862,
  "classes": 3863,
  "elephant": 3864,
  "telephone": 3865,
  "peter": 3866,
  "wea@@": 3867,
  "reduction": 3868,
  "destroy": 3869,
  "units": 3870,
  "ain": 3871,
  "22": 3872,
  "appears": 3873,
  "physicist": 3874,
  "neuron": 3875,
  "ideal": 3876,
  "conservation": 3877,
  "populations": 3878,
  "darkness": 3879,
  "apartment": 3880,
  "parent": 3881,
  "charity": 3882,
  "afterwards": 3883,
  "65": 3884,
  "op": 3885,
  "meetings": 3886,
  "transparency": 3887,
  "organize": 3888,
  "legacy": 3889,
  "virtually": 3890,
  "facial": 3891,
  "attached": 3892,
  "adapt": 3893,
  "educated": 3894,
  "orbit": 3895,
  "seed": 3896,
  "enemy": 3897,
  "fixed": 3898,
  "concepts": 3899,
  "destroyed": 3900,
  "extent": 3901,
  "tragedy": 3902,
  "thrown": 3903,
  "outcomes": 3904,
  "clay": 3905,
  "chaos": 3906,
  "orange": 3907,
  "memories": 3908,
  "dynamics": 3909,
  "appeared": 3910,
  "backwards": 3911,
  "conversations": 3912,
  "monkey": 3913,
  "produces": 3914,
  "seats": 3915,
  "traveled": 3916,
  "atlantic": 3917,
  "desk": 3918,
  "positions": 3919,
  "challenging": 3920,
  "heaven": 3921,
  "papers": 3922,
  "blow": 3923,
  "ridiculous": 3924,
  "sheet": 3925,
  "vulnerability": 3926,
  "january": 3927,
  "worker": 3928,
  "locked": 3929,
  "herself": 3930,
  "hardly": 3931,
  "parallel": 3932,
  "historical": 3933,
  "dioxide": 3934,
  "season": 3935,
  "chimpanzees": 3936,
  "surrounded": 3937,
  "talent": 3938,
  "nurses": 3939,
  "k-@@": 3940,
  "autism": 3941,
  "ugly": 3942,
  "headed": 3943,
  "contrast": 3944,
  "dig": 3945,
  "embedded": 3946,
  "overcome": 3947,
  "so-called": 3948,
  "resolution": 3949,
  "floating": 3950,
  "spiritual": 3951,
  "excuse": 3952,
  "accessible": 3953,
  "filter": 3954,
  "academic": 3955,
  "cher@@": 3956,
  "jack": 3957,
  "opens": 3958,
  "cup": 3959,
  "involves": 3960,
  "morality": 3961,
  "microsoft": 3962,
  "soviet": 3963,
  "controlling": 3964,
  "derek": 3965,
  "golf": 3966,
  "bias": 3967,
  "currency": 3968,
  "uganda": 3969,
  "photography": 3970,
  "increases": 3971,
  "landed": 3972,
  "fiber": 3973,
  "frequency": 3974,
  "80s": 3975,
  "ending": 3976,
  "smoke": 3977,
  "muscles": 3978,
  "fifth": 3979,
  "tired": 3980,
  "anger": 3981,
  "cheaper": 3982,
  "oldest": 3983,
  "presented": 3984,
  "bee": 3985,
  "frozen": 3986,
  "adding": 3987,
  "expert": 3988,
  "spots": 3989,
  "maintain": 3990,
  "volunteers": 3991,
  "colony": 3992,
  "includes": 3993,
  "provides": 3994,
  "rice": 3995,
  "stanford": 3996,
  "lecture": 3997,
  "photographed": 3998,
  "drawn": 3999,
  "smallpox": 4000,
  "diabetes": 4001,
  "funded": 4002,
  "pushing": 4003,
  "chosen": 4004,
  "pace": 4005,
  "truck": 4006,
  "reef": 4007,
  "sports": 4008,
  "static": 4009,
  "poorest": 4010,
  "angeles": 4011,
  "2006": 4012,
  "plenty": 4013,
  "tax": 4014,
  "achieved": 4015,
  "naked": 4016,
  "personality": 4017,
  "super-@@": 4018,
  "official": 4019,
  "yours": 4020,
  "muslims": 4021,
  "brief": 4022,
  "allo@@": 4023,
  "silent": 4024,
  "rush": 4025,
  "rarely": 4026,
  "toilet": 4027,
  "beer": 4028,
  "allowing": 4029,
  "discoveries": 4030,
  "continues": 4031,
  "fears": 4032,
  "agenda": 4033,
  "killer": 4034,
  "foods": 4035,
  "lift": 4036,
  "trucks": 4037,
  "2003": 4038,
  "laid": 4039,
  "writers": 4040,
  "26": 4041,
  "copyright": 4042,
  "hearts": 4043,
  "globalization": 4044,
  "asks": 4045,
  "habitat": 4046,
  "drill": 4047,
  "tricks": 4048,
  "missed": 4049,
  "demonstrate": 4050,
  "journalist": 4051,
  "practices": 4052,
  "excellent": 4053,
  "reduced": 4054,
  "host": 4055,
  "thick": 4056,
  "psychological": 4057,
  "precisely": 4058,
  ".com": 4059,
  "fluid": 4060,
  "finds": 4061,
  "capita": 4062,
  "astonishing": 4063,
  "motivation": 4064,
  "courage": 4065,
  "earthquake": 4066,
  "extract": 4067,
  "letting": 4068,
  "facility": 4069,
  "storm": 4070,
  "95": 4071,
  "emergency": 4072,
  "native": 4073,
  "imagined": 4074,
  "fascinated": 4075,
  "fabulous": 4076,
  "dedicated": 4077,
  "0.@@": 4078,
  "hungry": 4079,
  "tribes": 4080,
  "searching": 4081,
  "terrorism": 4082,
  "opposed": 4083,
  "cable": 4084,
  "diagram": 4085,
  "boards": 4086,
  "angry": 4087,
  "speakers": 4088,
  "integrated": 4089,
  "license": 4090,
  "provided": 4091,
  "glamorous": 4092,
  "ethiopia": 4093,
  "removed": 4094,
  "with@@": 4095,
  "fiction": 4096,
  "orchestra": 4097,
  "gps": 4098,
  "kb": 4099,
  "glasses": 4100,
  "cambridge": 4101,
  "recognition": 4102,
  "skull": 4103,
  "limits": 4104,
  "conclude": 4105,
  "elsewhere": 4106,
  "grandfather": 4107,
  "pilot": 4108,
  "crying": 4109,
  "gging": 4110,
  "affordable": 4111,
  "13@@": 4112,
  "clients": 4113,
  "explaining": 4114,
  "loud": 4115,
  "permanent": 4116,
  "react": 4117,
  "qualities": 4118,
  "jail": 4119,
  "drove": 4120,
  "controls": 4121,
  "gang": 4122,
  "nurse": 4123,
  "pyramid": 4124,
  "shooting": 4125,
  "hollywood": 4126,
  "ethical": 4127,
  "super": 4128,
  "surfaces": 4129,
  "bars": 4130,
  "likes": 4131,
  "recognized": 4132,
  "bicycle": 4133,
  "architectural": 4134,
  "figuring": 4135,
  "trends": 4136,
  "transport": 4137,
  "escape": 4138,
  "consume": 4139,
  "airport": 4140,
  "consequence": 4141,
  "agricultural": 4142,
  "emerge": 4143,
  "receive": 4144,
  "circles": 4145,
  "polar": 4146,
  "knee": 4147,
  "suggesting": 4148,
  "cap": 4149,
  "picking": 4150,
  "contains": 4151,
  "dignity": 4152,
  "customers": 4153,
  "collecting": 4154,
  "poster": 4155,
  "2001": 4156,
  "dust": 4157,
  "informed": 4158,
  "origin": 4159,
  "4,000": 4160,
  "nobel": 4161,
  "biologists": 4162,
  "economist": 4163,
  "returned": 4164,
  "review": 4165,
  "saturn": 4166,
  "chief": 4167,
  "pool": 4168,
  "protecting": 4169,
  "observation": 4170,
  "tank": 4171,
  "aircraft": 4172,
  "harm": 4173,
  "succeed": 4174,
  "gore": 4175,
  "suicide": 4176,
  "artistic": 4177,
  "predictions": 4178,
  "23": 4179,
  "separated": 4180,
  "rio": 4181,
  "layers": 4182,
  "variation": 4183,
  "jewish": 4184,
  "climbing": 4185,
  "dimension": 4186,
  "june": 4187,
  "computation": 4188,
  "represented": 4189,
  "bears": 4190,
  "sport": 4191,
  "regret": 4192,
  "poet": 4193,
  "crossing": 4194,
  "neighbor": 4195,
  "palm": 4196,
  "mice": 4197,
  "realm": 4198,
  "transparent": 4199,
  "rocks": 4200,
  "rwanda": 4201,
  "sharp": 4202,
  "martin": 4203,
  "cave": 4204,
  "sensory": 4205,
  "gut": 4206,
  "proper": 4207,
  "elled": 4208,
  "encounter": 4209,
  "accidents": 4210,
  "scales": 4211,
  "brian": 4212,
  "precise": 4213,
  "repair": 4214,
  "neural": 4215,
  "providing": 4216,
  "rebuild": 4217,
  "borders": 4218,
  "focusing": 4219,
  "cartoon": 4220,
  "vable": 4221,
  "underground": 4222,
  "offers": 4223,
  "mammals": 4224,
  "fathers": 4225,
  "mining": 4226,
  "alien": 4227,
  "quest": 4228,
  "cash": 4229,
  "musicians": 4230,
  "glamour": 4231,
  "openness": 4232,
  "rescue": 4233,
  "initial": 4234,
  "photographer": 4235,
  "inches": 4236,
  "output": 4237,
  "unbelievable": 4238,
  "diverse": 4239,
  "strategies": 4240,
  "barely": 4241,
  "shelf": 4242,
  "injury": 4243,
  "loop": 4244,
  "boundaries": 4245,
  "interactions": 4246,
  "ecosystems": 4247,
  "symbols": 4248,
  "vacuum": 4249,
  "characteristics": 4250,
  "weapon": 4251,
  "constructed": 4252,
  "pulling": 4253,
  "amongst": 4254,
  "pump": 4255,
  "gathering": 4256,
  "buried": 4257,
  "hardware": 4258,
  "someday": 4259,
  "devil": 4260,
  "sales": 4261,
  "800": 4262,
  "watts": 4263,
  "dress": 4264,
  "monitor": 4265,
  "october": 4266,
  "concern": 4267,
  "diagnosed": 4268,
  "electronics": 4269,
  "neuroscience": 4270,
  "owned": 4271,
  "1990s": 4272,
  "hire": 4273,
  "optimism": 4274,
  "highway": 4275,
  "mines": 4276,
  "reports": 4277,
  "n-@@": 4278,
  "vertical": 4279,
  "crops": 4280,
  "reported": 4281,
  "essence": 4282,
  "humor": 4283,
  "treatments": 4284,
  "interacting": 4285,
  "classical": 4286,
  "council": 4287,
  "250": 4288,
  "detection": 4289,
  "unlikely": 4290,
  "dinosaur": 4291,
  "tension": 4292,
  "smooth": 4293,
  "ingredients": 4294,
  "damn": 4295,
  "app": 4296,
  "bis@@": 4297,
  "vital": 4298,
  "insurance": 4299,
  "winning": 4300,
  "emerged": 4301,
  "mode": 4302,
  "privilege": 4303,
  "marks": 4304,
  "speaker": 4305,
  "stages": 4306,
  "seek": 4307,
  "tumors": 4308,
  "revenue": 4309,
  "failing": 4310,
  "farmer": 4311,
  "policies": 4312,
  "flip": 4313,
  "richer": 4314,
  "innovations": 4315,
  "backs": 4316,
  "manhattan": 4317,
  "preserve": 4318,
  "limb": 4319,
  "harvest": 4320,
  "federal": 4321,
  "rely": 4322,
  "bottles": 4323,
  "pointing": 4324,
  "plot": 4325,
  "asteroid": 4326,
  "lac@@": 4327,
  "mixed": 4328,
  "seeds": 4329,
  "dolphin": 4330,
  "favor": 4331,
  "hanging": 4332,
  "frog": 4333,
  "efforts": 4334,
  "mall": 4335,
  "governance": 4336,
  "-like": 4337,
  "fruit": 4338,
  "pushed": 4339,
  "exposed": 4340,
  "joe": 4341,
  "wash": 4342,
  "committed": 4343,
  "may@@": 4344,
  "document": 4345,
  "guide": 4346,
  "evolve": 4347,
  "shopping": 4348,
  "garbage": 4349,
  "stones": 4350,
  "sentences": 4351,
  "meal": 4352,
  "besides": 4353,
  "stores": 4354,
  "amazon": 4355,
  "globally": 4356,
  "procedure": 4357,
  "spinal": 4358,
  "toes": 4359,
  "footprint": 4360,
  "32": 4361,
  "parties": 4362,
  "conflicts": 4363,
  "historic": 4364,
  "served": 4365,
  "1960": 4366,
  "gentleman": 4367,
  "announced": 4368,
  "scratch": 4369,
  "shrimp": 4370,
  "robotic": 4371,
  "engaging": 4372,
  "domestic": 4373,
  "cooperation": 4374,
  "laser": 4375,
  "dive": 4376,
  "originally": 4377,
  "successfully": 4378,
  "depressed": 4379,
  "liberal": 4380,
  "methods": 4381,
  "sleeping": 4382,
  "silly": 4383,
  "consistent": 4384,
  "teenagers": 4385,
  "skeleton": 4386,
  "subway": 4387,
  "struggling": 4388,
  "q": 4389,
  "+": 4390,
  "é@@": 4391,
  "é": 4392,
  "á@@": 4393,
  ")": 4394,
  "#": 4395,
  "í@@": 4396,
  "ö@@": 4397,
  "ó@@": 4398,
  "–": 4399,
  "ü@@": 4400,
  "è@@": 4401,
  "%": 4402,
  "=": 4403,
  "(": 4404,
  "^": 4405,
  "@": 4406,
  "ä@@": 4407,
  "ã@@": 4408,
  "ç@@": 4409,
  "อ@@": 4410,
  "ê@@": 4411,
  "": 4412,
  "ñ@@": 4413,
  "â": 4414,
  "": 4415,
  "²": 4416,
  "่": 4417,
  "à": 4418,
  "ร": 4419,
  "ā@@": 4420,
  "í": 4421,
  "ă@@": 4422,
  "ø@@": 4423,
  "ć": 4424,
  "è": 4425,
  "ë@@": 4426,
  "ť": 4427,
  "ô@@": 4428,
  "_": 4429,
  "ē": 4430,
  "ย": 4431,
  "ย@@": 4432,
  "*": 4433,
  "…": 4434,
  "ï@@": 4435,
  "€": 4436,
  "\\": 4437,
  "£": 4438,
  "â@@": 4439,
  "葱": 4440,
  "你@@": 4441,
  "送@@": 4442,
  "ú@@": 4443
}