{
  "<PAD>": 0,
  "<SOS>": 1,
  "<EOS>": 2,
  "<UNK>": 3,
  ",": 4,
  ".": 5,
  "und": 6,
  "die": 7,
  "sie": 8,
  "das": 9,
  "ich": 10,
  "der": 11,
  "ist": 12,
  "es": 13,
  "wir": 14,
  "in": 15,
  "zu": 16,
  "ein": 17,
  "&quot;": 18,
  "eine": 19,
  "von": 20,
  "nicht": 21,
  "dass": 22,
  "den": 23,
  "mit": 24,
  "wie": 25,
  "auf": 26,
  "er": 27,
  "sich": 28,
  "sind": 29,
  "aber": 30,
  "?": 31,
  ":": 32,
  "man": 33,
  "haben": 34,
  "für": 35,
  "ver@@": 36,
  "was": 37,
  "wenn": 38,
  "an": 39,
  "s@@": 40,
  "als": 41,
  "er@@": 42,
  "t@@": 43,
  "so": 44,
  "diese": 45,
  "k@@": 46,
  "war": 47,
  "um": 48,
  "an@@": 49,
  "be@@": 50,
  "im": 51,
  "also": 52,
  "dem": 53,
  "p@@": 54,
  "st@@": 55,
  "d@@": 56,
  "einen": 57,
  "e@@": 58,
  "n@@": 59,
  "g@@": 60,
  "in@@": 61,
  "ch@@": 62,
  "uns": 63,
  "können": 64,
  "hier": 65,
  "sch@@": 66,
  "m@@": 67,
  "i@@": 68,
  "un@@": 69,
  "werden": 70,
  "b@@": 71,
  "aus": 72,
  "r@@": 73,
  "l@@": 74,
  "hat": 75,
  "h@@": 76,
  "des": 77,
  "oder": 78,
  "en@@": 79,
  "-@@": 80,
  "über": 81,
  "t": 82,
  "auch": 83,
  "ge@@": 84,
  "f@@": 85,
  "einer": 86,
  "a@@": 87,
  "kann": 88,
  "s": 89,
  "u@@": 90,
  "o@@": 91,
  "sehr": 92,
  "dann": 93,
  "z@@": 94,
  "einem": 95,
  "ä@@": 96,
  "nur": 97,
  "ti@@": 98,
  "wird": 99,
  "c@@": 100,
  "–": 101,
  "gibt": 102,
  "ein@@": 103,
  "ab@@": 104,
  "ihnen": 105,
  "mich": 106,
  "sehen": 107,
  "menschen": 108,
  "li@@": 109,
  "re@@": 110,
  "e": 111,
  "ü@@": 112,
  "sein": 113,
  "ö@@": 114,
  "v@@": 115,
  "y@@": 116,
  "ten": 117,
  "etwas": 118,
  "le@@": 119,
  "noch": 120,
  "dieser": 121,
  "habe": 122,
  "te": 123,
  "en": 124,
  "nach": 125,
  "ent@@": 126,
  "ei@@": 127,
  "mir": 128,
  "ar@@": 129,
  "--": 130,
  "alle": 131,
  "mehr": 132,
  "a": 133,
  "vor": 134,
  "bei": 135,
  "welt": 136,
  "si@@": 137,
  "di@@": 138,
  "aus@@": 139,
  "or@@": 140,
  "meine": 141,
  "w@@": 142,
  "ung": 143,
  "es@@": 144,
  "am@@": 145,
  "nun": 146,
  "machen": 147,
  "leben": 148,
  "ihre": 149,
  "-": 150,
  "al@@": 151,
  "zum": 152,
  "ol@@": 153,
  "weil": 154,
  "ri@@": 155,
  "da": 156,
  "wirklich": 157,
  "wurde": 158,
  "dies": 159,
  "dieses": 160,
  "at@@": 161,
  "auf@@": 162,
  "am": 163,
  "on@@": 164,
  "gen": 165,
  "tun": 166,
  "g": 167,
  "immer": 168,
  "durch": 169,
  "jetzt": 170,
  "zeit": 171,
  "wissen": 172,
  "sp@@": 173,
  "ihr": 174,
  "unsere": 175,
  "zu@@": 176,
  "ge": 177,
  "th@@": 178,
  "hatte": 179,
  "keine": 180,
  "ma@@": 181,
  "leute": 182,
  "viel": 183,
  "über@@": 184,
  "sagte": 185,
  "viele": 186,
  "sagen": 187,
  "diesem": 188,
  "ck@@": 189,
  "wi@@": 190,
  "eines": 191,
  "y": 192,
  "du": 193,
  "pro@@": 194,
  "einfach": 195,
  "denn": 196,
  "zwei": 197,
  "au@@": 198,
  "dinge": 199,
  "el@@": 200,
  "diesen": 201,
  "ungen": 202,
  "vor@@": 203,
  "art": 204,
  "alles": 205,
  "ur@@": 206,
  "waren": 207,
  "lo@@": 208,
  "bin": 209,
  "müssen": 210,
  "om@@": 211,
  "jahren": 212,
  "se@@": 213,
  "andere": 214,
  "as@@": 215,
  "wo": 216,
  "j@@": 217,
  "ff@@": 218,
  "ro@@": 219,
  "vi@@": 220,
  "mein": 221,
  "geht": 222,
  "gen@@": 223,
  "ne@@": 224,
  "de@@": 225,
  "mal": 226,
  "würde": 227,
  "anderen": 228,
  "um@@": 229,
  "damit": 230,
  "ni@@": 231,
  "i": 232,
  "te@@": 233,
  "de": 234,
  "vielleicht": 235,
  "la@@": 236,
  "bis": 237,
  "gut": 238,
  "än@@": 239,
  "kon@@": 240,
  "ter@@": 241,
  "m": 242,
  "zur": 243,
  "selbst": 244,
  "d": 245,
  "gi@@": 246,
  "po@@": 247,
  "l": 248,
  "jahre": 249,
  "gehen": 250,
  "der@@": 251,
  "op@@": 252,
  "all": 253,
  "et@@": 254,
  "ra@@": 255,
  "sten": 256,
  "zi@@": 257,
  "gr@@": 258,
  "sen@@": 259,
  "muss": 260,
  "mo@@": 261,
  "ber@@": 262,
  "heute": 263,
  "ert": 264,
  "tr@@": 265,
  "warum": 266,
  "schon": 267,
  "tz@@": 268,
  "geschichte": 269,
  "ende": 270,
  "ger@@": 271,
  "ja": 272,
  "it@@": 273,
  "möchte": 274,
  "einige": 275,
  "mi@@": 276,
  "kommen": 277,
  "is@@": 278,
  "me@@": 279,
  "le": 280,
  "tatsächlich": 281,
  "eren": 282,
  "macht": 283,
  "o": 284,
  "wieder": 285,
  "unter@@": 286,
  "ter": 287,
  "ru@@": 288,
  "lassen": 289,
  "denken": 290,
  "lich": 291,
  "gesch@@": 292,
  "ie": 293,
  "se": 294,
  "kl@@": 295,
  "bi@@": 296,
  "dort": 297,
  "davon": 298,
  "st": 299,
  "ganz": 300,
  "ta@@": 301,
  "im@@": 302,
  "genau": 303,
  "us@@": 304,
  "kinder": 305,
  "geben": 306,
  "&apos;": 307,
  "ische": 308,
  "drei": 309,
  "hi@@": 310,
  "k": 311,
  "hatten": 312,
  "il@@": 313,
  "ten@@": 314,
  "ihn": 315,
  "paar": 316,
  "ß@@": 317,
  "jahr": 318,
  "ischen": 319,
  "ak@@": 320,
  "stellen": 321,
  "ges@@": 322,
  "gel@@": 323,
  "seine": 324,
  "könnte": 325,
  "darüber": 326,
  "ern": 327,
  "werde": 328,
  "n": 329,
  "qu@@": 330,
  "wollen": 331,
  "hl@@": 332,
  "teil": 333,
  "meiner": 334,
  "on": 335,
  "rei@@": 336,
  "ha@@": 337,
  "ob": 338,
  "ste@@": 339,
  "ot@@": 340,
  "wei@@": 341,
  "ing@@": 342,
  "wurden": 343,
  "sti@@": 344,
  "br@@": 345,
  "kommt": 346,
  "ko@@": 347,
  "gab": 348,
  "den@@": 349,
  "ihren": 350,
  "problem": 351,
  "ex@@": 352,
  "x@@": 353,
  "ou@@": 354,
  "weg": 355,
  "liche": 356,
  "frage": 357,
  "tag": 358,
  "gemacht": 359,
  "sen": 360,
  "ac@@": 361,
  "h": 362,
  "ger": 363,
  "end": 364,
  "fi@@": 365,
  "beispiel": 366,
  "chen": 367,
  "jeder": 368,
  "denke": 369,
  "weise": 370,
  "!": 371,
  "finden": 372,
  "her@@": 373,
  "während": 374,
  "kein": 375,
  "lichen": 376,
  "glaube": 377,
  "land": 378,
  "natürlich": 379,
  "doch": 380,
  "kom@@": 381,
  "sk@@": 382,
  "dazu": 383,
  "neue": 384,
  "wäre": 385,
  "ungs@@": 386,
  "unser": 387,
  ";": 388,
  "unserer": 389,
  "gra@@": 390,
  "vom": 391,
  "zeigen": 392,
  "nehmen": 393,
  "al": 394,
  "denen": 395,
  "sogar": 396,
  "tet": 397,
  "ere": 398,
  "nichts": 399,
  "mu@@": 400,
  "einmal": 401,
  "weiß": 402,
  "no@@": 403,
  "arbeit": 404,
  "weiter": 405,
  "ohne": 406,
  "bringen": 407,
  "gerade": 408,
  "du@@": 409,
  "tion": 410,
  "ch": 411,
  "fe@@": 412,
  "zwischen": 413,
  "gt": 414,
  "lie@@": 415,
  "erste": 416,
  "ste": 417,
  "r": 418,
  "mit@@": 419,
  "sondern": 420,
  "ihrer": 421,
  "dafür": 422,
  "bo@@": 423,
  "sieht": 424,
  "nie": 425,
  "passiert": 426,
  "par@@": 427,
  "tra@@": 428,
  "prozent": 429,
  "würden": 430,
  "hin@@": 431,
  "lei@@": 432,
  "vielen": 433,
  "zurück": 434,
  "hei@@": 435,
  "ze@@": 436,
  "hn@@": 437,
  "ul@@": 438,
  "verstehen": 439,
  "unter": 440,
  "arbeiten": 441,
  "19@@": 442,
  "bild": 443,
  "tt@@": 444,
  "ersten": 445,
  "will": 446,
  "millionen": 447,
  "fragen": 448,
  "system": 449,
  "große": 450,
  "he@@": 451,
  "daran": 452,
  "ganze": 453,
  "konnte": 454,
  "sprechen": 455,
  "wer@@": 456,
  "sagt": 457,
  "seite": 458,
  "etwa": 459,
  "per@@": 460,
  "idee": 461,
  "war@@": 462,
  "durch@@": 463,
  "men@@": 464,
  "tion@@": 465,
  "bekommen": 466,
  "kam": 467,
  "gl@@": 468,
  "isch": 469,
  "sollte": 470,
  "cht": 471,
  "fü@@": 472,
  "äu@@": 473,
  "är@@": 474,
  "ziemlich": 475,
  "ging": 476,
  "wasser": 477,
  "tu@@": 478,
  "ken": 479,
  "letzten": 480,
  "na@@": 481,
  "pa@@": 482,
  "ts@@": 483,
  "dabei": 484,
  "ts": 485,
  "ir@@": 486,
  "for@@": 487,
  "wollte": 488,
  "ho@@": 489,
  "meisten": 490,
  "sollten": 491,
  "geld": 492,
  "könnten": 493,
  "meinem": 494,
  "man@@": 495,
  "frauen": 496,
  "do@@": 497,
  "wa@@": 498,
  "wichtig": 499,
  "kt": 500,
  "meinen": 501,
  "gew@@": 502,
  "ft": 503,
  "ph@@": 504,
  "daten": 505,
  "welche": 506,
  "to@@": 507,
  "fr@@": 508,
  "sache": 509,
  "str@@": 510,
  "3@@": 511,
  "nach@@": 512,
  "men": 513,
  "b": 514,
  "lernen": 515,
  "inter@@": 516,
  "bes@@": 517,
  "mer@@": 518,
  "erte": 519,
  "all@@": 520,
  "su@@": 521,
  "ben@@": 522,
  "ür@@": 523,
  "z": 524,
  "kleinen": 525,
  "dr@@": 526,
  "danke": 527,
  "technologie": 528,
  "zusammen": 529,
  "hr@@": 530,
  "cht@@": 531,
  "sa@@": 532,
  "pf@@": 533,
  "darauf": 534,
  "besser": 535,
  "mann": 536,
  "kan@@": 537,
  "weniger": 538,
  "hal@@": 539,
  "eigentlich": 540,
  "dollar": 541,
  "brauchen": 542,
  "gesehen": 543,
  "vier": 544,
  "kr@@": 545,
  "wä@@": 546,
  "gan@@": 547,
  "pu@@": 548,
  "menge": 549,
  "ig@@": 550,
  "rie@@": 551,
  "nen": 552,
  "ange@@": 553,
  "da@@": 554,
  "je@@": 555,
  "dachte": 556,
  "geb@@": 557,
  "bar": 558,
  "0@@": 559,
  "fall": 560,
  "kleine": 561,
  "ins": 562,
  "raum": 563,
  "ser@@": 564,
  "ganzen": 565,
  "bedeutet": 566,
  "glauben": 567,
  "sta@@": 568,
  "ie@@": 569,
  "besch@@": 570,
  "ihm": 571,
  "jemand": 572,
  "halten": 573,
  "großen": 574,
  "schauen": 575,
  "zusammen@@": 576,
  "ben": 577,
  "fen": 578,
  "nein": 579,
  "and@@": 580,
  "wer": 581,
  "unseren": 582,
  "mar@@": 583,
  "tionen": 584,
  "essen": 585,
  "me": 586,
  "grund": 587,
  "spielen": 588,
  "jedes": 589,
  "ab": 590,
  "hä@@": 591,
  "versuchen": 592,
  "ihrem": 593,
  "ali@@": 594,
  "ort": 595,
  "gehirn": 596,
  "frau": 597,
  "we@@": 598,
  "eln": 599,
  "gegen": 600,
  "em@@": 601,
  "ken@@": 602,
  "ele@@": 603,
  "10": 604,
  "mon@@": 605,
  "ke@@": 606,
  "enden": 607,
  "licher": 608,
  "p": 609,
  "jeden": 610,
  "tes": 611,
  "or": 612,
  "schen": 613,
  "pe@@": 614,
  "eri@@": 615,
  "gute": 616,
  "gesagt": 617,
  "fa@@": 618,
  "zeigt": 619,
  "keinen": 620,
  "em": 621,
  "teilen": 622,
  "chten": 623,
  "seit": 624,
  ".@@": 625,
  "nutzen": 626,
  "el": 627,
  "tro@@": 628,
  "ent": 629,
  "ale": 630,
  "bauen": 631,
  "zukunft": 632,
  "ad@@": 633,
  "wahrscheinlich": 634,
  "fast": 635,
  "hen": 636,
  "af@@": 637,
  "5@@": 638,
  "mp@@": 639,
  "zen": 640,
  "los": 641,
  "por@@": 642,
  "...": 643,
  "zer@@": 644,
  "so@@": 645,
  "schaffen": 646,
  "erde": 647,
  "allen": 648,
  "ellen": 649,
  "ag@@": 650,
  "später": 651,
  "sah": 652,
  "det": 653,
  "2@@": 654,
  "fünf": 655,
  "form": 656,
  "chte": 657,
  "20": 658,
  "indem": 659,
  "gu@@": 660,
  "eigenen": 661,
  "ungefähr": 662,
  "beim": 663,
  "kt@@": 664,
  "licht": 665,
  "ll@@": 666,
  "fe": 667,
  "ung@@": 668,
  "heraus": 669,
  "stadt": 670,
  "kind": 671,
  "person": 672,
  "arten": 673,
  "fl@@": 674,
  "funktioniert": 675,
  "hätte": 676,
  "seiner": 677,
  "ster@@": 678,
  "stehen": 679,
  "richtig": 680,
  "mutter": 681,
  "sicher": 682,
  "bu@@": 683,
  "ne": 684,
  "jede": 685,
  "lan@@": 686,
  "the@@": 687,
  "wenig": 688,
  "probleme": 689,
  "co@@": 690,
  "pro": 691,
  "erzählen": 692,
  "4@@": 693,
  "schule": 694,
  "ka@@": 695,
  "punkt": 696,
  "cken": 697,
  "heißt": 698,
  "kor@@": 699,
  "ausge@@": 700,
  "ku@@": 701,
  "hin": 702,
  "lang": 703,
  "dank": 704,
  "1@@": 705,
  "lich@@": 706,
  "f": 707,
  "9@@": 708,
  "konnten": 709,
  "energie": 710,
  "bisschen": 711,
  "u": 712,
  "liebe": 713,
  "tri@@": 714,
  "hö@@": 715,
  "helfen": 716,
  "ker": 717,
  "hand@@": 718,
  "schnell": 719,
  "oft": 720,
  "ster": 721,
  "lin@@": 722,
  "erst": 723,
  "körper": 724,
  "afrika": 725,
  "tung": 726,
  "buch": 727,
  "2": 728,
  "bau@@": 729,
  "as": 730,
  "x": 731,
  "alen": 732,
  "6@@": 733,
  "tre@@": 734,
  "50": 735,
  "tel@@": 736,
  "begann": 737,
  "lange": 738,
  "elle": 739,
  "führen": 740,
  "neuen": 741,
  "genug": 742,
  "moment": 743,
  "min@@": 744,
  "neu@@": 745,
  "tern": 746,
  "anders": 747,
  "stra@@": 748,
  "wen@@": 749,
  "is": 750,
  "setzen": 751,
  "reden": 752,
  "nächsten": 753,
  "möglich": 754,
  "ok": 755,
  "ideen": 756,
  "sh@@": 757,
  "ens": 758,
  "überall": 759,
  "nis@@": 760,
  "c": 761,
  "lebens@@": 762,
  "gehört": 763,
  "ori@@": 764,
  "kti@@": 765,
  "bl@@": 766,
  "okay": 767,
  "ern@@": 768,
  "hören": 769,
  "manchmal": 770,
  "pp@@": 771,
  "unserem": 772,
  "projekt": 773,
  "res@@": 774,
  "wor@@": 775,
  "%": 776,
  "liches": 777,
  "gruppe": 778,
  "gern": 779,
  "darum": 780,
  "euch": 781,
  "prä@@": 782,
  "seinen": 783,
  "tigen": 784,
  "elt": 785,
  "fin@@": 786,
  "tieren": 787,
  "bar@@": 788,
  "erten": 789,
  "fer@@": 790,
  "liegt": 791,
  "milliarden": 792,
  "recht": 793,
  "leuten": 794,
  "zwei@@": 795,
  "stellt": 796,
  "tete": 797,
  "8@@": 798,
  "heraus@@": 799,
  "je": 800,
  "fä@@": 801,
  "computer": 802,
  "ari@@": 803,
  "anzu@@": 804,
  "erung": 805,
  "mis@@": 806,
  "eins": 807,
  "ell": 808,
  "ell@@": 809,
  "entwickelt": 810,
  "lu@@": 811,
  "us": 812,
  "mü@@": 813,
  "ziehen": 814,
  "30": 815,
  "bri@@": 816,
  "schul@@": 817,
  "bevor": 818,
  "gkeit": 819,
  "sagten": 820,
  "planeten": 821,
  "bil@@": 822,
  "ssen": 823,
  "anderes": 824,
  "zellen": 825,
  "pi@@": 826,
  "tige": 827,
  "kennen": 828,
  "kre@@": 829,
  "lli@@": 830,
  "nennen": 831,
  "tat": 832,
  "machte": 833,
  "sche": 834,
  "unternehmen": 835,
  "sei": 836,
  "verändern": 837,
  "be": 838,
  "frei@@": 839,
  "wissenschaft": 840,
  "mädchen": 841,
  "bel@@": 842,
  "fan@@": 843,
  "ob@@": 844,
  "ga@@": 845,
  "natur": 846,
  "bilder": 847,
  "fol@@": 848,
  "stück": 849,
  "pr@@": 850,
  "deshalb": 851,
  "ki@@": 852,
  "besonders": 853,
  "ck": 854,
  "weit": 855,
  "ers": 856,
  "heit": 857,
  "fand": 858,
  "klar": 859,
  "mm@@": 860,
  "steht": 861,
  "minuten": 862,
  "nor@@": 863,
  "informationen": 864,
  "7@@": 865,
  "oben": 866,
  "usa": 867,
  "zurück@@": 868,
  "versch@@": 869,
  "ischer": 870,
  "spiel": 871,
  "seinem": 872,
  "stand": 873,
  "ar": 874,
  "bereits": 875,
  "sprache": 876,
  "at": 877,
  "namens": 878,
  "her": 879,
  "erreichen": 880,
  "familie": 881,
  "antwort": 882,
  "verschiedene": 883,
  "dis@@": 884,
  "ßen": 885,
  "benutzen": 886,
  "bei@@": 887,
  "sachen": 888,
  "lage": 889,
  "gar": 890,
  "5": 891,
  "iert": 892,
  "sor@@": 893,
  "erkennen": 894,
  "wegen": 895,
  "gerne": 896,
  "oh": 897,
  "fo@@": 898,
  "braucht": 899,
  "vater": 900,
  "cher": 901,
  "haus": 902,
  "musste": 903,
  "sage": 904,
  "sechs": 905,
  "s-@@": 906,
  "che": 907,
  "deu@@": 908,
  "alt": 909,
  "treffen": 910,
  "rück@@": 911,
  "indien": 912,
  "lebens": 913,
  "geschichten": 914,
  "3": 915,
  "tig": 916,
  "tä@@": 917,
  "wert": 918,
  "hoch@@": 919,
  "tal@@": 920,
  "chti@@": 921,
  "musik": 922,
  "dich": 923,
  "wohn@@": 924,
  "100": 925,
  "gefühl": 926,
  "gleich": 927,
  "pri@@": 928,
  "fas@@": 929,
  "kopf": 930,
  "new": 931,
  "des@@": 932,
  "darin": 933,
  "mati@@": 934,
  "hand": 935,
  "wasser@@": 936,
  "design": 937,
  "spiel@@": 938,
  "niemand": 939,
  "kei@@": 940,
  "ke": 941,
  "tiere": 942,
  "ja@@": 943,
  "möglichkeit": 944,
  "hätten": 945,
  "einzige": 946,
  "gesellschaft": 947,
  "har@@": 948,
  "schreiben": 949,
  "schi@@": 950,
  "ds": 951,
  "augen": 952,
  "verhalten": 953,
  "irgendwie": 954,
  "onen": 955,
  "besten": 956,
  "stand@@": 957,
  "innerhalb": 958,
  "soll": 959,
  "gott": 960,
  "bewegen": 961,
  "w": 962,
  "lichkeit": 963,
  "gegen@@": 964,
  "vorstellen": 965,
  "isi@@": 966,
  "uni@@": 967,
  "mal@@": 968,
  "gebäude": 969,
  "stunden": 970,
  "ändern": 971,
  "gleiche": 972,
  "internet": 973,
  "ber": 974,
  "tische": 975,
  "sau@@": 976,
  "zeit@@": 977,
  "patienten": 978,
  "mä@@": 979,
  "einander": 980,
  "jedem": 981,
  "bringt": 982,
  "einigen": 983,
  "sam@@": 984,
  "lau@@": 985,
  "teile": 986,
  "tiert": 987,
  "lesen": 988,
  "lässt": 989,
  "kal@@": 990,
  "ges": 991,
  "beiden": 992,
  "8": 993,
  "grund@@": 994,
  "kindern": 995,
  "schl@@": 996,
  "regierung": 997,
  "wollten": 998,
  "ant@@": 999,
  "wieder@@": 1000,
  "wand@@": 1001,
  "bitte": 1002,
  "eltern": 1003,
  "wo@@": 1004,
  "tten": 1005,
  "weiter@@": 1006,
  "gung": 1007,
  "führt": 1008,
  "go@@": 1009,
  "auszu@@": 1010,
  "ler": 1011,
  "erhalten": 1012,
  "gleichen": 1013,
  "menschlichen": 1014,
  "länder": 1015,
  "tragen": 1016,
  "entwickeln": 1017,
  "schwer": 1018,
  "gs": 1019,
  "unglaublich": 1020,
  "gte": 1021,
  "kri@@": 1022,
  "glück": 1023,
  "tisch": 1024,
  "herum": 1025,
  "ap@@": 1026,
  "re": 1027,
  "dung": 1028,
  "daher": 1029,
  "beginnen": 1030,
  "nimmt": 1031,
  "obwohl": 1032,
  "cke": 1033,
  "are": 1034,
  "wahr@@": 1035,
  "verschiedenen": 1036,
  "möglichkeiten": 1037,
  "film": 1038,
  "groß@@": 1039,
  "china": 1040,
  "1": 1041,
  "dir": 1042,
  "hän@@": 1043,
  "stellte": 1044,
  "zei@@": 1045,
  "wär@@": 1046,
  "kten": 1047,
  "schw@@": 1048,
  "ju@@": 1049,
  "verändert": 1050,
  "nächste": 1051,
  "überhaupt": 1052,
  "genommen": 1053,
  "hoch": 1054,
  "damals": 1055,
  "ine": 1056,
  "15": 1057,
  "kraft": 1058,
  "kunst": 1059,
  "universum": 1060,
  "ven": 1061,
  "dar@@": 1062,
  "wohl": 1063,
  "männer": 1064,
  "verwenden": 1065,
  "mer": 1066,
  "stelle": 1067,
  "sinn": 1068,
  "laufen": 1069,
  "mor@@": 1070,
  "fahren": 1071,
  "hause": 1072,
  "ner": 1073,
  "gebracht": 1074,
  "mt": 1075,
  "wort": 1076,
  "versucht": 1077,
  "isches": 1078,
  "lösen": 1079,
  "ess@@": 1080,
  "angst": 1081,
  "fühlen": 1082,
  "formen": 1083,
  "hy@@": 1084,
  "tut": 1085,
  "aller": 1086,
  "lösung": 1087,
  "teil@@": 1088,
  "bewegung": 1089,
  "zahl": 1090,
  "fre@@": 1091,
  "schie@@": 1092,
  "wirtschaft": 1093,
  "staaten": 1094,
  "nämlich": 1095,
  "tau@@": 1096,
  "unten": 1097,
  "getan": 1098,
  "kamen": 1099,
  "stell@@": 1100,
  "ckt": 1101,
  "gleich@@": 1102,
  "legen": 1103,
  "alten": 1104,
  "mel@@": 1105,
  "ft@@": 1106,
  "zahlen": 1107,
  "cher@@": 1108,
  "mil@@": 1109,
  "kop@@": 1110,
  "sel@@": 1111,
  "sei@@": 1112,
  "fahr@@": 1113,
  "junge": 1114,
  "mittel": 1115,
  "ban@@": 1116,
  "maschine": 1117,
  "4": 1118,
  "falls": 1119,
  "pan@@": 1120,
  "fähigkeit": 1121,
  "auto": 1122,
  "20@@": 1123,
  "spr@@": 1124,
  "e-@@": 1125,
  "land@@": 1126,
  "dessen": 1127,
  "end@@": 1128,
  "entwicklung": 1129,
  "weitere": 1130,
  "letzte": 1131,
  "groß": 1132,
  "modell": 1133,
  "hilfe": 1134,
  "spro@@": 1135,
  "wal@@": 1136,
  "kurz": 1137,
  "wür@@": 1138,
  "bru@@": 1139,
  "schließlich": 1140,
  "aufge@@": 1141,
  "berei@@": 1142,
  "tions@@": 1143,
  "hu@@": 1144,
  "wachsen": 1145,
  "schü@@": 1146,
  "menschliche": 1147,
  "ation": 1148,
  "gend": 1149,
  "selbst@@": 1150,
  "kultur": 1151,
  "grunde": 1152,
  "unterschied": 1153,
  "hren": 1154,
  "zä@@": 1155,
  "sterben": 1156,
  "tage": 1157,
  "gest@@": 1158,
  "jedoch": 1159,
  "6": 1160,
  "los@@": 1161,
  "worden": 1162,
  "sicht@@": 1163,
  "tischen": 1164,
  "kaufen": 1165,
  "schön": 1166,
  "krebs": 1167,
  "nachdem": 1168,
  "ted": 1169,
  "kat@@": 1170,
  "win@@": 1171,
  "son": 1172,
  "it": 1173,
  "zwar": 1174,
  "wach@@": 1175,
  "stan@@": 1176,
  "boden": 1177,
  "dingen": 1178,
  "roboter": 1179,
  "pas@@": 1180,
  "wan@@": 1181,
  "alter": 1182,
  "allem": 1183,
  "oren": 1184,
  "erfahrung": 1185,
  "mittel@@": 1186,
  "üb@@": 1187,
  "bio@@": 1188,
  "eher": 1189,
  "schei@@": 1190,
  "richtung": 1191,
  "kü@@": 1192,
  "wissenschaftler": 1193,
  "drei@@": 1194,
  "welt@@": 1195,
  "kam@@": 1196,
  "gestellt": 1197,
  "ba@@": 1198,
  "eigene": 1199,
  "betrachten": 1200,
  "wider@@": 1201,
  "bt": 1202,
  "sü@@": 1203,
  "meines": 1204,
  "tan@@": 1205,
  "gebaut": 1206,
  "muster": 1207,
  "fliegen": 1208,
  "körper@@": 1209,
  "stu@@": 1210,
  "bre@@": 1211,
  "nahm": 1212,
  "dern": 1213,
  "york": 1214,
  "zweite": 1215,
  "mag": 1216,
  "findet": 1217,
  "lehrer": 1218,
  "falsch": 1219,
  "anfang": 1220,
  "ziel": 1221,
  "kosten": 1222,
  "kar@@": 1223,
  "platz": 1224,
  "interessant": 1225,
  "ser": 1226,
  "7": 1227,
  "en-@@": 1228,
  "ach@@": 1229,
  "prozess": 1230,
  "beste": 1231,
  "deren": 1232,
  "fanden": 1233,
  "verk@@": 1234,
  "wahr": 1235,
  "mö@@": 1236,
  "guten": 1237,
  "erinnern": 1238,
  "40": 1239,
  "v": 1240,
  "woche": 1241,
  "nä@@": 1242,
  "sto@@": 1243,
  "bildung": 1244,
  "jungen": 1245,
  "größte": 1246,
  "neu": 1247,
  "gten": 1248,
  "kö@@": 1249,
  "ang@@": 1250,
  "fu@@": 1251,
  "trans@@": 1252,
  "bleiben": 1253,
  "ver": 1254,
  "kur@@": 1255,
  "welches": 1256,
  "voll": 1257,
  "genauso": 1258,
  "publikum": 1259,
  "hü@@": 1260,
  "solche": 1261,
  "ene": 1262,
  "mussten": 1263,
  "lang@@": 1264,
  "thema": 1265,
  "bare": 1266,
  "treten": 1267,
  "markt": 1268,
  "star@@": 1269,
  "fort@@": 1270,
  "führ@@": 1271,
  "hinter": 1272,
  "sieben": 1273,
  "voll@@": 1274,
  "schla@@": 1275,
  "lö@@": 1276,
  "fragte": 1277,
  "sollen": 1278,
  "stri@@": 1279,
  "blick": 1280,
  "son@@": 1281,
  "weg@@": 1282,
  "direkt": 1283,
  "bereich": 1284,
  "fangen": 1285,
  "danach": 1286,
  "video": 1287,
  "verbindung": 1288,
  "namen": 1289,
  "suchen": 1290,
  "dri@@": 1291,
  "forschung": 1292,
  "sch": 1293,
  "gefunden": 1294,
  "lä@@": 1295,
  "ß": 1296,
  "wären": 1297,
  "indi@@": 1298,
  "hast": 1299,
  "struktur": 1300,
  "zuvor": 1301,
  "nt": 1302,
  "ant": 1303,
  "gemein@@": 1304,
  "&#91;": 1305,
  "einzu@@": 1306,
  "wusste": 1307,
  "ziert": 1308,
  "chen@@": 1309,
  "ieren": 1310,
  "theorie": 1311,
  "&#93;": 1312,
  "krieg": 1313,
  "gegeben": 1314,
  "neues": 1315,
  "ander@@": 1316,
  "car@@": 1317,
  "nahmen": 1318,
  "ci@@": 1319,
  "monate": 1320,
  "len": 1321,
  "ment@@": 1322,
  "gedanken": 1323,
  "autos": 1324,
  "anderer": 1325,
  "fel@@": 1326,
  "tzen": 1327,
  "sat@@": 1328,
  "dra@@": 1329,
  "glücklich": 1330,
  "gän@@": 1331,
  "gene": 1332,
  "ank@@": 1333,
  "plötzlich": 1334,
  "zuerst": 1335,
  "ht": 1336,
  "tö@@": 1337,
  "brei@@": 1338,
  "mache": 1339,
  "zie@@": 1340,
  "freunde": 1341,
  "gh@@": 1342,
  "dro@@": 1343,
  "manche": 1344,
  "lieben": 1345,
  "sin@@": 1346,
  "bin@@": 1347,
  "jo@@": 1348,
  "wochen": 1349,
  "besteht": 1350,
  "kra@@": 1351,
  "ften": 1352,
  "zehn": 1353,
  "che@@": 1354,
  "scheint": 1355,
  "enten": 1356,
  "kte": 1357,
  "reise": 1358,
  "ihres": 1359,
  "and": 1360,
  "größe": 1361,
  "anti@@": 1362,
  "beginnt": 1363,
  "amerika": 1364,
  "gewesen": 1365,
  "genannt": 1366,
  "bro@@": 1367,
  "ner@@": 1368,
  "meter": 1369,
  "sicht": 1370,
  "d-@@": 1371,
  "luft": 1372,
  "schaft": 1373,
  "technologien": 1374,
  "fest": 1375,
  "funktionieren": 1376,
  "möchten": 1377,
  "stoff@@": 1378,
  "sehe": 1379,
  "wunder@@": 1380,
  "fer": 1381,
  "baren": 1382,
  "bereit": 1383,
  "stimmt": 1384,
  "gang": 1385,
  "flu@@": 1386,
  "wand": 1387,
  "völlig": 1388,
  "erschaffen": 1389,
  "stre@@": 1390,
  "karte": 1391,
  "9": 1392,
  "ans": 1393,
  "schwierig": 1394,
  "bekannt": 1395,
  "ker@@": 1396,
  "zieren": 1397,
  "grün@@": 1398,
  "gri@@": 1399,
  "aussehen": 1400,
  "pen@@": 1401,
  "draußen": 1402,
  "tiven": 1403,
  "material": 1404,
  "dan@@": 1405,
  "technik": 1406,
  "to": 1407,
  ",@@": 1408,
  "ton": 1409,
  "anfangen": 1410,
  "schritt": 1411,
  "reihe": 1412,
  "fest@@": 1413,
  "geworden": 1414,
  "gelernt": 1415,
  "tages": 1416,
  "super@@": 1417,
  "bist": 1418,
  "passieren": 1419,
  "gs@@": 1420,
  "stoff": 1421,
  "jahrhundert": 1422,
  "hervor@@": 1423,
  "tur@@": 1424,
  "one": 1425,
  "trä@@": 1426,
  "systeme": 1427,
  "gerät": 1428,
  "brachte": 1429,
  "aufzu@@": 1430,
  "ppen": 1431,
  "ien": 1432,
  "plan@@": 1433,
  "einge@@": 1434,
  "niemals": 1435,
  "nu@@": 1436,
  "bücher": 1437,
  "viel@@": 1438,
  "teten": 1439,
  "acht": 1440,
  "ks": 1441,
  "team": 1442,
  "haupt@@": 1443,
  "ländern": 1444,
  "stimme": 1445,
  "beide": 1446,
  "mikro@@": 1447,
  "zen@@": 1448,
  "digen": 1449,
  "firma": 1450,
  "studenten": 1451,
  "gingen": 1452,
  "kleines": 1453,
  "he": 1454,
  "sol@@": 1455,
  "bewusst": 1456,
  "ed": 1457,
  "jemals": 1458,
  "situation": 1459,
  "sicherheit": 1460,
  "anzahl": 1461,
  "arbeitet": 1462,
  "egal": 1463,
  "hinter@@": 1464,
  "mensch": 1465,
  "fallen": 1466,
  "gemeinschaft": 1467,
  "daraus": 1468,
  "herr@@": 1469,
  "bas@@": 1470,
  "tief@@": 1471,
  "bekommt": 1472,
  "miteinander": 1473,
  "ran@@": 1474,
  "morgen": 1475,
  "rech@@": 1476,
  "gruppen": 1477,
  "ig": 1478,
  "zer": 1479,
  "aufgabe": 1480,
  "erklären": 1481,
  "nachdenken": 1482,
  "unseres": 1483,
  "ständig": 1484,
  ".000": 1485,
  "ding": 1486,
  "ven@@": 1487,
  "wir@@": 1488,
  "ms": 1489,
  "ente": 1490,
  "verwendet": 1491,
  "tatsache": 1492,
  "foto": 1493,
  "ka": 1494,
  "gesundheit": 1495,
  "zt": 1496,
  "schrieb": 1497,
  "größten": 1498,
  "wahrheit": 1499,
  "000": 1500,
  "straße": 1501,
  "scht": 1502,
  "tiv": 1503,
  "gezeigt": 1504,
  "liegen": 1505,
  "eg@@": 1506,
  "öl@@": 1507,
  "krankheit": 1508,
  "geboren": 1509,
  "gesicht": 1510,
  "haus@@": 1511,
  "rau@@": 1512,
  "innen": 1513,
  "eng@@": 1514,
  "eller": 1515,
  "oberfläche": 1516,
  "schu@@": 1517,
  "ss@@": 1518,
  "kontrolle": 1519,
  "poli@@": 1520,
  "leicht": 1521,
  "kun@@": 1522,
  "ums": 1523,
  "hen@@": 1524,
  "mas@@": 1525,
  "interessiert": 1526,
  "hälfte": 1527,
  "offen@@": 1528,
  "25": 1529,
  "richtige": 1530,
  "testen": 1531,
  "soziale": 1532,
  "netz@@": 1533,
  "druck@@": 1534,
  "schlecht": 1535,
  "seiten": 1536,
  "ses": 1537,
  "0ern": 1538,
  "kli@@": 1539,
  "gie": 1540,
  "kul@@": 1541,
  "60": 1542,
  "herz@@": 1543,
  "allein": 1544,
  "rolle": 1545,
  "preis": 1546,
  "bilden": 1547,
  "entfernt": 1548,
  "folgen": 1549,
  "geschrieben": 1550,
  "gar@@": 1551,
  "hält": 1552,
  "umgebung": 1553,
  "vortrag": 1554,
  "enen": 1555,
  "vorstellung": 1556,
  "sonst": 1557,
  "zeiten": 1558,
  "städte": 1559,
  "lebt": 1560,
  "gebiet": 1561,
  "ze": 1562,
  "verbunden": 1563,
  "taten": 1564,
  "nacht": 1565,
  "kleiner": 1566,
  "test": 1567,
  "regeln": 1568,
  "anstatt": 1569,
  "kin@@": 1570,
  "tier@@": 1571,
  "nutz@@": 1572,
  "els": 1573,
  "spezi@@": 1574,
  "schulen": 1575,
  "ani@@": 1576,
  "finde": 1577,
  "my@@": 1578,
  "meinung": 1579,
  "veränderung": 1580,
  "heiten": 1581,
  "generation": 1582,
  "jahr@@": 1583,
  "benutzt": 1584,
  "jemanden": 1585,
  "erreicht": 1586,
  "län@@": 1587,
  "bedeutung": 1588,
  "mitte": 1589,
  "ss": 1590,
  "uren": 1591,
  "heutzutage": 1592,
  "schau@@": 1593,
  "stark": 1594,
  "spe@@": 1595,
  "fehler": 1596,
  "ler@@": 1597,
  "eu@@": 1598,
  "80": 1599,
  "ur": 1600,
  "computer@@": 1601,
  "einfache": 1602,
  "bot@@": 1603,
  "pflanzen": 1604,
  "hil@@": 1605,
  "za@@": 1606,
  "gesprochen": 1607,
  "offensichtlich": 1608,
  "labor": 1609,
  "fehl@@": 1610,
  "komplett": 1611,
  "links": 1612,
  "freund": 1613,
  "bewegt": 1614,
  "absolut": 1615,
  "t-@@": 1616,
  "revolution": 1617,
  "mögen": 1618,
  "hoffe": 1619,
  "hier@@": 1620,
  "hnen": 1621,
  "statt": 1622,
  "sc@@": 1623,
  "machten": 1624,
  "tausende": 1625,
  "beziehung": 1626,
  "na": 1627,
  "satz": 1628,
  "kinder@@": 1629,
  "hlen": 1630,
  "politik": 1631,
  "versuche": 1632,
  "mus": 1633,
  "bekam": 1634,
  "zelle": 1635,
  "gekommen": 1636,
  "verloren": 1637,
  "dachten": 1638,
  "del@@": 1639,
  "kle@@": 1640,
  "rat@@": 1641,
  "zeige": 1642,
  "zus@@": 1643,
  "erzählt": 1644,
  "weisen": 1645,
  "auto@@": 1646,
  "ches": 1647,
  "rest": 1648,
  "trau@@": 1649,
  "tier": 1650,
  "fähigkeiten": 1651,
  "spricht": 1652,
  "ordnung": 1653,
  "laden": 1654,
  "wann": 1655,
  "ei": 1656,
  "linie": 1657,
  "nennt": 1658,
  "dete": 1659,
  "vereinigten": 1660,
  "plat@@": 1661,
  "gegenüber": 1662,
  "fra@@": 1663,
  "bur@@": 1664,
  "ppe": 1665,
  "tzt": 1666,
  "wieso": 1667,
  "denkt": 1668,
  "trotzdem": 1669,
  "ansehen": 1670,
  "hel@@": 1671,
  "schließen": 1672,
  "sä@@": 1673,
  "gei@@": 1674,
  "fil@@": 1675,
  "ebene": 1676,
  "halb": 1677,
  "gearbeitet": 1678,
  "sofort": 1679,
  "öl": 1680,
  "normalerweise": 1681,
  "wachstum": 1682,
  "dig": 1683,
  "vier@@": 1684,
  "sie@@": 1685,
  "einzelne": 1686,
  "gesamte": 1687,
  "not@@": 1688,
  "sonne": 1689,
  "radi@@": 1690,
  "wichtige": 1691,
  "gel": 1692,
  "herausforderung": 1693,
  "geschieht": 1694,
  "sorgen": 1695,
  "studie": 1696,
  "abzu@@": 1697,
  "ähnlich": 1698,
  "deten": 1699,
  "zeug": 1700,
  "messen": 1701,
  "gewinnen": 1702,
  "medi@@": 1703,
  "ide@@": 1704,
  "sahen": 1705,
  "12": 1706,
  "lieren": 1707,
  "gro@@": 1708,
  "ober@@": 1709,
  "gesundheits@@": 1710,
  "tat@@": 1711,
  "schn@@": 1712,
  "erfolg": 1713,
  "tigt": 1714,
  "ße": 1715,
  "et": 1716,
  "programm": 1717,
  "punkte": 1718,
  "demo@@": 1719,
  "mitgefühl": 1720,
  "hört": 1721,
  "eben": 1722,
  "stimmen": 1723,
  "passierte": 1724,
  "sal@@": 1725,
  "far@@": 1726,
  "fische": 1727,
  "flug@@": 1728,
  "halte": 1729,
  "realität": 1730,
  "stellten": 1731,
  "holen": 1732,
  "gende": 1733,
  "information": 1734,
  "begannen": 1735,
  "hoffnung": 1736,
  "flü@@": 1737,
  "alte": 1738,
  "voller": 1739,
  "mus@@": 1740,
  "ergebnis": 1741,
  "arm": 1742,
  "0.000": 1743,
  "kannst": 1744,
  "sub@@": 1745,
  "kunst@@": 1746,
  "größer": 1747,
  "monaten": 1748,
  "wel@@": 1749,
  "entscheidungen": 1750,
  "bal@@": 1751,
  "klein@@": 1752,
  "sprach": 1753,
  "bevölkerung": 1754,
  "möglichen": 1755,
  "tagen": 1756,
  "deine": 1757,
  "spiele": 1758,
  "aufmerksamkeit": 1759,
  "bald": 1760,
  "fälle": 1761,
  "übrigens": 1762,
  "richtigen": 1763,
  "gemeinsam": 1764,
  "las@@": 1765,
  "ma": 1766,
  "grenzen": 1767,
  "wohl@@": 1768,
  "krankheiten": 1769,
  "vergessen": 1770,
  "vorher": 1771,
  "läuft": 1772,
  "spaß": 1773,
  "schneller": 1774,
  "überleben": 1775,
  "fri@@": 1776,
  "500": 1777,
  "langsam": 1778,
  "verlieren": 1779,
  "sobald": 1780,
  "wussten": 1781,
  "setzt": 1782,
  "großer": 1783,
  "umwelt@@": 1784,
  "unge@@": 1785,
  "tod": 1786,
  "zogen": 1787,
  "länger": 1788,
  "18@@": 1789,
  "experiment": 1790,
  "—": 1791,
  "weltweit": 1792,
  "eigen@@": 1793,
  "fisch": 1794,
  "zier@@": 1795,
  "bewusstsein": 1796,
  "nachrichten": 1797,
  "sitzen": 1798,
  "ität": 1799,
  "200": 1800,
  "haut": 1801,
  "wesen": 1802,
  "außer": 1803,
  "abge@@": 1804,
  "industrie": 1805,
  "bestimmt": 1806,
  "gutes": 1807,
  "produkt": 1808,
  "arbeits@@": 1809,
  "orte": 1810,
  "europa": 1811,
  "lehr@@": 1812,
  "enz": 1813,
  "herum@@": 1814,
  "nis": 1815,
  "druck": 1816,
  "herauszufinden": 1817,
  "anschauen": 1818,
  "pal@@": 1819,
  "beispiele": 1820,
  "hab@@": 1821,
  "künstler": 1822,
  "großes": 1823,
  "wahl": 1824,
  "beobachten": 1825,
  "atom@@": 1826,
  "folge": 1827,
  "klasse": 1828,
  "daten@@": 1829,
  "aten": 1830,
  "führte": 1831,
  "fall@@": 1832,
  "feld": 1833,
  "job": 1834,
  "stoffe": 1835,
  "pat@@": 1836,
  "medien": 1837,
  "evolution": 1838,
  "din@@": 1839,
  "gleichzeitig": 1840,
  "geschehen": 1841,
  "stern": 1842,
  "halt": 1843,
  "außerdem": 1844,
  "flo@@": 1845,
  "interessante": 1846,
  "aussieht": 1847,
  "endlich": 1848,
  "selben": 1849,
  "tel": 1850,
  "san@@": 1851,
  "hör@@": 1852,
  "wichtiger": 1853,
  "ps": 1854,
  "chter": 1855,
  "bessere": 1856,
  "zweiten": 1857,
  "umwelt": 1858,
  "tze": 1859,
  "farbe": 1860,
  "zy@@": 1861,
  "fern@@": 1862,
  "os": 1863,
  "sozialen": 1864,
  "tem": 1865,
  "produzieren": 1866,
  "bleibt": 1867,
  "tik": 1868,
  "arbeitete": 1869,
  "bestimmten": 1870,
  "stisch": 1871,
  "versuchte": 1872,
  "blu@@": 1873,
  "stei@@": 1874,
  "medizin": 1875,
  "nen@@": 1876,
  "aler": 1877,
  "handelt": 1878,
  "ales": 1879,
  "stau@@": 1880,
  "gegangen": 1881,
  "dlich": 1882,
  "gal@@": 1883,
  "sekunden": 1884,
  "orten": 1885,
  "dige": 1886,
  "wirk@@": 1887,
  "chtet": 1888,
  "zentrum": 1889,
  "dreht": 1890,
  "the": 1891,
  "arbei@@": 1892,
  "sammeln": 1893,
  "firmen": 1894,
  "ren": 1895,
  "einzelnen": 1896,
  "schaften": 1897,
  "pla@@": 1898,
  "tt": 1899,
  "wil@@": 1900,
  "demokratie": 1901,
  "genden": 1902,
  "hab": 1903,
  "werk": 1904,
  "verstanden": 1905,
  "acht@@": 1906,
  "liste": 1907,
  "bra@@": 1908,
  "sprachen": 1909,
  "sozi@@": 1910,
  "methode": 1911,
  "/": 1912,
  "ton@@": 1913,
  "einfluss": 1914,
  "lose": 1915,
  "nachricht": 1916,
  "cker": 1917,
  "zü@@": 1918,
  "schlagen": 1919,
  "arzt": 1920,
  "konzept": 1921,
  "frei": 1922,
  "amerikaner": 1923,
  "fällt": 1924,
  "ther@@": 1925,
  "verbessern": 1926,
  "schaut": 1927,
  "papier": 1928,
  "amerikanischen": 1929,
  "warten": 1930,
  "fis@@": 1931,
  "designer": 1932,
  "universität": 1933,
  "verb@@": 1934,
  "fing": 1935,
  "werte": 1936,
  "ktion": 1937,
  "entdecken": 1938,
  "rede": 1939,
  "großartige": 1940,
  "sowohl": 1941,
  "schwer@@": 1942,
  "zustand": 1943,
  "spezies": 1944,
  "personen": 1945,
  "bel": 1946,
  "zeichen": 1947,
  "dna": 1948,
  "klein": 1949,
  "sicher@@": 1950,
  "dadurch": 1951,
  "18": 1952,
  "nenne": 1953,
  "hrt": 1954,
  "wirklichkeit": 1955,
  "geschwindigkeit": 1956,
  "befinden": 1957,
  "dorf": 1958,
  "igen": 1959,
  "ah": 1960,
  "scher": 1961,
  "nummer": 1962,
  "innovation": 1963,
  "nachzudenken": 1964,
  "schicken": 1965,
  "mensch@@": 1966,
  "toll": 1967,
  "vergangenheit": 1968,
  "zumindest": 1969,
  "glück@@": 1970,
  "trag@@": 1971,
  "les@@": 1972,
  "strei@@": 1973,
  "forsch@@": 1974,
  "plan": 1975,
  "einzel@@": 1976,
  "david": 1977,
  "a-@@": 1978,
  "handeln": 1979,
  "strom": 1980,
  "hau@@": 1981,
  "typ": 1982,
  "prinzip": 1983,
  "fte": 1984,
  "suche": 1985,
  "elte": 1986,
  "tter": 1987,
  "organisation": 1988,
  "bühne": 1989,
  "werfen": 1990,
  "wert@@": 1991,
  "erlaubt": 1992,
  "rechte": 1993,
  "verlassen": 1994,
  "hinaus": 1995,
  "grad": 1996,
  "sam": 1997,
  "herstellen": 1998,
  "solchen": 1999,
  "mathematik": 2000,
  "monat": 2001,
  "vertrauen": 2002,
  "äre": 2003,
  "of": 2004,
  "hörte": 2005,
  "früher": 2006,
  "rechts": 2007,
  "menschheit": 2008,
  "führung": 2009,
  "version": 2010,
  "name": 2011,
  "eli@@": 2012,
  "fotos": 2013,
  "worte": 2014,
  "lauf@@": 2015,
  "gründen": 2016,
  "hundert": 2017,
  "dritte": 2018,
  "ismus": 2019,
  "tungen": 2020,
  "zunehmen": 2021,
  "wählen": 2022,
  "erzeugen": 2023,
  "chern": 2024,
  "bus@@": 2025,
  "schein@@": 2026,
  "ier@@": 2027,
  "gründe": 2028,
  "ozean": 2029,
  "öffnen": 2030,
  "ach": 2031,
  "spar@@": 2032,
  "behandlung": 2033,
  "diejenigen": 2034,
  "aufgrund": 2035,
  "dasselbe": 2036,
  "geist": 2037,
  "interesse": 2038,
  "irgendwo": 2039,
  "gewalt": 2040,
  "für@@": 2041,
  "arbeite": 2042,
  "masse": 2043,
  "artikel": 2044,
  "befindet": 2045,
  "genen": 2046,
  "gefähr@@": 2047,
  "spielt": 2048,
  "verstand": 2049,
  "neben": 2050,
  "»": 2051,
  "drehen": 2052,
  "unmöglich": 2053,
  "materialien": 2054,
  "antworten": 2055,
  "osten": 2056,
  "geh@@": 2057,
  "entdeckt": 2058,
  "google": 2059,
  "welcher": 2060,
  "schüler": 2061,
  "studien": 2062,
  "zugang": 2063,
  "gefragt": 2064,
  "vorher@@": 2065,
  "globalen": 2066,
  "steigen": 2067,
  "del": 2068,
  "stunde": 2069,
  "kranken@@": 2070,
  "spieler": 2071,
  "traf": 2072,
  "schen@@": 2073,
  "gesetzt": 2074,
  "sohn": 2075,
  "«": 2076,
  "ologie": 2077,
  "betrachtet": 2078,
  "haft": 2079,
  "geschäft": 2080,
  "einfachen": 2081,
  "us-@@": 2082,
  "nahrung": 2083,
  "entschieden": 2084,
  "tungs@@": 2085,
  "naja": 2086,
  "architektur": 2087,
  "riesige": 2088,
  "langen": 2089,
  "pfen": 2090,
  "pres@@": 2091,
  "licht@@": 2092,
  "oni@@": 2093,
  "geln": 2094,
  "stischen": 2095,
  "leisten": 2096,
  "fal@@": 2097,
  "sinne": 2098,
  "emp@@": 2099,
  "schle@@": 2100,
  "zimmer": 2101,
  "neun": 2102,
  "kn@@": 2103,
  "sonnen@@": 2104,
  "sinn@@": 2105,
  "großartig": 2106,
  "leider": 2107,
  "lösungen": 2108,
  "familien": 2109,
  "maschinen": 2110,
  "schä@@": 2111,
  "leben@@": 2112,
  "ungsk@@": 2113,
  "hilft": 2114,
  "biologie": 2115,
  "produkte": 2116,
  "region": 2117,
  "ris@@": 2118,
  "himmel": 2119,
  "zeich@@": 2120,
  "kern": 2121,
  "armut": 2122,
  "reichen": 2123,
  "kollegen": 2124,
  "neuro@@": 2125,
  "wirtschafts@@": 2126,
  "rate": 2127,
  "passt": 2128,
  "entweder": 2129,
  "eis": 2130,
  "fläche": 2131,
  "netz": 2132,
  "versuch": 2133,
  "schnitt": 2134,
  "ergebnisse": 2135,
  "trägt": 2136,
  "kommen@@": 2137,
  "extrem": 2138,
  "meer": 2139,
  "ebenso": 2140,
  "wur@@": 2141,
  "ters": 2142,
  "zo@@": 2143,
  "verständnis": 2144,
  "zeigte": 2145,
  "kaum": 2146,
  "freiheit": 2147,
  "fasst": 2148,
  "zunächst": 2149,
  "fällen": 2150,
  "ehe@@": 2151,
  "untersuchen": 2152,
  "tru@@": 2153,
  "zin@@": 2154,
  "hiv": 2155,
  "verbinden": 2156,
  "keiner": 2157,
  "irgend@@": 2158,
  "ige": 2159,
  "chung": 2160,
  "nte": 2161,
  "million": 2162,
  "leb@@": 2163,
  "meeres@@": 2164,
  "spitze": 2165,
  "schlechte": 2166,
  "näher": 2167,
  "menschen@@": 2168,
  "haup@@": 2169,
  "wü@@": 2170,
  "schafft": 2171,
  "bestimmte": 2172,
  "erstens": 2173,
  "don@@": 2174,
  "ren@@": 2175,
  "beginn": 2176,
  "ender": 2177,
  "schönheit": 2178,
  "deswegen": 2179,
  "verkaufen": 2180,
  "ca.": 2181,
  "leistung": 2182,
  "fli@@": 2183,
  "leiden": 2184,
  "0-@@": 2185,
  "sm@@": 2186,
  "alität": 2187,
  "passen": 2188,
  "bisher": 2189,
  "hielt": 2190,
  "energie@@": 2191,
  "dein": 2192,
  "ebenfalls": 2193,
  "gefä@@": 2194,
  "mat@@": 2195,
  "wichtigste": 2196,
  "herzustellen": 2197,
  "seh@@": 2198,
  "ressourcen": 2199,
  "mieren": 2200,
  "entscheiden": 2201,
  "uhr": 2202,
  "raus": 2203,
  "y-@@": 2204,
  "chance": 2205,
  "ermöglicht": 2206,
  "fühlt": 2207,
  "reaktion": 2208,
  "zieht": 2209,
  "fertig": 2210,
  "fluss": 2211,
  "objekt": 2212,
  "ziel@@": 2213,
  "hände": 2214,
  "ließ": 2215,
  "komme": 2216,
  "er-@@": 2217,
  "gelegenheit": 2218,
  "herz": 2219,
  "bedingungen": 2220,
  "endes": 2221,
  "arbeit@@": 2222,
  "siert": 2223,
  "zell@@": 2224,
  "tiger": 2225,
  "10@@": 2226,
  "außerhalb": 2227,
  "kunden": 2228,
  "unglaubliche": 2229,
  "gesamten": 2230,
  "virus": 2231,
  "kampf": 2232,
  "bakterien": 2233,
  "lag": 2234,
  "retten": 2235,
  "lasst": 2236,
  "aller@@": 2237,
  "voraus@@": 2238,
  "bahn": 2239,
  "cks": 2240,
  "bürger@@": 2241,
  "kamera": 2242,
  "rechten": 2243,
  "projekte": 2244,
  "bank": 2245,
  "getroffen": 2246,
  "legt": 2247,
  "trifft": 2248,
  "heben": 2249,
  "staat@@": 2250,
  "letztes": 2251,
  "wu@@": 2252,
  "verrückt": 2253,
  "raum@@": 2254,
  "säu@@": 2255,
  "ehrlich": 2256,
  "ard": 2257,
  "krankenhaus": 2258,
  "fähig": 2259,
  "unterschiede": 2260,
  "aren": 2261,
  "sieren": 2262,
  "erzählte": 2263,
  "kostet": 2264,
  "nehme": 2265,
  "luft@@": 2266,
  "70": 2267,
  "gesetz": 2268,
  "nten": 2269,
  "erwarten": 2270,
  "fassen": 2271,
  "90": 2272,
  "fuhr": 2273,
  "spreche": 2274,
  "zeitpunkt": 2275,
  "zehn@@": 2276,
  "armen": 2277,
  "tigkeit": 2278,
  "leid": 2279,
  "gehirn@@": 2280,
  "bau": 2281,
  "km": 2282,
  "iger": 2283,
  "erfolgreich": 2284,
  "einzigen": 2285,
  "unterschiedliche": 2286,
  "geschaffen": 2287,
  "wege": 2288,
  "währ@@": 2289,
  "sse": 2290,
  "erklärt": 2291,
  "eigenschaften": 2292,
  "lernte": 2293,
  "auge": 2294,
  "erinnere": 2295,
  "natur@@": 2296,
  "leidenschaft": 2297,
  "app@@": 2298,
  "nicht-@@": 2299,
  "ette": 2300,
  "geschäfts@@": 2301,
  "ehr@@": 2302,
  "landes": 2303,
  "krise": 2304,
  "schätzen": 2305,
  "erfahren": 2306,
  "schützen": 2307,
  "software": 2308,
  "greifen": 2309,
  "rund": 2310,
  "gehe": 2311,
  "typen": 2312,
  "traum": 2313,
  "zweitens": 2314,
  "wagen": 2315,
  "straßen": 2316,
  "mau@@": 2317,
  "freund@@": 2318,
  "worten": 2319,
  "strukturen": 2320,
  "brechen": 2321,
  "len@@": 2322,
  "herausfinden": 2323,
  "zeichnet": 2324,
  "freude": 2325,
  "elektro@@": 2326,
  "hunderte": 2327,
  "seines": 2328,
  "s.": 2329,
  "ahnung": 2330,
  "1,@@": 2331,
  "organisationen": 2332,
  "john": 2333,
  "englisch": 2334,
  "vielfalt": 2335,
  "abend": 2336,
  "funktion@@": 2337,
  "beziehungen": 2338,
  "0": 2339,
  "vorzu@@": 2340,
  "sten@@": 2341,
  "industri@@": 2342,
  "stes": 2343,
  "stische": 2344,
  "blin@@": 2345,
  "regen@@": 2346,
  "regel": 2347,
  "schrei@@": 2348,
  "ffen": 2349,
  "bezug": 2350,
  "geräte": 2351,
  "kraft@@": 2352,
  "tief": 2353,
  "brauchte": 2354,
  "physik": 2355,
  "schutz": 2356,
  "westen": 2357,
  "schli@@": 2358,
  "erd@@": 2359,
  "auen": 2360,
  "öffentlichen": 2361,
  "gedacht": 2362,
  "netzwerk": 2363,
  "heu@@": 2364,
  "finger": 2365,
  "erfunden": 2366,
  "konferenz": 2367,
  "produktion": 2368,
  "dat@@": 2369,
  "gehirns": 2370,
  "flugzeug": 2371,
  "wohin": 2372,
  "angefangen": 2373,
  "ons": 2374,
  "fen@@": 2375,
  "steckt": 2376,
  "bäume": 2377,
  "auswirkungen": 2378,
  "erleben": 2379,
  "hängt": 2380,
  "tex@@": 2381,
  "globale": 2382,
  "ha": 2383,
  "nete": 2384,
  "mehrere": 2385,
  "teilt": 2386,
  "mini@@": 2387,
  "geschah": 2388,
  "behandeln": 2389,
  "z.b.": 2390,
  "aufgaben": 2391,
  "desto": 2392,
  "verantwortung": 2393,
  "rat": 2394,
  "regel@@": 2395,
  "bild@@": 2396,
  "mitten": 2397,
  "miert": 2398,
  "mögliche": 2399,
  "gebe": 2400,
  "erfahrungen": 2401,
  "ßt": 2402,
  "zug": 2403,
  "solar@@": 2404,
  "heim@@": 2405,
  "seien": 2406,
  "entschied": 2407,
  "ras@@": 2408,
  "sekunde": 2409,
  "karten": 2410,
  "regierungen": 2411,
  "nahe": 2412,
  "elles": 2413,
  "gesellschaften": 2414,
  "ärzte": 2415,
  "farben": 2416,
  "klima@@": 2417,
  "lief": 2418,
  "religion": 2419,
  "schluss": 2420,
  "cor@@": 2421,
  "büro": 2422,
  "echt": 2423,
  "band": 2424,
  "see": 2425,
  "hl": 2426,
  "stecken": 2427,
  "systems": 2428,
  "weiss": 2429,
  "wichtigsten": 2430,
  "chris": 2431,
  "fragt": 2432,
  "runter": 2433,
  "denk@@": 2434,
  "bewe@@": 2435,
  "lung": 2436,
  "ganzes": 2437,
  "nieder@@": 2438,
  "dische": 2439,
  "verbindungen": 2440,
  "ate": 2441,
  "position": 2442,
  "treiben": 2443,
  "online": 2444,
  "sicherlich": 2445,
  "ve@@": 2446,
  "wuchs": 2447,
  "form@@": 2448,
  "jahrhunderts": 2449,
  "medikamente": 2450,
  "gaben": 2451,
  "tlich": 2452,
  "11": 2453,
  "ball@@": 2454,
  "hinein": 2455,
  "echte": 2456,
  "fühlte": 2457,
  "neuronen": 2458,
  "volle": 2459,
  "hey": 2460,
  "physi@@": 2461,
  "erstaunlich": 2462,
  "vollen": 2463,
  "geführt": 2464,
  "stattdessen": 2465,
  "fern": 2466,
  "größeren": 2467,
  "dr.": 2468,
  "werkzeuge": 2469,
  "auff@@": 2470,
  "jemandem": 2471,
  "ball": 2472,
  "loch": 2473,
  "lagen": 2474,
  "guter": 2475,
  "größere": 2476,
  "richten": 2477,
  "geschafft": 2478,
  "glichen": 2479,
  "jene": 2480,
  "veränderungen": 2481,
  "ckte": 2482,
  "mag@@": 2483,
  "wunsch": 2484,
  "begonnen": 2485,
  "waffen": 2486,
  "dün@@": 2487,
  "wenden": 2488,
  "herzen": 2489,
  "konzentrieren": 2490,
  "erstes": 2491,
  "tausend": 2492,
  "modelle": 2493,
  "produziert": 2494,
  "lauf": 2495,
  "tochter": 2496,
  "existiert": 2497,
  "schöne": 2498,
  "gefühle": 2499,
  "fuß": 2500,
  "häuser": 2501,
  "kilometer": 2502,
  "sex": 2503,
  "beeinflusst": 2504,
  "wenige": 2505,
  "genutzt": 2506,
  "verursacht": 2507,
  "verbringen": 2508,
  "k-@@": 2509,
  "rufen": 2510,
  "höhe": 2511,
  "tot@@": 2512,
  "alter@@": 2513,
  "brot": 2514,
  "han@@": 2515,
  "komplexität": 2516,
  "tritt": 2517,
  "tür": 2518,
  "buch@@": 2519,
  "blut@@": 2520,
  "stet": 2521,
  "infrastruktur": 2522,
  "freunden": 2523,
  "heutigen": 2524,
  "frühen": 2525,
  "wahl@@": 2526,
  "amerikanische": 2527,
  "stein": 2528,
  "recht@@": 2529,
  "reich": 2530,
  "qualität": 2531,
  "aktivität": 2532,
  "staat": 2533,
  "fernsehen": 2534,
  "ernst": 2535,
  "fuß@@": 2536,
  "reisen": 2537,
  "einkommen": 2538,
  "erzeugt": 2539,
  "300": 2540,
  "stro@@": 2541,
  "leg@@": 2542,
  "dorthin": 2543,
  "eigenes": 2544,
  "fleisch": 2545,
  "schwester": 2546,
  "vorbei": 2547,
  "fühle": 2548,
  "folgendes": 2549,
  "nächstes": 2550,
  "unterstützen": 2551,
  "anz": 2552,
  "gelöst": 2553,
  "wörter": 2554,
  "materi@@": 2555,
  "kommunikation": 2556,
  "wind": 2557,
  "ator": 2558,
  "senden": 2559,
  "ließen": 2560,
  "schutz@@": 2561,
  "go": 2562,
  "ff": 2563,
  "log@@": 2564,
  "erlauben": 2565,
  "küste": 2566,
  "fein@@": 2567,
  "mess@@": 2568,
  "kreis": 2569,
  "gol@@": 2570,
  "dauert": 2571,
  "zusammenhang": 2572,
  "funktion": 2573,
  "linken": 2574,
  "augen@@": 2575,
  "zeichnen": 2576,
  "16": 2577,
  "kriegen": 2578,
  "sucht": 2579,
  "stücke": 2580,
  "arme": 2581,
  "gewicht": 2582,
  "gewebe": 2583,
  "ausdruck": 2584,
  "selb@@": 2585,
  "schien": 2586,
  "tolle": 2587,
  "national": 2588,
  "operation": 2589,
  "innen@@": 2590,
  "bung": 2591,
  "weiterhin": 2592,
  "barkeit": 2593,
  "entscheidung": 2594,
  "museum": 2595,
  "gehalten": 2596,
  "chs": 2597,
  "gem": 2598,
  "tsch@@": 2599,
  "begriff": 2600,
  "somit": 2601,
  "fenster": 2602,
  "prakti@@": 2603,
  "sper@@": 2604,
  "roten": 2605,
  "allerdings": 2606,
  "zog": 2607,
  "mars": 2608,
  "linien": 2609,
  "stolz": 2610,
  "deutlich": 2611,
  "raten": 2612,
  "kreativität": 2613,
  "schafts@@": 2614,
  "quelle": 2615,
  "partner": 2616,
  "city": 2617,
  "bares": 2618,
  "multi@@": 2619,
  "lern@@": 2620,
  "mes": 2621,
  "losen": 2622,
  "ted-@@": 2623,
  "baum": 2624,
  "afghanistan": 2625,
  "ären": 2626,
  "aufnahme": 2627,
  "nerven@@": 2628,
  "aufgenommen": 2629,
  "familien@@": 2630,
  "ausbildung": 2631,
  "feuer": 2632,
  "wirtschaft@@": 2633,
  "klingt": 2634,
  "materie": 2635,
  "vergleich": 2636,
  "bildungs@@": 2637,
  "schrift": 2638,
  "benötigt": 2639,
  "trotz": 2640,
  "fei@@": 2641,
  "affen": 2642,
  "wirst": 2643,
  "male": 2644,
  "entstehen": 2645,
  "universums": 2646,
  "wen": 2647,
  "hart": 2648,
  "reg@@": 2649,
  "nord@@": 2650,
  "bestehen": 2651,
  "wechsel@@": 2652,
  "irgendwann": 2653,
  "botschaft": 2654,
  "filme": 2655,
  "beine": 2656,
  "sozusagen": 2657,
  "nochmal": 2658,
  "habt": 2659,
  "erwartet": 2660,
  "geo@@": 2661,
  "glaubt": 2662,
  "ik": 2663,
  "selber": 2664,
  "süd@@": 2665,
  "perspektive": 2666,
  "sterne": 2667,
  "laut": 2668,
  "gelegt": 2669,
  "soldaten": 2670,
  "einsatz": 2671,
  "erin": 2672,
  "einfacher": 2673,
  "scheinen": 2674,
  "nähe": 2675,
  "ecke": 2676,
  "folgt": 2677,
  "west@@": 2678,
  "effekt": 2679,
  "massen@@": 2680,
  "sodass": 2681,
  "wahrscheinlichkeit": 2682,
  "großbritannien": 2683,
  "offen": 2684,
  "bor@@": 2685,
  "sand@@": 2686,
  "fun@@": 2687,
  "natürliche": 2688,
  "do": 2689,
  "kämpfen": 2690,
  "politischen": 2691,
  "modernen": 2692,
  "darf": 2693,
  "lautet": 2694,
  "tin": 2695,
  "baby": 2696,
  "gas@@": 2697,
  "politische": 2698,
  "daß": 2699,
  "bildern": 2700,
  "gener@@": 2701,
  "töten": 2702,
  "videos": 2703,
  "bitten": 2704,
  "schlag": 2705,
  "schwe@@": 2706,
  "benötigen": 2707,
  "weiteres": 2708,
  "früh@@": 2709,
  "standen": 2710,
  "bezahlen": 2711,
  "frieden": 2712,
  "städten": 2713,
  "haufen": 2714,
  "dagegen": 2715,
  "erforschen": 2716,
  "verfügung": 2717,
  "fort": 2718,
  "wander@@": 2719,
  "kontrollieren": 2720,
  "wald": 2721,
  "nahrungs@@": 2722,
  "aktiv": 2723,
  "investieren": 2724,
  "dritten": 2725,
  "steigt": 2726,
  "kenne": 2727,
  "gesetze": 2728,
  "lat@@": 2729,
  "berg": 2730,
  "versorgung": 2731,
  "vermutlich": 2732,
  "sparen": 2733,
  "erinnert": 2734,
  "räume": 2735,
  "gilt": 2736,
  "fortschritt": 2737,
  "männern": 2738,
  "wissenschaftliche": 2739,
  "weiteren": 2740,
  "tere": 2741,
  "ansatz": 2742,
  "werkzeug": 2743,
  "sitzt": 2744,
  "code": 2745,
  "ändert": 2746,
  "dennoch": 2747,
  "mond": 2748,
  "baut": 2749,
  "kräfte": 2750,
  "rein@@": 2751,
  "objekte": 2752,
  "london": 2753,
  "gsten": 2754,
  "intelligenz": 2755,
  "zuhause": 2756,
  "ed@@": 2757,
  "organismen": 2758,
  "vollkommen": 2759,
  "verkauft": 2760,
  "boot": 2761,
  "bewegungen": 2762,
  "verfolgen": 2763,
  "starb": 2764,
  "wesentlichen": 2765,
  "verdienen": 2766,
  "perfekt": 2767,
  "welchen": 2768,
  "hinein@@": 2769,
  "finanz@@": 2770,
  "vollständig": 2771,
  "ktionen": 2772,
  "gelassen": 2773,
  "klang": 2774,
  "20.": 2775,
  "fiel": 2776,
  "stuhl": 2777,
  "tauchen": 2778,
  "gestern": 2779,
  "hnt": 2780,
  "gewonnen": 2781,
  "richard": 2782,
  "video@@": 2783,
  "entlang": 2784,
  "ce@@": 2785,
  "teilchen": 2786,
  "titel": 2787,
  "teste": 2788,
  "hirn@@": 2789,
  "rö@@": 2790,
  "entwickelten": 2791,
  "problemen": 2792,
  "methoden": 2793,
  "kurzem": 2794,
  "behalten": 2795,
  "reagieren": 2796,
  "kontakt": 2797,
  "wiederum": 2798,
  "entwerfen": 2799,
  "dischen": 2800,
  "besitzen": 2801,
  "beschäftigt": 2802,
  "mission": 2803,
  "musi@@": 2804,
  "atmosphäre": 2805,
  "zes": 2806,
  "steuern": 2807,
  "fragten": 2808,
  "ierte": 2809,
  "ermöglichen": 2810,
  "sum@@": 2811,
  "cool": 2812,
  "durchgeführt": 2813,
  "möglicherweise": 2814,
  "phänomen": 2815,
  "moleküle": 2816,
  "gramm": 2817,
  "risiko": 2818,
  "lungen": 2819,
  "mark@@": 2820,
  "schlag@@": 2821,
  "gewi@@": 2822,
  "ta": 2823,
  "ca@@": 2824,
  "saß": 2825,
  "riesigen": 2826,
  "meistens": 2827,
  "bis@@": 2828,
  "beschreiben": 2829,
  "king": 2830,
  "grenze": 2831,
  "behandelt": 2832,
  "vision": 2833,
  "unbedingt": 2834,
  "garten": 2835,
  "herausgefunden": 2836,
  "gemeinde": 2837,
  "gestalten": 2838,
  "wächst": 2839,
  "dieselbe": 2840,
  "gebiete": 2841,
  "derzeit": 2842,
  "lachen": 2843,
  "lebte": 2844,
  "lin": 2845,
  "eis@@": 2846,
  "zufällig": 2847,
  "basis": 2848,
  "wirkung": 2849,
  "arbeiter": 2850,
  "unterschiedlichen": 2851,
  "alisieren": 2852,
  "est@@": 2853,
  "neben@@": 2854,
  "hergestellt": 2855,
  "glich": 2856,
  "veröffentlicht": 2857,
  "asien": 2858,
  "wahre": 2859,
  "dor@@": 2860,
  "umge@@": 2861,
  "brü@@": 2862,
  "elemente": 2863,
  "milliarde": 2864,
  "mehr@@": 2865,
  "hauptsächlich": 2866,
  "woher": 2867,
  "gelangen": 2868,
  "hoffentlich": 2869,
  "schalten": 2870,
  "setzte": 2871,
  "kern@@": 2872,
  "lass": 2873,
  "davor": 2874,
  "kennt": 2875,
  "zuhören": 2876,
  "bieten": 2877,
  "letztendlich": 2878,
  "unterstützung": 2879,
  "mütter": 2880,
  "wunderbare": 2881,
  "kommunizieren": 2882,
  "lichsten": 2883,
  "drittel": 2884,
  "chi@@": 2885,
  "gefängnis": 2886,
  "noten": 2887,
  "ley": 2888,
  "tiver": 2889,
  "hielten": 2890,
  "irgendetwas": 2891,
  "rein": 2892,
  "sel": 2893,
  "fung": 2894,
  "sur@@": 2895,
  "graben": 2896,
  "stufe": 2897,
  "jahres": 2898,
  "aids": 2899,
  "temperatur": 2900,
  "o-@@": 2901,
  "basiert": 2902,
  "meilen": 2903,
  "erstellen": 2904,
  "insekten": 2905,
  "sommer": 2906,
  "mung": 2907,
  "worüber": 2908,
  "themen": 2909,
  "reicht": 2910,
  "ameisen": 2911,
  "miss@@": 2912,
  "fischen": 2913,
  "dahin": 2914,
  "laufe": 2915,
  "buchstäblich": 2916,
  "magne@@": 2917,
  "tierte": 2918,
  "bett": 2919,
  "umgehen": 2920,
  "falsche": 2921,
  "experimente": 2922,
  "kurze": 2923,
  "lige": 2924,
  "lebten": 2925,
  "wirkt": 2926,
  "14": 2927,
  "llen": 2928,
  "mischen": 2929,
  "la": 2930,
  "weder": 2931,
  "schwarze": 2932,
  "ys": 2933,
  "jungs": 2934,
  "verbracht": 2935,
  "hohe": 2936,
  "park": 2937,
  "wunderbar": 2938,
  "klimawandel": 2939,
  "erende": 2940,
  "präsident": 2941,
  "hohen": 2942,
  "begeistert": 2943,
  "vermögen": 2944,
  "zusammenarbeit": 2945,
  "beeinflussen": 2946,
  "fach@@": 2947,
  "täglich": 2948,
  "todes@@": 2949,
  "bürger": 2950,
  "übertragen": 2951,
  "hund": 2952,
  "karriere": 2953,
  "glücklicherweise": 2954,
  "viren": 2955,
  "brauche": 2956,
  "erzähle": 2957,
  "mach@@": 2958,
  "entwickelte": 2959,
  "geburt": 2960,
  "umzu@@": 2961,
  "zig": 2962,
  "großteil": 2963,
  "forscher": 2964,
  "knochen": 2965,
  "alleine": 2966,
  "dauern": 2967,
  "wandel": 2968,
  "verantwortlich": 2969,
  "landschaft": 2970,
  "tz": 2971,
  "anten": 2972,
  "gewissen": 2973,
  "morgens": 2974,
  "hi": 2975,
  "dar": 2976,
  "krebs@@": 2977,
  "maus": 2978,
  "aufhören": 2979,
  "kümmern": 2980,
  "nannte": 2981,
  "gedanke": 2982,
  "stoßen": 2983,
  "film@@": 2984,
  "entsteht": 2985,
  "dlichen": 2986,
  "endet": 2987,
  "erenden": 2988,
  "400": 2989,
  "schwimmen": 2990,
  "2000": 2991,
  "rücken": 2992,
  "per": 2993,
  "experten": 2994,
  "militär@@": 2995,
  "neuer": 2996,
  "verhindern": 2997,
  "griff": 2998,
  "jobs": 2999,
  "versuchten": 3000,
  "brachten": 3001,
  "ziele": 3002,
  "opfer": 3003,
  "tor@@": 3004,
  "betrifft": 3005,
  "alisiert": 3006,
  "dieren": 3007,
  "könnt": 3008,
  "handel": 3009,
  "spiegel": 3010,
  "gefahr": 3011,
  "bekannten": 3012,
  "bildschirm": 3013,
  "elten": 3014,
  "rief": 3015,
  "verbreitet": 3016,
  "pen": 3017,
  "erster": 3018,
  "theit": 3019,
  "fingen": 3020,
  "herr": 3021,
  "dene": 3022,
  "blei@@": 3023,
  "zählen": 3024,
  "lernt": 3025,
  "wow": 3026,
  "blut": 3027,
  "gespielt": 3028,
  "internet@@": 3029,
  "normale": 3030,
  "wirtschaftlichen": 3031,
  "tiefe": 3032,
  "getötet": 3033,
  "drücken": 3034,
  "geheim@@": 3035,
  "zurückzu@@": 3036,
  "gas": 3037,
  "vergleichen": 3038,
  "wisst": 3039,
  "lieber": 3040,
  "frem@@": 3041,
  "besseren": 3042,
  "24": 3043,
  "zierten": 3044,
  "normalen": 3045,
  "japan": 3046,
  "tab@@": 3047,
  "bü@@": 3048,
  "wissenschaftlichen": 3049,
  "sozial@@": 3050,
  "j": 3051,
  "dungs@@": 3052,
  "anderem": 3053,
  "vorteil": 3054,
  "zeitalter": 3055,
  "zahl@@": 3056,
  "drückt": 3057,
  "gerü@@": 3058,
  "vögel": 3059,
  "mengen": 3060,
  "person@@": 3061,
  "pe": 3062,
  "werbung": 3063,
  "total": 3064,
  "tue": 3065,
  "kontext": 3066,
  "ähnliche": 3067,
  "roman@@": 3068,
  "lebewesen": 3069,
  "überzeugen": 3070,
  "praktisch": 3071,
  "ford": 3072,
  "verlangen": 3073,
  "raus@@": 3074,
  "werke": 3075,
  "meister": 3076,
  "hintergrund": 3077,
  "sche@@": 3078,
  "babys": 3079,
  "lied": 3080,
  "bemerkt": 3081,
  "sches": 3082,
  "führer": 3083,
  "interessieren": 3084,
  "las": 3085,
  "gehabt": 3086,
  "kalifornien": 3087,
  "landwirtschaft": 3088,
  "büro@@": 3089,
  "stab@@": 3090,
  "stellung": 3091,
  "erstaunliche": 3092,
  "ca": 3093,
  "arbeiteten": 3094,
  "sorge": 3095,
  "relativ": 3096,
  "bereiche": 3097,
  "spüren": 3098,
  "herunter@@": 3099,
  "führten": 3100,
  "kürzlich": 3101,
  "neten": 3102,
  "schicht": 3103,
  "inen": 3104,
  "erkannte": 3105,
  "bs": 3106,
  "uner@@": 3107,
  "existieren": 3108,
  "überzeugt": 3109,
  "fährt": 3110,
  "fünf@@": 3111,
  "inneren": 3112,
  "igkeit": 3113,
  "13": 3114,
  "flächen": 3115,
  "brauchten": 3116,
  "bein@@": 3117,
  "hinweg": 3118,
  "keln": 3119,
  "samen": 3120,
  "werten": 3121,
  "hinzu@@": 3122,
  "fordert": 3123,
  "markt@@": 3124,
  "washington": 3125,
  "sauerstoff": 3126,
  "starke": 3127,
  "tives": 3128,
  "weißen": 3129,
  "moderne": 3130,
  "geschickt": 3131,
  "unbe@@": 3132,
  "nation": 3133,
  "school": 3134,
  "zte": 3135,
  "träume": 3136,
  "tischer": 3137,
  "irak": 3138,
  "iges": 3139,
  "eure": 3140,
  "kung": 3141,
  "ktiv": 3142,
  "fängt": 3143,
  "insel": 3144,
  "doppelt": 3145,
  "maß@@": 3146,
  "gehirne": 3147,
  "schaute": 3148,
  "roll@@": 3149,
  "verschwinden": 3150,
  "drin": 3151,
  "bus": 3152,
  "ruf": 3153,
  "schönen": 3154,
  "überrascht": 3155,
  "weile": 3156,
  "normal": 3157,
  "grün": 3158,
  "mitteln": 3159,
  "forschungs@@": 3160,
  "bietet": 3161,
  "zit@@": 3162,
  "bauern": 3163,
  "45": 3164,
  "galaxien": 3165,
  "genauer": 3166,
  "dichte": 3167,
  "älter": 3168,
  "außen@@": 3169,
  "interagieren": 3170,
  "gestorben": 3171,
  "kapit@@": 3172,
  "ansicht": 3173,
  "weite": 3174,
  "weißt": 3175,
  "lichkeiten": 3176,
  "hne": 3177,
  "digung": 3178,
  "seitdem": 3179,
  "10.000": 3180,
  "hum@@": 3181,
  "moral@@": 3182,
  "bauten": 3183,
  "erhält": 3184,
  "malen": 3185,
  "rätsel": 3186,
  "schmerz": 3187,
  "verwandeln": 3188,
  "erfinden": 3189,
  "sowie": 3190,
  "san": 3191,
  "komplexe": 3192,
  "impf@@": 3193,
  "händen": 3194,
  "bedeuten": 3195,
  "bezahlt": 3196,
  "teilung": 3197,
  "drüben": 3198,
  "annehmen": 3199,
  "meiste": 3200,
  "mindestens": 3201,
  "herausforderungen": 3202,
  "starten": 3203,
  "autor@@": 3204,
  "gelesen": 3205,
  "är": 3206,
  "deinen": 3207,
  "digt": 3208,
  "unterscheiden": 3209,
  "null": 3210,
  "bekamen": 3211,
  "verbreiten": 3212,
  "35": 3213,
  "kopf@@": 3214,
  "institutionen": 3215,
  "gespräch": 3216,
  "gste": 3217,
  "tiges": 3218,
  "ppt": 3219,
  "wahrnehmung": 3220,
  "musst": 3221,
  "gerung": 3222,
  "bloß": 3223,
  "$": 3224,
  "minute": 3225,
  "barer": 3226,
  "leiten": 3227,
  "gefährlich": 3228,
  "17@@": 3229,
  "gehören": 3230,
  "zauber@@": 3231,
  "kulturen": 3232,
  "privat@@": 3233,
  "einheit": 3234,
  "heisst": 3235,
  "anwenden": 3236,
  "150": 3237,
  "unternehmer": 3238,
  "traditionellen": 3239,
  "nicht@@": 3240,
  "zusammenzu@@": 3241,
  "nah": 3242,
  "wirken": 3243,
  "co2": 3244,
  "märkte": 3245,
  "echten": 3246,
  "erscheinen": 3247,
  "dürfen": 3248,
  "körpers": 3249,
  "therapie": 3250,
  "schlüssel@@": 3251,
  "aufnahmen": 3252,
  "abhängig": 3253,
  "paul": 3254,
  "lichem": 3255,
  "gezogen": 3256,
  "krank": 3257,
  "telefon": 3258,
  "schlüssel": 3259,
  "öffentliche": 3260,
  "stein@@": 3261,
  "erkenntnis": 3262,
  "mittleren": 3263,
  "hängen": 3264,
  "treibt": 3265,
  "emotionen": 3266,
  "hung": 3267,
  "einsetzen": 3268,
  "netzwerke": 3269,
  "schlimmer": 3270,
  "eingesetzt": 3271,
  "has@@": 3272,
  "nah@@": 3273,
  "mach": 3274,
  "medizin@@": 3275,
  "gab@@": 3276,
  "alismus": 3277,
  "rahmen": 3278,
  "fisch@@": 3279,
  "grundlegende": 3280,
  "details": 3281,
  "einiger": 3282,
  "dach": 3283,
  "geld@@": 3284,
  "fantastisch": 3285,
  "gefahren": 3286,
  "patient": 3287,
  "bedarf": 3288,
  "ierten": 3289,
  "steine": 3290,
  "regionen": 3291,
  "wunder": 3292,
  "entdeckung": 3293,
  "berg@@": 3294,
  "wichtigen": 3295,
  "bat": 3296,
  "gegenteil": 3297,
  "strategie": 3298,
  "angenommen": 3299,
  "hörten": 3300,
  "schuhe": 3301,
  "mmen": 3302,
  "sar@@": 3303,
  "jung@@": 3304,
  "spielte": 3305,
  "kurzen": 3306,
  "99": 3307,
  "pfer@@": 3308,
  "wenigen": 3309,
  "ligen": 3310,
  "züge": 3311,
  "westlichen": 3312,
  "schneiden": 3313,
  "rechts@@": 3314,
  "professor": 3315,
  "schlechten": 3316,
  "notwendig": 3317,
  "besondere": 3318,
  "selten": 3319,
  "mut": 3320,
  "identität": 3321,
  "häufig": 3322,
  "gegensatz": 3323,
  "rote": 3324,
  "stoffen": 3325,
  "mc@@": 3326,
  "sprach@@": 3327,
  "september": 3328,
  "anischen": 3329,
  "nachbarn": 3330,
  "blau": 3331,
  "rü@@": 3332,
  "vertrau@@": 3333,
  "polizei": 3334,
  "bereichen": 3335,
  "holz": 3336,
  "öffentlichkeit": 3337,
  "eindruck": 3338,
  "bienen": 3339,
  "handy": 3340,
  "charles": 3341,
  "streben": 3342,
  "kurs": 3343,
  "natürlichen": 3344,
  "fernseh@@": 3345,
  "zeitung": 3346,
  "bestimmen": 3347,
  "mund": 3348,
  "nationen": 3349,
  "gegend": 3350,
  "verhältnis": 3351,
  "gewisse": 3352,
  "bill": 3353,
  "zerstören": 3354,
  "soviel": 3355,
  "hoffen": 3356,
  "lehren": 3357,
  "verhaltens@@": 3358,
  "tanz": 3359,
  "nutzt": 3360,
  "sand": 3361,
  "fahrer": 3362,
  "lieblings@@": 3363,
  "lager": 3364,
  "abschluss": 3365,
  "flug": 3366,
  "beantworten": 3367,
  "solch": 3368,
  "studieren": 3369,
  "ologen": 3370,
  "individuen": 3371,
  "planet": 3372,
  "teuer": 3373,
  "früh": 3374,
  "programme": 3375,
  "erter": 3376,
  "aspekt": 3377,
  "höher": 3378,
  "aufre@@": 3379,
  "trug": 3380,
  "schwarzen": 3381,
  "wechseln": 3382,
  "graphie": 3383,
  "erklärung": 3384,
  "charakter": 3385,
  "feuer@@": 3386,
  "stammt": 3387,
  "dinosaurier": 3388,
  "unterricht": 3389,
  "entstanden": 3390,
  "verbrachte": 3391,
  "entspricht": 3392,
  "ing-@@": 3393,
  "wein@@": 3394,
  "signale": 3395,
  "erscheint": 3396,
  "grundsätzlich": 3397,
  "glas": 3398,
  "times": 3399,
  "kerl": 3400,
  "sitz@@": 3401,
  "augenblick": 3402,
  "website": 3403,
  "verfügbar": 3404,
  "wechsel": 3405,
  "grünen": 3406,
  "eres": 3407,
  "durchschnittliche": 3408,
  "benen": 3409,
  "kurz@@": 3410,
  "vorfahren": 3411,
  "beweise": 3412,
  "genom": 3413,
  "england": 3414,
  "blatt": 3415,
  "fabrik": 3416,
  "generationen": 3417,
  "quasi": 3418,
  "usw.": 3419,
  "angesehen": 3420,
  "hallo": 3421,
  "berührt": 3422,
  "trinken": 3423,
  "zerstört": 3424,
  "rot": 3425,
  "inspiriert": 3426,
  "fördern": 3427,
  "bestand": 3428,
  "haltung": 3429,
  "erer": 3430,
  "architekten": 3431,
  "folie": 3432,
  "schmerzen": 3433,
  "hinsicht": 3434,
  "müsste": 3435,
  "schau": 3436,
  "halbe": 3437,
  "gefallen": 3438,
  "konflikt": 3439,
  "geändert": 3440,
  "beschlossen": 3441,
  "defini@@": 3442,
  "ling": 3443,
  "diagramm": 3444,
  "schiff": 3445,
  "17": 3446,
  "big": 3447,
  "bekann@@": 3448,
  "entwicklungs@@": 3449,
  "gst": 3450,
  "entworfen": 3451,
  "komplex": 3452,
  "erungen": 3453,
  "college": 3454,
  "mark": 3455,
  "gross@@": 3456,
  "norden": 3457,
  "musik@@": 3458,
  "elektrizität": 3459,
  "aufregend": 3460,
  "definieren": 3461,
  "afrikanischen": 3462,
  "gefällt": 3463,
  "aufbauen": 3464,
  "christ@@": 3465,
  "q@@": 3466,
  "600": 3467,
  "wind@@": 3468,
  "dran": 3469,
  "gebeten": 3470,
  "gäbe": 3471,
  "kultur@@": 3472,
  "quellen": 3473,
  "zeichnungen": 3474,
  "val@@": 3475,
  "weiße": 3476,
  "euer": 3477,
  "dimensionen": 3478,
  "beobachtet": 3479,
  "g-@@": 3480,
  "bahn@@": 3481,
  "falten": 3482,
  "phase": 3483,
  "medien@@": 3484,
  "george": 3485,
  "tausenden": 3486,
  "arm@@": 3487,
  "fro@@": 3488,
  "inhalt": 3489,
  "richtungen": 3490,
  "blieb": 3491,
  "show": 3492,
  "welle": 3493,
  "definition": 3494,
  "verbindet": 3495,
  "unterrichten": 3496,
  "faktor": 3497,
  "regen": 3498,
  "sende": 3499,
  "decken": 3500,
  "spiegel@@": 3501,
  "sicherheits@@": 3502,
  "web": 3503,
  "verbessert": 3504,
  "müll": 3505,
  "aufgebaut": 3506,
  "motor": 3507,
  "lebenden": 3508,
  "erlebt": 3509,
  "alisierung": 3510,
  "zierte": 3511,
  "kindheit": 3512,
  "potential": 3513,
  "stil": 3514,
  "dä@@": 3515,
  "viertel": 3516,
  "kochen": 3517,
  "kehrt": 3518,
  "herren": 3519,
  "hre": 3520,
  "verteilt": 3521,
  "verfahren": 3522,
  "statistiken": 3523,
  "strom@@": 3524,
  "atmen": 3525,
  "vermitteln": 3526,
  "schaden": 3527,
  "reduzieren": 3528,
  "langer": 3529,
  "theater": 3530,
  "kampagne": 3531,
  "5.000": 3532,
  "tests": 3533,
  "kosten@@": 3534,
  "bende": 3535,
  "blauen": 3536,
  "lektion": 3537,
  "seln": 3538,
  "ernährung": 3539,
  "bruder": 3540,
  "schnell@@": 3541,
  "achse": 3542,
  "wirtschaftliche": 3543,
  "digitalen": 3544,
  "motor@@": 3545,
  "junger": 3546,
  "furcht@@": 3547,
  "nützlich": 3548,
  "entdeckte": 3549,
  "mexiko": 3550,
  "tot": 3551,
  "wirklichen": 3552,
  "nar@@": 3553,
  "facebook": 3554,
  "medizinische": 3555,
  "level": 3556,
  "ktes": 3557,
  "dliche": 3558,
  "wobei": 3559,
  "wesentlich": 3560,
  "gemeinden": 3561,
  "persönlich": 3562,
  "lt": 3563,
  "seltsam": 3564,
  "berichten": 3565,
  "grosse": 3566,
  "politiker": 3567,
  "lustig": 3568,
  "nde": 3569,
  "sätze": 3570,
  "kompliziert": 3571,
  "erfindung": 3572,
  "achten": 3573,
  "zweck": 3574,
  "beinahe": 3575,
  "bekannte": 3576,
  "sonder@@": 3577,
  "korruption": 3578,
  "1.@@": 3579,
  "medikament": 3580,
  "klo@@": 3581,
  "online-@@": 3582,
  "feststellen": 3583,
  "erwähnt": 3584,
  "lasse": 3585,
  "helden": 3586,
  "damen": 3587,
  "geschlagen": 3588,
  "einrichtungen": 3589,
  "vorge@@": 3590,
  "beweisen": 3591,
  "straßen@@": 3592,
  "schreib@@": 3593,
  "dunkle": 3594,
  "baute": 3595,
  "gender": 3596,
  "verlust": 3597,
  "tlichen": 3598,
  "positive": 3599,
  "heißen": 3600,
  "james": 3601,
  "erstellt": 3602,
  "momente": 3603,
  "persönlichen": 3604,
  "lediglich": 3605,
  "text": 3606,
  "bein": 3607,
  "kriege": 3608,
  "schlafen": 3609,
  "nutzung": 3610,
  "gesundheitswesen": 3611,
  "wüste": 3612,
  "persönliche": 3613,
  "gewe@@": 3614,
  "mitarbeiter": 3615,
  "überzeu@@": 3616,
  "sil@@": 3617,
  "vorstellungen": 3618,
  "michael": 3619,
  "unterstützt": 3620,
  "sowas": 3621,
  "löcher": 3622,
  "enorme": 3623,
  "2008": 3624,
  "nötig": 3625,
  "rollen": 3626,
  "nahme": 3627,
  "präsentation": 3628,
  "überlegen": 3629,
  "metapher": 3630,
  "unabhängig": 3631,
  "hyper@@": 3632,
  "digitale": 3633,
  "großmutter": 3634,
  "nachts": 3635,
  "ersetzen": 3636,
  "schrecklich": 3637,
  "bedürfnisse": 3638,
  "galaxie": 3639,
  "bildet": 3640,
  "springen": 3641,
  "grüne": 3642,
  "maßstab": 3643,
  "systemen": 3644,
  "anteil": 3645,
  "faktoren": 3646,
  "selbstverständlich": 3647,
  "kriegs@@": 3648,
  "vorne": 3649,
  "wissenschaften": 3650,
  "diert": 3651,
  "außen": 3652,
  "beweis": 3653,
  "aufbau": 3654,
  "webseite": 3655,
  "liebte": 3656,
  "molekül": 3657,
  "mitglieder": 3658,
  "iran": 3659,
  "gerechtigkeit": 3660,
  "afrikas": 3661,
  "wettbewerb": 3662,
  "moralische": 3663,
  "innere": 3664,
  "stin": 3665,
  "freundin": 3666,
  "brücke": 3667,
  "legte": 3668,
  "seht": 3669,
  "büchern": 3670,
  "übrig": 3671,
  "geheimnis": 3672,
  "effektiv": 3673,
  "wofür": 3674,
  "besuchen": 3675,
  "menschlicher": 3676,
  "kaffee": 3677,
  "den-@@": 3678,
  "bogen": 3679,
  "situationen": 3680,
  "verkehr": 3681,
  "liefer@@": 3682,
  "fügen": 3683,
  "lokalen": 3684,
  "aner": 3685,
  "gebraucht": 3686,
  "selbe": 3687,
  "fehlen": 3688,
  "australien": 3689,
  "meer@@": 3690,
  "witz": 3691,
  "beschloss": 3692,
  "einstein": 3693,
  "leistungs@@": 3694,
  "schimpansen": 3695,
  "beinhaltet": 3696,
  "fahrt": 3697,
  "stärker": 3698,
  "jedenfalls": 3699,
  "national@@": 3700,
  "rand": 3701,
  "singen": 3702,
  "grafik": 3703,
  "bit@@": 3704,
  "malaria": 3705,
  "wieviel": 3706,
  "versteht": 3707,
  "nigeria": 3708,
  "erkennt": 3709,
  "irgendjemand": 3710,
  "strahlung": 3711,
  "proben": 3712,
  "liefert": 3713,
  "wirkliche": 3714,
  "verteilung": 3715,
  "zahn@@": 3716,
  "landen": 3717,
  "gesund": 3718,
  "wellen": 3719,
  "nett": 3720,
  "sitz": 3721,
  "gesichter": 3722,
  "herstellung": 3723,
  "sektor": 3724,
  "erwachsene": 3725,
  "stärken": 3726,
  "nden": 3727,
  "stärke": 3728,
  "folgende": 3729,
  "hinten": 3730,
  "gras": 3731,
  "empfin@@": 3732,
  "jährigen": 3733,
  "brach": 3734,
  "kreieren": 3735,
  "chemikalien": 3736,
  "mutter@@": 3737,
  "danken": 3738,
  "schwierigkeiten": 3739,
  "on-@@": 3740,
  "anwendung": 3741,
  "mern": 3742,
  "inseln": 3743,
  "21.": 3744,
  "süden": 3745,
  "kap@@": 3746,
  "unterhaltung": 3747,
  "aufzubauen": 3748,
  "überraschend": 3749,
  "entstand": 3750,
  "rennen": 3751,
  "prinzipien": 3752,
  "anhand": 3753,
  "kannte": 3754,
  "freien": 3755,
  "diskussion": 3756,
  "einiges": 3757,
  "schlechter": 3758,
  "macher": 3759,
  "teure": 3760,
  "geräusch": 3761,
  "dü@@": 3762,
  "grossen": 3763,
  "minister": 3764,
  "schritte": 3765,
  "unfall": 3766,
  "allgemeinen": 3767,
  "bekomme": 3768,
  "ausmaß": 3769,
  "höre": 3770,
  "beispielsweise": 3771,
  "analyse": 3772,
  "zitat": 3773,
  "tom": 3774,
  "internationalen": 3775,
  "meist": 3776,
  "gegründet": 3777,
  "solange": 3778,
  "gebieten": 3779,
  "erkannt": 3780,
  "üben": 3781,
  "ohren": 3782,
  "kenia": 3783,
  "versagen": 3784,
  "dauerte": 3785,
  "untersuchung": 3786,
  "setzten": 3787,
  "geber": 3788,
  "chemie": 3789,
  "schauten": 3790,
  "rechnen": 3791,
  "schuld": 3792,
  "vorhersagen": 3793,
  "presse": 3794,
  "füllen": 3795,
  "gekauft": 3796,
  "co": 3797,
  "müll@@": 3798,
  "willst": 3799,
  "element": 3800,
  "telefon@@": 3801,
  "jährige": 3802,
  "speziellen": 3803,
  "bene": 3804,
  "interessantes": 3805,
  "vorzustellen": 3806,
  "israel": 3807,
  "zivilisation": 3808,
  "unglaublichen": 3809,
  "vertraut": 3810,
  "schte": 3811,
  "anstelle": 3812,
  "ozeane": 3813,
  "tasche": 3814,
  "bedenken": 3815,
  "rad": 3816,
  "blase": 3817,
  "gegenwart": 3818,
  "gleichgewicht": 3819,
  "anfing": 3820,
  "verbreitung": 3821,
  "sprü@@": 3822,
  "station": 3823,
  "untersucht": 3824,
  "kurve": 3825,
  "sech@@": 3826,
  "probieren": 3827,
  "zähne": 3828,
  "zwischen@@": 3829,
  "pfund": 3830,
  "saal": 3831,
  "serie": 3832,
  "här@@": 3833,
  "bezüglich": 3834,
  "äußerst": 3835,
  "195@@": 3836,
  "erwachsenen": 3837,
  "anlage": 3838,
  "gelebt": 3839,
  "lichste": 3840,
  "kirche": 3841,
  "gemeinsame": 3842,
  "deutschland": 3843,
  "grundlage": 3844,
  "75": 3845,
  "toten": 3846,
  "holz@@": 3847,
  "woran": 3848,
  "unterschiedlich": 3849,
  "solcher": 3850,
  "genetische": 3851,
  "studio": 3852,
  "stammzellen": 3853,
  "heran@@": 3854,
  "stehe": 3855,
  "geräusche": 3856,
  "weltweiten": 3857,
  "kombination": 3858,
  "bemerken": 3859,
  "tag@@": 3860,
  "wikipedia": 3861,
  "kapital": 3862,
  "vorhanden": 3863,
  "südafrika": 3864,
  "verstehe": 3865,
  "2007": 3866,
  "zeichnung": 3867,
  "vieles": 3868,
  "resultat": 3869,
  "meinte": 3870,
  "freie": 3871,
  "hierher": 3872,
  "kanada": 3873,
  "entwicklungsländern": 3874,
  "geschenk": 3875,
  "tonnen": 3876,
  "flasche": 3877,
  "grippe": 3878,
  "momentan": 3879,
  "al-@@": 3880,
  "beschäftigen": 3881,
  "center": 3882,
  "kapitel": 3883,
  "aufnehmen": 3884,
  "darwin": 3885,
  "absicht": 3886,
  "sequenz": 3887,
  "dna-@@": 3888,
  "ausstellung": 3889,
  "glas@@": 3890,
  "schreibt": 3891,
  "willen": 3892,
  "gerufen": 3893,
  "entfernen": 3894,
  "müssten": 3895,
  "nas@@": 3896,
  "gemeinschaften": 3897,
  "dient": 3898,
  "akzeptieren": 3899,
  "aufs": 3900,
  "dienst": 3901,
  "beibringen": 3902,
  "mitglied": 3903,
  "14@@": 3904,
  "brust": 3905,
  "glaubte": 3906,
  "nase": 3907,
  "lebe": 3908,
  "plastik": 3909,
  "steve": 3910,
  "einfaches": 3911,
  "gegenseitig": 3912,
  "menschliches": 3913,
  "welchem": 3914,
  "religionen": 3915,
  "19.": 3916,
  "schaue": 3917,
  "konzentriert": 3918,
  "wovon": 3919,
  "tanzen": 3920,
  "änderungen": 3921,
  "reiche": 3922,
  "liefern": 3923,
  "halb@@": 3924,
  "zucker": 3925,
  "seid": 3926,
  "proteine": 3927,
  "kleidung": 3928,
  "tumor": 3929,
  "inzwischen": 3930,
  "zugänglich": 3931,
  "dan": 3932,
  "nasa": 3933,
  "felder": 3934,
  "risiken": 3935,
  "besessen": 3936,
  "twitter": 3937,
  "thomas": 3938,
  "ausgeben": 3939,
  "weiterer": 3940,
  "signal": 3941,
  "fasziniert": 3942,
  "physiker": 3943,
  "erweitern": 3944,
  "brasilien": 3945,
  "trat": 3946,
  "pinguine": 3947,
  "hinzu": 3948,
  "vermeiden": 3949,
  "geholfen": 3950,
  "erhöhen": 3951,
  "automatisch": 3952,
  "instrument": 3953,
  "schwieriger": 3954,
  "soweit": 3955,
  "fach": 3956,
  "bevölkerungs@@": 3957,
  "merken": 3958,
  "hafte": 3959,
  "schönes": 3960,
  "teams": 3961,
  "status": 3962,
  "psychologie": 3963,
  "pol@@": 3964,
  "drucken": 3965,
  "handlung": 3966,
  "handlungen": 3967,
  "stag": 3968,
  "positiv": 3969,
  "beschä@@": 3970,
  "stamm@@": 3971,
  "fakten": 3972,
  "gens": 3973,
  "schlu@@": 3974,
  "wünschte": 3975,
  "lehre": 3976,
  "zählt": 3977,
  "durchführen": 3978,
  "dieselben": 3979,
  "lebensmittel": 3980,
  "mittels": 3981,
  "froh": 3982,
  "insbesondere": 3983,
  "faszinierend": 3984,
  "schatten": 3985,
  "verlauf": 3986,
  "besitzt": 3987,
  "chinesische": 3988,
  "zuzu@@": 3989,
  "realen": 3990,
  "annahme": 3991,
  "übernehmen": 3992,
  "golf": 3993,
  "darunter": 3994,
  "manchen": 3995,
  "autor": 3996,
  "darstellen": 3997,
  "existenz": 3998,
  "debatte": 3999,
  "länge": 4000,
  "durchschnitt": 4001,
  "regierungs@@": 4002,
  "zweimal": 4003,
  "kontrolliert": 4004,
  "marke": 4005,
  "schienen": 4006,
  "ernsthaft": 4007,
  "elektrische": 4008,
  "kontinent": 4009,
  "b.": 4010,
  "haften": 4011,
  "ttert": 4012,
  "fehlt": 4013,
  "laptop": 4014,
  "blicken": 4015,
  "irgendeine": 4016,
  "schließt": 4017,
  "redu@@": 4018,
  "algorithmen": 4019,
  "gendes": 4020,
  "inner@@": 4021,
  "chteten": 4022,
  "100.000": 4023,
  "betrieben": 4024,
  "risiko@@": 4025,
  "effizienz": 4026,
  "tradition": 4027,
  "glücklicher": 4028,
  "internationale": 4029,
  "student": 4030,
  "welten": 4031,
  "veränderte": 4032,
  "heim": 4033,
  "global": 4034,
  "interaktion": 4035,
  "1.000": 4036,
  "sammlung": 4037,
  "literatur": 4038,
  "sprecher": 4039,
  "verwandelt": 4040,
  "leiter": 4041,
  "überwinden": 4042,
  "stieg": 4043,
  "fürs": 4044,
  "kabel": 4045,
  "erlebnis": 4046,
  "fortschritte": 4047,
  "mittlerweile": 4048,
  "konsequenzen": 4049,
  "komm": 4050,
  "besseres": 4051,
  "high": 4052,
  "mehrheit": 4053,
  "kreb@@": 4054,
  "wohlstand": 4055,
  "spektrum": 4056,
  "gefangen": 4057,
  "wirft": 4058,
  "aussage": 4059,
  "bericht": 4060,
  "gebäuden": 4061,
  "hoben": 4062,
  "folgenden": 4063,
  "perfekte": 4064,
  "schwestern": 4065,
  "organisieren": 4066,
  "tiefen": 4067,
  "ausgaben": 4068,
  "verbrechen": 4069,
  "seltsame": 4070,
  "hervor": 4071,
  "enthält": 4072,
  "beenden": 4073,
  "armee": 4074,
  "voraus": 4075,
  "aufgewachsen": 4076,
  "restaurant": 4077,
  "unteren": 4078,
  "ingenieure": 4079,
  "gewinn": 4080,
  "test@@": 4081,
  "ergibt": 4082,
  "hunde": 4083,
  "hof": 4084,
  "fantastische": 4085,
  "worauf": 4086,
  "11.": 4087,
  "star": 4088,
  "blaue": 4089,
  "besagt": 4090,
  "moral": 4091,
  "kugel": 4092,
  "lächeln": 4093,
  "lig": 4094,
  "sichtbar": 4095,
  "kaufte": 4096,
  "ursprünglich": 4097,
  "vogel@@": 4098,
  "gert": 4099,
  "großartigen": 4100,
  "eien": 4101,
  "gebrochen": 4102,
  "jener": 4103,
  "behaupten": 4104,
  "enorm": 4105,
  "ertes": 4106,
  "medizinischen": 4107,
  "organe": 4108,
  "zusätzlich": 4109,
  "lügen": 4110,
  "starben": 4111,
  "gespräche": 4112,
  "jung": 4113,
  "muskeln": 4114,
  "spät": 4115,
  "vorbei@@": 4116,
  "epidemie": 4117,
  "tja": 4118,
  "worum": 4119,
  "musiker": 4120,
  "geschäfte": 4121,
  "entfernung": 4122,
  "pakistan": 4123,
  "gemeinsamen": 4124,
  "volk": 4125,
  "leuchten": 4126,
  "macht@@": 4127,
  "schäd@@": 4128,
  "chaos": 4129,
  "magie": 4130,
  "farb@@": 4131,
  "gewisser": 4132,
  "nachgedacht": 4133,
  "chancen": 4134,
  "st-@@": 4135,
  "darstellung": 4136,
  "tü@@": 4137,
  "vierte": 4138,
  "diger": 4139,
  "gottes": 4140,
  "funktionierte": 4141,
  "university": 4142,
  "waffe": 4143,
  "ähnlichen": 4144,
  "wartet": 4145,
  "fokus": 4146,
  "auseinander": 4147,
  "böse": 4148,
  "afrikaner": 4149,
  "betreiben": 4150,
  "wahrnehmen": 4151,
  "ge-@@": 4152,
  "vogel": 4153,
  "unver@@": 4154,
  "alternative": 4155,
  "branche": 4156,
  "ebenen": 4157,
  "medium": 4158,
  "robert": 4159,
  "hunger": 4160,
  "besorgt": 4161,
  "gewählt": 4162,
  "enthalten": 4163,
  "weshalb": 4164,
  "krieges": 4165,
  "genetischen": 4166,
  "buchstaben": 4167,
  "räumen": 4168,
  "bibel": 4169,
  "pferd": 4170,
  "gedicht": 4171,
  "designs": 4172,
  "einstellung": 4173,
  "zeigten": 4174,
  "änderung": 4175,
  "gesamt@@": 4176,
  "mikroben": 4177,
  "anschaut": 4178,
  "küche": 4179,
  "feiern": 4180,
  "kümmert": 4181,
  "ante": 4182,
  "derer": 4183,
  "preise": 4184,
  "aktion": 4185,
  "francisco": 4186,
  "hiv-@@": 4187,
  "starken": 4188,
  "etc.": 4189,
  "mathematiker": 4190,
  "anische": 4191,
  "angeht": 4192,
  "x-@@": 4193,
  "nahen": 4194,
  "emissionen": 4195,
  "wurzeln": 4196,
  "vielmehr": 4197,
  "inspiration": 4198,
  "aufgeregt": 4199,
  "indischen": 4200,
  "milch": 4201,
  "innovationen": 4202,
  "ansieht": 4203,
  "programmieren": 4204,
  "kostenlos": 4205,
  "kameras": 4206,
  "nachzu@@": 4207,
  "world": 4208,
  "chinesen": 4209,
  "wenigstens": 4210,
  "lebende": 4211,
  "blau@@": 4212,
  "ökosystem": 4213,
  "ehe": 4214,
  "träumen": 4215,
  "gemälde": 4216,
  "höhere": 4217,
  "lokale": 4218,
  "eingeladen": 4219,
  "älteren": 4220,
  "letzter": 4221,
  "reduziert": 4222,
  "schwarz": 4223,
  "ägypten": 4224,
  "teren": 4225,
  "bemerkte": 4226,
  "blumen": 4227,
  "entdeckungen": 4228,
  "youtube": 4229,
  "aktivitäten": 4230,
  "sport": 4231,
  "verschwunden": 4232,
  "zerstörung": 4233,
  "weisheit": 4234,
  "potenzial": 4235,
  "ischem": 4236,
  "computern": 4237,
  "bibliothek": 4238,
  "spuren": 4239,
  "tisches": 4240,
  "live": 4241,
  "vorbereitet": 4242,
  "männchen": 4243,
  "ereignis": 4244,
  "vorteile": 4245,
  "verglichen": 4246,
  "seele": 4247,
  "2010": 4248,
  "cm": 4249,
  "bank@@": 4250,
  "ereignisse": 4251,
  "katastrophe": 4252,
  "beschrieben": 4253,
  "schlägt": 4254,
  "hinterlassen": 4255,
  "hinzufügen": 4256,
  "trafen": 4257,
  "verliert": 4258,
  "harvard": 4259,
  "schlug": 4260,
  "haie": 4261,
  "dauer": 4262,
  "gesammelt": 4263,
  "womit": 4264,
  "2005": 4265,
  "resultate": 4266,
  "langsamer": 4267,
  "niveau": 4268,
  "winter": 4269,
  "co2-@@": 4270,
  "konta@@": 4271,
  "sach@@": 4272,
  "schwierige": 4273,
  "bedrohung": 4274,
  "metern": 4275,
  "genügend": 4276,
  "dargestellt": 4277,
  "mitnehmen": 4278,
  "scheinbar": 4279,
  "lebendig": 4280,
  "voneinander": 4281,
  "könig": 4282,
  "wichtiges": 4283,
  "brust@@": 4284,
  "jahrzehnt": 4285,
  "eindeutig": 4286,
  "arabischen": 4287,
  "beachten": 4288,
  "sport@@": 4289,
  "kulturelle": 4290,
  "boston": 4291,
  "teufel": 4292,
  "schrieben": 4293,
  "gleichung": 4294,
  "darstellt": 4295,
  "schweden": 4296,
  "drogen": 4297,
  "paris": 4298,
  "informations@@": 4299,
  "erhielt": 4300,
  "interessanter": 4301,
  "probe": 4302,
  "island": 4303,
  "instrumente": 4304,
  "verfolgt": 4305,
  "art.": 4306,
  "schießen": 4307,
  "kühl@@": 4308,
  "islam": 4309,
  "schild": 4310,
  "mangel": 4311,
  "verursachen": 4312,
  "investitionen": 4313,
  "mächtig": 4314,
  "losigkeit": 4315,
  "aspekte": 4316,
  "ähnliches": 4317,
  "wem": 4318,
  "suchte": 4319,
  "funktionen": 4320,
  "jahrzehnten": 4321,
  "grundlegenden": 4322,
  "mama": 4323,
  "schichten": 4324,
  "stahl": 4325,
  "anti-@@": 4326,
  "angel@@": 4327,
  "nebenbei": 4328,
  "erinnerung": 4329,
  "basierend": 4330,
  "sechs@@": 4331,
  "eingeführt": 4332,
  "wärme": 4333,
  "umfeld": 4334,
  "dynamik": 4335,
  "fliege": 4336,
  "stift": 4337,
  "3d-@@": 4338,
  "zufall": 4339,
  "biologische": 4340,
  "ältere": 4341,
  "ologe": 4342,
  "gien": 4343,
  "anwendungen": 4344,
  "täuschung": 4345,
  "erforscht": 4346,
  "teilweise": 4347,
  "begrenzt": 4348,
  "bricht": 4349,
  "berechnen": 4350,
  "wolken": 4351,
  "beschreibt": 4352,
  "dh": 4353,
  "bewohner": 4354,
  "drittens": 4355,
  "respekt": 4356,
  "anstieg": 4357,
  "techniken": 4358,
  "zufrieden": 4359,
  "anscheinend": 4360,
  "ausrüstung": 4361,
  "komponenten": 4362,
  "planen": 4363,
  "fliegt": 4364,
  "winzig": 4365,
  "funk@@": 4366,
  "cent": 4367,
  "tiefer": 4368,
  "geleitet": 4369,
  "isieren": 4370,
  "speziell": 4371,
  "auswahl": 4372,
  "bergen": 4373,
  "beln": 4374,
  "erhöht": 4375,
  "definiert": 4376,
  "berge": 4377,
  "deiner": 4378,
  "hotel": 4379,
  "sonnenlicht": 4380,
  "geteilt": 4381,
  "einfachheit": 4382,
  "population": 4383,
  "batterie": 4384,
  "zusammenarbeiten": 4385,
  "operationen": 4386,
  "echtzeit": 4387,
  "vorgang": 4388,
  "stadt@@": 4389,
  "eigenschaft": 4390,
  "visuelle": 4391,
  "erkrankungen": 4392,
  "neuigkeiten": 4393,
  "geburtstag": 4394,
  "benden": 4395,
  "anzusehen": 4396,
  "gesundheit@@": 4397,
  "umständen": 4398,
  "röntgen@@": 4399,
  "derselben": 4400,
  "betroffen": 4401,
  "korea": 4402,
  "militär": 4403,
  "schicksal": 4404,
  "machst": 4405,
  "bedeutete": 4406,
  "wände": 4407,
  "antwortete": 4408,
  "kohle": 4409,
  "fahrzeuge": 4410,
  "plattform": 4411,
  "gericht": 4412,
  "berühren": 4413,
  "flügel": 4414,
  "überraschung": 4415,
  "trick": 4416,
  "artigen": 4417,
  "streiten": 4418,
  "umgeben": 4419,
  "komplexen": 4420,
  "meister@@": 4421,
  "such@@": 4422,
  "hieß": 4423,
  "offenen": 4424,
  "plastik@@": 4425,
  "pläne": 4426,
  "vorstellungskraft": 4427,
  "decke": 4428,
  "brief": 4429,
  "ernähren": 4430,
  "kation": 4431,
  "ergeben": 4432,
  "begegnen": 4433,
  "nationale": 4434,
  "besucht": 4435,
  "chicago": 4436,
  "weltraum": 4437,
  "zentrale": 4438,
  "ära": 4439,
  "lenken": 4440,
  "trieb": 4441,
  "depression": 4442,
  "stiftung": 4443,
  "dringen": 4444,
  "dame": 4445,
  "ursache": 4446,
  "niemanden": 4447,
  "anlagen": 4448,
  "besonderen": 4449,
  "box": 4450,
  "fordern": 4451,
  "nachbarschaft": 4452,
  "billionen": 4453,
  "moralischen": 4454,
  "wunderbaren": 4455,
  "traurig": 4456,
  "bf": 4457,
  "klinik": 4458,
  "budget": 4459,
  "maß": 4460,
  "zufriedenheit": 4461,
  "einst": 4462,
  "infiziert": 4463,
  "eier": 4464,
  "dunkel": 4465,
  "gabe": 4466,
  "blick@@": 4467,
  "mehreren": 4468,
  "übersetzen": 4469,
  "klassenzimmer": 4470,
  "21": 4471,
  "fressen": 4472,
  "kreativen": 4473,
  "riesen@@": 4474,
  "lebenserwartung": 4475,
  "bemerkenswert": 4476,
  "inspirieren": 4477,
  "köpfe": 4478,
  "bezeichnen": 4479,
  "schwere": 4480,
  "drehte": 4481,
  "leichter": 4482,
  "abgesehen": 4483,
  "philosophie": 4484,
  "dunkelheit": 4485,
  "stoppen": 4486,
  "still": 4487,
  "schlussendlich": 4488,
  "ursprung": 4489,
  "erneut": 4490,
  "studium": 4491,
  "altern": 4492,
  "veröffentlichen": 4493,
  "obama": 4494,
  "problems": 4495,
  "ländlichen": 4496,
  "pflanze": 4497,
  "dahinter": 4498,
  "anpassen": 4499,
  "elektrischen": 4500,
  "bären": 4501,
  "ruhe": 4502,
  "ökonomen": 4503,
  "beteiligt": 4504,
  "knapp": 4505,
  "teilnehmer": 4506,
  "vorhin": 4507,
  "bezeichnet": 4508,
  "vergangenen": 4509,
  "präsidenten": 4510,
  "geruch": 4511,
  "späten": 4512,
  "nannten": 4513,
  "drauf": 4514,
  "scheitern": 4515,
  "irgendwelche": 4516,
  "raub@@": 4517,
  "dienst@@": 4518,
  "poly@@": 4519,
  "genießen": 4520,
  "handys": 4521,
  "wünsche": 4522,
  "flugzeuge": 4523,
  "werbe@@": 4524,
  "dienen": 4525,
  "zuschauer": 4526,
  "öffnet": 4527,
  "verdient": 4528,
  "wahlen": 4529,
  "golf@@": 4530,
  "fließen": 4531,
  "falschen": 4532,
  "biologen": 4533,
  "akt": 4534,
  "frucht@@": 4535,
  "unterwegs": 4536,
  "katze": 4537,
  "stock": 4538,
  "steuer@@": 4539,
  "haiti": 4540,
  "weltkrieg": 4541,
  "technischen": 4542,
  "see@@": 4543,
  "besuchte": 4544,
  "symbol": 4545,
  "wolke": 4546,
  "gebrauch": 4547,
  "isierung": 4548,
  "organismus": 4549,
  "geistes@@": 4550,
  "störungen": 4551,
  "flüssigkeit": 4552,
  "tele@@": 4553,
  "organisiert": 4554,
  "spezielle": 4555,
  "stamm": 4556,
  "riesiges": 4557,
  "0,@@": 4558,
  "binden": 4559,
  "biologischen": 4560,
  "erinnerungen": 4561,
  "interessanten": 4562,
  "herunter": 4563,
  "heiß": 4564,
  "samkeit": 4565,
  "verwendung": 4566,
  "bewahren": 4567,
  "fließt": 4568,
  "tenden": 4569,
  "gewöhnt": 4570,
  "bekämpfen": 4571,
  "19": 4572,
  "half": 4573,
  "umzugehen": 4574,
  "party": 4575,
  "vorschlag": 4576,
  "oberen": 4577,
  "un": 4578,
  "trennen": 4579,
  "zunehmend": 4580,
  "verkehrs@@": 4581,
  "teilte": 4582,
  "belohnung": 4583,
  "jahrzehnte": 4584,
  "beruf": 4585,
  "konfrontiert": 4586,
  "wozu": 4587,
  "watt": 4588,
  "geworfen": 4589,
  "anführer": 4590,
  "ehre": 4591,
  "neulich": 4592,
  "circa": 4593,
  "chinesischen": 4594,
  "training": 4595,
  "beigebracht": 4596,
  "dunklen": 4597,
  "heran": 4598,
  "frankreich": 4599,
  "ausgesetzt": 4600,
  "wissenschaftlern": 4601,
  "irgendeinem": 4602,
  "kindes": 4603,
  "gemüse": 4604,
  "physische": 4605,
  "angriff": 4606,
  "gefüllt": 4607,
  "empfinden": 4608,
  "altes": 4609,
  "letztlich": 4610,
  "beides": 4611,
  "teilten": 4612,
  "wunderschöne": 4613,
  "kontroll@@": 4614,
  "chemische": 4615,
  "schlechtes": 4616,
  "blätter": 4617,
  "insgesamt": 4618,
  "sender": 4619,
  "diges": 4620,
  "chtes": 4621,
  "dinger": 4622,
  "symmetrie": 4623,
  "bewirken": 4624,
  "volles": 4625,
  "gegenden": 4626,
  "begreifen": 4627,
  "kette": 4628,
  "gold": 4629,
  "blind": 4630,
  "magazin": 4631,
  "versorgen": 4632,
  "2009": 4633,
  "in-@@": 4634,
  "afrikanische": 4635,
  "identifizieren": 4636,
  "2006": 4637,
  "zeitraum": 4638,
  "reaktionen": 4639,
  "offene": 4640,
  "zentral@@": 4641,
  "ausmachen": 4642,
  "street": 4643,
  "abhängigkeit": 4644,
  "zugeben": 4645,
  "käfer": 4646,
  "katastrophen": 4647,
  "kasten": 4648,
  "packen": 4649,
  "versteckt": 4650,
  "außergewöhnlich": 4651,
  "neigen": 4652,
  "angeles": 4653,
  "könne": 4654,
  "langweilig": 4655,
  "fahrzeug": 4656,
  "maße": 4657,
  "kalt": 4658,
  "pollen": 4659,
  "klima": 4660,
  "1000": 4661,
  "studiert": 4662,
  "lebensmittel@@": 4663,
  "winkel": 4664,
  "plätze": 4665,
  "blasen": 4666,
  "stille": 4667,
  "zweifel": 4668,
  "gelt": 4669,
  "erwähnen": 4670,
  "spur": 4671,
  "positiven": 4672,
  "erwärmung": 4673,
  "füße": 4674,
  "aktuelle": 4675,
  "verschieden": 4676,
  "wale": 4677,
  "vorsichtig": 4678,
  "peter": 4679,
  "spenden": 4680,
  "vorträge": 4681,
  "sichtweise": 4682,
  "2004": 4683,
  "27": 4684,
  "getrennt": 4685,
  "berechnungen": 4686,
  "auftrag": 4687,
  "visuellen": 4688,
  "papier@@": 4689,
  "fett": 4690,
  "kreative": 4691,
  "trage": 4692,
  "teenager": 4693,
  "physischen": 4694,
  "sions@@": 4695,
  "höhepunkt": 4696,
  "irgendwas": 4697,
  "dichter": 4698,
  "geschmack": 4699,
  "65": 4700,
  "west": 4701,
  "zone": 4702,
  "figur": 4703,
  "hinblick": 4704,
  "mechanismus": 4705,
  "maßnahmen": 4706,
  "sogenannte": 4707,
  "videospiele": 4708,
  "winzigen": 4709,
  "verrückte": 4710,
  "flog": 4711,
  "höchsten": 4712,
  "punkten": 4713,
  "tee": 4714,
  "fotografiert": 4715,
  "institut": 4716,
  "verschwindet": 4717,
  "jenseits": 4718,
  "gewann": 4719,
  "entstehung": 4720,
  "frequenz": 4721,
  "projekten": 4722,
  "stirbt": 4723,
  "interessen": 4724,
  "erklärte": 4725,
  "bösen": 4726,
  "adam": 4727,
  "kb": 4728,
  "verschiedener": 4729,
  "zentren": 4730,
  "wälder": 4731,
  "gestartet": 4732,
  "seide": 4733,
  "el-@@": 4734,
  "traditionelle": 4735,
  "saßen": 4736,
  "ghana": 4737,
  "prozesse": 4738,
  "texas": 4739,
  "zurückgehen": 4740,
  "block": 4741,
  "hassen": 4742,
  "inklusive": 4743,
  "schickte": 4744,
  "echtes": 4745,
  "ausdrücken": 4746,
  "umso": 4747,
  "britischen": 4748,
  "beitrag": 4749,
  "kohlenstoff": 4750,
  "heilen": 4751,
  "denselben": 4752,
  "andererseits": 4753,
  "tierten": 4754,
  "stämme": 4755,
  "kuchen": 4756,
  "zukommen": 4757,
  "wein": 4758,
  "exakt": 4759,
  "spannung": 4760,
  "denkweise": 4761,
  "krab@@": 4762,
  "diabetes": 4763,
  "amp": 4764,
  "emotionale": 4765,
  "gedächtnis": 4766,
  "i-@@": 4767,
  "kanal": 4768,
  "gebildet": 4769,
  "weltbevölkerung": 4770,
  "investiert": 4771,
  "benutze": 4772,
  "übung": 4773,
  "jeweils": 4774,
  "ausgegeben": 4775,
  "stufen": 4776,
  "symptome": 4777,
  "willkommen": 4778,
  "weibliche": 4779,
  "polio": 4780,
  "hoher": 4781,
  "general": 4782,
  "haare": 4783,
  "erfüllen": 4784,
  "eigentliche": 4785,
  "teleskop": 4786,
  "tende": 4787,
  "zukünftigen": 4788,
  "einheiten": 4789,
  "oxford": 4790,
  "design@@": 4791,
  "geraten": 4792,
  "ingenieur": 4793,
  "pause": 4794,
  "ignorieren": 4795,
  "sms": 4796,
  "benutzte": 4797,
  "real": 4798,
  "globalisierung": 4799,
  "kongo": 4800,
  "bewegungs@@": 4801,
  "filmen": 4802,
  "50.000": 4803,
  "wetter": 4804,
  "protein": 4805,
  "repräsentiert": 4806,
  "sprung": 4807,
  "poster": 4808,
  "babies": 4809,
  "berichtet": 4810,
  "verbrauch": 4811,
  "erfassen": 4812,
  "wundervolle": 4813,
  "verletzungen": 4814,
  "nervös": 4815,
  "hitze": 4816,
  "gründete": 4817,
  "logik": 4818,
  "schwerer": 4819,
  "grundlegend": 4820,
  "ener": 4821,
  "lehrern": 4822,
  "schätzung": 4823,
  "chip": 4824,
  "komplizierte": 4825,
  "pflege": 4826,
  "wieviele": 4827,
  "hinunter": 4828,
  "gelb": 4829,
  "zeitungen": 4830,
  "atoren": 4831,
  "feind": 4832,
  "gedanken@@": 4833,
  "wiederholt": 4834,
  "rum@@": 4835,
  "kapitalismus": 4836,
  "gewöhnlich": 4837,
  "gerettet": 4838,
  "profitieren": 4839,
  "motivation": 4840,
  "messer": 4841,
  "staats@@": 4842,
  "weltall": 4843,
  "detail": 4844,
  "strecken": 4845,
  "eng": 4846,
  "effizient": 4847,
  "brand@@": 4848,
  "versprechen": 4849,
  "vergnügen": 4850,
  "blickwinkel": 4851,
  "sogenannten": 4852,
  "universitäten": 4853,
  "billig": 4854,
  "knopf": 4855,
  ".com": 4856,
  "kaputt": 4857,
  "dazwischen": 4858,
  "ausnahme": 4859,
  "interessanterweise": 4860,
  "summe": 4861,
  "kreislauf": 4862,
  "kommunikations@@": 4863,
  "persönlichkeit": 4864,
  "falle": 4865,
  "22": 4866,
  "uni": 4867,
  "gesunde": 4868,
  "effekte": 4869,
  "blog": 4870,
  "erfinder": 4871,
  "entscheidende": 4872,
  "hang": 4873,
  "ten-@@": 4874,
  "diesmal": 4875,
  "lichter": 4876,
  "1.": 4877,
  "umgang": 4878,
  "anbieten": 4879,
  "spä@@": 4880,
  "aufstieg": 4881,
  "streit": 4882,
  "entscheidend": 4883,
  "schwanz": 4884,
  "benutzten": 4885,
  "frank": 4886,
  "lernten": 4887,
  "theorien": 4888,
  "argument": 4889,
  "gib": 4890,
  "köpfen": 4891,
  "nachrichten@@": 4892,
  "folgte": 4893,
  "tolles": 4894,
  "fache": 4895,
  "technische": 4896,
  "uganda": 4897,
  "szene": 4898,
  "zugleich": 4899,
  "höchste": 4900,
  "umstände": 4901,
  "kulturellen": 4902,
  "konflikte": 4903,
  "güter": 4904,
  "nachdenkt": 4905,
  "-jährige": 4906,
  "doktor": 4907,
  "doppel@@": 4908,
  "hinauf": 4909,
  "tricks": 4910,
  "gold@@": 4911,
  "drogen@@": 4912,
  "plus": 4913,
  "besitz": 4914,
  "höheren": 4915,
  "sieb@@": 4916,
  "intuition": 4917,
  "wahren": 4918,
  "2001": 4919,
  "lieder": 4920,
  "fabriken": 4921,
  "sag": 4922,
  "2003": 4923,
  "harte": 4924,
  "güte": 4925,
  "schöner": 4926,
  "glaubten": 4927,
  "statistik": 4928,
  "elefanten": 4929,
  "kiste": 4930,
  "ruhig": 4931,
  "nachhaltige": 4932,
  "strecke": 4933,
  "ausschließlich": 4934,
  "radio": 4935,
  "z.": 4936,
  "sternen": 4937,
  "iphone": 4938,
  "schnelle": 4939,
  "strategien": 4940,
  "schlimm": 4941,
  "reicher": 4942,
  "dumm": 4943,
  "kolonie": 4944,
  "konsum": 4945,
  "angetrieben": 4946,
  "&amp;": 4947,
  "berühmt": 4948,
  "fasern": 4949,
  "leistungen": 4950,
  "schlimmsten": 4951,
  "250": 4952,
  "künstliche": 4953,
  "klassen@@": 4954,
  "e-mail": 4955,
  "matischen": 4956,
  "strand": 4957,
  "zurückkehren": 4958,
  "korallen": 4959,
  "jugend": 4960,
  "keinem": 4961,
  "analysieren": 4962,
  "transparenz": 4963,
  "derek": 4964,
  "werdet": 4965,
  "angesichts": 4966,
  "allgemein": 4967,
  "väter": 4968,
  "erdbeben": 4969,
  "schulter": 4970,
  "ausmacht": 4971,
  "gegessen": 4972,
  "rechner": 4973,
  "jenen": 4974,
  "weitermachen": 4975,
  "liest": 4976,
  "sozialer": 4977,
  "anruf": 4978,
  "brustkrebs": 4979,
  "begriffen": 4980,
  "januar": 4981,
  "dert": 4982,
  "reichtum": 4983,
  "erwartungen": 4984,
  "pflanzen@@": 4985,
  "früheren": 4986,
  "motoren": 4987,
  "entwicklungsländer": 4988,
  "95": 4989,
  "20.000": 4990,
  "valley": 4991,
  "linke": 4992,
  "nerven": 4993,
  "störung": 4994,
  "entschuldigung": 4995,
  "erlangen": 4996,
  "verließ": 4997,
  "preis@@": 4998,
  "fahrrad": 4999,
  "aufrecht": 5000,
  "halben": 5001,
  "trend": 5002,
  "start": 5003,
  "reparieren": 5004,
  "eröffnet": 5005,
  "architekt": 5006,
  "autismus": 5007,
  "ältesten": 5008,
  "dick": 5009,
  "russland": 5010,
  "intelligente": 5011,
  "alisierten": 5012,
  "z-@@": 5013,
  "dollar-@@": 5014,
  "anzeige": 5015,
  "angebot": 5016,
  "diskutieren": 5017,
  "gegenstand": 5018,
  "microsoft": 5019,
  "übertragung": 5020,
  "wundervoll": 5021,
  "figuren": 5022,
  "bescheid": 5023,
  "verbesserung": 5024,
  "flaschen": 5025,
  "neugierig": 5026,
  "hirn": 5027,
  "bewegte": 5028,
  "wiederholen": 5029,
  "geh": 5030,
  "gezwungen": 5031,
  "m-@@": 5032,
  "würdest": 5033,
  "verliebt": 5034,
  "gipfel": 5035,
  "waschen": 5036,
  "rum": 5037,
  "dienstleistungen": 5038,
  "optimismus": 5039,
  "120": 5040,
  "mikroskop": 5041,
  "bip": 5042,
  "kauft": 5043,
  "open": 5044,
  "jährlich": 5045,
  "dienste": 5046,
  "deinem": 5047,
  "nahezu": 5048,
  "stammen": 5049,
  "stad@@": 5050,
  "chirurg": 5051,
  "wandern": 5052,
  "durchzuführen": 5053,
  "schreibe": 5054,
  "sicherer": 5055,
  "landete": 5056,
  "deckt": 5057,
  "abendessen": 5058,
  "überprüfen": 5059,
  "einziges": 5060,
  "festgestellt": 5061,
  "super": 5062,
  "hinsichtlich": 5063,
  "gesunden": 5064,
  "heiraten": 5065,
  "23": 5066,
  "westliche": 5067,
  "englischen": 5068,
  "privaten": 5069,
  "speicher": 5070,
  "verbrauchen": 5071,
  "jagen": 5072,
  "zug@@": 5073,
  "kas@@": 5074,
  "becken": 5075,
  "…": 5076,
  "ratten": 5077,
  "tote": 5078,
  "nachhaltigkeit": 5079,
  "kreiert": 5080,
  "chirurgen": 5081,
  "psycho@@": 5082,
  "wohnen": 5083,
  "kalten": 5084,
  "entwurf": 5085,
  "standpunkt": 5086,
  "europäischen": 5087,
  "angehen": 5088,
  "sierung": 5089,
  "antrieb": 5090,
  "gefängnis@@": 5091,
  "isten": 5092,
  "übersetzt": 5093,
  "allgemeine": 5094,
  "rechnung": 5095,
  "befreien": 5096,
  "knie": 5097,
  "nimm": 5098,
  "fotografie": 5099,
  "ballon": 5100,
  "te-@@": 5101,
  "beinen": 5102,
  "zurückkommen": 5103,
  "unterhalb": 5104,
  "indiens": 5105,
  "marketing": 5106,
  "rio": 5107,
  "enormen": 5108,
  "brüder": 5109,
  "glückliche": 5110,
  "verbraucht": 5111,
  "é": 5112,
  "abends": 5113,
  "politisch": 5114,
  "einzigartig": 5115,
  "zucker@@": 5116,
  "unterhalten": 5117,
  "kongress": 5118,
  "quer@@": 5119,
  "2.000": 5120,
  "schwarzes": 5121,
  "seil": 5122,
  "dialog": 5123,
  "gestaltung": 5124,
  "reagiert": 5125,
  "vorn": 5126,
  "fremden": 5127,
  "bord": 5128,
  "dutzend": 5129,
  "organ": 5130,
  "schlau": 5131,
  "prototypen": 5132,
  "praxis": 5133,
  "geblieben": 5134,
  "durfte": 5135,
  "ministerium": 5136,
  "aber@@": 5137,
  "kleinere": 5138,
  "behörde": 5139,
  "vieler": 5140,
  "design-@@": 5141,
  "bedienen": 5142,
  "konsumenten": 5143,
  "ängste": 5144,
  "betrieb": 5145,
  "lebensqualität": 5146,
  "apple": 5147,
  "800": 5148,
  "mochte": 5149,
  "bedeckt": 5150,
  "verlangt": 5151,
  "mittelpunkt": 5152,
  "wünschen": 5153,
  "onkel": 5154,
  "2.": 5155,
  "26": 5156,
  "dreimal": 5157,
  "einrichtung": 5158,
  "zusätzliche": 5159,
  "post@@": 5160,
  "eingehen": 5161,
  "chef": 5162,
  "selektion": 5163,
  "700": 5164,
  "institute": 5165,
  "stress": 5166,
  "oktober": 5167,
  "außergewöhnliche": 5168,
  "tony": 5169,
  "legten": 5170,
  "kohle@@": 5171,
  "wut": 5172,
  "dose": 5173,
  "anfängt": 5174,
  "ersetzt": 5175,
  "..": 5176,
  "errichten": 5177,
  "ansichten": 5178,
  "impfstoff": 5179,
  "wohlbefinden": 5180,
  "grafie": 5181,
  "atome": 5182,
  "ausgebildet": 5183,
  "schreckliche": 5184,
  "hinweise": 5185,
  "tisch@@": 5186,
  "gebäudes": 5187,
  "martin": 5188,
  "nachfrage": 5189,
  "unterscheidet": 5190,
  "lehrerin": 5191,
  "zweites": 5192,
  "klingen": 5193,
  "aufregende": 5194,
  "grä@@": 5195,
  "änderte": 5196,
  "katzen": 5197,
  "geöffnet": 5198,
  "dramatisch": 5199,
  "bandbreite": 5200,
  "hingehen": 5201,
  "bemerkenswerte": 5202,
  "sir": 5203,
  "erledigt": 5204,
  "auswirkung": 5205,
  "schlange": 5206,
  "wunderschönen": 5207,
  "beginne": 5208,
  "mannes": 5209,
  "atem": 5210,
  "berechnung": 5211,
  "ausgehen": 5212,
  "ausgabe": 5213,
  "zentimeter": 5214,
  "trainieren": 5215,
  "illusion": 5216,
  "geräten": 5217,
  "joe": 5218,
  "hauses": 5219,
  "amerikas": 5220,
  "kg": 5221,
  "bedürfnis": 5222,
  "nochmals": 5223,
  "gemessen": 5224,
  "spielten": 5225,
  "taschen": 5226,
  "weltweite": 5227,
  "deuten": 5228,
  "durchmesser": 5229,
  "religiöse": 5230,
  "bahnen": 5231,
  "nationalen": 5232,
  "besonderes": 5233,
  "ologische": 5234,
  "öffnete": 5235,
  "aktuellen": 5236,
  "skulptur": 5237,
  "großartiger": 5238,
  "beschreibung": 5239,
  "investition": 5240,
  "dimension": 5241,
  "gewinnt": 5242,
  "schlimmste": 5243,
  "getestet": 5244,
  "manager": 5245,
  "hersteller": 5246,
  "private": 5247,
  "kombinieren": 5248,
  "schafften": 5249,
  "komisch": 5250,
  "schaffte": 5251,
  "song": 5252,
  "auszudrücken": 5253,
  "anstellen": 5254,
  "entdeckten": 5255,
  "wunderschön": 5256,
  "bier": 5257,
  "löst": 5258,
  "streifen": 5259,
  "anreize": 5260,
  "hinweis": 5261,
  "gewalt@@": 5262,
  "erinnerte": 5263,
  "vorgestellt": 5264,
  "beitragen": 5265,
  "é@@": 5266,
  "á@@": 5267,
  "‹": 5268,
  "›": 5269,
  "°": 5270,
  "q": 5271,
  "+": 5272,
  "½": 5273,
  "²": 5274,
  "=": 5275,
  "‟": 5276,
  "ó@@": 5277,
  ")": 5278,
  "‚": 5279,
  "ñ@@": 5280,
  "í@@": 5281,
  "à": 5282,
  "ü": 5283,
  "è@@": 5284,
  "‒": 5285,
  "β@@": 5286,
  "#": 5287,
  "": 5288,
  "@": 5289,
  "(": 5290,
  "ç@@": 5291,
  "^": 5292,
  "ó": 5293,
  "": 5294,
  "": 5295,
  "`": 5296,
  "¥": 5297,
  "â@@": 5298,
  "­": 5299,
  "": 5300,
  "ã@@": 5301,
  "ö": 5302,
  "¼": 5303,
  "ê@@": 5304,
  "β": 5305,
  "ä": 5306,
  "×": 5307,
  "³": 5308,
  "í": 5309,
  "©": 5310,
  "ā@@": 5311,
  "®": 5312,
  "ô@@": 5313,
  "`@@": 5314,
  "*": 5315,
  "å@@": 5316,
  "ú@@": 5317,
  "ø@@": 5318,
  "你@@": 5319,
  "œ@@": 5320,
  "ō@@": 5321,
  "葱": 5322,
  "，": 5323,
  "﻿": 5324,
  "š@@": 5325,
  "ë@@": 5326,
  "ï@@": 5327,
  "¾": 5328,
  "à@@": 5329,
  "送@@": 5330,
  "_": 5331,
  "è": 5332,
  "\\": 5333,
  "ӓ@@": 5334,
  "ý@@": 5335,
  "£": 5336
}