{
  "<SOS>": 0,
  "<EOS>": 1,
  "<UNK>": 2,
  ",": 3,
  ".": 4,
  "the": 5,
  "and": 6,
  "to": 7,
  "of": 8,
  "a": 9,
  "that": 10,
  "i": 11,
  "in": 12,
  "it": 13,
  "you": 14,
  "is": 15,
  "we": 16,
  "&apos;s": 17,
  "this": 18,
  "so": 19,
  "&quot;": 20,
  "they": 21,
  "was": 22,
  "for": 23,
  "on": 24,
  "are": 25,
  "have": 26,
  "what": 27,
  "but": 28,
  "--": 29,
  "with": 30,
  "?": 31,
  "can": 32,
  "&apos;t": 33,
  "there": 34,
  "about": 35,
  "at": 36,
  "as": 37,
  "be": 38,
  "e@@": 39,
  "all": 40,
  "do": 41,
  "c@@": 42,
  "an": 43,
  "not": 44,
  "one": 45,
  "in@@": 46,
  "my": 47,
  "&apos;re": 48,
  "p@@": 49,
  "s@@": 50,
  "people": 51,
  "like": 52,
  "from": 53,
  "if": 54,
  "he": 55,
  "now": 56,
  "i@@": 57,
  "re@@": 58,
  "m@@": 59,
  "or": 60,
  "t@@": 61,
  "these": 62,
  "just": 63,
  "g@@": 64,
  "st@@": 65,
  ":": 66,
  "our": 67,
  "very": 68,
  "because": 69,
  "a@@": 70,
  "when": 71,
  "me": 72,
  "li@@": 73,
  "out": 74,
  "how": 75,
  "r@@": 76,
  "by": 77,
  "o@@": 78,
  "know": 79,
  "l@@": 80,
  "up": 81,
  "d@@": 82,
  "ti@@": 83,
  "them": 84,
  "going": 85,
  "here": 86,
  "ing": 87,
  "an@@": 88,
  "see": 89,
  "think": 90,
  "more": 91,
  "s": 92,
  "f@@": 93,
  "had": 94,
  "which": 95,
  "b@@": 96,
  "your": 97,
  "really": 98,
  "ed": 99,
  "get": 100,
  "us": 101,
  "v@@": 102,
  "en@@": 103,
  "were": 104,
  "then": 105,
  "who": 106,
  "&apos;ve": 107,
  "would": 108,
  "their": 109,
  "-@@": 110,
  "un@@": 111,
  "&apos;m": 112,
  "time": 113,
  "es": 114,
  "some": 115,
  "h@@": 116,
  "world": 117,
  "er@@": 118,
  "don": 119,
  "actually": 120,
  "has": 121,
  "de@@": 122,
  "di@@": 123,
  "al@@": 124,
  "y@@": 125,
  "into": 126,
  "way": 127,
  "as@@": 128,
  "things": 129,
  "k@@": 130,
  "ar@@": 131,
  "on@@": 132,
  "years": 133,
  "go": 134,
  "el@@": 135,
  "will": 136,
  "well": 137,
  "ac@@": 138,
  "no": 139,
  "con@@": 140,
  "or@@": 141,
  "ma@@": 142,
  "where": 143,
  "th@@": 144,
  "n@@": 145,
  "other": 146,
  "y": 147,
  "u@@": 148,
  "ch@@": 149,
  "want": 150,
  "said": 151,
  "could": 152,
  "w@@": 153,
  "right": 154,
  "make": 155,
  "at@@": 156,
  "been": 157,
  "si@@": 158,
  "something": 159,
  "she": 160,
  "first": 161,
  "two": 162,
  "t": 163,
  "al": 164,
  "look": 165,
  "thing": 166,
  "than": 167,
  "those": 168,
  "little": 169,
  "got": 170,
  "also": 171,
  "po@@": 172,
  "ol@@": 173,
  "his": 174,
  "lo@@": 175,
  "pro@@": 176,
  "new": 177,
  "ri@@": 178,
  "ab@@": 179,
  "much": 180,
  "es@@": 181,
  "back": 182,
  "say": 183,
  "ro@@": 184,
  "op@@": 185,
  "life": 186,
  "most": 187,
  "er": 188,
  "over": 189,
  "work": 190,
  "vi@@": 191,
  "e": 192,
  "ex@@": 193,
  "only": 194,
  "le@@": 195,
  "take": 196,
  "even": 197,
  "kind": 198,
  "co@@": 199,
  "ci@@": 200,
  "did": 201,
  "need": 202,
  "se@@": 203,
  "many": 204,
  "ou@@": 205,
  "good": 206,
  "am@@": 207,
  "able": 208,
  "lot": 209,
  "why": 210,
  "let": 211,
  "il@@": 212,
  "around": 213,
  "down": 214,
  "&apos;ll": 215,
  "ent@@": 216,
  ";": 217,
  "different": 218,
  "every": 219,
  "te@@": 220,
  "use": 221,
  "her": 222,
  "come": 223,
  "through": 224,
  "om@@": 225,
  "ra@@": 226,
  "com@@": 227,
  "day": 228,
  "au@@": 229,
  "z@@": 230,
  "same": 231,
  "im@@": 232,
  "l": 233,
  "o": 234,
  "su@@": 235,
  "doing": 236,
  "put": 237,
  "it@@": 238,
  "being": 239,
  "three": 240,
  "ly": 241,
  "d": 242,
  "its": 243,
  "j@@": 244,
  "ad@@": 245,
  "pe@@": 246,
  "ted": 247,
  "called": 248,
  "ter@@": 249,
  "any": 250,
  "is@@": 251,
  "percent": 252,
  "ts": 253,
  "made": 254,
  "em@@": 255,
  "great": 256,
  "&apos;d": 257,
  "x@@": 258,
  "today": 259,
  "mo@@": 260,
  "le": 261,
  "tell": 262,
  "after": 263,
  "talk": 264,
  "per@@": 265,
  "ne@@": 266,
  "year": 267,
  "dis@@": 268,
  "me@@": 269,
  "sp@@": 270,
  "another": 271,
  "gi@@": 272,
  "ta@@": 273,
  "human": 274,
  "big": 275,
  "didn": 276,
  "mi@@": 277,
  "change": 278,
  "last": 279,
  "went": 280,
  "ot@@": 281,
  "find": 282,
  "fact": 283,
  "own": 284,
  "h": 285,
  "ver@@": 286,
  "tion": 287,
  "ul@@": 288,
  "m": 289,
  "started": 290,
  "should": 291,
  "idea": 292,
  "before": 293,
  "ds": 294,
  "ated": 295,
  "pl@@": 296,
  "give": 297,
  "us@@": 298,
  "thought": 299,
  "ers": 300,
  "never": 301,
  "thank": 302,
  "course": 303,
  "gh@@": 304,
  "pre@@": 305,
  "story": 306,
  "bu@@": 307,
  "ge@@": 308,
  "again": 309,
  "du@@": 310,
  "c": 311,
  "off": 312,
  "important": 313,
  "does": 314,
  "qu@@": 315,
  "sh@@": 316,
  "ei@@": 317,
  "and@@": 318,
  "par@@": 319,
  "problem": 320,
  "la@@": 321,
  "him": 322,
  "ur@@": 323,
  "show": 324,
  "sc@@": 325,
  "better": 326,
  "tra@@": 327,
  "bo@@": 328,
  "fi@@": 329,
  "start": 330,
  "be@@": 331,
  "hi@@": 332,
  "next": 333,
  "ni@@": 334,
  "ago": 335,
  "used": 336,
  "et@@": 337,
  "bit": 338,
  "res@@": 339,
  "system": 340,
  "still": 341,
  "place": 342,
  "p": 343,
  "part": 344,
  "ation": 345,
  "te": 346,
  "end": 347,
  "came": 348,
  "man": 349,
  "together": 350,
  "might": 351,
  "pa@@": 352,
  "brain": 353,
  "technology": 354,
  "each": 355,
  "g": 356,
  "bi@@": 357,
  "water": 358,
  "ent": 359,
  "no@@": 360,
  "ff@@": 361,
  "ck@@": 362,
  "k": 363,
  "ate": 364,
  "0@@": 365,
  "tu@@": 366,
  "few": 367,
  "ph@@": 368,
  "long": 369,
  "wi@@": 370,
  "mean": 371,
  "tions": 372,
  "ous": 373,
  "too": 374,
  "between": 375,
  "gra@@": 376,
  "point": 377,
  "ru@@": 378,
  "looking": 379,
  "min@@": 380,
  "question": 381,
  "doesn": 382,
  "19@@": 383,
  "done": 384,
  "children": 385,
  "tri@@": 386,
  "love": 387,
  "found": 388,
  "am": 389,
  "less": 390,
  "do@@": 391,
  "maybe": 392,
  "example": 393,
  "man@@": 394,
  "cu@@": 395,
  "ty": 396,
  "ce": 397,
  "sort": 398,
  "to@@": 399,
  "wanted": 400,
  "whole": 401,
  "school": 402,
  "ce@@": 403,
  "ir@@": 404,
  "million": 405,
  "data": 406,
  "understand": 407,
  "ever": 408,
  "&apos;": 409,
  "gu@@": 410,
  "mar@@": 411,
  "real": 412,
  "ating": 413,
  "four": 414,
  "call": 415,
  "live": 416,
  "may": 417,
  "ap@@": 418,
  "car@@": 419,
  "away": 420,
  "n": 421,
  "um@@": 422,
  "always": 423,
  "ting": 424,
  "try": 425,
  "sy@@": 426,
  "light": 427,
  "working": 428,
  "everything": 429,
  "age": 430,
  "for@@": 431,
  "ve": 432,
  "old": 433,
  "10": 434,
  "women": 435,
  "money": 436,
  "believe": 437,
  "feel": 438,
  "en": 439,
  "lu@@": 440,
  "five": 441,
  "trying": 442,
  "kids": 443,
  "power": 444,
  "using": 445,
  "second": 446,
  "col@@": 447,
  "sa@@": 448,
  "person": 449,
  "design": 450,
  "por@@": 451,
  "space": 452,
  "red": 453,
  "tr@@": 454,
  "country": 455,
  "number": 456,
  "!": 457,
  "ves": 458,
  "ten@@": 459,
  "ag@@": 460,
  "times": 461,
  "took": 462,
  "help": 463,
  "thinking": 464,
  "ar": 465,
  "pi@@": 466,
  "food": 467,
  "de": 468,
  "les": 469,
  "ally": 470,
  "fe@@": 471,
  "inter@@": 472,
  "quite": 473,
  "ine": 474,
  "means": 475,
  "create": 476,
  "information": 477,
  "ha@@": 478,
  "ho@@": 479,
  "br@@": 480,
  "ter": 481,
  "ic@@": 482,
  "ary": 483,
  "making": 484,
  "sense": 485,
  "become": 486,
  "probably": 487,
  "da@@": 488,
  "small": 489,
  "energy": 490,
  "enough": 491,
  "comes": 492,
  "ding": 493,
  "ber@@": 494,
  "future": 495,
  "happened": 496,
  "getting": 497,
  "he@@": 498,
  "side": 499,
  "best": 500,
  "building": 501,
  "without": 502,
  "left": 503,
  "go@@": 504,
  "pu@@": 505,
  "interesting": 506,
  "na@@": 507,
  "africa": 508,
  "play": 509,
  "mon@@": 510,
  "gen@@": 511,
  "um": 512,
  "ment": 513,
  "body": 514,
  "stuff": 515,
  "home": 516,
  ".@@": 517,
  "als": 518,
  "ors": 519,
  "talking": 520,
  "den@@": 521,
  "says": 522,
  "room": 523,
  "r": 524,
  "pres@@": 525,
  "dollars": 526,
  "b": 527,
  "pretty": 528,
  "city": 529,
  "ways": 530,
  "anything": 531,
  "social": 532,
  "science": 533,
  "half": 534,
  "goes": 535,
  "ist": 536,
  "coming": 537,
  "ask": 538,
  "earth": 539,
  "se": 540,
  "20": 541,
  "simple": 542,
  "ch": 543,
  "ck": 544,
  "ded": 545,
  "set": 546,
  "w": 547,
  "makes": 548,
  "mu@@": 549,
  "cre@@": 550,
  "days": 551,
  "seen": 552,
  "ans": 553,
  "des@@": 554,
  "gr@@": 555,
  "der@@": 556,
  "else": 557,
  "told": 558,
  "picture": 559,
  "happen": 560,
  "est": 561,
  "ari@@": 562,
  "ant": 563,
  "king": 564,
  "wh@@": 565,
  "living": 566,
  "ic": 567,
  "across": 568,
  "saw": 569,
  "case": 570,
  "lives": 571,
  "yet": 572,
  "ons": 573,
  "the@@": 574,
  "while": 575,
  "happens": 576,
  "sti@@": 577,
  "once": 578,
  "basically": 579,
  "imagine": 580,
  "ell@@": 581,
  "okay": 582,
  "project": 583,
  "fo@@": 584,
  "bad": 585,
  "th": 586,
  "hard": 587,
  "ok": 588,
  "line": 589,
  "countries": 590,
  "je@@": 591,
  "art": 592,
  "men": 593,
  "her@@": 594,
  "move": 595,
  "cor@@": 596,
  "asked": 597,
  "hand": 598,
  "x": 599,
  "such": 600,
  "form": 601,
  "build": 602,
  "book": 603,
  "health": 604,
  "ct@@": 605,
  "inside": 606,
  "having": 607,
  "family": 608,
  "ties": 609,
  "der": 610,
  "experience": 611,
  "problems": 612,
  "everybody": 613,
  "sure": 614,
  "ing@@": 615,
  "moment": 616,
  "care": 617,
  "high": 618,
  "learn": 619,
  "car": 620,
  "ideas": 621,
  "ig@@": 622,
  "pri@@": 623,
  "sur@@": 624,
  "3@@": 625,
  "later": 626,
  "5@@": 627,
  "reason": 628,
  "almost": 629,
  "oh": 630,
  "nothing": 631,
  "cri@@": 632,
  "six": 633,
  "computer": 634,
  "2@@": 635,
  "process": 636,
  "so@@": 637,
  "billion": 638,
  "business": 639,
  "young": 640,
  "looks": 641,
  "ct": 642,
  "both": 643,
  "states": 644,
  "planet": 645,
  "ste@@": 646,
  "ction": 647,
  "global": 648,
  "50": 649,
  "top": 650,
  "mind": 651,
  "ali@@": 652,
  "nature": 653,
  "wrong": 654,
  "pos@@": 655,
  "sts": 656,
  "single": 657,
  "within": 658,
  "remember": 659,
  "ses": 660,
  "child": 661,
  "history": 662,
  "ju@@": 663,
  "true": 664,
  "trans@@": 665,
  "guy": 666,
  "son": 667,
  "ca@@": 668,
  "cells": 669,
  "ori@@": 670,
  "ability": 671,
  "far": 672,
  "saying": 673,
  "already": 674,
  "tic@@": 675,
  "yes": 676,
  "ps": 677,
  "sion": 678,
  "ely": 679,
  "ity": 680,
  "land": 681,
  "music": 682,
  "ings": 683,
  "war": 684,
  "ser@@": 685,
  "ke": 686,
  "heard": 687,
  "we@@": 688,
  "stri@@": 689,
  "under": 690,
  "ven@@": 691,
  "tic": 692,
  "state": 693,
  "looked": 694,
  "cancer": 695,
  "answer": 696,
  "keep": 697,
  "gets": 698,
  "possible": 699,
  "ents": 700,
  "sub@@": 701,
  "har@@": 702,
  "matter": 703,
  "pen@@": 704,
  "ob@@": 705,
  "ces": 706,
  "hope": 707,
  "bring": 708,
  "per": 709,
  "video": 710,
  "mis@@": 711,
  "beautiful": 712,
  "4@@": 713,
  "often": 714,
  "wa@@": 715,
  "sen@@": 716,
  "months": 717,
  "universe": 718,
  "30": 719,
  "9@@": 720,
  "ge": 721,
  "built": 722,
  "face": 723,
  "india": 724,
  "piece": 725,
  "isn": 726,
  "read": 727,
  "open": 728,
  "amazing": 729,
  "head": 730,
  "god": 731,
  "works": 732,
  "1@@": 733,
  "sometimes": 734,
  "che@@": 735,
  "ke@@": 736,
  "cra@@": 737,
  "since": 738,
  "united": 739,
  "ws": 740,
  "decided": 741,
  "ks": 742,
  "ourselves": 743,
  "sta@@": 744,
  "words": 745,
  "ones": 746,
  "public": 747,
  "bar@@": 748,
  "turns": 749,
  "someone": 750,
  "myself": 751,
  "und@@": 752,
  "cted": 753,
  "...": 754,
  "species": 755,
  "until": 756,
  "education": 757,
  "whether": 758,
  "couple": 759,
  "ga@@": 760,
  "yeah": 761,
  "places": 762,
  "group": 763,
  "instead": 764,
  "stories": 765,
  "gl@@": 766,
  "turn": 767,
  "hu@@": 768,
  "ins": 769,
  "mother": 770,
  "exactly": 771,
  "ates": 772,
  "taking": 773,
  "control": 774,
  "house": 775,
  "ving": 776,
  "language": 777,
  "happy": 778,
  "completely": 779,
  "order": 780,
  "ged": 781,
  "cal": 782,
  "research": 783,
  "stra@@": 784,
  "comp@@": 785,
  "word": 786,
  "over@@": 787,
  "jo@@": 788,
  "everyone": 789,
  "though": 790,
  "can@@": 791,
  "government": 792,
  "community": 793,
  "lin@@": 794,
  "ble": 795,
  "must": 796,
  "job": 797,
  "middle": 798,
  "internet": 799,
  "wasn": 800,
  "minutes": 801,
  "somebody": 802,
  "itself": 803,
  "stop": 804,
  "ze": 805,
  "third": 806,
  "led": 807,
  "night": 808,
  "kinds": 809,
  "level": 810,
  "7@@": 811,
  "news": 812,
  "cy": 813,
  "war@@": 814,
  "heart": 815,
  "woman": 816,
  "became": 817,
  "animals": 818,
  "8@@": 819,
  "america": 820,
  "pr@@": 821,
  "ations": 822,
  "inv@@": 823,
  "model": 824,
  "front": 825,
  "happening": 826,
  "run": 827,
  "themselves": 828,
  "ies": 829,
  "bl@@": 830,
  "company": 831,
  "fa@@": 832,
  "large": 833,
  "des": 834,
  "tive": 835,
  "100": 836,
  "rather": 837,
  "u": 838,
  "ms": 839,
  "cal@@": 840,
  "huge": 841,
  "students": 842,
  "share": 843,
  "ance": 844,
  "under@@": 845,
  "environment": 846,
  "el": 847,
  "study": 848,
  "name": 849,
  "learned": 850,
  "china": 851,
  "oil": 852,
  "guys": 853,
  "ry": 854,
  "century": 855,
  "nu@@": 856,
  "friends": 857,
  "sound": 858,
  "hy@@": 859,
  "american": 860,
  "natural": 861,
  "hear": 862,
  "won": 863,
  "along": 864,
  "game": 865,
  "ve@@": 866,
  "hours": 867,
  "couldn": 868,
  "knew": 869,
  "created": 870,
  "fish": 871,
  "worked": 872,
  "learning": 873,
  "lots": 874,
  "cul@@": 875,
  "late": 876,
  "ess": 877,
  "tro@@": 878,
  "gave": 879,
  "questions": 880,
  "against": 881,
  "during": 882,
  "self-@@": 883,
  "ach@@": 884,
  "machine": 885,
  "&#93;": 886,
  "&#91;": 887,
  "perhaps": 888,
  "air": 889,
  "zed": 890,
  "society": 891,
  "finally": 892,
  "gre@@": 893,
  "disease": 894,
  "cy@@": 895,
  "particular": 896,
  "ved": 897,
  "d-@@": 898,
  "test": 899,
  "ocean": 900,
  "moving": 901,
  "based": 902,
  "takes": 903,
  "ful": 904,
  "ie": 905,
  "early": 906,
  "area": 907,
  "difference": 908,
  "vis@@": 909,
  "others": 910,
  "sk@@": 911,
  "pan@@": 912,
  "figure": 913,
  "tin@@": 914,
  "market": 915,
  "ness": 916,
  "wonderful": 917,
  "past": 918,
  "ger@@": 919,
  "needs": 920,
  "view": 921,
  "free": 922,
  "e-@@": 923,
  "sing": 924,
  "least": 925,
  "scale": 926,
  "ence": 927,
  "zing": 928,
  "cell": 929,
  "re": 930,
  "taken": 931,
  "cr@@": 932,
  "seven": 933,
  "entire": 934,
  "outside": 935,
  "ki@@": 936,
  "cur@@": 937,
  "systems": 938,
  "close": 939,
  "ling": 940,
  "15": 941,
  "thousands": 942,
  "easy": 943,
  "changed": 944,
  "y-@@": 945,
  "interested": 946,
  "bro@@": 947,
  "parts": 948,
  "6@@": 949,
  "population": 950,
  "tes": 951,
  "cannot": 952,
  "parents": 953,
  "fin@@": 954,
  "bra@@": 955,
  "20@@": 956,
  "shows": 957,
  "spe@@": 958,
  "turned": 959,
  "yourself": 960,
  "given": 961,
  "green": 962,
  "lation": 963,
  "ics": 964,
  "leave": 965,
  "beginning": 966,
  "2": 967,
  "image": 968,
  "cing": 969,
  "culture": 970,
  "bri@@": 971,
  "eight": 972,
  "ying": 973,
  "tional": 974,
  "ther@@": 975,
  "bur@@": 976,
  "difficult": 977,
  "bio@@": 978,
  "va@@": 979,
  "buy": 980,
  "cks": 981,
  "behind": 982,
  "sed": 983,
  "fer@@": 984,
  "grow": 985,
  "size": 986,
  "york": 987,
  "cat@@": 988,
  "cost": 989,
  "stage": 990,
  "seeing": 991,
  "cro@@": 992,
  "bre@@": 993,
  "media": 994,
  "whatever": 995,
  "common": 996,
  "eyes": 997,
  "fre@@": 998,
  "spend": 999,
  "walk": 1000,
  "cap@@": 1001,
  "needed": 1002,
  "wor@@": 1003,
  "powerful": 1004,
  "tur@@": 1005,
  "began": 1006,
  "week": 1007,
  "audience": 1008,
  "born": 1009,
  "known": 1010,
  "rest": 1011,
  "black": 1012,
  "fly": 1013,
  "books": 1014,
  "ging": 1015,
  "ator": 1016,
  "force": 1017,
  "ters": 1018,
  "certain": 1019,
  "economic": 1020,
  "paper": 1021,
  "friend": 1022,
  "u.s.": 1023,
  "tried": 1024,
  "ship": 1025,
  "fl@@": 1026,
  "father": 1027,
  "terms": 1028,
  "gone": 1029,
  "full": 1030,
  "cities": 1031,
  "mor@@": 1032,
  "ets": 1033,
  "8": 1034,
  "mit@@": 1035,
  "death": 1036,
  "team": 1037,
  "center": 1038,
  "longer": 1039,
  "wing": 1040,
  "local": 1041,
  "simply": 1042,
  "incredible": 1043,
  "ously": 1044,
  "amount": 1045,
  "ments": 1046,
  "humans": 1047,
  "fu@@": 1048,
  "rate": 1049,
  "act": 1050,
  "tt@@": 1051,
  "stic": 1052,
  "rel@@": 1053,
  "growth": 1054,
  "hands": 1055,
  "feet": 1056,
  "mer@@": 1057,
  "ground": 1058,
  "f": 1059,
  "field": 1060,
  "structure": 1061,
  "hold": 1062,
  "pla@@": 1063,
  "ges": 1064,
  "lan@@": 1065,
  "watch": 1066,
  "complex": 1067,
  "spent": 1068,
  "ver": 1069,
  "deal": 1070,
  "step": 1071,
  "super@@": 1072,
  "realized": 1073,
  "ster": 1074,
  "girl": 1075,
  "national": 1076,
  "key": 1077,
  "table": 1078,
  "surface": 1079,
  "et": 1080,
  "south": 1081,
  "quickly": 1082,
  "40": 1083,
  "ches": 1084,
  "ice": 1085,
  "value": 1086,
  "char@@": 1087,
  "vo@@": 1088,
  "fra@@": 1089,
  "blue": 1090,
  "wouldn": 1091,
  "cts": 1092,
  "white": 1093,
  "pay": 1094,
  "animal": 1095,
  "sea": 1096,
  "eat": 1097,
  "dna": 1098,
  "lost": 1099,
  "west": 1100,
  "phone": 1101,
  "up@@": 1102,
  "companies": 1103,
  "sitting": 1104,
  "bs": 1105,
  "fun": 1106,
  "uni@@": 1107,
  "reality": 1108,
  "either": 1109,
  "felt": 1110,
  "medi@@": 1111,
  "3": 1112,
  "patients": 1113,
  "forward": 1114,
  "nor@@": 1115,
  "tan@@": 1116,
  "ys": 1117,
  "write": 1118,
  "weeks": 1119,
  "met": 1120,
  "behavior": 1121,
  "z": 1122,
  "men@@": 1123,
  "nice": 1124,
  "ba@@": 1125,
  "brought": 1126,
  "out@@": 1127,
  "wrote": 1128,
  "oc@@": 1129,
  "dy": 1130,
  "squ@@": 1131,
  "miles": 1132,
  "cally": 1133,
  "fast": 1134,
  "telling": 1135,
  "ders": 1136,
  "ia": 1137,
  "opportunity": 1138,
  "changes": 1139,
  "feeling": 1140,
  "cut": 1141,
  "die": 1142,
  "ure": 1143,
  "growing": 1144,
  "patient": 1145,
  "average": 1146,
  "poor": 1147,
  "economy": 1148,
  "theory": 1149,
  "anti@@": 1150,
  "speak": 1151,
  "ban@@": 1152,
  "ked": 1153,
  "political": 1154,
  "anyone": 1155,
  "scientists": 1156,
  "fied": 1157,
  "developed": 1158,
  "knowledge": 1159,
  "t-@@": 1160,
  "technologies": 1161,
  "7": 1162,
  "bed": 1163,
  "numbers": 1164,
  "sha@@": 1165,
  "ma": 1166,
  "street": 1167,
  "fil@@": 1168,
  "giving": 1169,
  "material": 1170,
  "bottom": 1171,
  "died": 1172,
  "seems": 1173,
  "images": 1174,
  "gs": 1175,
  "bas@@": 1176,
  "sted": 1177,
  "discovered": 1178,
  "short": 1179,
  "9": 1180,
  "1": 1181,
  "ani@@": 1182,
  "nobody": 1183,
  "starting": 1184,
  "morning": 1185,
  "program": 1186,
  "wo@@": 1187,
  "running": 1188,
  "dra@@": 1189,
  "board": 1190,
  "pping": 1191,
  "attention": 1192,
  "ger": 1193,
  "gives": 1194,
  "playing": 1195,
  "hom@@": 1196,
  "4": 1197,
  "ear@@": 1198,
  "literally": 1199,
  "physical": 1200,
  "personal": 1201,
  "absolutely": 1202,
  "deep": 1203,
  "shape": 1204,
  "map": 1205,
  "ben@@": 1206,
  "5": 1207,
  "english": 1208,
  "micro@@": 1209,
  "movement": 1210,
  "alone": 1211,
  "low": 1212,
  "pped": 1213,
  "challenge": 1214,
  "produce": 1215,
  "vision": 1216,
  "cli@@": 1217,
  "ning": 1218,
  "law": 1219,
  "realize": 1220,
  "climate": 1221,
  "recently": 1222,
  "pur@@": 1223,
  "areas": 1224,
  "ard": 1225,
  "uses": 1226,
  "tation": 1227,
  "ctive": 1228,
  "forms": 1229,
  "anybody": 1230,
  "cars": 1231,
  "individual": 1232,
  "north": 1233,
  "film": 1234,
  "fle@@": 1235,
  "obviously": 1236,
  "sive": 1237,
  "12": 1238,
  "my@@": 1239,
  "ant@@": 1240,
  "seem": 1241,
  "non-@@": 1242,
  "0,000": 1243,
  "cting": 1244,
  "dr@@": 1245,
  "knows": 1246,
  "incredibly": 1247,
  "6": 1248,
  "mit": 1249,
  "ber": 1250,
  "blood": 1251,
  "sun": 1252,
  "ja@@": 1253,
  "quality": 1254,
  "focus": 1255,
  "changing": 1256,
  "issue": 1257,
  "dark": 1258,
  "ton": 1259,
  "industry": 1260,
  "cool": 1261,
  "relationship": 1262,
  "mass": 1263,
  "creating": 1264,
  "designed": 1265,
  "normal": 1266,
  "25": 1267,
  "tics": 1268,
  "showed": 1269,
  "lab": 1270,
  "chinese": 1271,
  "understanding": 1272,
  "kid": 1273,
  "compassion": 1274,
  "product": 1275,
  "university": 1276,
  "tend": 1277,
  "ars": 1278,
  "result": 1279,
  "guess": 1280,
  "please": 1281,
  "girls": 1282,
  "cl@@": 1283,
  "save": 1284,
  "modern": 1285,
  "hundreds": 1286,
  "clear": 1287,
  "haven": 1288,
  "ative": 1289,
  "millions": 1290,
  "wall": 1291,
  "indi@@": 1292,
  "position": 1293,
  "games": 1294,
  "qui@@": 1295,
  "meet": 1296,
  "clo@@": 1297,
  "effect": 1298,
  "ens": 1299,
  "tools": 1300,
  "box": 1301,
  "development": 1302,
  "connected": 1303,
  "cam@@": 1304,
  "experiment": 1305,
  "talked": 1306,
  "son@@": 1307,
  "dan@@": 1308,
  "class": 1309,
  "revolution": 1310,
  "els": 1311,
  "begin": 1312,
  "support": 1313,
  "tiny": 1314,
  "generation": 1315,
  "stand": 1316,
  "fall": 1317,
  "cked": 1318,
  "st": 1319,
  "ced": 1320,
  "happiness": 1321,
  "tor@@": 1322,
  "evolution": 1323,
  "soon": 1324,
  "ory": 1325,
  "fully": 1326,
  "developing": 1327,
  "gar@@": 1328,
  "hour": 1329,
  "access": 1330,
  "fri@@": 1331,
  "id": 1332,
  "perfect": 1333,
  "web": 1334,
  "solution": 1335,
  "mal@@": 1336,
  "beyond": 1337,
  "innovation": 1338,
  "europe": 1339,
  "available": 1340,
  "pra@@": 1341,
  "color": 1342,
  "pictures": 1343,
  "don@@": 1344,
  "teach": 1345,
  "especially": 1346,
  "action": 1347,
  "ats": 1348,
  "medical": 1349,
  "becomes": 1350,
  "east": 1351,
  "online": 1352,
  "writing": 1353,
  "chan@@": 1354,
  "lived": 1355,
  "voice": 1356,
  "star@@": 1357,
  "bat@@": 1358,
  "major": 1359,
  "cking": 1360,
  "flu@@": 1361,
  "ism": 1362,
  "computers": 1363,
  "type": 1364,
  "boy": 1365,
  "solve": 1366,
  "dar@@": 1367,
  "explain": 1368,
  "drive": 1369,
  "sho@@": 1370,
  "groups": 1371,
  "allow": 1372,
  "aren": 1373,
  "towards": 1374,
  "road": 1375,
  "dro@@": 1376,
  "reasons": 1377,
  "situation": 1378,
  "bor@@": 1379,
  "worth": 1380,
  "tre@@": 1381,
  "teachers": 1382,
  "special": 1383,
  "materials": 1384,
  "vers": 1385,
  "resources": 1386,
  "ye@@": 1387,
  "office": 1388,
  "similar": 1389,
  "several": 1390,
  "sters": 1391,
  "mission": 1392,
  "ren@@": 1393,
  "dead": 1394,
  "digital": 1395,
  "starts": 1396,
  "ically": 1397,
  "cru@@": 1398,
  "network": 1399,
  "robot": 1400,
  "present": 1401,
  "rules": 1402,
  "fear": 1403,
  "device": 1404,
  "bigger": 1405,
  "yo@@": 1406,
  "notice": 1407,
  "baby": 1408,
  "wind": 1409,
  "da": 1410,
  "certainly": 1411,
  "sions": 1412,
  "evidence": 1413,
  "shi@@": 1414,
  "hand@@": 1415,
  "putting": 1416,
  "sounds": 1417,
  "everywhere": 1418,
  "ad": 1419,
  "il": 1420,
  "break": 1421,
  "indeed": 1422,
  "nine": 1423,
  "speed": 1424,
  "general": 1425,
  "lines": 1426,
  "hundred": 1427,
  "security": 1428,
  "activity": 1429,
  "risk": 1430,
  "truth": 1431,
  "chance": 1432,
  "onto": 1433,
  "mental": 1434,
  "wait": 1435,
  "impact": 1436,
  "80": 1437,
  "ably": 1438,
  "grew": 1439,
  "schools": 1440,
  "suddenly": 1441,
  "app@@": 1442,
  "scientific": 1443,
  "wants": 1444,
  "tically": 1445,
  "gro@@": 1446,
  "door": 1447,
  "examples": 1448,
  "flo@@": 1449,
  "listen": 1450,
  "eye": 1451,
  "ward": 1452,
  "asking": 1453,
  "village": 1454,
  "involved": 1455,
  "ple@@": 1456,
  "month": 1457,
  "ture": 1458,
  "strong": 1459,
  "bon@@": 1460,
  "anyway": 1461,
  "choice": 1462,
  "moral": 1463,
  "skin": 1464,
  "stay": 1465,
  "ready": 1466,
  "basic": 1467,
  "bal@@": 1468,
  "exciting": 1469,
  "message": 1470,
  "source": 1471,
  "minute": 1472,
  "ently": 1473,
  "dly": 1474,
  "ran@@": 1475,
  "ball": 1476,
  "list": 1477,
  "version": 1478,
  "walking": 1479,
  "ned": 1480,
  "moved": 1481,
  "wish": 1482,
  "bel@@": 1483,
  "60": 1484,
  "eu@@": 1485,
  "issues": 1486,
  "pattern": 1487,
  "main": 1488,
  "sent": 1489,
  "student": 1490,
  "sto@@": 1491,
  "sting": 1492,
  "extremely": 1493,
  "gue": 1494,
  "gas": 1495,
  "totally": 1496,
  "college": 1497,
  ",000": 1498,
  "den": 1499,
  "ctions": 1500,
  "solar": 1501,
  "town": 1502,
  "ants": 1503,
  "further": 1504,
  "plants": 1505,
  "potential": 1506,
  "smart": 1507,
  "mine": 1508,
  "biggest": 1509,
  "hiv": 1510,
  "head@@": 1511,
  "ching": 1512,
  "af@@": 1513,
  "positive": 1514,
  "ined": 1515,
  "projects": 1516,
  "page": 1517,
  "pat@@": 1518,
  "high-@@": 1519,
  "particularly": 1520,
  "largest": 1521,
  "hospital": 1522,
  "showing": 1523,
  "ine@@": 1524,
  "ended": 1525,
  "object": 1526,
  "software": 1527,
  "ths": 1528,
  "ality": 1529,
  "hit": 1530,
  "11": 1531,
  "pick": 1532,
  "foot": 1533,
  "journey": 1534,
  "18@@": 1535,
  "mul@@": 1536,
  "carbon": 1537,
  "code": 1538,
  "fire": 1539,
  "gener@@": 1540,
  "air@@": 1541,
  "measure": 1542,
  "cent": 1543,
  "interest": 1544,
  "500": 1545,
  "points": 1546,
  "lose": 1547,
  "os": 1548,
  "medicine": 1549,
  "dri@@": 1550,
  "reach": 1551,
  "ase": 1552,
  "nuclear": 1553,
  "lead": 1554,
  "follow": 1555,
  "sit": 1556,
  "send": 1557,
  "add": 1558,
  "row": 1559,
  "store": 1560,
  "san@@": 1561,
  "ators": 1562,
  "plan": 1563,
  "din@@": 1564,
  "gy": 1565,
  "win@@": 1566,
  "google": 1567,
  "tells": 1568,
  "african": 1569,
  "named": 1570,
  "ey": 1571,
  "rich": 1572,
  "organization": 1573,
  "gers": 1574,
  "val@@": 1575,
  "visual": 1576,
  "ther": 1577,
  "peace": 1578,
  "extraordinary": 1579,
  "pris@@": 1580,
  "mom": 1581,
  "mas@@": 1582,
  "develop": 1583,
  "soci@@": 1584,
  "teacher": 1585,
  "dance": 1586,
  "democracy": 1587,
  "expensive": 1588,
  "zz@@": 1589,
  "continue": 1590,
  "usually": 1591,
  "likely": 1592,
  "ns": 1593,
  "alized": 1594,
  "serious": 1595,
  "poverty": 1596,
  "buildings": 1597,
  "doctor": 1598,
  "larger": 1599,
  "among": 1600,
  "watching": 1601,
  "electricity": 1602,
  "success": 1603,
  "biology": 1604,
  "fantastic": 1605,
  "sex": 1606,
  "expect": 1607,
  "trees": 1608,
  "except": 1609,
  "international": 1610,
  "goal": 1611,
  "200": 1612,
  "safe": 1613,
  "ish": 1614,
  "sor@@": 1615,
  "essentially": 1616,
  "objects": 1617,
  "series": 1618,
  "movie": 1619,
  "period": 1620,
  "talks": 1621,
  "david": 1622,
  "seconds": 1623,
  "ingly": 1624,
  "standing": 1625,
  "perspective": 1626,
  "eventually": 1627,
  "ner": 1628,
  "results": 1629,
  "killed": 1630,
  "higher": 1631,
  "written": 1632,
  "traditional": 1633,
  "thousand": 1634,
  "sol@@": 1635,
  "beauty": 1636,
  "wife": 1637,
  "products": 1638,
  "sal@@": 1639,
  "ise": 1640,
  "somewhere": 1641,
  "himself": 1642,
  "fine": 1643,
  "complicated": 1644,
  "18": 1645,
  "cause": 1646,
  "crazy": 1647,
  "conditions": 1648,
  "zero": 1649,
  "hal@@": 1650,
  "touch": 1651,
  "response": 1652,
  "impossible": 1653,
  "sorts": 1654,
  "ker": 1655,
  "leaders": 1656,
  "approach": 1657,
  "pe": 1658,
  "shot": 1659,
  "stars": 1660,
  "spread": 1661,
  "site": 1662,
  "architecture": 1663,
  "upon": 1664,
  "kes": 1665,
  "older": 1666,
  "production": 1667,
  "minds": 1668,
  "screen": 1669,
  "jobs": 1670,
  "creative": 1671,
  "allowed": 1672,
  "income": 1673,
  "pal@@": 1674,
  "/": 1675,
  "ils": 1676,
  "wal@@": 1677,
  "multi@@": 1678,
  "bacteria": 1679,
  "yed": 1680,
  "van@@": 1681,
  "favorite": 1682,
  "tree": 1683,
  "ology": 1684,
  "ls": 1685,
  "arm": 1686,
  "camera": 1687,
  "pieces": 1688,
  "thanks": 1689,
  "individuals": 1690,
  "brains": 1691,
  "tively": 1692,
  "military": 1693,
  "0": 1694,
  "kept": 1695,
  "finding": 1696,
  "sell": 1697,
  "zation": 1698,
  "wed": 1699,
  "treatment": 1700,
  "somehow": 1701,
  "truly": 1702,
  "successful": 1703,
  "ines": 1704,
  "plant": 1705,
  "models": 1706,
  "sli@@": 1707,
  "excited": 1708,
  "crisis": 1709,
  "taught": 1710,
  "context": 1711,
  "explo@@": 1712,
  "alive": 1713,
  "em": 1714,
  "neurons": 1715,
  "drugs": 1716,
  "rise": 1717,
  "—": 1718,
  "worse": 1719,
  "shown": 1720,
  "cation": 1721,
  "faster": 1722,
  "training": 1723,
  "far@@": 1724,
  "supposed": 1725,
  "above": 1726,
  "western": 1727,
  "reading": 1728,
  "ka@@": 1729,
  "med": 1730,
  "down@@": 1731,
  "famous": 1732,
  "physics": 1733,
  "meaning": 1734,
  "role": 1735,
  "range": 1736,
  "tool": 1737,
  "connect": 1738,
  "del@@": 1739,
  ",@@": 1740,
  "concept": 1741,
  "beings": 1742,
  "bodies": 1743,
  "sky": 1744,
  "fy": 1745,
  "ots": 1746,
  "region": 1747,
  "kill": 1748,
  "bul@@": 1749,
  "weight": 1750,
  "therefore": 1751,
  "one-@@": 1752,
  "fundamental": 1753,
  "hey": 1754,
  "dream": 1755,
  "genes": 1756,
  "virus": 1757,
  "choose": 1758,
  "progress": 1759,
  "fla@@": 1760,
  "active": 1761,
  "eless": 1762,
  "trust": 1763,
  "meant": 1764,
  "wood": 1765,
  "dness": 1766,
  "including": 1767,
  "central": 1768,
  "communities": 1769,
  "s-@@": 1770,
  "drug": 1771,
  "ss": 1772,
  "mic": 1773,
  "fight": 1774,
  "earlier": 1775,
  "costs": 1776,
  "families": 1777,
  "invented": 1778,
  "throughout": 1779,
  "clearly": 1780,
  "however": 1781,
  "service": 1782,
  "lies": 1783,
  "machines": 1784,
  "pain": 1785,
  "strange": 1786,
  "dangerous": 1787,
  "legs": 1788,
  "star": 1789,
  "ited": 1790,
  "tru@@": 1791,
  "americans": 1792,
  "studies": 1793,
  "hot": 1794,
  "two-@@": 1795,
  "record": 1796,
  "smaller": 1797,
  "ft": 1798,
  "aid": 1799,
  "ten": 1800,
  "familiar": 1801,
  "lon@@": 1802,
  "slow": 1803,
  "content": 1804,
  "bunch": 1805,
  "related": 1806,
  "policy": 1807,
  "actual": 1808,
  "price": 1809,
  "plastic": 1810,
  "ah": 1811,
  "increase": 1812,
  "massive": 1813,
  "cs": 1814,
  "although": 1815,
  "listening": 1816,
  "dog": 1817,
  "greater": 1818,
  "magic": 1819,
  "rights": 1820,
  "new@@": 1821,
  "direction": 1822,
  "solutions": 1823,
  "press": 1824,
  "square": 1825,
  "tv": 1826,
  "dad": 1827,
  "waiting": 1828,
  "unfortunately": 1829,
  "cases": 1830,
  "robots": 1831,
  "ler": 1832,
  "healthy": 1833,
  "om": 1834,
  "slide": 1835,
  "recognize": 1836,
  "allows": 1837,
  "waste": 1838,
  "driving": 1839,
  "walked": 1840,
  "ese": 1841,
  "immediately": 1842,
  "violence": 1843,
  "flow": 1844,
  "dollar": 1845,
  "connection": 1846,
  "ched": 1847,
  "none": 1848,
  "skills": 1849,
  "forget": 1850,
  "function": 1851,
  "zes": 1852,
  "date": 1853,
  "exist": 1854,
  "train": 1855,
  "to-@@": 1856,
  "surgery": 1857,
  "specific": 1858,
  "sorry": 1859,
  "website": 1860,
  "intelligence": 1861,
  "treat": 1862,
  "anymore": 1863,
  "conversation": 1864,
  "freedom": 1865,
  "aging": 1866,
  "decisions": 1867,
  "patterns": 1868,
  "museum": 1869,
  "win": 1870,
  "st-@@": 1871,
  "consider": 1872,
  "pull": 1873,
  "effective": 1874,
  "ran": 1875,
  "protect": 1876,
  "rule": 1877,
  "ore": 1878,
  "aware": 1879,
  "travel": 1880,
  "math": 1881,
  "gotten": 1882,
  "greatest": 1883,
  "draw": 1884,
  "wonder": 1885,
  "understood": 1886,
  "hole": 1887,
  "pit@@": 1888,
  "ham@@": 1889,
  "current": 1890,
  "dy@@": 1891,
  "on-@@": 1892,
  "humanity": 1893,
  "ta": 1894,
  "diversity": 1895,
  "subject": 1896,
  "grand@@": 1897,
  "flying": 1898,
  "lower": 1899,
  "survive": 1900,
  "forest": 1901,
  "president": 1902,
  "v": 1903,
  "remarkable": 1904,
  "useful": 1905,
  "babies": 1906,
  "genetic": 1907,
  "clean": 1908,
  "ped": 1909,
  "glass": 1910,
  "critical": 1911,
  "song": 1912,
  "private": 1913,
  "cultural": 1914,
  "provide": 1915,
  "john": 1916,
  "stick": 1917,
  "anywhere": 1918,
  "weren": 1919,
  "agree": 1920,
  "photograph": 1921,
  "performance": 1922,
  "grade": 1923,
  "artist": 1924,
  "conflict": 1925,
  "re-@@": 1926,
  "non@@": 1927,
  "obvious": 1928,
  "70": 1929,
  "mostly": 1930,
  "aids": 1931,
  "han@@": 1932,
  "practice": 1933,
  "bank": 1934,
  "self": 1935,
  "enormous": 1936,
  "ian": 1937,
  "environmental": 1938,
  "cold": 1939,
  "played": 1940,
  "television": 1941,
  "religion": 1942,
  "ases": 1943,
  "mat@@": 1944,
  "teaching": 1945,
  "fuel": 1946,
  "loved": 1947,
  "evolved": 1948,
  "ide@@": 1949,
  "mars": 1950,
  "edi@@": 1951,
  "eating": 1952,
  "conference": 1953,
  "values": 1954,
  "complete": 1955,
  "oni@@": 1956,
  "raise": 1957,
  "cover": 1958,
  "forces": 1959,
  "swe@@": 1960,
  "doctors": 1961,
  "politics": 1962,
  "becoming": 1963,
  "pun@@": 1964,
  "scientist": 1965,
  "floor": 1966,
  "creativity": 1967,
  "engineering": 1968,
  "urban": 1969,
  "ctor": 1970,
  "ration": 1971,
  "markets": 1972,
  "gene": 1973,
  "back@@": 1974,
  "various": 1975,
  "ff": 1976,
  "final": 1977,
  "wn": 1978,
  "lights": 1979,
  "gri@@": 1980,
  "dr.": 1981,
  "temperature": 1982,
  "birds": 1983,
  "daughter": 1984,
  "hi": 1985,
  "near": 1986,
  "cies": 1987,
  "90": 1988,
  "phones": 1989,
  "fli@@": 1990,
  "services": 1991,
  "search": 1992,
  "twice": 1993,
  "matic": 1994,
  "produced": 1995,
  "quick": 1996,
  "ris@@": 1997,
  "mate": 1998,
  "ed@@": 1999,
  "consciousness": 2000,
  "passion": 2001,
  "feed": 2002,
  "sustainable": 2003,
  "slightly": 2004,
  "capacity": 2005,
  "ads": 2006,
  "ha": 2007,
  "island": 2008,
  "possibly": 2009,
  "pass": 2010,
  "institutions": 2011,
  "stat@@": 2012,
  "heat": 2013,
  "decade": 2014,
  "ical": 2015,
  "lam@@": 2016,
  "ahead": 2017,
  "nar@@": 2018,
  "funny": 2019,
  "path": 2020,
  "speaking": 2021,
  "unique": 2022,
  "ered": 2023,
  "she@@": 2024,
  "types": 2025,
  "year-old": 2026,
  "helped": 2027,
  "sat": 2028,
  "causes": 2029,
  "discover": 2030,
  "instance": 2031,
  "afghanistan": 2032,
  "genome": 2033,
  "bought": 2034,
  "chris": 2035,
  "le-@@": 2036,
  "experiments": 2037,
  "significant": 2038,
  "infrastructure": 2039,
  "16": 2040,
  "networks": 2041,
  "recent": 2042,
  "societies": 2043,
  "radi@@": 2044,
  "character": 2045,
  "chemical": 2046,
  "wil@@": 2047,
  "nation": 2048,
  "efficient": 2049,
  "mobile": 2050,
  "moon": 2051,
  "financial": 2052,
  "shared": 2053,
  "designers": 2054,
  "meeting": 2055,
  "net": 2056,
  "following": 2057,
  "original": 2058,
  "push": 2059,
  "ancient": 2060,
  "degrees": 2061,
  "land@@": 2062,
  "sign": 2063,
  "charge": 2064,
  "5,000": 2065,
  "ky": 2066,
  "shed": 2067,
  "directly": 2068,
  "park": 2069,
  "ble@@": 2070,
  "sharing": 2071,
  "extra": 2072,
  "terrible": 2073,
  "track": 2074,
  "communication": 2075,
  "len@@": 2076,
  "purpose": 2077,
  "police": 2078,
  "london": 2079,
  "carry": 2080,
  "worry": 2081,
  "industrial": 2082,
  "ny": 2083,
  "below": 2084,
  "complexity": 2085,
  "ley": 2086,
  "indian": 2087,
  "workers": 2088,
  "focused": 2089,
  "secret": 2090,
  "mark": 2091,
  "300": 2092,
  "pressure": 2093,
  "boys": 2094,
  "governments": 2095,
  "career": 2096,
  "paid": 2097,
  "era": 2098,
  "straight": 2099,
  "bac@@": 2100,
  "term": 2101,
  "summer": 2102,
  "emotional": 2103,
  "levels": 2104,
  "ages": 2105,
  "inspired": 2106,
  "trade": 2107,
  "capital": 2108,
  "willing": 2109,
  "10@@": 2110,
  "artists": 2111,
  "diseases": 2112,
  "whose": 2113,
  "balance": 2114,
  "a-@@": 2115,
  "biological": 2116,
  "dent": 2117,
  "foundation": 2118,
  "birth": 2119,
  "event": 2120,
  "etc": 2121,
  "forth": 2122,
  "sleep": 2123,
  "effects": 2124,
  "closer": 2125,
  "stream": 2126,
  "meters": 2127,
  "creates": 2128,
  "bly": 2129,
  "ca": 2130,
  "ute": 2131,
  "oxygen": 2132,
  "differences": 2133,
  "challenges": 2134,
  "speci@@": 2135,
  "laws": 2136,
  "apart": 2137,
  "drop": 2138,
  "molecules": 2139,
  "memory": 2140,
  "cycle": 2141,
  "structures": 2142,
  "flu": 2143,
  "text": 2144,
  "na": 2145,
  "trial": 2146,
  "explore": 2147,
  "bill": 2148,
  "bing": 2149,
  "cas@@": 2150,
  "atmosphere": 2151,
  "supply": 2152,
  "fit": 2153,
  "trouble": 2154,
  "end@@": 2155,
  "o-@@": 2156,
  "$": 2157,
  "particles": 2158,
  "rooms": 2159,
  "dying": 2160,
  "sphere": 2161,
  "yellow": 2162,
  "stone": 2163,
  "spending": 2164,
  "rock": 2165,
  "asia": 2166,
  "work@@": 2167,
  "im": 2168,
  "lets": 2169,
  "devices": 2170,
  "broken": 2171,
  "sin@@": 2172,
  "organisms": 2173,
  "pers": 2174,
  "flies": 2175,
  "published": 2176,
  "tail": 2177,
  "seemed": 2178,
  "party": 2179,
  "noticed": 2180,
  "faces": 2181,
  "chi@@": 2182,
  "california": 2183,
  "easily": 2184,
  "radio": 2185,
  "sla@@": 2186,
  "lie": 2187,
  "10,000": 2188,
  "sun@@": 2189,
  "graph": 2190,
  "worst": 2191,
  "colleagues": 2192,
  "studying": 2193,
  "total": 2194,
  "ne": 2195,
  "highly": 2196,
  "answers": 2197,
  "counter@@": 2198,
  "popular": 2199,
  "ping": 2200,
  "prison": 2201,
  "hearing": 2202,
  "fair": 2203,
  "phenomenon": 2204,
  "chair": 2205,
  "decades": 2206,
  "blind": 2207,
  "turning": 2208,
  "passed": 2209,
  "decide": 2210,
  "electric": 2211,
  "lucky": 2212,
  "check": 2213,
  "condition": 2214,
  "choices": 2215,
  "bringing": 2216,
  "stopped": 2217,
  "necessarily": 2218,
  "task": 2219,
  "responsibility": 2220,
  "conver@@": 2221,
  "communicate": 2222,
  "tremendous": 2223,
  "q@@": 2224,
  "knowing": 2225,
  "iraq": 2226,
  "noise": 2227,
  "print": 2228,
  "fying": 2229,
  "coffee": 2230,
  "feels": 2231,
  "bits": 2232,
  "richard": 2233,
  "surprising": 2234,
  "1,000": 2235,
  "decision": 2236,
  "bird": 2237,
  "mountain": 2238,
  "ko@@": 2239,
  "window": 2240,
  "edge": 2241,
  "&amp;": 2242,
  "corner": 2243,
  "low-@@": 2244,
  "neuro@@": 2245,
  "leads": 2246,
  "al-@@": 2247,
  "possibility": 2248,
  "improve": 2249,
  "mur@@": 2250,
  "engine": 2251,
  "achieve": 2252,
  "basis": 2253,
  "helping": 2254,
  "ctors": 2255,
  "hes": 2256,
  "return": 2257,
  "farmers": 2258,
  "-year-old": 2259,
  "programs": 2260,
  "pounds": 2261,
  "fix": 2262,
  "civil": 2263,
  "bone": 2264,
  "nearly": 2265,
  "argument": 2266,
  "formed": 2267,
  "fairly": 2268,
  "relationships": 2269,
  "throw": 2270,
  "designer": 2271,
  "tissue": 2272,
  "fold": 2273,
  "ought": 2274,
  "brings": 2275,
  "missing": 2276,
  "address": 2277,
  "yer": 2278,
  "lt": 2279,
  "lying": 2280,
  "electro@@": 2281,
  "typical": 2282,
  "giant": 2283,
  "definition": 2284,
  "elements": 2285,
  "hum@@": 2286,
  "meter": 2287,
  "interact": 2288,
  "race": 2289,
  "14": 2290,
  "flight": 2291,
  "justice": 2292,
  "standard": 2293,
  "moments": 2294,
  "differently": 2295,
  "mothers": 2296,
  "figured": 2297,
  "reduce": 2298,
  "join": 2299,
  "graphy": 2300,
  "imagination": 2301,
  "ink": 2302,
  "benefits": 2303,
  "opportunities": 2304,
  "not@@": 2305,
  "&apos;@@": 2306,
  "suffering": 2307,
  "organizations": 2308,
  "load": 2309,
  "core": 2310,
  "river": 2311,
  "1.@@": 2312,
  "religious": 2313,
  "finished": 2314,
  "held": 2315,
  "j": 2316,
  "landscape": 2317,
  "mouse": 2318,
  "french": 2319,
  "professor": 2320,
  "hair": 2321,
  "spo@@": 2322,
  "ra": 2323,
  "ering": 2324,
  "planets": 2325,
  "iled": 2326,
  "shift": 2327,
  "boat": 2328,
  "creatures": 2329,
  "mr.": 2330,
  "breast": 2331,
  "conscious": 2332,
  "bread": 2333,
  "sites": 2334,
  "engineers": 2335,
  "benefit": 2336,
  "competition": 2337,
  "tures": 2338,
  "tom": 2339,
  "sand": 2340,
  "afraid": 2341,
  "card": 2342,
  "stem": 2343,
  "bridge": 2344,
  "well-@@": 2345,
  "1,@@": 2346,
  "organic": 2347,
  "streets": 2348,
  "colors": 2349,
  "resi@@": 2350,
  "comfortable": 2351,
  "tan": 2352,
  "forever": 2353,
  "ends": 2354,
  "hea@@": 2355,
  "profit": 2356,
  "holding": 2357,
  "british": 2358,
  "fields": 2359,
  "bla@@": 2360,
  "block": 2361,
  "enter": 2362,
  "lesson": 2363,
  "heads": 2364,
  "moves": 2365,
  "notion": 2366,
  "prize": 2367,
  "visit": 2368,
  "slowly": 2369,
  "rain": 2370,
  "catch": 2371,
  "calls": 2372,
  "campaign": 2373,
  "begins": 2374,
  "negative": 2375,
  "base": 2376,
  "circle": 2377,
  "vely": 2378,
  "meat": 2379,
  "matters": 2380,
  "gun": 2381,
  "describe": 2382,
  "mathematics": 2383,
  "despite": 2384,
  "saving": 2385,
  "insects": 2386,
  "citizens": 2387,
  "ray": 2388,
  "otherwise": 2389,
  "perfectly": 2390,
  "coast": 2391,
  "walls": 2392,
  "pet@@": 2393,
  "helps": 2394,
  "events": 2395,
  "billions": 2396,
  "experiences": 2397,
  "discovery": 2398,
  "degree": 2399,
  "traffic": 2400,
  "effort": 2401,
  "necessary": 2402,
  "studied": 2403,
  "shop": 2404,
  "opened": 2405,
  "ring": 2406,
  "entirely": 2407,
  "brilliant": 2408,
  "offer": 2409,
  "painting": 2410,
  "easier": 2411,
  "fore@@": 2412,
  "nations": 2413,
  "factory": 2414,
  "distance": 2415,
  "prote@@": 2416,
  "fication": 2417,
  "count": 2418,
  "japan": 2419,
  "afford": 2420,
  "emotions": 2421,
  "responsible": 2422,
  "bling": 2423,
  "normally": 2424,
  "members": 2425,
  "ultimately": 2426,
  "placed": 2427,
  "sister": 2428,
  "contra@@": 2429,
  "sector": 2430,
  "photo": 2431,
  "report": 2432,
  "mouth": 2433,
  "apply": 2434,
  "statistics": 2435,
  "opposite": 2436,
  "profound": 2437,
  "enjoy": 2438,
  "adults": 2439,
  "tech": 2440,
  "female": 2441,
  "wisdom": 2442,
  "magazine": 2443,
  "sold": 2444,
  "13": 2445,
  "seriously": 2446,
  "tations": 2447,
  "wear": 2448,
  "400": 2449,
  "operating": 2450,
  "facebook": 2451,
  "caught": 2452,
  "supp@@": 2453,
  "quar@@": 2454,
  "foreign": 2455,
  "u.k.": 2456,
  "trained": 2457,
  "leading": 2458,
  "desert": 2459,
  "engineer": 2460,
  "la": 2461,
  "principles": 2462,
  "galaxies": 2463,
  "respect": 2464,
  "wow": 2465,
  "investment": 2466,
  "according": 2467,
  "motion": 2468,
  "angle": 2469,
  "spring": 2470,
  "alize": 2471,
  "inner": 2472,
  "steps": 2473,
  "plus": 2474,
  "fashion": 2475,
  "puts": 2476,
  "influence": 2477,
  "station": 2478,
  "fill": 2479,
  "identity": 2480,
  "engage": 2481,
  "extreme": 2482,
  "shouldn": 2483,
  "attack": 2484,
  "sick": 2485,
  "cheap": 2486,
  "loss": 2487,
  "fourth": 2488,
  "argue": 2489,
  "commercial": 2490,
  "limited": 2491,
  "stuck": 2492,
  "constantly": 2493,
  "promise": 2494,
  "oceans": 2495,
  "thinks": 2496,
  "consumption": 2497,
  "failed": 2498,
  "legal": 2499,
  "wild": 2500,
  "quote": 2501,
  "in-@@": 2502,
  "graphic": 2503,
  "dry": 2504,
  "fighting": 2505,
  "san": 2506,
  "airplane": 2507,
  "bility": 2508,
  "sequence": 2509,
  "tumor": 2510,
  "smo@@": 2511,
  "raised": 2512,
  "capable": 2513,
  "filled": 2514,
  "hat@@": 2515,
  "metaphor": 2516,
  "hopefully": 2517,
  "wealth": 2518,
  "beat": 2519,
  "shoes": 2520,
  "invest": 2521,
  "transform": 2522,
  "predict": 2523,
  "agriculture": 2524,
  "respond": 2525,
  "husband": 2526,
  "dynamic": 2527,
  "prevent": 2528,
  "24": 2529,
  "followed": 2530,
  "co2": 2531,
  "leaving": 2532,
  "2,000": 2533,
  "arms": 2534,
  "harder": 2535,
  "male": 2536,
  "virtual": 2537,
  "article": 2538,
  "three-@@": 2539,
  "due": 2540,
  "labor": 2541,
  "equal": 2542,
  "alism": 2543,
  "importantly": 2544,
  "sis": 2545,
  "dreams": 2546,
  "fascinating": 2547,
  "background": 2548,
  "gate": 2549,
  "tough": 2550,
  "distribution": 2551,
  "passionate": 2552,
  "believed": 2553,
  "tens": 2554,
  "washington": 2555,
  "roll": 2556,
  "finger": 2557,
  "desire": 2558,
  "tomorrow": 2559,
  "therapy": 2560,
  "languages": 2561,
  "crime": 2562,
  "pair": 2563,
  "creation": 2564,
  "bees": 2565,
  "hate": 2566,
  "damage": 2567,
  "co": 2568,
  "majority": 2569,
  "brother": 2570,
  "viruses": 2571,
  "bar": 2572,
  "spirit": 2573,
  "invisible": 2574,
  "organized": 2575,
  "dinner": 2576,
  "spaces": 2577,
  "advantage": 2578,
  "random": 2579,
  "sy": 2580,
  "apple": 2581,
  "val": 2582,
  "generate": 2583,
  "wide": 2584,
  "pages": 2585,
  "whenever": 2586,
  "speech": 2587,
  "dge": 2588,
  "survival": 2589,
  "driven": 2590,
  "paint": 2591,
  "caused": 2592,
  "molecule": 2593,
  "equivalent": 2594,
  "bot@@": 2595,
  "weird": 2596,
  "compare": 2597,
  "belief": 2598,
  "wearing": 2599,
  "los": 2600,
  "ites": 2601,
  "treated": 2602,
  "economics": 2603,
  "sad": 2604,
  "sl@@": 2605,
  "yesterday": 2606,
  "failure": 2607,
  "note": 2608,
  "principle": 2609,
  "farm": 2610,
  "wave": 2611,
  "childhood": 2612,
  "unless": 2613,
  "intelligent": 2614,
  "deeply": 2615,
  "dimensions": 2616,
  "acts": 2617,
  "20th": 2618,
  "th-@@": 2619,
  "neighborhood": 2620,
  "opening": 2621,
  "theater": 2622,
  "managed": 2623,
  "soil": 2624,
  "ii": 2625,
  "proud": 2626,
  "worried": 2627,
  "lack": 2628,
  "leaves": 2629,
  "rein@@": 2630,
  "paul": 2631,
  "construction": 2632,
  "versus": 2633,
  "hed": 2634,
  "warming": 2635,
  "dinosaurs": 2636,
  "mortality": 2637,
  "mc@@": 2638,
  "malaria": 2639,
  "ak": 2640,
  "17": 2641,
  "wake": 2642,
  "names": 2643,
  "everyday": 2644,
  "electrical": 2645,
  "ka": 2646,
  "sexual": 2647,
  "bear": 2648,
  "paying": 2649,
  "surprise": 2650,
  "shapes": 2651,
  "covered": 2652,
  "represent": 2653,
  "concerned": 2654,
  "muscle": 2655,
  "charles": 2656,
  "church": 2657,
  "galaxy": 2658,
  "section": 2659,
  "suit": 2660,
  "brand": 2661,
  "drawing": 2662,
  "facts": 2663,
  "ph": 2664,
  "suppose": 2665,
  "define": 2666,
  "increasingly": 2667,
  "actions": 2668,
  "weapons": 2669,
  "ol": 2670,
  "houses": 2671,
  "launched": 2672,
  "mentioned": 2673,
  "photos": 2674,
  "professional": 2675,
  "european": 2676,
  "rid": 2677,
  "currently": 2678,
  "designing": 2679,
  "vehicle": 2680,
  "sudden": 2681,
  "holes": 2682,
  "cker": 2683,
  "described": 2684,
  "alists": 2685,
  "expression": 2686,
  "civilization": 2687,
  "protein": 2688,
  "classroom": 2689,
  "bright": 2690,
  "institute": 2691,
  "letter": 2692,
  "appear": 2693,
  "camp": 2694,
  "roughly": 2695,
  "coral": 2696,
  "leadership": 2697,
  "arts": 2698,
  "ash": 2699,
  "mexico": 2700,
  "cloud": 2701,
  "debate": 2702,
  "hidden": 2703,
  "copy": 2704,
  "george": 2705,
  "fell": 2706,
  "deliver": 2707,
  "invited": 2708,
  "losing": 2709,
  "stands": 2710,
  "japanese": 2711,
  "hell": 2712,
  "option": 2713,
  "graduate": 2714,
  "affect": 2715,
  "universal": 2716,
  "lat@@": 2717,
  "vast": 2718,
  "plane": 2719,
  "kenya": 2720,
  "lunch": 2721,
  "35": 2722,
  "honest": 2723,
  "gain": 2724,
  "ners": 2725,
  "smell": 2726,
  "grandmother": 2727,
  "spot": 2728,
  "exists": 2729,
  "toward": 2730,
  "threat": 2731,
  "teeth": 2732,
  "horse": 2733,
  "aries": 2734,
  "ordinary": 2735,
  "garden": 2736,
  "heavy": 2737,
  "interaction": 2738,
  "awful": 2739,
  "continent": 2740,
  "seat": 2741,
  "bles": 2742,
  "separate": 2743,
  "voices": 2744,
  "producing": 2745,
  "geo@@": 2746,
  "99": 2747,
  "finish": 2748,
  "collective": 2749,
  "actor": 2750,
  "emotion": 2751,
  "direct": 2752,
  "gold": 2753,
  "forming": 2754,
  "einstein": 2755,
  "strategy": 2756,
  "depression": 2757,
  "acting": 2758,
  "hasn": 2759,
  "definitely": 2760,
  "leader": 2761,
  "steel": 2762,
  "mile": 2763,
  "evil": 2764,
  "wards": 2765,
  "link": 2766,
  "compared": 2767,
  "newspaper": 2768,
  "cher": 2769,
  "magnetic": 2770,
  "trip": 2771,
  "nigeria": 2772,
  "signal": 2773,
  "experts": 2774,
  "surprised": 2775,
  "underneath": 2776,
  "keeping": 2777,
  "notes": 2778,
  "sight": 2779,
  "associated": 2780,
  "sugar": 2781,
  "planning": 2782,
  "valley": 2783,
  "chemicals": 2784,
  "pre-@@": 2785,
  "ize": 2786,
  "soldiers": 2787,
  "rural": 2788,
  "cure": 2789,
  "45": 2790,
  "accident": 2791,
  "fat": 2792,
  "dies": 2793,
  "feelings": 2794,
  "collect": 2795,
  "equipment": 2796,
  "jump": 2797,
  "sum": 2798,
  "prime": 2799,
  "demand": 2800,
  "multiple": 2801,
  "17@@": 2802,
  "worldwide": 2803,
  "grown": 2804,
  "signals": 2805,
  "sides": 2806,
  "resource": 2807,
  "interface": 2808,
  "powered": 2809,
  "union": 2810,
  "essential": 2811,
  "zo@@": 2812,
  "facing": 2813,
  "studio": 2814,
  "gram": 2815,
  "independent": 2816,
  "highest": 2817,
  "chemistry": 2818,
  "budget": 2819,
  "double": 2820,
  "joy": 2821,
  "generations": 2822,
  "transformation": 2823,
  "artificial": 2824,
  "cognitive": 2825,
  "consequences": 2826,
  "married": 2827,
  "atory": 2828,
  "closed": 2829,
  "controlled": 2830,
  "corruption": 2831,
  "importance": 2832,
  "100,000": 2833,
  "cultures": 2834,
  "status": 2835,
  "layer": 2836,
  "sub-@@": 2837,
  "killing": 2838,
  "selling": 2839,
  "warm": 2840,
  "ours": 2841,
  "nervous": 2842,
  "australia": 2843,
  "contact": 2844,
  "whom": 2845,
  "ladies": 2846,
  "email": 2847,
  "sty": 2848,
  "wars": 2849,
  "vote": 2850,
  "miss": 2851,
  "library": 2852,
  "emerging": 2853,
  "150": 2854,
  "operate": 2855,
  "northern": 2856,
  "spoke": 2857,
  "molecular": 2858,
  "pole": 2859,
  "rational": 2860,
  "cortex": 2861,
  "stood": 2862,
  "property": 2863,
  "typically": 2864,
  "technical": 2865,
  "empty": 2866,
  "alization": 2867,
  "letters": 2868,
  "iran": 2869,
  "chicken": 2870,
  "mid@@": 2871,
  "wired": 2872,
  "shall": 2873,
  "department": 2874,
  "player": 2875,
  "c.": 2876,
  "relatively": 2877,
  "folks": 2878,
  "avoid": 2879,
  "wire": 2880,
  "deeper": 2881,
  "israel": 2882,
  "forced": 2883,
  "stu@@": 2884,
  "solved": 2885,
  "england": 2886,
  "spectrum": 2887,
  "master": 2888,
  "dogs": 2889,
  "hero": 2890,
  "fellow": 2891,
  "picked": 2892,
  "que": 2893,
  "flat": 2894,
  "army": 2895,
  "james": 2896,
  "gam@@": 2897,
  "weather": 2898,
  "efficiency": 2899,
  "prove": 2900,
  "curious": 2901,
  "sharks": 2902,
  "intellectual": 2903,
  "dots": 2904,
  "match": 2905,
  "characters": 2906,
  "mix": 2907,
  "account": 2908,
  "violent": 2909,
  "brown": 2910,
  "ination": 2911,
  "regular": 2912,
  "adult": 2913,
  "tered": 2914,
  "users": 2915,
  "roots": 2916,
  "breath": 2917,
  "anti-@@": 2918,
  "practical": 2919,
  "lady": 2920,
  "protection": 2921,
  "britain": 2922,
  "invention": 2923,
  "leg": 2924,
  "homes": 2925,
  "bus": 2926,
  "va": 2927,
  "round": 2928,
  "suggest": 2929,
  "daily": 2930,
  "mountains": 2931,
  "detail": 2932,
  "kilometers": 2933,
  "mathematical": 2934,
  "michael": 2935,
  "thoughts": 2936,
  "alternative": 2937,
  "calling": 2938,
  "senses": 2939,
  "possibilities": 2940,
  "fresh": 2941,
  "photographs": 2942,
  "twitter": 2943,
  "nasa": 2944,
  "movies": 2945,
  "pleasure": 2946,
  "clinical": 2947,
  "remote": 2948,
  "diet": 2949,
  "fire@@": 2950,
  "coal": 2951,
  "affected": 2952,
  "organs": 2953,
  "cards": 2954,
  "absolute": 2955,
  "experienced": 2956,
  "brazil": 2957,
  "reaction": 2958,
  "marketing": 2959,
  "canada": 2960,
  "lands": 2961,
  "chain": 2962,
  "lessons": 2963,
  "relevant": 2964,
  "clock": 2965,
  "method": 2966,
  "600": 2967,
  "pil@@": 2968,
  "introduced": 2969,
  "kitchen": 2970,
  "scene": 2971,
  "effectively": 2972,
  "long-term": 2973,
  "bang": 2974,
  "fishing": 2975,
  "addition": 2976,
  "disaster": 2977,
  "minister": 2978,
  "arrived": 2979,
  "waves": 2980,
  "axis": 2981,
  "management": 2982,
  "details": 2983,
  "by@@": 2984,
  "bush": 2985,
  "considered": 2986,
  "kar@@": 2987,
  "saved": 2988,
  "hot@@": 2989,
  "tele@@": 2990,
  "maps": 2991,
  "radiation": 2992,
  "dealing": 2993,
  "penguins": 2994,
  "metal": 2995,
  "nor": 2996,
  "partner": 2997,
  "van": 2998,
  "drink": 2999,
  "grand": 3000,
  "sentence": 3001,
  "received": 3002,
  "cross": 3003,
  "hadn": 3004,
  "sle@@": 3005,
  "3,000": 3006,
  "hall": 3007,
  "epidemic": 3008,
  "buying": 3009,
  "setting": 3010,
  "productive": 3011,
  "gravity": 3012,
  "players": 3013,
  "marine": 3014,
  "3d": 3015,
  "wise": 3016,
  "specifically": 3017,
  "employees": 3018,
  "germany": 3019,
  "winter": 3020,
  "cooking": 3021,
  "struggle": 3022,
  "gift": 3023,
  "radical": 3024,
  "beach": 3025,
  "southern": 3026,
  "ships": 3027,
  "requires": 3028,
  "transition": 3029,
  "location": 3030,
  "mistake": 3031,
  "liked": 3032,
  "eastern": 3033,
  "valuable": 3034,
  "2008": 3035,
  "cutting": 3036,
  "laptop": 3037,
  "fossil": 3038,
  "fail": 3039,
  "exercise": 3040,
  "cated": 3041,
  "switch": 3042,
  "mention": 3043,
  "businesses": 3044,
  "analysis": 3045,
  "darwin": 3046,
  "testing": 3047,
  "tests": 3048,
  "broke": 3049,
  "introduce": 3050,
  "atoms": 3051,
  "dan": 3052,
  "feedback": 3053,
  "mistakes": 3054,
  "trials": 3055,
  "sil@@": 3056,
  "democratic": 3057,
  "ecosystem": 3058,
  "reward": 3059,
  "appropriate": 3060,
  "express": 3061,
  "silk": 3062,
  "post-@@": 3063,
  "ished": 3064,
  "tons": 3065,
  "five-@@": 3066,
  "unlike": 3067,
  "psychology": 3068,
  "click": 3069,
  "existence": 3070,
  "rever@@": 3071,
  "unusual": 3072,
  "manage": 3073,
  "behaviors": 3074,
  "prepared": 3075,
  "milk": 3076,
  "motor": 3077,
  "restaurant": 3078,
  "factor": 3079,
  "techniques": 3080,
  "properties": 3081,
  "arab": 3082,
  "target": 3083,
  "pop": 3084,
  "components": 3085,
  "lifetime": 3086,
  "theme": 3087,
  "primary": 3088,
  "consumer": 3089,
  "poetry": 3090,
  "videos": 3091,
  "display": 3092,
  "carrying": 3093,
  "medium": 3094,
  "rare": 3095,
  "increasing": 3096,
  "accept": 3097,
  "visible": 3098,
  "generally": 3099,
  "quantum": 3100,
  "infected": 3101,
  "represents": 3102,
  "fewer": 3103,
  "instrument": 3104,
  "writer": 3105,
  "safety": 3106,
  "whereas": 3107,
  "evolutionary": 3108,
  "politicians": 3109,
  "bottle": 3110,
  "proteins": 3111,
  "via": 3112,
  "gap": 3113,
  "naturally": 3114,
  "bubble": 3115,
  "sets": 3116,
  "berg": 3117,
  "bet": 3118,
  "honor": 3119,
  "processes": 3120,
  "swim": 3121,
  "runs": 3122,
  "roof": 3123,
  "capture": 3124,
  "watched": 3125,
  "convince": 3126,
  "identify": 3127,
  "credit": 3128,
  "neighbors": 3129,
  "variety": 3130,
  "wikipedia": 3131,
  "connections": 3132,
  "sir": 3133,
  "user": 3134,
  "faith": 3135,
  "battle": 3136,
  "situations": 3137,
  "brothers": 3138,
  "driver": 3139,
  "hing": 3140,
  "satellite": 3141,
  "ancestors": 3142,
  "unit": 3143,
  "style": 3144,
  "novel": 3145,
  "crash": 3146,
  "-": 3147,
  "researchers": 3148,
  "string": 3149,
  "makers": 3150,
  "ken": 3151,
  "member": 3152,
  "perception": 3153,
  "u.n.": 3154,
  "expected": 3155,
  "error": 3156,
  "cat": 3157,
  "continued": 3158,
  "pulled": 3159,
  "-up": 3160,
  "serve": 3161,
  "platform": 3162,
  "stock": 3163,
  "personally": 3164,
  "exchange": 3165,
  "risks": 3166,
  "mirror": 3167,
  "marriage": 3168,
  "blocks": 3169,
  "tries": 3170,
  "peak": 3171,
  "liquid": 3172,
  "pollution": 3173,
  "cry": 3174,
  "fake": 3175,
  "goods": 3176,
  "rates": 3177,
  "advanced": 3178,
  "gulf": 3179,
  "reached": 3180,
  "estimate": 3181,
  "closely": 3182,
  "recorded": 3183,
  "burn": 3184,
  "males": 3185,
  "clip": 3186,
  "cents": 3187,
  "burning": 3188,
  "former": 3189,
  "ep": 3190,
  "zone": 3191,
  "depends": 3192,
  "lay": 3193,
  "defined": 3194,
  "joke": 3195,
  "goals": 3196,
  "2007": 3197,
  "vaccine": 3198,
  "battery": 3199,
  "require": 3200,
  "tradition": 3201,
  "sources": 3202,
  "relate": 3203,
  "ears": 3204,
  "architect": 3205,
  "stupid": 3206,
  "pin@@": 3207,
  "gy@@": 3208,
  "correct": 3209,
  "sensitive": 3210,
  "sunlight": 3211,
  "steve": 3212,
  "amounts": 3213,
  "ride": 3214,
  "ultimate": 3215,
  "75": 3216,
  "quiet": 3217,
  "hoping": 3218,
  "aspect": 3219,
  "taste": 3220,
  "movements": 3221,
  "environments": 3222,
  "frame": 3223,
  "traveling": 3224,
  "sees": 3225,
  "pollen": 3226,
  "thomas": 3227,
  "gentlemen": 3228,
  "discussion": 3229,
  "algorithms": 3230,
  "gay": 3231,
  "post": 3232,
  "empathy": 3233,
  "percentage": 3234,
  "healthcare": 3235,
  "solving": 3236,
  "collaboration": 3237,
  "kers": 3238,
  "emissions": 3239,
  "fortunate": 3240,
  "organ": 3241,
  "dish": 3242,
  "wine": 3243,
  "topic": 3244,
  "destruction": 3245,
  "figures": 3246,
  "remain": 3247,
  "band": 3248,
  "three-dimensional": 3249,
  "dramatic": 3250,
  "trick": 3251,
  "carefully": 3252,
  "stable": 3253,
  "hotel": 3254,
  "shaped": 3255,
  "interests": 3256,
  "opinion": 3257,
  "replace": 3258,
  "sending": 3259,
  "signs": 3260,
  "ized": 3261,
  "eric": 3262,
  "survey": 3263,
  "shake": 3264,
  "centers": 3265,
  "collection": 3266,
  "awareness": 3267,
  "shark": 3268,
  "wondering": 3269,
  "vulnerable": 3270,
  "convinced": 3271,
  "protected": 3272,
  "applied": 3273,
  "exploration": 3274,
  "youtube": 3275,
  "tape": 3276,
  "operation": 3277,
  "element": 3278,
  "pointed": 3279,
  "shoot": 3280,
  "feeding": 3281,
  "electronic": 3282,
  "harvard": 3283,
  "stress": 3284,
  "curve": 3285,
  "technological": 3286,
  "applications": 3287,
  "crowd": 3288,
  "hydrogen": 3289,
  "laboratory": 3290,
  "francisco": 3291,
  "islands": 3292,
  "tac@@": 3293,
  "falling": 3294,
  "holds": 3295,
  "include": 3296,
  "added": 3297,
  "hits": 3298,
  "skill": 3299,
  "amp": 3300,
  "birthday": 3301,
  "bones": 3302,
  "plays": 3303,
  "religions": 3304,
  "strength": 3305,
  "sophisticated": 3306,
  "explanation": 3307,
  "computing": 3308,
  "dropped": 3309,
  "existing": 3310,
  "remains": 3311,
  "tie": 3312,
  "tube": 3313,
  "nose": 3314,
  "insight": 3315,
  "breaking": 3316,
  "institution": 3317,
  "bag": 3318,
  "bomb": 3319,
  "polio": 3320,
  "robert": 3321,
  "singing": 3322,
  "fund": 3323,
  "smile": 3324,
  "sample": 3325,
  "channel": 3326,
  "encourage": 3327,
  "combination": 3328,
  "claim": 3329,
  "logic": 3330,
  "boxes": 3331,
  "economists": 3332,
  "transportation": 3333,
  "pakistan": 3334,
  "literature": 3335,
  "conventional": 3336,
  "increased": 3337,
  "boston": 3338,
  "windows": 3339,
  "relative": 3340,
  "cameras": 3341,
  "previous": 3342,
  "hip": 3343,
  "gdp": 3344,
  "partners": 3345,
  "maker": 3346,
  "confidence": 3347,
  "fundamentally": 3348,
  "tracking": 3349,
  "sw@@": 3350,
  "hurt": 3351,
  "trillion": 3352,
  "advice": 3353,
  "neither": 3354,
  "combined": 3355,
  "accurate": 3356,
  "solid": 3357,
  "flowers": 3358,
  "grid": 3359,
  "keeps": 3360,
  "odd": 3361,
  "upper": 3362,
  "pacific": 3363,
  "2000": 3364,
  "islam": 3365,
  "water@@": 3366,
  "entertainment": 3367,
  "presentation": 3368,
  "bin": 3369,
  "21": 3370,
  "reverse": 3371,
  "linked": 3372,
  "falls": 3373,
  "horrible": 3374,
  "fingers": 3375,
  "rocket": 3376,
  "cow": 3377,
  "microbes": 3378,
  "sweet": 3379,
  "presence": 3380,
  "monkeys": 3381,
  "outcome": 3382,
  "sal": 3383,
  "roads": 3384,
  "ances": 3385,
  "cast": 3386,
  "title": 3387,
  "length": 3388,
  "shares": 3389,
  "shame": 3390,
  "equation": 3391,
  "circumstances": 3392,
  "explains": 3393,
  "telescope": 3394,
  "entrepreneurs": 3395,
  "bay": 3396,
  "director": 3397,
  "suggests": 3398,
  "framework": 3399,
  "pack": 3400,
  "component": 3401,
  "occur": 3402,
  "expand": 3403,
  "fed": 3404,
  "options": 3405,
  "factors": 3406,
  "atten@@": 3407,
  "patent": 3408,
  "collapse": 3409,
  "mystery": 3410,
  "boring": 3411,
  "dancing": 3412,
  "films": 3413,
  "thin": 3414,
  "simplicity": 3415,
  "funding": 3416,
  "grain": 3417,
  "younger": 3418,
  "worlds": 3419,
  "queen": 3420,
  "architects": 3421,
  "manufacturing": 3422,
  "flew": 3423,
  "behavioral": 3424,
  "authority": 3425,
  "remind": 3426,
  "genius": 3427,
  "hospitals": 3428,
  "recording": 3429,
  "surgeon": 3430,
  "musical": 3431,
  "symmetry": 3432,
  "deaths": 3433,
  "doubt": 3434,
  "rapidly": 3435,
  "signed": 3436,
  "2010": 3437,
  "staff": 3438,
  "corporate": 3439,
  "paris": 3440,
  "detect": 3441,
  "finance": 3442,
  "well-being": 3443,
  "graphics": 3444,
  "wheel": 3445,
  "determine": 3446,
  "features": 3447,
  "alities": 3448,
  "lake": 3449,
  "philosophy": 3450,
  "performing": 3451,
  "organism": 3452,
  "mid-@@": 3453,
  "tonight": 3454,
  "activities": 3455,
  "hydro@@": 3456,
  "wondered": 3457,
  "tested": 3458,
  "post@@": 3459,
  "wireless": 3460,
  "illness": 3461,
  "raising": 3462,
  "inspiration": 3463,
  "chicago": 3464,
  "sculpture": 3465,
  "clouds": 3466,
  "selection": 3467,
  "climb": 3468,
  "internal": 3469,
  "subjects": 3470,
  "treating": 3471,
  "mechanical": 3472,
  "innovative": 3473,
  "pure": 3474,
  "distributed": 3475,
  "victims": 3476,
  "vehicles": 3477,
  "nowhere": 3478,
  "afternoon": 3479,
  "paradigm": 3480,
  "touched": 3481,
  "particle": 3482,
  "mechanism": 3483,
  "tea": 3484,
  "photo@@": 3485,
  "technique": 3486,
  "statement": 3487,
  "abstract": 3488,
  "obsessed": 3489,
  "prices": 3490,
  "comfort": 3491,
  "unexpected": 3492,
  "ologists": 3493,
  "occurred": 3494,
  "regions": 3495,
  "walks": 3496,
  "origami": 3497,
  "forests": 3498,
  "release": 3499,
  "decline": 3500,
  "pocket": 3501,
  "stronger": 3502,
  "sustainability": 3503,
  "meaningful": 3504,
  "designs": 3505,
  "vessels": 3506,
  "handle": 3507,
  "exact": 3508,
  "africans": 3509,
  "printing": 3510,
  "educational": 3511,
  "fan": 3512,
  "illegal": 3513,
  "creature": 3514,
  "raw": 3515,
  "conclusion": 3516,
  "combine": 3517,
  "uns@@": 3518,
  "wherever": 3519,
  "scan": 3520,
  "eggs": 3521,
  "functional": 3522,
  "phase": 3523,
  "author": 3524,
  "chose": 3525,
  "heroes": 3526,
  "celebrate": 3527,
  "required": 3528,
  "defense": 3529,
  "unclear": 3530,
  "swimming": 3531,
  "dh": 3532,
  "explained": 3533,
  "quarter": 3534,
  "underwater": 3535,
  "intense": 3536,
  "lighting": 3537,
  "surely": 3538,
  "egypt": 3539,
  "golden": 3540,
  "plans": 3541,
  "ologist": 3542,
  "messages": 3543,
  "processing": 3544,
  "globe": 3545,
  "generated": 3546,
  "careful": 3547,
  "21st": 3548,
  "clothes": 3549,
  "launch": 3550,
  "frankly": 3551,
  "proof": 3552,
  "potentially": 3553,
  "blog": 3554,
  "engaged": 3555,
  "election": 3556,
  "largely": 3557,
  "button": 3558,
  "collected": 3559,
  "transformed": 3560,
  "directions": 3561,
  "attempt": 3562,
  "drives": 3563,
  "instruments": 3564,
  "somewhat": 3565,
  "severe": 3566,
  "measured": 3567,
  "19th": 3568,
  "piano": 3569,
  "dense": 3570,
  "60s": 3571,
  "arctic": 3572,
  "trend": 3573,
  "court": 3574,
  "ya": 3575,
  "embrace": 3576,
  "grows": 3577,
  "poem": 3578,
  "released": 3579,
  "obama": 3580,
  "pen": 3581,
  "bible": 3582,
  "equally": 3583,
  "iron": 3584,
  "stayed": 3585,
  "paintings": 3586,
  "participate": 3587,
  "sticks": 3588,
  "identical": 3589,
  "mad": 3590,
  "evening": 3591,
  "sely": 3592,
  "german": 3593,
  "admit": 3594,
  "ford": 3595,
  "plate": 3596,
  "economies": 3597,
  "laugh": 3598,
  "lovely": 3599,
  "gender": 3600,
  "retro@@": 3601,
  "chapter": 3602,
  "chocolate": 3603,
  "volume": 3604,
  "overall": 3605,
  "pile": 3606,
  "14@@": 3607,
  "root": 3608,
  "divided": 3609,
  "puzzle": 3610,
  "hello": 3611,
  "resistance": 3612,
  "fuels": 3613,
  "split": 3614,
  "unknown": 3615,
  "muslim": 3616,
  "haiti": 3617,
  "cook": 3618,
  "weak": 3619,
  "16@@": 3620,
  "nets": 3621,
  "false": 3622,
  "korea": 3623,
  "sweden": 3624,
  "physically": 3625,
  "divide": 3626,
  "welcome": 3627,
  "zoom": 3628,
  "passing": 3629,
  "flower": 3630,
  "savings": 3631,
  "spar@@": 3632,
  "greenhouse": 3633,
  "incentives": 3634,
  "co-@@": 3635,
  "christmas": 3636,
  "perform": 3637,
  "posing": 3638,
  "faced": 3639,
  "obesity": 3640,
  "infinite": 3641,
  "soul": 3642,
  "capit@@": 3643,
  "congress": 3644,
  "september": 3645,
  "feature": 3646,
  "joined": 3647,
  "by-@@": 3648,
  "immune": 3649,
  "fortune": 3650,
  "prototype": 3651,
  "whales": 3652,
  "dirty": 3653,
  "france": 3654,
  "scared": 3655,
  "chip": 3656,
  "soft": 3657,
  "bf": 3658,
  "usual": 3659,
  "50,000": 3660,
  "ing-@@": 3661,
  "kingdom": 3662,
  "busy": 3663,
  "measuring": 3664,
  "four-@@": 3665,
  "density": 3666,
  "silence": 3667,
  "happier": 3668,
  "offered": 3669,
  "existed": 3670,
  "bike": 3671,
  "struck": 3672,
  "furniture": 3673,
  "commitment": 3674,
  "teams": 3675,
  "lung": 3676,
  "pregnant": 3677,
  "secondly": 3678,
  "carried": 3679,
  "sheep": 3680,
  "clinic": 3681,
  "agreed": 3682,
  "depend": 3683,
  "automatically": 3684,
  "frank": 3685,
  "session": 3686,
  "spreading": 3687,
  "tall": 3688,
  "connecting": 3689,
  "invent": 3690,
  "consumers": 3691,
  "shock": 3692,
  "housing": 3693,
  "reaching": 3694,
  "disappeared": 3695,
  "probability": 3696,
  "granted": 3697,
  "20,000": 3698,
  "implications": 3699,
  "villages": 3700,
  "march": 3701,
  "interview": 3702,
  "functions": 3703,
  "dolphins": 3704,
  "narrative": 3705,
  "intuitive": 3706,
  "dor@@": 3707,
  "ear": 3708,
  "suffer": 3709,
  "19": 3710,
  "hunger": 3711,
  "parking": 3712,
  "songs": 3713,
  "romantic": 3714,
  "nest": 3715,
  "exploring": 3716,
  "shut": 3717,
  "half-@@": 3718,
  "input": 3719,
  "2005": 3720,
  "clever": 3721,
  "till": 3722,
  "depending": 3723,
  "ku@@": 3724,
  "translate": 3725,
  "gates": 3726,
  "grab": 3727,
  "apparently": 3728,
  "symptoms": 3729,
  "enable": 3730,
  "border": 3731,
  "phrase": 3732,
  "club": 3733,
  "appreciate": 3734,
  "pig": 3735,
  "interestingly": 3736,
  "stations": 3737,
  "extinct": 3738,
  "gray": 3739,
  "long-@@": 3740,
  "ists": 3741,
  "painful": 3742,
  "breathe": 3743,
  "spider": 3744,
  "circuit": 3745,
  "awesome": 3746,
  "tower": 3747,
  "year-olds": 3748,
  "causing": 3749,
  "x-ray": 3750,
  "attacks": 3751,
  "danger": 3752,
  "agency": 3753,
  "synthetic": 3754,
  "height": 3755,
  "interactive": 3756,
  "classic": 3757,
  "chart": 3758,
  "lifestyle": 3759,
  "microscope": 3760,
  "inspiring": 3761,
  "hill": 3762,
  "mess": 3763,
  "ben": 3764,
  "spoken": 3765,
  "islamic": 3766,
  "links": 3767,
  "friendly": 3768,
  "fortunately": 3769,
  "constant": 3770,
  "entered": 3771,
  "script": 3772,
  "iphone": 3773,
  "records": 3774,
  "arguments": 3775,
  "reference": 3776,
  "calculate": 3777,
  "higgs": 3778,
  "silicon": 3779,
  "assume": 3780,
  "wanting": 3781,
  "powers": 3782,
  "grass": 3783,
  "application": 3784,
  "latest": 3785,
  "rising": 3786,
  "balloon": 3787,
  "latin": 3788,
  "2009": 3789,
  "bell": 3790,
  "properly": 3791,
  "secure": 3792,
  "tasks": 3793,
  "disorder": 3794,
  "corn": 3795,
  "samples": 3796,
  "dot": 3797,
  "concrete": 3798,
  "aside": 3799,
  "geographic": 3800,
  "centuries": 3801,
  "optimistic": 3802,
  "tag": 3803,
  "breathing": 3804,
  "toxic": 3805,
  "reputation": 3806,
  "snow": 3807,
  "curiosity": 3808,
  "shell": 3809,
  "liver": 3810,
  "prefer": 3811,
  "recovery": 3812,
  "oxford": 3813,
  "judge": 3814,
  "inch": 3815,
  "congo": 3816,
  "symbol": 3817,
  "ghana": 3818,
  "cats": 3819,
  "remove": 3820,
  "chest": 3821,
  "shoulder": 3822,
  "dozen": 3823,
  "dramatically": 3824,
  "determined": 3825,
  "behave": 3826,
  "reflect": 3827,
  "70s": 3828,
  "capitalism": 3829,
  "score": 3830,
  "tied": 3831,
  "inspire": 3832,
  "illusion": 3833,
  "lens": 3834,
  "slides": 3835,
  "ignore": 3836,
  "productivity": 3837,
  "advertising": 3838,
  "scary": 3839,
  "linear": 3840,
  "cute": 3841,
  "disorders": 3842,
  "whale": 3843,
  "hang": 3844,
  "2004": 3845,
  "mainly": 3846,
  "dependent": 3847,
  "standards": 3848,
  "all-@@": 3849,
  "russia": 3850,
  "hide": 3851,
  "27": 3852,
  "exhibition": 3853,
  "texas": 3854,
  "drinking": 3855,
  "adam": 3856,
  "breaks": 3857,
  "les@@": 3858,
  "disappear": 3859,
  "distant": 3860,
  "tour": 3861,
  "classes": 3862,
  "elephant": 3863,
  "telephone": 3864,
  "peter": 3865,
  "wea@@": 3866,
  "reduction": 3867,
  "destroy": 3868,
  "units": 3869,
  "ain": 3870,
  "22": 3871,
  "appears": 3872,
  "physicist": 3873,
  "neuron": 3874,
  "ideal": 3875,
  "conservation": 3876,
  "populations": 3877,
  "darkness": 3878,
  "apartment": 3879,
  "parent": 3880,
  "charity": 3881,
  "afterwards": 3882,
  "65": 3883,
  "op": 3884,
  "meetings": 3885,
  "transparency": 3886,
  "organize": 3887,
  "legacy": 3888,
  "virtually": 3889,
  "facial": 3890,
  "attached": 3891,
  "adapt": 3892,
  "educated": 3893,
  "orbit": 3894,
  "seed": 3895,
  "enemy": 3896,
  "fixed": 3897,
  "concepts": 3898,
  "destroyed": 3899,
  "extent": 3900,
  "tragedy": 3901,
  "thrown": 3902,
  "outcomes": 3903,
  "clay": 3904,
  "chaos": 3905,
  "orange": 3906,
  "memories": 3907,
  "dynamics": 3908,
  "appeared": 3909,
  "backwards": 3910,
  "conversations": 3911,
  "monkey": 3912,
  "produces": 3913,
  "seats": 3914,
  "traveled": 3915,
  "atlantic": 3916,
  "desk": 3917,
  "positions": 3918,
  "challenging": 3919,
  "heaven": 3920,
  "papers": 3921,
  "blow": 3922,
  "ridiculous": 3923,
  "sheet": 3924,
  "vulnerability": 3925,
  "january": 3926,
  "worker": 3927,
  "locked": 3928,
  "herself": 3929,
  "hardly": 3930,
  "parallel": 3931,
  "historical": 3932,
  "dioxide": 3933,
  "season": 3934,
  "chimpanzees": 3935,
  "surrounded": 3936,
  "talent": 3937,
  "nurses": 3938,
  "k-@@": 3939,
  "autism": 3940,
  "ugly": 3941,
  "headed": 3942,
  "contrast": 3943,
  "dig": 3944,
  "embedded": 3945,
  "overcome": 3946,
  "so-called": 3947,
  "resolution": 3948,
  "floating": 3949,
  "spiritual": 3950,
  "excuse": 3951,
  "accessible": 3952,
  "filter": 3953,
  "academic": 3954,
  "cher@@": 3955,
  "jack": 3956,
  "opens": 3957,
  "cup": 3958,
  "involves": 3959,
  "morality": 3960,
  "microsoft": 3961,
  "soviet": 3962,
  "controlling": 3963,
  "derek": 3964,
  "golf": 3965,
  "bias": 3966,
  "currency": 3967,
  "uganda": 3968,
  "photography": 3969,
  "increases": 3970,
  "landed": 3971,
  "fiber": 3972,
  "frequency": 3973,
  "80s": 3974,
  "ending": 3975,
  "smoke": 3976,
  "muscles": 3977,
  "fifth": 3978,
  "tired": 3979,
  "anger": 3980,
  "cheaper": 3981,
  "oldest": 3982,
  "presented": 3983,
  "bee": 3984,
  "frozen": 3985,
  "adding": 3986,
  "expert": 3987,
  "spots": 3988,
  "maintain": 3989,
  "volunteers": 3990,
  "colony": 3991,
  "includes": 3992,
  "provides": 3993,
  "rice": 3994,
  "stanford": 3995,
  "lecture": 3996,
  "photographed": 3997,
  "drawn": 3998,
  "smallpox": 3999,
  "diabetes": 4000,
  "funded": 4001,
  "pushing": 4002,
  "chosen": 4003,
  "pace": 4004,
  "truck": 4005,
  "reef": 4006,
  "sports": 4007,
  "static": 4008,
  "poorest": 4009,
  "angeles": 4010,
  "2006": 4011,
  "plenty": 4012,
  "tax": 4013,
  "achieved": 4014,
  "naked": 4015,
  "personality": 4016,
  "super-@@": 4017,
  "official": 4018,
  "yours": 4019,
  "muslims": 4020,
  "brief": 4021,
  "allo@@": 4022,
  "silent": 4023,
  "rush": 4024,
  "rarely": 4025,
  "toilet": 4026,
  "beer": 4027,
  "allowing": 4028,
  "discoveries": 4029,
  "continues": 4030,
  "fears": 4031,
  "agenda": 4032,
  "killer": 4033,
  "foods": 4034,
  "lift": 4035,
  "trucks": 4036,
  "2003": 4037,
  "laid": 4038,
  "writers": 4039,
  "26": 4040,
  "copyright": 4041,
  "hearts": 4042,
  "globalization": 4043,
  "asks": 4044,
  "habitat": 4045,
  "drill": 4046,
  "tricks": 4047,
  "missed": 4048,
  "demonstrate": 4049,
  "journalist": 4050,
  "practices": 4051,
  "excellent": 4052,
  "reduced": 4053,
  "host": 4054,
  "thick": 4055,
  "psychological": 4056,
  "precisely": 4057,
  ".com": 4058,
  "fluid": 4059,
  "finds": 4060,
  "capita": 4061,
  "astonishing": 4062,
  "motivation": 4063,
  "courage": 4064,
  "earthquake": 4065,
  "extract": 4066,
  "letting": 4067,
  "facility": 4068,
  "storm": 4069,
  "95": 4070,
  "emergency": 4071,
  "native": 4072,
  "imagined": 4073,
  "fascinated": 4074,
  "fabulous": 4075,
  "dedicated": 4076,
  "0.@@": 4077,
  "hungry": 4078,
  "tribes": 4079,
  "searching": 4080,
  "terrorism": 4081,
  "opposed": 4082,
  "cable": 4083,
  "diagram": 4084,
  "boards": 4085,
  "angry": 4086,
  "speakers": 4087,
  "integrated": 4088,
  "license": 4089,
  "provided": 4090,
  "glamorous": 4091,
  "ethiopia": 4092,
  "removed": 4093,
  "with@@": 4094,
  "fiction": 4095,
  "orchestra": 4096,
  "gps": 4097,
  "kb": 4098,
  "glasses": 4099,
  "cambridge": 4100,
  "recognition": 4101,
  "skull": 4102,
  "limits": 4103,
  "conclude": 4104,
  "elsewhere": 4105,
  "grandfather": 4106,
  "pilot": 4107,
  "crying": 4108,
  "gging": 4109,
  "affordable": 4110,
  "13@@": 4111,
  "clients": 4112,
  "explaining": 4113,
  "loud": 4114,
  "permanent": 4115,
  "react": 4116,
  "qualities": 4117,
  "jail": 4118,
  "drove": 4119,
  "controls": 4120,
  "gang": 4121,
  "nurse": 4122,
  "pyramid": 4123,
  "shooting": 4124,
  "hollywood": 4125,
  "ethical": 4126,
  "super": 4127,
  "surfaces": 4128,
  "bars": 4129,
  "likes": 4130,
  "recognized": 4131,
  "bicycle": 4132,
  "architectural": 4133,
  "figuring": 4134,
  "trends": 4135,
  "transport": 4136,
  "escape": 4137,
  "consume": 4138,
  "airport": 4139,
  "consequence": 4140,
  "agricultural": 4141,
  "emerge": 4142,
  "receive": 4143,
  "circles": 4144,
  "polar": 4145,
  "knee": 4146,
  "suggesting": 4147,
  "cap": 4148,
  "picking": 4149,
  "contains": 4150,
  "dignity": 4151,
  "customers": 4152,
  "collecting": 4153,
  "poster": 4154,
  "2001": 4155,
  "dust": 4156,
  "informed": 4157,
  "origin": 4158,
  "4,000": 4159,
  "nobel": 4160,
  "biologists": 4161,
  "economist": 4162,
  "returned": 4163,
  "review": 4164,
  "saturn": 4165,
  "chief": 4166,
  "pool": 4167,
  "protecting": 4168,
  "observation": 4169,
  "tank": 4170,
  "aircraft": 4171,
  "harm": 4172,
  "succeed": 4173,
  "gore": 4174,
  "suicide": 4175,
  "artistic": 4176,
  "predictions": 4177,
  "23": 4178,
  "separated": 4179,
  "rio": 4180,
  "layers": 4181,
  "variation": 4182,
  "jewish": 4183,
  "climbing": 4184,
  "dimension": 4185,
  "june": 4186,
  "computation": 4187,
  "represented": 4188,
  "bears": 4189,
  "sport": 4190,
  "regret": 4191,
  "poet": 4192,
  "crossing": 4193,
  "neighbor": 4194,
  "palm": 4195,
  "mice": 4196,
  "realm": 4197,
  "transparent": 4198,
  "rocks": 4199,
  "rwanda": 4200,
  "sharp": 4201,
  "martin": 4202,
  "cave": 4203,
  "sensory": 4204,
  "gut": 4205,
  "proper": 4206,
  "elled": 4207,
  "encounter": 4208,
  "accidents": 4209,
  "scales": 4210,
  "brian": 4211,
  "precise": 4212,
  "repair": 4213,
  "neural": 4214,
  "providing": 4215,
  "rebuild": 4216,
  "borders": 4217,
  "focusing": 4218,
  "cartoon": 4219,
  "vable": 4220,
  "underground": 4221,
  "offers": 4222,
  "mammals": 4223,
  "fathers": 4224,
  "mining": 4225,
  "alien": 4226,
  "quest": 4227,
  "cash": 4228,
  "musicians": 4229,
  "glamour": 4230,
  "openness": 4231,
  "rescue": 4232,
  "initial": 4233,
  "photographer": 4234,
  "inches": 4235,
  "output": 4236,
  "unbelievable": 4237,
  "diverse": 4238,
  "strategies": 4239,
  "barely": 4240,
  "shelf": 4241,
  "injury": 4242,
  "loop": 4243,
  "boundaries": 4244,
  "interactions": 4245,
  "ecosystems": 4246,
  "symbols": 4247,
  "vacuum": 4248,
  "characteristics": 4249,
  "weapon": 4250,
  "constructed": 4251,
  "pulling": 4252,
  "amongst": 4253,
  "pump": 4254,
  "gathering": 4255,
  "buried": 4256,
  "hardware": 4257,
  "someday": 4258,
  "devil": 4259,
  "sales": 4260,
  "800": 4261,
  "watts": 4262,
  "dress": 4263,
  "monitor": 4264,
  "october": 4265,
  "concern": 4266,
  "diagnosed": 4267,
  "electronics": 4268,
  "neuroscience": 4269,
  "owned": 4270,
  "1990s": 4271,
  "hire": 4272,
  "optimism": 4273,
  "highway": 4274,
  "mines": 4275,
  "reports": 4276,
  "n-@@": 4277,
  "vertical": 4278,
  "crops": 4279,
  "reported": 4280,
  "essence": 4281,
  "humor": 4282,
  "treatments": 4283,
  "interacting": 4284,
  "classical": 4285,
  "council": 4286,
  "250": 4287,
  "detection": 4288,
  "unlikely": 4289,
  "dinosaur": 4290,
  "tension": 4291,
  "smooth": 4292,
  "ingredients": 4293,
  "damn": 4294,
  "app": 4295,
  "bis@@": 4296,
  "vital": 4297,
  "insurance": 4298,
  "winning": 4299,
  "emerged": 4300,
  "mode": 4301,
  "privilege": 4302,
  "marks": 4303,
  "speaker": 4304,
  "stages": 4305,
  "seek": 4306,
  "tumors": 4307,
  "revenue": 4308,
  "failing": 4309,
  "farmer": 4310,
  "policies": 4311,
  "flip": 4312,
  "richer": 4313,
  "innovations": 4314,
  "backs": 4315,
  "manhattan": 4316,
  "preserve": 4317,
  "limb": 4318,
  "harvest": 4319,
  "federal": 4320,
  "rely": 4321,
  "bottles": 4322,
  "pointing": 4323,
  "plot": 4324,
  "asteroid": 4325,
  "lac@@": 4326,
  "mixed": 4327,
  "seeds": 4328,
  "dolphin": 4329,
  "favor": 4330,
  "hanging": 4331,
  "frog": 4332,
  "efforts": 4333,
  "mall": 4334,
  "governance": 4335,
  "-like": 4336,
  "fruit": 4337,
  "pushed": 4338,
  "exposed": 4339,
  "joe": 4340,
  "wash": 4341,
  "committed": 4342,
  "may@@": 4343,
  "document": 4344,
  "guide": 4345,
  "evolve": 4346,
  "shopping": 4347,
  "garbage": 4348,
  "stones": 4349,
  "sentences": 4350,
  "meal": 4351,
  "besides": 4352,
  "stores": 4353,
  "amazon": 4354,
  "globally": 4355,
  "procedure": 4356,
  "spinal": 4357,
  "toes": 4358,
  "footprint": 4359,
  "32": 4360,
  "parties": 4361,
  "conflicts": 4362,
  "historic": 4363,
  "served": 4364,
  "1960": 4365,
  "gentleman": 4366,
  "announced": 4367,
  "scratch": 4368,
  "shrimp": 4369,
  "robotic": 4370,
  "engaging": 4371,
  "domestic": 4372,
  "cooperation": 4373,
  "laser": 4374,
  "dive": 4375,
  "originally": 4376,
  "successfully": 4377,
  "depressed": 4378,
  "liberal": 4379,
  "methods": 4380,
  "sleeping": 4381,
  "silly": 4382,
  "consistent": 4383,
  "teenagers": 4384,
  "skeleton": 4385,
  "subway": 4386,
  "struggling": 4387,
  "q": 4388,
  "+": 4389,
  "é@@": 4390,
  "é": 4391,
  "á@@": 4392,
  ")": 4393,
  "#": 4394,
  "í@@": 4395,
  "ö@@": 4396,
  "ó@@": 4397,
  "–": 4398,
  "ü@@": 4399,
  "è@@": 4400,
  "%": 4401,
  "=": 4402,
  "(": 4403,
  "^": 4404,
  "@": 4405,
  "ä@@": 4406,
  "ã@@": 4407,
  "ç@@": 4408,
  "อ@@": 4409,
  "ê@@": 4410,
  "": 4411,
  "ñ@@": 4412,
  "â": 4413,
  "": 4414,
  "²": 4415,
  "่": 4416,
  "à": 4417,
  "ร": 4418,
  "ā@@": 4419,
  "í": 4420,
  "ă@@": 4421,
  "ø@@": 4422,
  "ć": 4423,
  "è": 4424,
  "ë@@": 4425,
  "ť": 4426,
  "ô@@": 4427,
  "_": 4428,
  "ē": 4429,
  "ย": 4430,
  "ย@@": 4431,
  "*": 4432,
  "…": 4433,
  "ï@@": 4434,
  "€": 4435,
  "\\": 4436,
  "£": 4437,
  "â@@": 4438,
  "葱": 4439,
  "你@@": 4440,
  "送@@": 4441,
  "ú@@": 4442
}