{
  "<SOS>": 0,
  "<EOS>": 1,
  "<UNK>": 2,
  ",": 3,
  ".": 4,
  "und": 5,
  "die": 6,
  "sie": 7,
  "das": 8,
  "ich": 9,
  "der": 10,
  "ist": 11,
  "es": 12,
  "wir": 13,
  "in": 14,
  "zu": 15,
  "ein": 16,
  "&quot;": 17,
  "eine": 18,
  "von": 19,
  "nicht": 20,
  "dass": 21,
  "den": 22,
  "mit": 23,
  "wie": 24,
  "auf": 25,
  "er": 26,
  "sich": 27,
  "sind": 28,
  "aber": 29,
  "?": 30,
  ":": 31,
  "man": 32,
  "haben": 33,
  "für": 34,
  "ver@@": 35,
  "was": 36,
  "wenn": 37,
  "an": 38,
  "s@@": 39,
  "als": 40,
  "er@@": 41,
  "t@@": 42,
  "so": 43,
  "diese": 44,
  "k@@": 45,
  "war": 46,
  "um": 47,
  "an@@": 48,
  "be@@": 49,
  "im": 50,
  "also": 51,
  "dem": 52,
  "p@@": 53,
  "st@@": 54,
  "d@@": 55,
  "einen": 56,
  "e@@": 57,
  "n@@": 58,
  "g@@": 59,
  "in@@": 60,
  "ch@@": 61,
  "uns": 62,
  "können": 63,
  "hier": 64,
  "sch@@": 65,
  "m@@": 66,
  "i@@": 67,
  "un@@": 68,
  "werden": 69,
  "b@@": 70,
  "aus": 71,
  "r@@": 72,
  "l@@": 73,
  "hat": 74,
  "h@@": 75,
  "des": 76,
  "oder": 77,
  "en@@": 78,
  "-@@": 79,
  "über": 80,
  "t": 81,
  "auch": 82,
  "ge@@": 83,
  "f@@": 84,
  "einer": 85,
  "a@@": 86,
  "kann": 87,
  "s": 88,
  "u@@": 89,
  "o@@": 90,
  "sehr": 91,
  "dann": 92,
  "z@@": 93,
  "einem": 94,
  "ä@@": 95,
  "nur": 96,
  "ti@@": 97,
  "wird": 98,
  "c@@": 99,
  "–": 100,
  "gibt": 101,
  "ein@@": 102,
  "ab@@": 103,
  "ihnen": 104,
  "mich": 105,
  "sehen": 106,
  "menschen": 107,
  "li@@": 108,
  "re@@": 109,
  "e": 110,
  "ü@@": 111,
  "sein": 112,
  "ö@@": 113,
  "v@@": 114,
  "y@@": 115,
  "ten": 116,
  "etwas": 117,
  "le@@": 118,
  "noch": 119,
  "dieser": 120,
  "habe": 121,
  "te": 122,
  "en": 123,
  "nach": 124,
  "ent@@": 125,
  "ei@@": 126,
  "mir": 127,
  "ar@@": 128,
  "--": 129,
  "alle": 130,
  "mehr": 131,
  "a": 132,
  "vor": 133,
  "bei": 134,
  "welt": 135,
  "si@@": 136,
  "di@@": 137,
  "aus@@": 138,
  "or@@": 139,
  "meine": 140,
  "w@@": 141,
  "ung": 142,
  "es@@": 143,
  "am@@": 144,
  "nun": 145,
  "machen": 146,
  "leben": 147,
  "ihre": 148,
  "-": 149,
  "al@@": 150,
  "zum": 151,
  "ol@@": 152,
  "weil": 153,
  "ri@@": 154,
  "da": 155,
  "wirklich": 156,
  "wurde": 157,
  "dies": 158,
  "dieses": 159,
  "at@@": 160,
  "auf@@": 161,
  "am": 162,
  "on@@": 163,
  "gen": 164,
  "tun": 165,
  "g": 166,
  "immer": 167,
  "durch": 168,
  "jetzt": 169,
  "zeit": 170,
  "wissen": 171,
  "sp@@": 172,
  "ihr": 173,
  "unsere": 174,
  "zu@@": 175,
  "ge": 176,
  "th@@": 177,
  "hatte": 178,
  "keine": 179,
  "ma@@": 180,
  "leute": 181,
  "viel": 182,
  "über@@": 183,
  "sagte": 184,
  "viele": 185,
  "sagen": 186,
  "diesem": 187,
  "ck@@": 188,
  "wi@@": 189,
  "eines": 190,
  "y": 191,
  "du": 192,
  "pro@@": 193,
  "einfach": 194,
  "denn": 195,
  "zwei": 196,
  "au@@": 197,
  "dinge": 198,
  "el@@": 199,
  "diesen": 200,
  "ungen": 201,
  "vor@@": 202,
  "art": 203,
  "alles": 204,
  "ur@@": 205,
  "waren": 206,
  "lo@@": 207,
  "bin": 208,
  "müssen": 209,
  "om@@": 210,
  "jahren": 211,
  "se@@": 212,
  "andere": 213,
  "as@@": 214,
  "wo": 215,
  "j@@": 216,
  "ff@@": 217,
  "ro@@": 218,
  "vi@@": 219,
  "mein": 220,
  "geht": 221,
  "gen@@": 222,
  "ne@@": 223,
  "de@@": 224,
  "mal": 225,
  "würde": 226,
  "anderen": 227,
  "um@@": 228,
  "damit": 229,
  "ni@@": 230,
  "i": 231,
  "te@@": 232,
  "de": 233,
  "vielleicht": 234,
  "la@@": 235,
  "bis": 236,
  "gut": 237,
  "än@@": 238,
  "kon@@": 239,
  "ter@@": 240,
  "m": 241,
  "zur": 242,
  "selbst": 243,
  "d": 244,
  "gi@@": 245,
  "po@@": 246,
  "l": 247,
  "jahre": 248,
  "gehen": 249,
  "der@@": 250,
  "op@@": 251,
  "all": 252,
  "et@@": 253,
  "ra@@": 254,
  "sten": 255,
  "zi@@": 256,
  "gr@@": 257,
  "sen@@": 258,
  "muss": 259,
  "mo@@": 260,
  "ber@@": 261,
  "heute": 262,
  "ert": 263,
  "tr@@": 264,
  "warum": 265,
  "schon": 266,
  "tz@@": 267,
  "geschichte": 268,
  "ende": 269,
  "ger@@": 270,
  "ja": 271,
  "it@@": 272,
  "möchte": 273,
  "einige": 274,
  "mi@@": 275,
  "kommen": 276,
  "is@@": 277,
  "me@@": 278,
  "le": 279,
  "tatsächlich": 280,
  "eren": 281,
  "macht": 282,
  "o": 283,
  "wieder": 284,
  "unter@@": 285,
  "ter": 286,
  "ru@@": 287,
  "lassen": 288,
  "denken": 289,
  "lich": 290,
  "gesch@@": 291,
  "ie": 292,
  "se": 293,
  "kl@@": 294,
  "bi@@": 295,
  "dort": 296,
  "davon": 297,
  "st": 298,
  "ganz": 299,
  "ta@@": 300,
  "im@@": 301,
  "genau": 302,
  "us@@": 303,
  "kinder": 304,
  "geben": 305,
  "&apos;": 306,
  "ische": 307,
  "drei": 308,
  "hi@@": 309,
  "k": 310,
  "hatten": 311,
  "il@@": 312,
  "ten@@": 313,
  "ihn": 314,
  "paar": 315,
  "ß@@": 316,
  "jahr": 317,
  "ischen": 318,
  "ak@@": 319,
  "stellen": 320,
  "ges@@": 321,
  "gel@@": 322,
  "seine": 323,
  "könnte": 324,
  "darüber": 325,
  "ern": 326,
  "werde": 327,
  "n": 328,
  "qu@@": 329,
  "wollen": 330,
  "hl@@": 331,
  "teil": 332,
  "meiner": 333,
  "on": 334,
  "rei@@": 335,
  "ha@@": 336,
  "ob": 337,
  "ste@@": 338,
  "ot@@": 339,
  "wei@@": 340,
  "ing@@": 341,
  "wurden": 342,
  "sti@@": 343,
  "br@@": 344,
  "kommt": 345,
  "ko@@": 346,
  "gab": 347,
  "den@@": 348,
  "ihren": 349,
  "problem": 350,
  "ex@@": 351,
  "x@@": 352,
  "ou@@": 353,
  "weg": 354,
  "liche": 355,
  "frage": 356,
  "tag": 357,
  "gemacht": 358,
  "sen": 359,
  "ac@@": 360,
  "h": 361,
  "ger": 362,
  "end": 363,
  "fi@@": 364,
  "beispiel": 365,
  "chen": 366,
  "jeder": 367,
  "denke": 368,
  "weise": 369,
  "!": 370,
  "finden": 371,
  "her@@": 372,
  "während": 373,
  "kein": 374,
  "lichen": 375,
  "glaube": 376,
  "land": 377,
  "natürlich": 378,
  "doch": 379,
  "kom@@": 380,
  "sk@@": 381,
  "dazu": 382,
  "neue": 383,
  "wäre": 384,
  "ungs@@": 385,
  "unser": 386,
  ";": 387,
  "unserer": 388,
  "gra@@": 389,
  "vom": 390,
  "zeigen": 391,
  "nehmen": 392,
  "al": 393,
  "denen": 394,
  "sogar": 395,
  "tet": 396,
  "ere": 397,
  "nichts": 398,
  "mu@@": 399,
  "einmal": 400,
  "weiß": 401,
  "no@@": 402,
  "arbeit": 403,
  "weiter": 404,
  "ohne": 405,
  "bringen": 406,
  "gerade": 407,
  "du@@": 408,
  "tion": 409,
  "ch": 410,
  "fe@@": 411,
  "zwischen": 412,
  "gt": 413,
  "lie@@": 414,
  "erste": 415,
  "ste": 416,
  "r": 417,
  "mit@@": 418,
  "sondern": 419,
  "ihrer": 420,
  "dafür": 421,
  "bo@@": 422,
  "sieht": 423,
  "nie": 424,
  "passiert": 425,
  "par@@": 426,
  "tra@@": 427,
  "prozent": 428,
  "würden": 429,
  "hin@@": 430,
  "lei@@": 431,
  "vielen": 432,
  "zurück": 433,
  "hei@@": 434,
  "ze@@": 435,
  "hn@@": 436,
  "ul@@": 437,
  "verstehen": 438,
  "unter": 439,
  "arbeiten": 440,
  "19@@": 441,
  "bild": 442,
  "tt@@": 443,
  "ersten": 444,
  "will": 445,
  "millionen": 446,
  "fragen": 447,
  "system": 448,
  "große": 449,
  "he@@": 450,
  "daran": 451,
  "ganze": 452,
  "konnte": 453,
  "sprechen": 454,
  "wer@@": 455,
  "sagt": 456,
  "seite": 457,
  "etwa": 458,
  "per@@": 459,
  "idee": 460,
  "war@@": 461,
  "durch@@": 462,
  "men@@": 463,
  "tion@@": 464,
  "bekommen": 465,
  "kam": 466,
  "gl@@": 467,
  "isch": 468,
  "sollte": 469,
  "cht": 470,
  "fü@@": 471,
  "äu@@": 472,
  "är@@": 473,
  "ziemlich": 474,
  "ging": 475,
  "wasser": 476,
  "tu@@": 477,
  "ken": 478,
  "letzten": 479,
  "na@@": 480,
  "pa@@": 481,
  "ts@@": 482,
  "dabei": 483,
  "ts": 484,
  "ir@@": 485,
  "for@@": 486,
  "wollte": 487,
  "ho@@": 488,
  "meisten": 489,
  "sollten": 490,
  "geld": 491,
  "könnten": 492,
  "meinem": 493,
  "man@@": 494,
  "frauen": 495,
  "do@@": 496,
  "wa@@": 497,
  "wichtig": 498,
  "kt": 499,
  "meinen": 500,
  "gew@@": 501,
  "ft": 502,
  "ph@@": 503,
  "daten": 504,
  "welche": 505,
  "to@@": 506,
  "fr@@": 507,
  "sache": 508,
  "str@@": 509,
  "3@@": 510,
  "nach@@": 511,
  "men": 512,
  "b": 513,
  "lernen": 514,
  "inter@@": 515,
  "bes@@": 516,
  "mer@@": 517,
  "erte": 518,
  "all@@": 519,
  "su@@": 520,
  "ben@@": 521,
  "ür@@": 522,
  "z": 523,
  "kleinen": 524,
  "dr@@": 525,
  "danke": 526,
  "technologie": 527,
  "zusammen": 528,
  "hr@@": 529,
  "cht@@": 530,
  "sa@@": 531,
  "pf@@": 532,
  "darauf": 533,
  "besser": 534,
  "mann": 535,
  "kan@@": 536,
  "weniger": 537,
  "hal@@": 538,
  "eigentlich": 539,
  "dollar": 540,
  "brauchen": 541,
  "gesehen": 542,
  "vier": 543,
  "kr@@": 544,
  "wä@@": 545,
  "gan@@": 546,
  "pu@@": 547,
  "menge": 548,
  "ig@@": 549,
  "rie@@": 550,
  "nen": 551,
  "ange@@": 552,
  "da@@": 553,
  "je@@": 554,
  "dachte": 555,
  "geb@@": 556,
  "bar": 557,
  "0@@": 558,
  "fall": 559,
  "kleine": 560,
  "ins": 561,
  "raum": 562,
  "ser@@": 563,
  "ganzen": 564,
  "bedeutet": 565,
  "glauben": 566,
  "sta@@": 567,
  "ie@@": 568,
  "besch@@": 569,
  "ihm": 570,
  "jemand": 571,
  "halten": 572,
  "großen": 573,
  "schauen": 574,
  "zusammen@@": 575,
  "ben": 576,
  "fen": 577,
  "nein": 578,
  "and@@": 579,
  "wer": 580,
  "unseren": 581,
  "mar@@": 582,
  "tionen": 583,
  "essen": 584,
  "me": 585,
  "grund": 586,
  "spielen": 587,
  "jedes": 588,
  "ab": 589,
  "hä@@": 590,
  "versuchen": 591,
  "ihrem": 592,
  "ali@@": 593,
  "ort": 594,
  "gehirn": 595,
  "frau": 596,
  "we@@": 597,
  "eln": 598,
  "gegen": 599,
  "em@@": 600,
  "ken@@": 601,
  "ele@@": 602,
  "10": 603,
  "mon@@": 604,
  "ke@@": 605,
  "enden": 606,
  "licher": 607,
  "p": 608,
  "jeden": 609,
  "tes": 610,
  "or": 611,
  "schen": 612,
  "pe@@": 613,
  "eri@@": 614,
  "gute": 615,
  "gesagt": 616,
  "fa@@": 617,
  "zeigt": 618,
  "keinen": 619,
  "em": 620,
  "teilen": 621,
  "chten": 622,
  "seit": 623,
  ".@@": 624,
  "nutzen": 625,
  "el": 626,
  "tro@@": 627,
  "ent": 628,
  "ale": 629,
  "bauen": 630,
  "zukunft": 631,
  "ad@@": 632,
  "wahrscheinlich": 633,
  "fast": 634,
  "hen": 635,
  "af@@": 636,
  "5@@": 637,
  "mp@@": 638,
  "zen": 639,
  "los": 640,
  "por@@": 641,
  "...": 642,
  "zer@@": 643,
  "so@@": 644,
  "schaffen": 645,
  "erde": 646,
  "allen": 647,
  "ellen": 648,
  "ag@@": 649,
  "später": 650,
  "sah": 651,
  "det": 652,
  "2@@": 653,
  "fünf": 654,
  "form": 655,
  "chte": 656,
  "20": 657,
  "indem": 658,
  "gu@@": 659,
  "eigenen": 660,
  "ungefähr": 661,
  "beim": 662,
  "kt@@": 663,
  "licht": 664,
  "ll@@": 665,
  "fe": 666,
  "ung@@": 667,
  "heraus": 668,
  "stadt": 669,
  "kind": 670,
  "person": 671,
  "arten": 672,
  "fl@@": 673,
  "funktioniert": 674,
  "hätte": 675,
  "seiner": 676,
  "ster@@": 677,
  "stehen": 678,
  "richtig": 679,
  "mutter": 680,
  "sicher": 681,
  "bu@@": 682,
  "ne": 683,
  "jede": 684,
  "lan@@": 685,
  "the@@": 686,
  "wenig": 687,
  "probleme": 688,
  "co@@": 689,
  "pro": 690,
  "erzählen": 691,
  "4@@": 692,
  "schule": 693,
  "ka@@": 694,
  "punkt": 695,
  "cken": 696,
  "heißt": 697,
  "kor@@": 698,
  "ausge@@": 699,
  "ku@@": 700,
  "hin": 701,
  "lang": 702,
  "dank": 703,
  "1@@": 704,
  "lich@@": 705,
  "f": 706,
  "9@@": 707,
  "konnten": 708,
  "energie": 709,
  "bisschen": 710,
  "u": 711,
  "liebe": 712,
  "tri@@": 713,
  "hö@@": 714,
  "helfen": 715,
  "ker": 716,
  "hand@@": 717,
  "schnell": 718,
  "oft": 719,
  "ster": 720,
  "lin@@": 721,
  "erst": 722,
  "körper": 723,
  "afrika": 724,
  "tung": 725,
  "buch": 726,
  "2": 727,
  "bau@@": 728,
  "as": 729,
  "x": 730,
  "alen": 731,
  "6@@": 732,
  "tre@@": 733,
  "50": 734,
  "tel@@": 735,
  "begann": 736,
  "lange": 737,
  "elle": 738,
  "führen": 739,
  "neuen": 740,
  "genug": 741,
  "moment": 742,
  "min@@": 743,
  "neu@@": 744,
  "tern": 745,
  "anders": 746,
  "stra@@": 747,
  "wen@@": 748,
  "is": 749,
  "setzen": 750,
  "reden": 751,
  "nächsten": 752,
  "möglich": 753,
  "ok": 754,
  "ideen": 755,
  "sh@@": 756,
  "ens": 757,
  "überall": 758,
  "nis@@": 759,
  "c": 760,
  "lebens@@": 761,
  "gehört": 762,
  "ori@@": 763,
  "kti@@": 764,
  "bl@@": 765,
  "okay": 766,
  "ern@@": 767,
  "hören": 768,
  "manchmal": 769,
  "pp@@": 770,
  "unserem": 771,
  "projekt": 772,
  "res@@": 773,
  "wor@@": 774,
  "%": 775,
  "liches": 776,
  "gruppe": 777,
  "gern": 778,
  "darum": 779,
  "euch": 780,
  "prä@@": 781,
  "seinen": 782,
  "tigen": 783,
  "elt": 784,
  "fin@@": 785,
  "tieren": 786,
  "bar@@": 787,
  "erten": 788,
  "fer@@": 789,
  "liegt": 790,
  "milliarden": 791,
  "recht": 792,
  "leuten": 793,
  "zwei@@": 794,
  "stellt": 795,
  "tete": 796,
  "8@@": 797,
  "heraus@@": 798,
  "je": 799,
  "fä@@": 800,
  "computer": 801,
  "ari@@": 802,
  "anzu@@": 803,
  "erung": 804,
  "mis@@": 805,
  "eins": 806,
  "ell": 807,
  "ell@@": 808,
  "entwickelt": 809,
  "lu@@": 810,
  "us": 811,
  "mü@@": 812,
  "ziehen": 813,
  "30": 814,
  "bri@@": 815,
  "schul@@": 816,
  "bevor": 817,
  "gkeit": 818,
  "sagten": 819,
  "planeten": 820,
  "bil@@": 821,
  "ssen": 822,
  "anderes": 823,
  "zellen": 824,
  "pi@@": 825,
  "tige": 826,
  "kennen": 827,
  "kre@@": 828,
  "lli@@": 829,
  "nennen": 830,
  "tat": 831,
  "machte": 832,
  "sche": 833,
  "unternehmen": 834,
  "sei": 835,
  "verändern": 836,
  "be": 837,
  "frei@@": 838,
  "wissenschaft": 839,
  "mädchen": 840,
  "bel@@": 841,
  "fan@@": 842,
  "ob@@": 843,
  "ga@@": 844,
  "natur": 845,
  "bilder": 846,
  "fol@@": 847,
  "stück": 848,
  "pr@@": 849,
  "deshalb": 850,
  "ki@@": 851,
  "besonders": 852,
  "ck": 853,
  "weit": 854,
  "ers": 855,
  "heit": 856,
  "fand": 857,
  "klar": 858,
  "mm@@": 859,
  "steht": 860,
  "minuten": 861,
  "nor@@": 862,
  "informationen": 863,
  "7@@": 864,
  "oben": 865,
  "usa": 866,
  "zurück@@": 867,
  "versch@@": 868,
  "ischer": 869,
  "spiel": 870,
  "seinem": 871,
  "stand": 872,
  "ar": 873,
  "bereits": 874,
  "sprache": 875,
  "at": 876,
  "namens": 877,
  "her": 878,
  "erreichen": 879,
  "familie": 880,
  "antwort": 881,
  "verschiedene": 882,
  "dis@@": 883,
  "ßen": 884,
  "benutzen": 885,
  "bei@@": 886,
  "sachen": 887,
  "lage": 888,
  "gar": 889,
  "5": 890,
  "iert": 891,
  "sor@@": 892,
  "erkennen": 893,
  "wegen": 894,
  "gerne": 895,
  "oh": 896,
  "fo@@": 897,
  "braucht": 898,
  "vater": 899,
  "cher": 900,
  "haus": 901,
  "musste": 902,
  "sage": 903,
  "sechs": 904,
  "s-@@": 905,
  "che": 906,
  "deu@@": 907,
  "alt": 908,
  "treffen": 909,
  "rück@@": 910,
  "indien": 911,
  "lebens": 912,
  "geschichten": 913,
  "3": 914,
  "tig": 915,
  "tä@@": 916,
  "wert": 917,
  "hoch@@": 918,
  "tal@@": 919,
  "chti@@": 920,
  "musik": 921,
  "dich": 922,
  "wohn@@": 923,
  "100": 924,
  "gefühl": 925,
  "gleich": 926,
  "pri@@": 927,
  "fas@@": 928,
  "kopf": 929,
  "new": 930,
  "des@@": 931,
  "darin": 932,
  "mati@@": 933,
  "hand": 934,
  "wasser@@": 935,
  "design": 936,
  "spiel@@": 937,
  "niemand": 938,
  "kei@@": 939,
  "ke": 940,
  "tiere": 941,
  "ja@@": 942,
  "möglichkeit": 943,
  "hätten": 944,
  "einzige": 945,
  "gesellschaft": 946,
  "har@@": 947,
  "schreiben": 948,
  "schi@@": 949,
  "ds": 950,
  "augen": 951,
  "verhalten": 952,
  "irgendwie": 953,
  "onen": 954,
  "besten": 955,
  "stand@@": 956,
  "innerhalb": 957,
  "soll": 958,
  "gott": 959,
  "bewegen": 960,
  "w": 961,
  "lichkeit": 962,
  "gegen@@": 963,
  "vorstellen": 964,
  "isi@@": 965,
  "uni@@": 966,
  "mal@@": 967,
  "gebäude": 968,
  "stunden": 969,
  "ändern": 970,
  "gleiche": 971,
  "internet": 972,
  "ber": 973,
  "tische": 974,
  "sau@@": 975,
  "zeit@@": 976,
  "patienten": 977,
  "mä@@": 978,
  "einander": 979,
  "jedem": 980,
  "bringt": 981,
  "einigen": 982,
  "sam@@": 983,
  "lau@@": 984,
  "teile": 985,
  "tiert": 986,
  "lesen": 987,
  "lässt": 988,
  "kal@@": 989,
  "ges": 990,
  "beiden": 991,
  "8": 992,
  "grund@@": 993,
  "kindern": 994,
  "schl@@": 995,
  "regierung": 996,
  "wollten": 997,
  "ant@@": 998,
  "wieder@@": 999,
  "wand@@": 1000,
  "bitte": 1001,
  "eltern": 1002,
  "wo@@": 1003,
  "tten": 1004,
  "weiter@@": 1005,
  "gung": 1006,
  "führt": 1007,
  "go@@": 1008,
  "auszu@@": 1009,
  "ler": 1010,
  "erhalten": 1011,
  "gleichen": 1012,
  "menschlichen": 1013,
  "länder": 1014,
  "tragen": 1015,
  "entwickeln": 1016,
  "schwer": 1017,
  "gs": 1018,
  "unglaublich": 1019,
  "gte": 1020,
  "kri@@": 1021,
  "glück": 1022,
  "tisch": 1023,
  "herum": 1024,
  "ap@@": 1025,
  "re": 1026,
  "dung": 1027,
  "daher": 1028,
  "beginnen": 1029,
  "nimmt": 1030,
  "obwohl": 1031,
  "cke": 1032,
  "are": 1033,
  "wahr@@": 1034,
  "verschiedenen": 1035,
  "möglichkeiten": 1036,
  "film": 1037,
  "groß@@": 1038,
  "china": 1039,
  "1": 1040,
  "dir": 1041,
  "hän@@": 1042,
  "stellte": 1043,
  "zei@@": 1044,
  "wär@@": 1045,
  "kten": 1046,
  "schw@@": 1047,
  "ju@@": 1048,
  "verändert": 1049,
  "nächste": 1050,
  "überhaupt": 1051,
  "genommen": 1052,
  "hoch": 1053,
  "damals": 1054,
  "ine": 1055,
  "15": 1056,
  "kraft": 1057,
  "kunst": 1058,
  "universum": 1059,
  "ven": 1060,
  "dar@@": 1061,
  "wohl": 1062,
  "männer": 1063,
  "verwenden": 1064,
  "mer": 1065,
  "stelle": 1066,
  "sinn": 1067,
  "laufen": 1068,
  "mor@@": 1069,
  "fahren": 1070,
  "hause": 1071,
  "ner": 1072,
  "gebracht": 1073,
  "mt": 1074,
  "wort": 1075,
  "versucht": 1076,
  "isches": 1077,
  "lösen": 1078,
  "ess@@": 1079,
  "angst": 1080,
  "fühlen": 1081,
  "formen": 1082,
  "hy@@": 1083,
  "tut": 1084,
  "aller": 1085,
  "lösung": 1086,
  "teil@@": 1087,
  "bewegung": 1088,
  "zahl": 1089,
  "fre@@": 1090,
  "schie@@": 1091,
  "wirtschaft": 1092,
  "staaten": 1093,
  "nämlich": 1094,
  "tau@@": 1095,
  "unten": 1096,
  "getan": 1097,
  "kamen": 1098,
  "stell@@": 1099,
  "ckt": 1100,
  "gleich@@": 1101,
  "legen": 1102,
  "alten": 1103,
  "mel@@": 1104,
  "ft@@": 1105,
  "zahlen": 1106,
  "cher@@": 1107,
  "mil@@": 1108,
  "kop@@": 1109,
  "sel@@": 1110,
  "sei@@": 1111,
  "fahr@@": 1112,
  "junge": 1113,
  "mittel": 1114,
  "ban@@": 1115,
  "maschine": 1116,
  "4": 1117,
  "falls": 1118,
  "pan@@": 1119,
  "fähigkeit": 1120,
  "auto": 1121,
  "20@@": 1122,
  "spr@@": 1123,
  "e-@@": 1124,
  "land@@": 1125,
  "dessen": 1126,
  "end@@": 1127,
  "entwicklung": 1128,
  "weitere": 1129,
  "letzte": 1130,
  "groß": 1131,
  "modell": 1132,
  "hilfe": 1133,
  "spro@@": 1134,
  "wal@@": 1135,
  "kurz": 1136,
  "wür@@": 1137,
  "bru@@": 1138,
  "schließlich": 1139,
  "aufge@@": 1140,
  "berei@@": 1141,
  "tions@@": 1142,
  "hu@@": 1143,
  "wachsen": 1144,
  "schü@@": 1145,
  "menschliche": 1146,
  "ation": 1147,
  "gend": 1148,
  "selbst@@": 1149,
  "kultur": 1150,
  "grunde": 1151,
  "unterschied": 1152,
  "hren": 1153,
  "zä@@": 1154,
  "sterben": 1155,
  "tage": 1156,
  "gest@@": 1157,
  "jedoch": 1158,
  "6": 1159,
  "los@@": 1160,
  "worden": 1161,
  "sicht@@": 1162,
  "tischen": 1163,
  "kaufen": 1164,
  "schön": 1165,
  "krebs": 1166,
  "nachdem": 1167,
  "ted": 1168,
  "kat@@": 1169,
  "win@@": 1170,
  "son": 1171,
  "it": 1172,
  "zwar": 1173,
  "wach@@": 1174,
  "stan@@": 1175,
  "boden": 1176,
  "dingen": 1177,
  "roboter": 1178,
  "pas@@": 1179,
  "wan@@": 1180,
  "alter": 1181,
  "allem": 1182,
  "oren": 1183,
  "erfahrung": 1184,
  "mittel@@": 1185,
  "üb@@": 1186,
  "bio@@": 1187,
  "eher": 1188,
  "schei@@": 1189,
  "richtung": 1190,
  "kü@@": 1191,
  "wissenschaftler": 1192,
  "drei@@": 1193,
  "welt@@": 1194,
  "kam@@": 1195,
  "gestellt": 1196,
  "ba@@": 1197,
  "eigene": 1198,
  "betrachten": 1199,
  "wider@@": 1200,
  "bt": 1201,
  "sü@@": 1202,
  "meines": 1203,
  "tan@@": 1204,
  "gebaut": 1205,
  "muster": 1206,
  "fliegen": 1207,
  "körper@@": 1208,
  "stu@@": 1209,
  "bre@@": 1210,
  "nahm": 1211,
  "dern": 1212,
  "york": 1213,
  "zweite": 1214,
  "mag": 1215,
  "findet": 1216,
  "lehrer": 1217,
  "falsch": 1218,
  "anfang": 1219,
  "ziel": 1220,
  "kosten": 1221,
  "kar@@": 1222,
  "platz": 1223,
  "interessant": 1224,
  "ser": 1225,
  "7": 1226,
  "en-@@": 1227,
  "ach@@": 1228,
  "prozess": 1229,
  "beste": 1230,
  "deren": 1231,
  "fanden": 1232,
  "verk@@": 1233,
  "wahr": 1234,
  "mö@@": 1235,
  "guten": 1236,
  "erinnern": 1237,
  "40": 1238,
  "v": 1239,
  "woche": 1240,
  "nä@@": 1241,
  "sto@@": 1242,
  "bildung": 1243,
  "jungen": 1244,
  "größte": 1245,
  "neu": 1246,
  "gten": 1247,
  "kö@@": 1248,
  "ang@@": 1249,
  "fu@@": 1250,
  "trans@@": 1251,
  "bleiben": 1252,
  "ver": 1253,
  "kur@@": 1254,
  "welches": 1255,
  "voll": 1256,
  "genauso": 1257,
  "publikum": 1258,
  "hü@@": 1259,
  "solche": 1260,
  "ene": 1261,
  "mussten": 1262,
  "lang@@": 1263,
  "thema": 1264,
  "bare": 1265,
  "treten": 1266,
  "markt": 1267,
  "star@@": 1268,
  "fort@@": 1269,
  "führ@@": 1270,
  "hinter": 1271,
  "sieben": 1272,
  "voll@@": 1273,
  "schla@@": 1274,
  "lö@@": 1275,
  "fragte": 1276,
  "sollen": 1277,
  "stri@@": 1278,
  "blick": 1279,
  "son@@": 1280,
  "weg@@": 1281,
  "direkt": 1282,
  "bereich": 1283,
  "fangen": 1284,
  "danach": 1285,
  "video": 1286,
  "verbindung": 1287,
  "namen": 1288,
  "suchen": 1289,
  "dri@@": 1290,
  "forschung": 1291,
  "sch": 1292,
  "gefunden": 1293,
  "lä@@": 1294,
  "ß": 1295,
  "wären": 1296,
  "indi@@": 1297,
  "hast": 1298,
  "struktur": 1299,
  "zuvor": 1300,
  "nt": 1301,
  "ant": 1302,
  "gemein@@": 1303,
  "&#91;": 1304,
  "einzu@@": 1305,
  "wusste": 1306,
  "ziert": 1307,
  "chen@@": 1308,
  "ieren": 1309,
  "theorie": 1310,
  "&#93;": 1311,
  "krieg": 1312,
  "gegeben": 1313,
  "neues": 1314,
  "ander@@": 1315,
  "car@@": 1316,
  "nahmen": 1317,
  "ci@@": 1318,
  "monate": 1319,
  "len": 1320,
  "ment@@": 1321,
  "gedanken": 1322,
  "autos": 1323,
  "anderer": 1324,
  "fel@@": 1325,
  "tzen": 1326,
  "sat@@": 1327,
  "dra@@": 1328,
  "glücklich": 1329,
  "gän@@": 1330,
  "gene": 1331,
  "ank@@": 1332,
  "plötzlich": 1333,
  "zuerst": 1334,
  "ht": 1335,
  "tö@@": 1336,
  "brei@@": 1337,
  "mache": 1338,
  "zie@@": 1339,
  "freunde": 1340,
  "gh@@": 1341,
  "dro@@": 1342,
  "manche": 1343,
  "lieben": 1344,
  "sin@@": 1345,
  "bin@@": 1346,
  "jo@@": 1347,
  "wochen": 1348,
  "besteht": 1349,
  "kra@@": 1350,
  "ften": 1351,
  "zehn": 1352,
  "che@@": 1353,
  "scheint": 1354,
  "enten": 1355,
  "kte": 1356,
  "reise": 1357,
  "ihres": 1358,
  "and": 1359,
  "größe": 1360,
  "anti@@": 1361,
  "beginnt": 1362,
  "amerika": 1363,
  "gewesen": 1364,
  "genannt": 1365,
  "bro@@": 1366,
  "ner@@": 1367,
  "meter": 1368,
  "sicht": 1369,
  "d-@@": 1370,
  "luft": 1371,
  "schaft": 1372,
  "technologien": 1373,
  "fest": 1374,
  "funktionieren": 1375,
  "möchten": 1376,
  "stoff@@": 1377,
  "sehe": 1378,
  "wunder@@": 1379,
  "fer": 1380,
  "baren": 1381,
  "bereit": 1382,
  "stimmt": 1383,
  "gang": 1384,
  "flu@@": 1385,
  "wand": 1386,
  "völlig": 1387,
  "erschaffen": 1388,
  "stre@@": 1389,
  "karte": 1390,
  "9": 1391,
  "ans": 1392,
  "schwierig": 1393,
  "bekannt": 1394,
  "ker@@": 1395,
  "zieren": 1396,
  "grün@@": 1397,
  "gri@@": 1398,
  "aussehen": 1399,
  "pen@@": 1400,
  "draußen": 1401,
  "tiven": 1402,
  "material": 1403,
  "dan@@": 1404,
  "technik": 1405,
  "to": 1406,
  ",@@": 1407,
  "ton": 1408,
  "anfangen": 1409,
  "schritt": 1410,
  "reihe": 1411,
  "fest@@": 1412,
  "geworden": 1413,
  "gelernt": 1414,
  "tages": 1415,
  "super@@": 1416,
  "bist": 1417,
  "passieren": 1418,
  "gs@@": 1419,
  "stoff": 1420,
  "jahrhundert": 1421,
  "hervor@@": 1422,
  "tur@@": 1423,
  "one": 1424,
  "trä@@": 1425,
  "systeme": 1426,
  "gerät": 1427,
  "brachte": 1428,
  "aufzu@@": 1429,
  "ppen": 1430,
  "ien": 1431,
  "plan@@": 1432,
  "einge@@": 1433,
  "niemals": 1434,
  "nu@@": 1435,
  "bücher": 1436,
  "viel@@": 1437,
  "teten": 1438,
  "acht": 1439,
  "ks": 1440,
  "team": 1441,
  "haupt@@": 1442,
  "ländern": 1443,
  "stimme": 1444,
  "beide": 1445,
  "mikro@@": 1446,
  "zen@@": 1447,
  "digen": 1448,
  "firma": 1449,
  "studenten": 1450,
  "gingen": 1451,
  "kleines": 1452,
  "he": 1453,
  "sol@@": 1454,
  "bewusst": 1455,
  "ed": 1456,
  "jemals": 1457,
  "situation": 1458,
  "sicherheit": 1459,
  "anzahl": 1460,
  "arbeitet": 1461,
  "egal": 1462,
  "hinter@@": 1463,
  "mensch": 1464,
  "fallen": 1465,
  "gemeinschaft": 1466,
  "daraus": 1467,
  "herr@@": 1468,
  "bas@@": 1469,
  "tief@@": 1470,
  "bekommt": 1471,
  "miteinander": 1472,
  "ran@@": 1473,
  "morgen": 1474,
  "rech@@": 1475,
  "gruppen": 1476,
  "ig": 1477,
  "zer": 1478,
  "aufgabe": 1479,
  "erklären": 1480,
  "nachdenken": 1481,
  "unseres": 1482,
  "ständig": 1483,
  ".000": 1484,
  "ding": 1485,
  "ven@@": 1486,
  "wir@@": 1487,
  "ms": 1488,
  "ente": 1489,
  "verwendet": 1490,
  "tatsache": 1491,
  "foto": 1492,
  "ka": 1493,
  "gesundheit": 1494,
  "zt": 1495,
  "schrieb": 1496,
  "größten": 1497,
  "wahrheit": 1498,
  "000": 1499,
  "straße": 1500,
  "scht": 1501,
  "tiv": 1502,
  "gezeigt": 1503,
  "liegen": 1504,
  "eg@@": 1505,
  "öl@@": 1506,
  "krankheit": 1507,
  "geboren": 1508,
  "gesicht": 1509,
  "haus@@": 1510,
  "rau@@": 1511,
  "innen": 1512,
  "eng@@": 1513,
  "eller": 1514,
  "oberfläche": 1515,
  "schu@@": 1516,
  "ss@@": 1517,
  "kontrolle": 1518,
  "poli@@": 1519,
  "leicht": 1520,
  "kun@@": 1521,
  "ums": 1522,
  "hen@@": 1523,
  "mas@@": 1524,
  "interessiert": 1525,
  "hälfte": 1526,
  "offen@@": 1527,
  "25": 1528,
  "richtige": 1529,
  "testen": 1530,
  "soziale": 1531,
  "netz@@": 1532,
  "druck@@": 1533,
  "schlecht": 1534,
  "seiten": 1535,
  "ses": 1536,
  "0ern": 1537,
  "kli@@": 1538,
  "gie": 1539,
  "kul@@": 1540,
  "60": 1541,
  "herz@@": 1542,
  "allein": 1543,
  "rolle": 1544,
  "preis": 1545,
  "bilden": 1546,
  "entfernt": 1547,
  "folgen": 1548,
  "geschrieben": 1549,
  "gar@@": 1550,
  "hält": 1551,
  "umgebung": 1552,
  "vortrag": 1553,
  "enen": 1554,
  "vorstellung": 1555,
  "sonst": 1556,
  "zeiten": 1557,
  "städte": 1558,
  "lebt": 1559,
  "gebiet": 1560,
  "ze": 1561,
  "verbunden": 1562,
  "taten": 1563,
  "nacht": 1564,
  "kleiner": 1565,
  "test": 1566,
  "regeln": 1567,
  "anstatt": 1568,
  "kin@@": 1569,
  "tier@@": 1570,
  "nutz@@": 1571,
  "els": 1572,
  "spezi@@": 1573,
  "schulen": 1574,
  "ani@@": 1575,
  "finde": 1576,
  "my@@": 1577,
  "meinung": 1578,
  "veränderung": 1579,
  "heiten": 1580,
  "generation": 1581,
  "jahr@@": 1582,
  "benutzt": 1583,
  "jemanden": 1584,
  "erreicht": 1585,
  "län@@": 1586,
  "bedeutung": 1587,
  "mitte": 1588,
  "ss": 1589,
  "uren": 1590,
  "heutzutage": 1591,
  "schau@@": 1592,
  "stark": 1593,
  "spe@@": 1594,
  "fehler": 1595,
  "ler@@": 1596,
  "eu@@": 1597,
  "80": 1598,
  "ur": 1599,
  "computer@@": 1600,
  "einfache": 1601,
  "bot@@": 1602,
  "pflanzen": 1603,
  "hil@@": 1604,
  "za@@": 1605,
  "gesprochen": 1606,
  "offensichtlich": 1607,
  "labor": 1608,
  "fehl@@": 1609,
  "komplett": 1610,
  "links": 1611,
  "freund": 1612,
  "bewegt": 1613,
  "absolut": 1614,
  "t-@@": 1615,
  "revolution": 1616,
  "mögen": 1617,
  "hoffe": 1618,
  "hier@@": 1619,
  "hnen": 1620,
  "statt": 1621,
  "sc@@": 1622,
  "machten": 1623,
  "tausende": 1624,
  "beziehung": 1625,
  "na": 1626,
  "satz": 1627,
  "kinder@@": 1628,
  "hlen": 1629,
  "politik": 1630,
  "versuche": 1631,
  "mus": 1632,
  "bekam": 1633,
  "zelle": 1634,
  "gekommen": 1635,
  "verloren": 1636,
  "dachten": 1637,
  "del@@": 1638,
  "kle@@": 1639,
  "rat@@": 1640,
  "zeige": 1641,
  "zus@@": 1642,
  "erzählt": 1643,
  "weisen": 1644,
  "auto@@": 1645,
  "ches": 1646,
  "rest": 1647,
  "trau@@": 1648,
  "tier": 1649,
  "fähigkeiten": 1650,
  "spricht": 1651,
  "ordnung": 1652,
  "laden": 1653,
  "wann": 1654,
  "ei": 1655,
  "linie": 1656,
  "nennt": 1657,
  "dete": 1658,
  "vereinigten": 1659,
  "plat@@": 1660,
  "gegenüber": 1661,
  "fra@@": 1662,
  "bur@@": 1663,
  "ppe": 1664,
  "tzt": 1665,
  "wieso": 1666,
  "denkt": 1667,
  "trotzdem": 1668,
  "ansehen": 1669,
  "hel@@": 1670,
  "schließen": 1671,
  "sä@@": 1672,
  "gei@@": 1673,
  "fil@@": 1674,
  "ebene": 1675,
  "halb": 1676,
  "gearbeitet": 1677,
  "sofort": 1678,
  "öl": 1679,
  "normalerweise": 1680,
  "wachstum": 1681,
  "dig": 1682,
  "vier@@": 1683,
  "sie@@": 1684,
  "einzelne": 1685,
  "gesamte": 1686,
  "not@@": 1687,
  "sonne": 1688,
  "radi@@": 1689,
  "wichtige": 1690,
  "gel": 1691,
  "herausforderung": 1692,
  "geschieht": 1693,
  "sorgen": 1694,
  "studie": 1695,
  "abzu@@": 1696,
  "ähnlich": 1697,
  "deten": 1698,
  "zeug": 1699,
  "messen": 1700,
  "gewinnen": 1701,
  "medi@@": 1702,
  "ide@@": 1703,
  "sahen": 1704,
  "12": 1705,
  "lieren": 1706,
  "gro@@": 1707,
  "ober@@": 1708,
  "gesundheits@@": 1709,
  "tat@@": 1710,
  "schn@@": 1711,
  "erfolg": 1712,
  "tigt": 1713,
  "ße": 1714,
  "et": 1715,
  "programm": 1716,
  "punkte": 1717,
  "demo@@": 1718,
  "mitgefühl": 1719,
  "hört": 1720,
  "eben": 1721,
  "stimmen": 1722,
  "passierte": 1723,
  "sal@@": 1724,
  "far@@": 1725,
  "fische": 1726,
  "flug@@": 1727,
  "halte": 1728,
  "realität": 1729,
  "stellten": 1730,
  "holen": 1731,
  "gende": 1732,
  "information": 1733,
  "begannen": 1734,
  "hoffnung": 1735,
  "flü@@": 1736,
  "alte": 1737,
  "voller": 1738,
  "mus@@": 1739,
  "ergebnis": 1740,
  "arm": 1741,
  "0.000": 1742,
  "kannst": 1743,
  "sub@@": 1744,
  "kunst@@": 1745,
  "größer": 1746,
  "monaten": 1747,
  "wel@@": 1748,
  "entscheidungen": 1749,
  "bal@@": 1750,
  "klein@@": 1751,
  "sprach": 1752,
  "bevölkerung": 1753,
  "möglichen": 1754,
  "tagen": 1755,
  "deine": 1756,
  "spiele": 1757,
  "aufmerksamkeit": 1758,
  "bald": 1759,
  "fälle": 1760,
  "übrigens": 1761,
  "richtigen": 1762,
  "gemeinsam": 1763,
  "las@@": 1764,
  "ma": 1765,
  "grenzen": 1766,
  "wohl@@": 1767,
  "krankheiten": 1768,
  "vergessen": 1769,
  "vorher": 1770,
  "läuft": 1771,
  "spaß": 1772,
  "schneller": 1773,
  "überleben": 1774,
  "fri@@": 1775,
  "500": 1776,
  "langsam": 1777,
  "verlieren": 1778,
  "sobald": 1779,
  "wussten": 1780,
  "setzt": 1781,
  "großer": 1782,
  "umwelt@@": 1783,
  "unge@@": 1784,
  "tod": 1785,
  "zogen": 1786,
  "länger": 1787,
  "18@@": 1788,
  "experiment": 1789,
  "—": 1790,
  "weltweit": 1791,
  "eigen@@": 1792,
  "fisch": 1793,
  "zier@@": 1794,
  "bewusstsein": 1795,
  "nachrichten": 1796,
  "sitzen": 1797,
  "ität": 1798,
  "200": 1799,
  "haut": 1800,
  "wesen": 1801,
  "außer": 1802,
  "abge@@": 1803,
  "industrie": 1804,
  "bestimmt": 1805,
  "gutes": 1806,
  "produkt": 1807,
  "arbeits@@": 1808,
  "orte": 1809,
  "europa": 1810,
  "lehr@@": 1811,
  "enz": 1812,
  "herum@@": 1813,
  "nis": 1814,
  "druck": 1815,
  "herauszufinden": 1816,
  "anschauen": 1817,
  "pal@@": 1818,
  "beispiele": 1819,
  "hab@@": 1820,
  "künstler": 1821,
  "großes": 1822,
  "wahl": 1823,
  "beobachten": 1824,
  "atom@@": 1825,
  "folge": 1826,
  "klasse": 1827,
  "daten@@": 1828,
  "aten": 1829,
  "führte": 1830,
  "fall@@": 1831,
  "feld": 1832,
  "job": 1833,
  "stoffe": 1834,
  "pat@@": 1835,
  "medien": 1836,
  "evolution": 1837,
  "din@@": 1838,
  "gleichzeitig": 1839,
  "geschehen": 1840,
  "stern": 1841,
  "halt": 1842,
  "außerdem": 1843,
  "flo@@": 1844,
  "interessante": 1845,
  "aussieht": 1846,
  "endlich": 1847,
  "selben": 1848,
  "tel": 1849,
  "san@@": 1850,
  "hör@@": 1851,
  "wichtiger": 1852,
  "ps": 1853,
  "chter": 1854,
  "bessere": 1855,
  "zweiten": 1856,
  "umwelt": 1857,
  "tze": 1858,
  "farbe": 1859,
  "zy@@": 1860,
  "fern@@": 1861,
  "os": 1862,
  "sozialen": 1863,
  "tem": 1864,
  "produzieren": 1865,
  "bleibt": 1866,
  "tik": 1867,
  "arbeitete": 1868,
  "bestimmten": 1869,
  "stisch": 1870,
  "versuchte": 1871,
  "blu@@": 1872,
  "stei@@": 1873,
  "medizin": 1874,
  "nen@@": 1875,
  "aler": 1876,
  "handelt": 1877,
  "ales": 1878,
  "stau@@": 1879,
  "gegangen": 1880,
  "dlich": 1881,
  "gal@@": 1882,
  "sekunden": 1883,
  "orten": 1884,
  "dige": 1885,
  "wirk@@": 1886,
  "chtet": 1887,
  "zentrum": 1888,
  "dreht": 1889,
  "the": 1890,
  "arbei@@": 1891,
  "sammeln": 1892,
  "firmen": 1893,
  "ren": 1894,
  "einzelnen": 1895,
  "schaften": 1896,
  "pla@@": 1897,
  "tt": 1898,
  "wil@@": 1899,
  "demokratie": 1900,
  "genden": 1901,
  "hab": 1902,
  "werk": 1903,
  "verstanden": 1904,
  "acht@@": 1905,
  "liste": 1906,
  "bra@@": 1907,
  "sprachen": 1908,
  "sozi@@": 1909,
  "methode": 1910,
  "/": 1911,
  "ton@@": 1912,
  "einfluss": 1913,
  "lose": 1914,
  "nachricht": 1915,
  "cker": 1916,
  "zü@@": 1917,
  "schlagen": 1918,
  "arzt": 1919,
  "konzept": 1920,
  "frei": 1921,
  "amerikaner": 1922,
  "fällt": 1923,
  "ther@@": 1924,
  "verbessern": 1925,
  "schaut": 1926,
  "papier": 1927,
  "amerikanischen": 1928,
  "warten": 1929,
  "fis@@": 1930,
  "designer": 1931,
  "universität": 1932,
  "verb@@": 1933,
  "fing": 1934,
  "werte": 1935,
  "ktion": 1936,
  "entdecken": 1937,
  "rede": 1938,
  "großartige": 1939,
  "sowohl": 1940,
  "schwer@@": 1941,
  "zustand": 1942,
  "spezies": 1943,
  "personen": 1944,
  "bel": 1945,
  "zeichen": 1946,
  "dna": 1947,
  "klein": 1948,
  "sicher@@": 1949,
  "dadurch": 1950,
  "18": 1951,
  "nenne": 1952,
  "hrt": 1953,
  "wirklichkeit": 1954,
  "geschwindigkeit": 1955,
  "befinden": 1956,
  "dorf": 1957,
  "igen": 1958,
  "ah": 1959,
  "scher": 1960,
  "nummer": 1961,
  "innovation": 1962,
  "nachzudenken": 1963,
  "schicken": 1964,
  "mensch@@": 1965,
  "toll": 1966,
  "vergangenheit": 1967,
  "zumindest": 1968,
  "glück@@": 1969,
  "trag@@": 1970,
  "les@@": 1971,
  "strei@@": 1972,
  "forsch@@": 1973,
  "plan": 1974,
  "einzel@@": 1975,
  "david": 1976,
  "a-@@": 1977,
  "handeln": 1978,
  "strom": 1979,
  "hau@@": 1980,
  "typ": 1981,
  "prinzip": 1982,
  "fte": 1983,
  "suche": 1984,
  "elte": 1985,
  "tter": 1986,
  "organisation": 1987,
  "bühne": 1988,
  "werfen": 1989,
  "wert@@": 1990,
  "erlaubt": 1991,
  "rechte": 1992,
  "verlassen": 1993,
  "hinaus": 1994,
  "grad": 1995,
  "sam": 1996,
  "herstellen": 1997,
  "solchen": 1998,
  "mathematik": 1999,
  "monat": 2000,
  "vertrauen": 2001,
  "äre": 2002,
  "of": 2003,
  "hörte": 2004,
  "früher": 2005,
  "rechts": 2006,
  "menschheit": 2007,
  "führung": 2008,
  "version": 2009,
  "name": 2010,
  "eli@@": 2011,
  "fotos": 2012,
  "worte": 2013,
  "lauf@@": 2014,
  "gründen": 2015,
  "hundert": 2016,
  "dritte": 2017,
  "ismus": 2018,
  "tungen": 2019,
  "zunehmen": 2020,
  "wählen": 2021,
  "erzeugen": 2022,
  "chern": 2023,
  "bus@@": 2024,
  "schein@@": 2025,
  "ier@@": 2026,
  "gründe": 2027,
  "ozean": 2028,
  "öffnen": 2029,
  "ach": 2030,
  "spar@@": 2031,
  "behandlung": 2032,
  "diejenigen": 2033,
  "aufgrund": 2034,
  "dasselbe": 2035,
  "geist": 2036,
  "interesse": 2037,
  "irgendwo": 2038,
  "gewalt": 2039,
  "für@@": 2040,
  "arbeite": 2041,
  "masse": 2042,
  "artikel": 2043,
  "befindet": 2044,
  "genen": 2045,
  "gefähr@@": 2046,
  "spielt": 2047,
  "verstand": 2048,
  "neben": 2049,
  "»": 2050,
  "drehen": 2051,
  "unmöglich": 2052,
  "materialien": 2053,
  "antworten": 2054,
  "osten": 2055,
  "geh@@": 2056,
  "entdeckt": 2057,
  "google": 2058,
  "welcher": 2059,
  "schüler": 2060,
  "studien": 2061,
  "zugang": 2062,
  "gefragt": 2063,
  "vorher@@": 2064,
  "globalen": 2065,
  "steigen": 2066,
  "del": 2067,
  "stunde": 2068,
  "kranken@@": 2069,
  "spieler": 2070,
  "traf": 2071,
  "schen@@": 2072,
  "gesetzt": 2073,
  "sohn": 2074,
  "«": 2075,
  "ologie": 2076,
  "betrachtet": 2077,
  "haft": 2078,
  "geschäft": 2079,
  "einfachen": 2080,
  "us-@@": 2081,
  "nahrung": 2082,
  "entschieden": 2083,
  "tungs@@": 2084,
  "naja": 2085,
  "architektur": 2086,
  "riesige": 2087,
  "langen": 2088,
  "pfen": 2089,
  "pres@@": 2090,
  "licht@@": 2091,
  "oni@@": 2092,
  "geln": 2093,
  "stischen": 2094,
  "leisten": 2095,
  "fal@@": 2096,
  "sinne": 2097,
  "emp@@": 2098,
  "schle@@": 2099,
  "zimmer": 2100,
  "neun": 2101,
  "kn@@": 2102,
  "sonnen@@": 2103,
  "sinn@@": 2104,
  "großartig": 2105,
  "leider": 2106,
  "lösungen": 2107,
  "familien": 2108,
  "maschinen": 2109,
  "schä@@": 2110,
  "leben@@": 2111,
  "ungsk@@": 2112,
  "hilft": 2113,
  "biologie": 2114,
  "produkte": 2115,
  "region": 2116,
  "ris@@": 2117,
  "himmel": 2118,
  "zeich@@": 2119,
  "kern": 2120,
  "armut": 2121,
  "reichen": 2122,
  "kollegen": 2123,
  "neuro@@": 2124,
  "wirtschafts@@": 2125,
  "rate": 2126,
  "passt": 2127,
  "entweder": 2128,
  "eis": 2129,
  "fläche": 2130,
  "netz": 2131,
  "versuch": 2132,
  "schnitt": 2133,
  "ergebnisse": 2134,
  "trägt": 2135,
  "kommen@@": 2136,
  "extrem": 2137,
  "meer": 2138,
  "ebenso": 2139,
  "wur@@": 2140,
  "ters": 2141,
  "zo@@": 2142,
  "verständnis": 2143,
  "zeigte": 2144,
  "kaum": 2145,
  "freiheit": 2146,
  "fasst": 2147,
  "zunächst": 2148,
  "fällen": 2149,
  "ehe@@": 2150,
  "untersuchen": 2151,
  "tru@@": 2152,
  "zin@@": 2153,
  "hiv": 2154,
  "verbinden": 2155,
  "keiner": 2156,
  "irgend@@": 2157,
  "ige": 2158,
  "chung": 2159,
  "nte": 2160,
  "million": 2161,
  "leb@@": 2162,
  "meeres@@": 2163,
  "spitze": 2164,
  "schlechte": 2165,
  "näher": 2166,
  "menschen@@": 2167,
  "haup@@": 2168,
  "wü@@": 2169,
  "schafft": 2170,
  "bestimmte": 2171,
  "erstens": 2172,
  "don@@": 2173,
  "ren@@": 2174,
  "beginn": 2175,
  "ender": 2176,
  "schönheit": 2177,
  "deswegen": 2178,
  "verkaufen": 2179,
  "ca.": 2180,
  "leistung": 2181,
  "fli@@": 2182,
  "leiden": 2183,
  "0-@@": 2184,
  "sm@@": 2185,
  "alität": 2186,
  "passen": 2187,
  "bisher": 2188,
  "hielt": 2189,
  "energie@@": 2190,
  "dein": 2191,
  "ebenfalls": 2192,
  "gefä@@": 2193,
  "mat@@": 2194,
  "wichtigste": 2195,
  "herzustellen": 2196,
  "seh@@": 2197,
  "ressourcen": 2198,
  "mieren": 2199,
  "entscheiden": 2200,
  "uhr": 2201,
  "raus": 2202,
  "y-@@": 2203,
  "chance": 2204,
  "ermöglicht": 2205,
  "fühlt": 2206,
  "reaktion": 2207,
  "zieht": 2208,
  "fertig": 2209,
  "fluss": 2210,
  "objekt": 2211,
  "ziel@@": 2212,
  "hände": 2213,
  "ließ": 2214,
  "komme": 2215,
  "er-@@": 2216,
  "gelegenheit": 2217,
  "herz": 2218,
  "bedingungen": 2219,
  "endes": 2220,
  "arbeit@@": 2221,
  "siert": 2222,
  "zell@@": 2223,
  "tiger": 2224,
  "10@@": 2225,
  "außerhalb": 2226,
  "kunden": 2227,
  "unglaubliche": 2228,
  "gesamten": 2229,
  "virus": 2230,
  "kampf": 2231,
  "bakterien": 2232,
  "lag": 2233,
  "retten": 2234,
  "lasst": 2235,
  "aller@@": 2236,
  "voraus@@": 2237,
  "bahn": 2238,
  "cks": 2239,
  "bürger@@": 2240,
  "kamera": 2241,
  "rechten": 2242,
  "projekte": 2243,
  "bank": 2244,
  "getroffen": 2245,
  "legt": 2246,
  "trifft": 2247,
  "heben": 2248,
  "staat@@": 2249,
  "letztes": 2250,
  "wu@@": 2251,
  "verrückt": 2252,
  "raum@@": 2253,
  "säu@@": 2254,
  "ehrlich": 2255,
  "ard": 2256,
  "krankenhaus": 2257,
  "fähig": 2258,
  "unterschiede": 2259,
  "aren": 2260,
  "sieren": 2261,
  "erzählte": 2262,
  "kostet": 2263,
  "nehme": 2264,
  "luft@@": 2265,
  "70": 2266,
  "gesetz": 2267,
  "nten": 2268,
  "erwarten": 2269,
  "fassen": 2270,
  "90": 2271,
  "fuhr": 2272,
  "spreche": 2273,
  "zeitpunkt": 2274,
  "zehn@@": 2275,
  "armen": 2276,
  "tigkeit": 2277,
  "leid": 2278,
  "gehirn@@": 2279,
  "bau": 2280,
  "km": 2281,
  "iger": 2282,
  "erfolgreich": 2283,
  "einzigen": 2284,
  "unterschiedliche": 2285,
  "geschaffen": 2286,
  "wege": 2287,
  "währ@@": 2288,
  "sse": 2289,
  "erklärt": 2290,
  "eigenschaften": 2291,
  "lernte": 2292,
  "auge": 2293,
  "erinnere": 2294,
  "natur@@": 2295,
  "leidenschaft": 2296,
  "app@@": 2297,
  "nicht-@@": 2298,
  "ette": 2299,
  "geschäfts@@": 2300,
  "ehr@@": 2301,
  "landes": 2302,
  "krise": 2303,
  "schätzen": 2304,
  "erfahren": 2305,
  "schützen": 2306,
  "software": 2307,
  "greifen": 2308,
  "rund": 2309,
  "gehe": 2310,
  "typen": 2311,
  "traum": 2312,
  "zweitens": 2313,
  "wagen": 2314,
  "straßen": 2315,
  "mau@@": 2316,
  "freund@@": 2317,
  "worten": 2318,
  "strukturen": 2319,
  "brechen": 2320,
  "len@@": 2321,
  "herausfinden": 2322,
  "zeichnet": 2323,
  "freude": 2324,
  "elektro@@": 2325,
  "hunderte": 2326,
  "seines": 2327,
  "s.": 2328,
  "ahnung": 2329,
  "1,@@": 2330,
  "organisationen": 2331,
  "john": 2332,
  "englisch": 2333,
  "vielfalt": 2334,
  "abend": 2335,
  "funktion@@": 2336,
  "beziehungen": 2337,
  "0": 2338,
  "vorzu@@": 2339,
  "sten@@": 2340,
  "industri@@": 2341,
  "stes": 2342,
  "stische": 2343,
  "blin@@": 2344,
  "regen@@": 2345,
  "regel": 2346,
  "schrei@@": 2347,
  "ffen": 2348,
  "bezug": 2349,
  "geräte": 2350,
  "kraft@@": 2351,
  "tief": 2352,
  "brauchte": 2353,
  "physik": 2354,
  "schutz": 2355,
  "westen": 2356,
  "schli@@": 2357,
  "erd@@": 2358,
  "auen": 2359,
  "öffentlichen": 2360,
  "gedacht": 2361,
  "netzwerk": 2362,
  "heu@@": 2363,
  "finger": 2364,
  "erfunden": 2365,
  "konferenz": 2366,
  "produktion": 2367,
  "dat@@": 2368,
  "gehirns": 2369,
  "flugzeug": 2370,
  "wohin": 2371,
  "angefangen": 2372,
  "ons": 2373,
  "fen@@": 2374,
  "steckt": 2375,
  "bäume": 2376,
  "auswirkungen": 2377,
  "erleben": 2378,
  "hängt": 2379,
  "tex@@": 2380,
  "globale": 2381,
  "ha": 2382,
  "nete": 2383,
  "mehrere": 2384,
  "teilt": 2385,
  "mini@@": 2386,
  "geschah": 2387,
  "behandeln": 2388,
  "z.b.": 2389,
  "aufgaben": 2390,
  "desto": 2391,
  "verantwortung": 2392,
  "rat": 2393,
  "regel@@": 2394,
  "bild@@": 2395,
  "mitten": 2396,
  "miert": 2397,
  "mögliche": 2398,
  "gebe": 2399,
  "erfahrungen": 2400,
  "ßt": 2401,
  "zug": 2402,
  "solar@@": 2403,
  "heim@@": 2404,
  "seien": 2405,
  "entschied": 2406,
  "ras@@": 2407,
  "sekunde": 2408,
  "karten": 2409,
  "regierungen": 2410,
  "nahe": 2411,
  "elles": 2412,
  "gesellschaften": 2413,
  "ärzte": 2414,
  "farben": 2415,
  "klima@@": 2416,
  "lief": 2417,
  "religion": 2418,
  "schluss": 2419,
  "cor@@": 2420,
  "büro": 2421,
  "echt": 2422,
  "band": 2423,
  "see": 2424,
  "hl": 2425,
  "stecken": 2426,
  "systems": 2427,
  "weiss": 2428,
  "wichtigsten": 2429,
  "chris": 2430,
  "fragt": 2431,
  "runter": 2432,
  "denk@@": 2433,
  "bewe@@": 2434,
  "lung": 2435,
  "ganzes": 2436,
  "nieder@@": 2437,
  "dische": 2438,
  "verbindungen": 2439,
  "ate": 2440,
  "position": 2441,
  "treiben": 2442,
  "online": 2443,
  "sicherlich": 2444,
  "ve@@": 2445,
  "wuchs": 2446,
  "form@@": 2447,
  "jahrhunderts": 2448,
  "medikamente": 2449,
  "gaben": 2450,
  "tlich": 2451,
  "11": 2452,
  "ball@@": 2453,
  "hinein": 2454,
  "echte": 2455,
  "fühlte": 2456,
  "neuronen": 2457,
  "volle": 2458,
  "hey": 2459,
  "physi@@": 2460,
  "erstaunlich": 2461,
  "vollen": 2462,
  "geführt": 2463,
  "stattdessen": 2464,
  "fern": 2465,
  "größeren": 2466,
  "dr.": 2467,
  "werkzeuge": 2468,
  "auff@@": 2469,
  "jemandem": 2470,
  "ball": 2471,
  "loch": 2472,
  "lagen": 2473,
  "guter": 2474,
  "größere": 2475,
  "richten": 2476,
  "geschafft": 2477,
  "glichen": 2478,
  "jene": 2479,
  "veränderungen": 2480,
  "ckte": 2481,
  "mag@@": 2482,
  "wunsch": 2483,
  "begonnen": 2484,
  "waffen": 2485,
  "dün@@": 2486,
  "wenden": 2487,
  "herzen": 2488,
  "konzentrieren": 2489,
  "erstes": 2490,
  "tausend": 2491,
  "modelle": 2492,
  "produziert": 2493,
  "lauf": 2494,
  "tochter": 2495,
  "existiert": 2496,
  "schöne": 2497,
  "gefühle": 2498,
  "fuß": 2499,
  "häuser": 2500,
  "kilometer": 2501,
  "sex": 2502,
  "beeinflusst": 2503,
  "wenige": 2504,
  "genutzt": 2505,
  "verursacht": 2506,
  "verbringen": 2507,
  "k-@@": 2508,
  "rufen": 2509,
  "höhe": 2510,
  "tot@@": 2511,
  "alter@@": 2512,
  "brot": 2513,
  "han@@": 2514,
  "komplexität": 2515,
  "tritt": 2516,
  "tür": 2517,
  "buch@@": 2518,
  "blut@@": 2519,
  "stet": 2520,
  "infrastruktur": 2521,
  "freunden": 2522,
  "heutigen": 2523,
  "frühen": 2524,
  "wahl@@": 2525,
  "amerikanische": 2526,
  "stein": 2527,
  "recht@@": 2528,
  "reich": 2529,
  "qualität": 2530,
  "aktivität": 2531,
  "staat": 2532,
  "fernsehen": 2533,
  "ernst": 2534,
  "fuß@@": 2535,
  "reisen": 2536,
  "einkommen": 2537,
  "erzeugt": 2538,
  "300": 2539,
  "stro@@": 2540,
  "leg@@": 2541,
  "dorthin": 2542,
  "eigenes": 2543,
  "fleisch": 2544,
  "schwester": 2545,
  "vorbei": 2546,
  "fühle": 2547,
  "folgendes": 2548,
  "nächstes": 2549,
  "unterstützen": 2550,
  "anz": 2551,
  "gelöst": 2552,
  "wörter": 2553,
  "materi@@": 2554,
  "kommunikation": 2555,
  "wind": 2556,
  "ator": 2557,
  "senden": 2558,
  "ließen": 2559,
  "schutz@@": 2560,
  "go": 2561,
  "ff": 2562,
  "log@@": 2563,
  "erlauben": 2564,
  "küste": 2565,
  "fein@@": 2566,
  "mess@@": 2567,
  "kreis": 2568,
  "gol@@": 2569,
  "dauert": 2570,
  "zusammenhang": 2571,
  "funktion": 2572,
  "linken": 2573,
  "augen@@": 2574,
  "zeichnen": 2575,
  "16": 2576,
  "kriegen": 2577,
  "sucht": 2578,
  "stücke": 2579,
  "arme": 2580,
  "gewicht": 2581,
  "gewebe": 2582,
  "ausdruck": 2583,
  "selb@@": 2584,
  "schien": 2585,
  "tolle": 2586,
  "national": 2587,
  "operation": 2588,
  "innen@@": 2589,
  "bung": 2590,
  "weiterhin": 2591,
  "barkeit": 2592,
  "entscheidung": 2593,
  "museum": 2594,
  "gehalten": 2595,
  "chs": 2596,
  "gem": 2597,
  "tsch@@": 2598,
  "begriff": 2599,
  "somit": 2600,
  "fenster": 2601,
  "prakti@@": 2602,
  "sper@@": 2603,
  "roten": 2604,
  "allerdings": 2605,
  "zog": 2606,
  "mars": 2607,
  "linien": 2608,
  "stolz": 2609,
  "deutlich": 2610,
  "raten": 2611,
  "kreativität": 2612,
  "schafts@@": 2613,
  "quelle": 2614,
  "partner": 2615,
  "city": 2616,
  "bares": 2617,
  "multi@@": 2618,
  "lern@@": 2619,
  "mes": 2620,
  "losen": 2621,
  "ted-@@": 2622,
  "baum": 2623,
  "afghanistan": 2624,
  "ären": 2625,
  "aufnahme": 2626,
  "nerven@@": 2627,
  "aufgenommen": 2628,
  "familien@@": 2629,
  "ausbildung": 2630,
  "feuer": 2631,
  "wirtschaft@@": 2632,
  "klingt": 2633,
  "materie": 2634,
  "vergleich": 2635,
  "bildungs@@": 2636,
  "schrift": 2637,
  "benötigt": 2638,
  "trotz": 2639,
  "fei@@": 2640,
  "affen": 2641,
  "wirst": 2642,
  "male": 2643,
  "entstehen": 2644,
  "universums": 2645,
  "wen": 2646,
  "hart": 2647,
  "reg@@": 2648,
  "nord@@": 2649,
  "bestehen": 2650,
  "wechsel@@": 2651,
  "irgendwann": 2652,
  "botschaft": 2653,
  "filme": 2654,
  "beine": 2655,
  "sozusagen": 2656,
  "nochmal": 2657,
  "habt": 2658,
  "erwartet": 2659,
  "geo@@": 2660,
  "glaubt": 2661,
  "ik": 2662,
  "selber": 2663,
  "süd@@": 2664,
  "perspektive": 2665,
  "sterne": 2666,
  "laut": 2667,
  "gelegt": 2668,
  "soldaten": 2669,
  "einsatz": 2670,
  "erin": 2671,
  "einfacher": 2672,
  "scheinen": 2673,
  "nähe": 2674,
  "ecke": 2675,
  "folgt": 2676,
  "west@@": 2677,
  "effekt": 2678,
  "massen@@": 2679,
  "sodass": 2680,
  "wahrscheinlichkeit": 2681,
  "großbritannien": 2682,
  "offen": 2683,
  "bor@@": 2684,
  "sand@@": 2685,
  "fun@@": 2686,
  "natürliche": 2687,
  "do": 2688,
  "kämpfen": 2689,
  "politischen": 2690,
  "modernen": 2691,
  "darf": 2692,
  "lautet": 2693,
  "tin": 2694,
  "baby": 2695,
  "gas@@": 2696,
  "politische": 2697,
  "daß": 2698,
  "bildern": 2699,
  "gener@@": 2700,
  "töten": 2701,
  "videos": 2702,
  "bitten": 2703,
  "schlag": 2704,
  "schwe@@": 2705,
  "benötigen": 2706,
  "weiteres": 2707,
  "früh@@": 2708,
  "standen": 2709,
  "bezahlen": 2710,
  "frieden": 2711,
  "städten": 2712,
  "haufen": 2713,
  "dagegen": 2714,
  "erforschen": 2715,
  "verfügung": 2716,
  "fort": 2717,
  "wander@@": 2718,
  "kontrollieren": 2719,
  "wald": 2720,
  "nahrungs@@": 2721,
  "aktiv": 2722,
  "investieren": 2723,
  "dritten": 2724,
  "steigt": 2725,
  "kenne": 2726,
  "gesetze": 2727,
  "lat@@": 2728,
  "berg": 2729,
  "versorgung": 2730,
  "vermutlich": 2731,
  "sparen": 2732,
  "erinnert": 2733,
  "räume": 2734,
  "gilt": 2735,
  "fortschritt": 2736,
  "männern": 2737,
  "wissenschaftliche": 2738,
  "weiteren": 2739,
  "tere": 2740,
  "ansatz": 2741,
  "werkzeug": 2742,
  "sitzt": 2743,
  "code": 2744,
  "ändert": 2745,
  "dennoch": 2746,
  "mond": 2747,
  "baut": 2748,
  "kräfte": 2749,
  "rein@@": 2750,
  "objekte": 2751,
  "london": 2752,
  "gsten": 2753,
  "intelligenz": 2754,
  "zuhause": 2755,
  "ed@@": 2756,
  "organismen": 2757,
  "vollkommen": 2758,
  "verkauft": 2759,
  "boot": 2760,
  "bewegungen": 2761,
  "verfolgen": 2762,
  "starb": 2763,
  "wesentlichen": 2764,
  "verdienen": 2765,
  "perfekt": 2766,
  "welchen": 2767,
  "hinein@@": 2768,
  "finanz@@": 2769,
  "vollständig": 2770,
  "ktionen": 2771,
  "gelassen": 2772,
  "klang": 2773,
  "20.": 2774,
  "fiel": 2775,
  "stuhl": 2776,
  "tauchen": 2777,
  "gestern": 2778,
  "hnt": 2779,
  "gewonnen": 2780,
  "richard": 2781,
  "video@@": 2782,
  "entlang": 2783,
  "ce@@": 2784,
  "teilchen": 2785,
  "titel": 2786,
  "teste": 2787,
  "hirn@@": 2788,
  "rö@@": 2789,
  "entwickelten": 2790,
  "problemen": 2791,
  "methoden": 2792,
  "kurzem": 2793,
  "behalten": 2794,
  "reagieren": 2795,
  "kontakt": 2796,
  "wiederum": 2797,
  "entwerfen": 2798,
  "dischen": 2799,
  "besitzen": 2800,
  "beschäftigt": 2801,
  "mission": 2802,
  "musi@@": 2803,
  "atmosphäre": 2804,
  "zes": 2805,
  "steuern": 2806,
  "fragten": 2807,
  "ierte": 2808,
  "ermöglichen": 2809,
  "sum@@": 2810,
  "cool": 2811,
  "durchgeführt": 2812,
  "möglicherweise": 2813,
  "phänomen": 2814,
  "moleküle": 2815,
  "gramm": 2816,
  "risiko": 2817,
  "lungen": 2818,
  "mark@@": 2819,
  "schlag@@": 2820,
  "gewi@@": 2821,
  "ta": 2822,
  "ca@@": 2823,
  "saß": 2824,
  "riesigen": 2825,
  "meistens": 2826,
  "bis@@": 2827,
  "beschreiben": 2828,
  "king": 2829,
  "grenze": 2830,
  "behandelt": 2831,
  "vision": 2832,
  "unbedingt": 2833,
  "garten": 2834,
  "herausgefunden": 2835,
  "gemeinde": 2836,
  "gestalten": 2837,
  "wächst": 2838,
  "dieselbe": 2839,
  "gebiete": 2840,
  "derzeit": 2841,
  "lachen": 2842,
  "lebte": 2843,
  "lin": 2844,
  "eis@@": 2845,
  "zufällig": 2846,
  "basis": 2847,
  "wirkung": 2848,
  "arbeiter": 2849,
  "unterschiedlichen": 2850,
  "alisieren": 2851,
  "est@@": 2852,
  "neben@@": 2853,
  "hergestellt": 2854,
  "glich": 2855,
  "veröffentlicht": 2856,
  "asien": 2857,
  "wahre": 2858,
  "dor@@": 2859,
  "umge@@": 2860,
  "brü@@": 2861,
  "elemente": 2862,
  "milliarde": 2863,
  "mehr@@": 2864,
  "hauptsächlich": 2865,
  "woher": 2866,
  "gelangen": 2867,
  "hoffentlich": 2868,
  "schalten": 2869,
  "setzte": 2870,
  "kern@@": 2871,
  "lass": 2872,
  "davor": 2873,
  "kennt": 2874,
  "zuhören": 2875,
  "bieten": 2876,
  "letztendlich": 2877,
  "unterstützung": 2878,
  "mütter": 2879,
  "wunderbare": 2880,
  "kommunizieren": 2881,
  "lichsten": 2882,
  "drittel": 2883,
  "chi@@": 2884,
  "gefängnis": 2885,
  "noten": 2886,
  "ley": 2887,
  "tiver": 2888,
  "hielten": 2889,
  "irgendetwas": 2890,
  "rein": 2891,
  "sel": 2892,
  "fung": 2893,
  "sur@@": 2894,
  "graben": 2895,
  "stufe": 2896,
  "jahres": 2897,
  "aids": 2898,
  "temperatur": 2899,
  "o-@@": 2900,
  "basiert": 2901,
  "meilen": 2902,
  "erstellen": 2903,
  "insekten": 2904,
  "sommer": 2905,
  "mung": 2906,
  "worüber": 2907,
  "themen": 2908,
  "reicht": 2909,
  "ameisen": 2910,
  "miss@@": 2911,
  "fischen": 2912,
  "dahin": 2913,
  "laufe": 2914,
  "buchstäblich": 2915,
  "magne@@": 2916,
  "tierte": 2917,
  "bett": 2918,
  "umgehen": 2919,
  "falsche": 2920,
  "experimente": 2921,
  "kurze": 2922,
  "lige": 2923,
  "lebten": 2924,
  "wirkt": 2925,
  "14": 2926,
  "llen": 2927,
  "mischen": 2928,
  "la": 2929,
  "weder": 2930,
  "schwarze": 2931,
  "ys": 2932,
  "jungs": 2933,
  "verbracht": 2934,
  "hohe": 2935,
  "park": 2936,
  "wunderbar": 2937,
  "klimawandel": 2938,
  "erende": 2939,
  "präsident": 2940,
  "hohen": 2941,
  "begeistert": 2942,
  "vermögen": 2943,
  "zusammenarbeit": 2944,
  "beeinflussen": 2945,
  "fach@@": 2946,
  "täglich": 2947,
  "todes@@": 2948,
  "bürger": 2949,
  "übertragen": 2950,
  "hund": 2951,
  "karriere": 2952,
  "glücklicherweise": 2953,
  "viren": 2954,
  "brauche": 2955,
  "erzähle": 2956,
  "mach@@": 2957,
  "entwickelte": 2958,
  "geburt": 2959,
  "umzu@@": 2960,
  "zig": 2961,
  "großteil": 2962,
  "forscher": 2963,
  "knochen": 2964,
  "alleine": 2965,
  "dauern": 2966,
  "wandel": 2967,
  "verantwortlich": 2968,
  "landschaft": 2969,
  "tz": 2970,
  "anten": 2971,
  "gewissen": 2972,
  "morgens": 2973,
  "hi": 2974,
  "dar": 2975,
  "krebs@@": 2976,
  "maus": 2977,
  "aufhören": 2978,
  "kümmern": 2979,
  "nannte": 2980,
  "gedanke": 2981,
  "stoßen": 2982,
  "film@@": 2983,
  "entsteht": 2984,
  "dlichen": 2985,
  "endet": 2986,
  "erenden": 2987,
  "400": 2988,
  "schwimmen": 2989,
  "2000": 2990,
  "rücken": 2991,
  "per": 2992,
  "experten": 2993,
  "militär@@": 2994,
  "neuer": 2995,
  "verhindern": 2996,
  "griff": 2997,
  "jobs": 2998,
  "versuchten": 2999,
  "brachten": 3000,
  "ziele": 3001,
  "opfer": 3002,
  "tor@@": 3003,
  "betrifft": 3004,
  "alisiert": 3005,
  "dieren": 3006,
  "könnt": 3007,
  "handel": 3008,
  "spiegel": 3009,
  "gefahr": 3010,
  "bekannten": 3011,
  "bildschirm": 3012,
  "elten": 3013,
  "rief": 3014,
  "verbreitet": 3015,
  "pen": 3016,
  "erster": 3017,
  "theit": 3018,
  "fingen": 3019,
  "herr": 3020,
  "dene": 3021,
  "blei@@": 3022,
  "zählen": 3023,
  "lernt": 3024,
  "wow": 3025,
  "blut": 3026,
  "gespielt": 3027,
  "internet@@": 3028,
  "normale": 3029,
  "wirtschaftlichen": 3030,
  "tiefe": 3031,
  "getötet": 3032,
  "drücken": 3033,
  "geheim@@": 3034,
  "zurückzu@@": 3035,
  "gas": 3036,
  "vergleichen": 3037,
  "wisst": 3038,
  "lieber": 3039,
  "frem@@": 3040,
  "besseren": 3041,
  "24": 3042,
  "zierten": 3043,
  "normalen": 3044,
  "japan": 3045,
  "tab@@": 3046,
  "bü@@": 3047,
  "wissenschaftlichen": 3048,
  "sozial@@": 3049,
  "j": 3050,
  "dungs@@": 3051,
  "anderem": 3052,
  "vorteil": 3053,
  "zeitalter": 3054,
  "zahl@@": 3055,
  "drückt": 3056,
  "gerü@@": 3057,
  "vögel": 3058,
  "mengen": 3059,
  "person@@": 3060,
  "pe": 3061,
  "werbung": 3062,
  "total": 3063,
  "tue": 3064,
  "kontext": 3065,
  "ähnliche": 3066,
  "roman@@": 3067,
  "lebewesen": 3068,
  "überzeugen": 3069,
  "praktisch": 3070,
  "ford": 3071,
  "verlangen": 3072,
  "raus@@": 3073,
  "werke": 3074,
  "meister": 3075,
  "hintergrund": 3076,
  "sche@@": 3077,
  "babys": 3078,
  "lied": 3079,
  "bemerkt": 3080,
  "sches": 3081,
  "führer": 3082,
  "interessieren": 3083,
  "las": 3084,
  "gehabt": 3085,
  "kalifornien": 3086,
  "landwirtschaft": 3087,
  "büro@@": 3088,
  "stab@@": 3089,
  "stellung": 3090,
  "erstaunliche": 3091,
  "ca": 3092,
  "arbeiteten": 3093,
  "sorge": 3094,
  "relativ": 3095,
  "bereiche": 3096,
  "spüren": 3097,
  "herunter@@": 3098,
  "führten": 3099,
  "kürzlich": 3100,
  "neten": 3101,
  "schicht": 3102,
  "inen": 3103,
  "erkannte": 3104,
  "bs": 3105,
  "uner@@": 3106,
  "existieren": 3107,
  "überzeugt": 3108,
  "fährt": 3109,
  "fünf@@": 3110,
  "inneren": 3111,
  "igkeit": 3112,
  "13": 3113,
  "flächen": 3114,
  "brauchten": 3115,
  "bein@@": 3116,
  "hinweg": 3117,
  "keln": 3118,
  "samen": 3119,
  "werten": 3120,
  "hinzu@@": 3121,
  "fordert": 3122,
  "markt@@": 3123,
  "washington": 3124,
  "sauerstoff": 3125,
  "starke": 3126,
  "tives": 3127,
  "weißen": 3128,
  "moderne": 3129,
  "geschickt": 3130,
  "unbe@@": 3131,
  "nation": 3132,
  "school": 3133,
  "zte": 3134,
  "träume": 3135,
  "tischer": 3136,
  "irak": 3137,
  "iges": 3138,
  "eure": 3139,
  "kung": 3140,
  "ktiv": 3141,
  "fängt": 3142,
  "insel": 3143,
  "doppelt": 3144,
  "maß@@": 3145,
  "gehirne": 3146,
  "schaute": 3147,
  "roll@@": 3148,
  "verschwinden": 3149,
  "drin": 3150,
  "bus": 3151,
  "ruf": 3152,
  "schönen": 3153,
  "überrascht": 3154,
  "weile": 3155,
  "normal": 3156,
  "grün": 3157,
  "mitteln": 3158,
  "forschungs@@": 3159,
  "bietet": 3160,
  "zit@@": 3161,
  "bauern": 3162,
  "45": 3163,
  "galaxien": 3164,
  "genauer": 3165,
  "dichte": 3166,
  "älter": 3167,
  "außen@@": 3168,
  "interagieren": 3169,
  "gestorben": 3170,
  "kapit@@": 3171,
  "ansicht": 3172,
  "weite": 3173,
  "weißt": 3174,
  "lichkeiten": 3175,
  "hne": 3176,
  "digung": 3177,
  "seitdem": 3178,
  "10.000": 3179,
  "hum@@": 3180,
  "moral@@": 3181,
  "bauten": 3182,
  "erhält": 3183,
  "malen": 3184,
  "rätsel": 3185,
  "schmerz": 3186,
  "verwandeln": 3187,
  "erfinden": 3188,
  "sowie": 3189,
  "san": 3190,
  "komplexe": 3191,
  "impf@@": 3192,
  "händen": 3193,
  "bedeuten": 3194,
  "bezahlt": 3195,
  "teilung": 3196,
  "drüben": 3197,
  "annehmen": 3198,
  "meiste": 3199,
  "mindestens": 3200,
  "herausforderungen": 3201,
  "starten": 3202,
  "autor@@": 3203,
  "gelesen": 3204,
  "är": 3205,
  "deinen": 3206,
  "digt": 3207,
  "unterscheiden": 3208,
  "null": 3209,
  "bekamen": 3210,
  "verbreiten": 3211,
  "35": 3212,
  "kopf@@": 3213,
  "institutionen": 3214,
  "gespräch": 3215,
  "gste": 3216,
  "tiges": 3217,
  "ppt": 3218,
  "wahrnehmung": 3219,
  "musst": 3220,
  "gerung": 3221,
  "bloß": 3222,
  "$": 3223,
  "minute": 3224,
  "barer": 3225,
  "leiten": 3226,
  "gefährlich": 3227,
  "17@@": 3228,
  "gehören": 3229,
  "zauber@@": 3230,
  "kulturen": 3231,
  "privat@@": 3232,
  "einheit": 3233,
  "heisst": 3234,
  "anwenden": 3235,
  "150": 3236,
  "unternehmer": 3237,
  "traditionellen": 3238,
  "nicht@@": 3239,
  "zusammenzu@@": 3240,
  "nah": 3241,
  "wirken": 3242,
  "co2": 3243,
  "märkte": 3244,
  "echten": 3245,
  "erscheinen": 3246,
  "dürfen": 3247,
  "körpers": 3248,
  "therapie": 3249,
  "schlüssel@@": 3250,
  "aufnahmen": 3251,
  "abhängig": 3252,
  "paul": 3253,
  "lichem": 3254,
  "gezogen": 3255,
  "krank": 3256,
  "telefon": 3257,
  "schlüssel": 3258,
  "öffentliche": 3259,
  "stein@@": 3260,
  "erkenntnis": 3261,
  "mittleren": 3262,
  "hängen": 3263,
  "treibt": 3264,
  "emotionen": 3265,
  "hung": 3266,
  "einsetzen": 3267,
  "netzwerke": 3268,
  "schlimmer": 3269,
  "eingesetzt": 3270,
  "has@@": 3271,
  "nah@@": 3272,
  "mach": 3273,
  "medizin@@": 3274,
  "gab@@": 3275,
  "alismus": 3276,
  "rahmen": 3277,
  "fisch@@": 3278,
  "grundlegende": 3279,
  "details": 3280,
  "einiger": 3281,
  "dach": 3282,
  "geld@@": 3283,
  "fantastisch": 3284,
  "gefahren": 3285,
  "patient": 3286,
  "bedarf": 3287,
  "ierten": 3288,
  "steine": 3289,
  "regionen": 3290,
  "wunder": 3291,
  "entdeckung": 3292,
  "berg@@": 3293,
  "wichtigen": 3294,
  "bat": 3295,
  "gegenteil": 3296,
  "strategie": 3297,
  "angenommen": 3298,
  "hörten": 3299,
  "schuhe": 3300,
  "mmen": 3301,
  "sar@@": 3302,
  "jung@@": 3303,
  "spielte": 3304,
  "kurzen": 3305,
  "99": 3306,
  "pfer@@": 3307,
  "wenigen": 3308,
  "ligen": 3309,
  "züge": 3310,
  "westlichen": 3311,
  "schneiden": 3312,
  "rechts@@": 3313,
  "professor": 3314,
  "schlechten": 3315,
  "notwendig": 3316,
  "besondere": 3317,
  "selten": 3318,
  "mut": 3319,
  "identität": 3320,
  "häufig": 3321,
  "gegensatz": 3322,
  "rote": 3323,
  "stoffen": 3324,
  "mc@@": 3325,
  "sprach@@": 3326,
  "september": 3327,
  "anischen": 3328,
  "nachbarn": 3329,
  "blau": 3330,
  "rü@@": 3331,
  "vertrau@@": 3332,
  "polizei": 3333,
  "bereichen": 3334,
  "holz": 3335,
  "öffentlichkeit": 3336,
  "eindruck": 3337,
  "bienen": 3338,
  "handy": 3339,
  "charles": 3340,
  "streben": 3341,
  "kurs": 3342,
  "natürlichen": 3343,
  "fernseh@@": 3344,
  "zeitung": 3345,
  "bestimmen": 3346,
  "mund": 3347,
  "nationen": 3348,
  "gegend": 3349,
  "verhältnis": 3350,
  "gewisse": 3351,
  "bill": 3352,
  "zerstören": 3353,
  "soviel": 3354,
  "hoffen": 3355,
  "lehren": 3356,
  "verhaltens@@": 3357,
  "tanz": 3358,
  "nutzt": 3359,
  "sand": 3360,
  "fahrer": 3361,
  "lieblings@@": 3362,
  "lager": 3363,
  "abschluss": 3364,
  "flug": 3365,
  "beantworten": 3366,
  "solch": 3367,
  "studieren": 3368,
  "ologen": 3369,
  "individuen": 3370,
  "planet": 3371,
  "teuer": 3372,
  "früh": 3373,
  "programme": 3374,
  "erter": 3375,
  "aspekt": 3376,
  "höher": 3377,
  "aufre@@": 3378,
  "trug": 3379,
  "schwarzen": 3380,
  "wechseln": 3381,
  "graphie": 3382,
  "erklärung": 3383,
  "charakter": 3384,
  "feuer@@": 3385,
  "stammt": 3386,
  "dinosaurier": 3387,
  "unterricht": 3388,
  "entstanden": 3389,
  "verbrachte": 3390,
  "entspricht": 3391,
  "ing-@@": 3392,
  "wein@@": 3393,
  "signale": 3394,
  "erscheint": 3395,
  "grundsätzlich": 3396,
  "glas": 3397,
  "times": 3398,
  "kerl": 3399,
  "sitz@@": 3400,
  "augenblick": 3401,
  "website": 3402,
  "verfügbar": 3403,
  "wechsel": 3404,
  "grünen": 3405,
  "eres": 3406,
  "durchschnittliche": 3407,
  "benen": 3408,
  "kurz@@": 3409,
  "vorfahren": 3410,
  "beweise": 3411,
  "genom": 3412,
  "england": 3413,
  "blatt": 3414,
  "fabrik": 3415,
  "generationen": 3416,
  "quasi": 3417,
  "usw.": 3418,
  "angesehen": 3419,
  "hallo": 3420,
  "berührt": 3421,
  "trinken": 3422,
  "zerstört": 3423,
  "rot": 3424,
  "inspiriert": 3425,
  "fördern": 3426,
  "bestand": 3427,
  "haltung": 3428,
  "erer": 3429,
  "architekten": 3430,
  "folie": 3431,
  "schmerzen": 3432,
  "hinsicht": 3433,
  "müsste": 3434,
  "schau": 3435,
  "halbe": 3436,
  "gefallen": 3437,
  "konflikt": 3438,
  "geändert": 3439,
  "beschlossen": 3440,
  "defini@@": 3441,
  "ling": 3442,
  "diagramm": 3443,
  "schiff": 3444,
  "17": 3445,
  "big": 3446,
  "bekann@@": 3447,
  "entwicklungs@@": 3448,
  "gst": 3449,
  "entworfen": 3450,
  "komplex": 3451,
  "erungen": 3452,
  "college": 3453,
  "mark": 3454,
  "gross@@": 3455,
  "norden": 3456,
  "musik@@": 3457,
  "elektrizität": 3458,
  "aufregend": 3459,
  "definieren": 3460,
  "afrikanischen": 3461,
  "gefällt": 3462,
  "aufbauen": 3463,
  "christ@@": 3464,
  "q@@": 3465,
  "600": 3466,
  "wind@@": 3467,
  "dran": 3468,
  "gebeten": 3469,
  "gäbe": 3470,
  "kultur@@": 3471,
  "quellen": 3472,
  "zeichnungen": 3473,
  "val@@": 3474,
  "weiße": 3475,
  "euer": 3476,
  "dimensionen": 3477,
  "beobachtet": 3478,
  "g-@@": 3479,
  "bahn@@": 3480,
  "falten": 3481,
  "phase": 3482,
  "medien@@": 3483,
  "george": 3484,
  "tausenden": 3485,
  "arm@@": 3486,
  "fro@@": 3487,
  "inhalt": 3488,
  "richtungen": 3489,
  "blieb": 3490,
  "show": 3491,
  "welle": 3492,
  "definition": 3493,
  "verbindet": 3494,
  "unterrichten": 3495,
  "faktor": 3496,
  "regen": 3497,
  "sende": 3498,
  "decken": 3499,
  "spiegel@@": 3500,
  "sicherheits@@": 3501,
  "web": 3502,
  "verbessert": 3503,
  "müll": 3504,
  "aufgebaut": 3505,
  "motor": 3506,
  "lebenden": 3507,
  "erlebt": 3508,
  "alisierung": 3509,
  "zierte": 3510,
  "kindheit": 3511,
  "potential": 3512,
  "stil": 3513,
  "dä@@": 3514,
  "viertel": 3515,
  "kochen": 3516,
  "kehrt": 3517,
  "herren": 3518,
  "hre": 3519,
  "verteilt": 3520,
  "verfahren": 3521,
  "statistiken": 3522,
  "strom@@": 3523,
  "atmen": 3524,
  "vermitteln": 3525,
  "schaden": 3526,
  "reduzieren": 3527,
  "langer": 3528,
  "theater": 3529,
  "kampagne": 3530,
  "5.000": 3531,
  "tests": 3532,
  "kosten@@": 3533,
  "bende": 3534,
  "blauen": 3535,
  "lektion": 3536,
  "seln": 3537,
  "ernährung": 3538,
  "bruder": 3539,
  "schnell@@": 3540,
  "achse": 3541,
  "wirtschaftliche": 3542,
  "digitalen": 3543,
  "motor@@": 3544,
  "junger": 3545,
  "furcht@@": 3546,
  "nützlich": 3547,
  "entdeckte": 3548,
  "mexiko": 3549,
  "tot": 3550,
  "wirklichen": 3551,
  "nar@@": 3552,
  "facebook": 3553,
  "medizinische": 3554,
  "level": 3555,
  "ktes": 3556,
  "dliche": 3557,
  "wobei": 3558,
  "wesentlich": 3559,
  "gemeinden": 3560,
  "persönlich": 3561,
  "lt": 3562,
  "seltsam": 3563,
  "berichten": 3564,
  "grosse": 3565,
  "politiker": 3566,
  "lustig": 3567,
  "nde": 3568,
  "sätze": 3569,
  "kompliziert": 3570,
  "erfindung": 3571,
  "achten": 3572,
  "zweck": 3573,
  "beinahe": 3574,
  "bekannte": 3575,
  "sonder@@": 3576,
  "korruption": 3577,
  "1.@@": 3578,
  "medikament": 3579,
  "klo@@": 3580,
  "online-@@": 3581,
  "feststellen": 3582,
  "erwähnt": 3583,
  "lasse": 3584,
  "helden": 3585,
  "damen": 3586,
  "geschlagen": 3587,
  "einrichtungen": 3588,
  "vorge@@": 3589,
  "beweisen": 3590,
  "straßen@@": 3591,
  "schreib@@": 3592,
  "dunkle": 3593,
  "baute": 3594,
  "gender": 3595,
  "verlust": 3596,
  "tlichen": 3597,
  "positive": 3598,
  "heißen": 3599,
  "james": 3600,
  "erstellt": 3601,
  "momente": 3602,
  "persönlichen": 3603,
  "lediglich": 3604,
  "text": 3605,
  "bein": 3606,
  "kriege": 3607,
  "schlafen": 3608,
  "nutzung": 3609,
  "gesundheitswesen": 3610,
  "wüste": 3611,
  "persönliche": 3612,
  "gewe@@": 3613,
  "mitarbeiter": 3614,
  "überzeu@@": 3615,
  "sil@@": 3616,
  "vorstellungen": 3617,
  "michael": 3618,
  "unterstützt": 3619,
  "sowas": 3620,
  "löcher": 3621,
  "enorme": 3622,
  "2008": 3623,
  "nötig": 3624,
  "rollen": 3625,
  "nahme": 3626,
  "präsentation": 3627,
  "überlegen": 3628,
  "metapher": 3629,
  "unabhängig": 3630,
  "hyper@@": 3631,
  "digitale": 3632,
  "großmutter": 3633,
  "nachts": 3634,
  "ersetzen": 3635,
  "schrecklich": 3636,
  "bedürfnisse": 3637,
  "galaxie": 3638,
  "bildet": 3639,
  "springen": 3640,
  "grüne": 3641,
  "maßstab": 3642,
  "systemen": 3643,
  "anteil": 3644,
  "faktoren": 3645,
  "selbstverständlich": 3646,
  "kriegs@@": 3647,
  "vorne": 3648,
  "wissenschaften": 3649,
  "diert": 3650,
  "außen": 3651,
  "beweis": 3652,
  "aufbau": 3653,
  "webseite": 3654,
  "liebte": 3655,
  "molekül": 3656,
  "mitglieder": 3657,
  "iran": 3658,
  "gerechtigkeit": 3659,
  "afrikas": 3660,
  "wettbewerb": 3661,
  "moralische": 3662,
  "innere": 3663,
  "stin": 3664,
  "freundin": 3665,
  "brücke": 3666,
  "legte": 3667,
  "seht": 3668,
  "büchern": 3669,
  "übrig": 3670,
  "geheimnis": 3671,
  "effektiv": 3672,
  "wofür": 3673,
  "besuchen": 3674,
  "menschlicher": 3675,
  "kaffee": 3676,
  "den-@@": 3677,
  "bogen": 3678,
  "situationen": 3679,
  "verkehr": 3680,
  "liefer@@": 3681,
  "fügen": 3682,
  "lokalen": 3683,
  "aner": 3684,
  "gebraucht": 3685,
  "selbe": 3686,
  "fehlen": 3687,
  "australien": 3688,
  "meer@@": 3689,
  "witz": 3690,
  "beschloss": 3691,
  "einstein": 3692,
  "leistungs@@": 3693,
  "schimpansen": 3694,
  "beinhaltet": 3695,
  "fahrt": 3696,
  "stärker": 3697,
  "jedenfalls": 3698,
  "national@@": 3699,
  "rand": 3700,
  "singen": 3701,
  "grafik": 3702,
  "bit@@": 3703,
  "malaria": 3704,
  "wieviel": 3705,
  "versteht": 3706,
  "nigeria": 3707,
  "erkennt": 3708,
  "irgendjemand": 3709,
  "strahlung": 3710,
  "proben": 3711,
  "liefert": 3712,
  "wirkliche": 3713,
  "verteilung": 3714,
  "zahn@@": 3715,
  "landen": 3716,
  "gesund": 3717,
  "wellen": 3718,
  "nett": 3719,
  "sitz": 3720,
  "gesichter": 3721,
  "herstellung": 3722,
  "sektor": 3723,
  "erwachsene": 3724,
  "stärken": 3725,
  "nden": 3726,
  "stärke": 3727,
  "folgende": 3728,
  "hinten": 3729,
  "gras": 3730,
  "empfin@@": 3731,
  "jährigen": 3732,
  "brach": 3733,
  "kreieren": 3734,
  "chemikalien": 3735,
  "mutter@@": 3736,
  "danken": 3737,
  "schwierigkeiten": 3738,
  "on-@@": 3739,
  "anwendung": 3740,
  "mern": 3741,
  "inseln": 3742,
  "21.": 3743,
  "süden": 3744,
  "kap@@": 3745,
  "unterhaltung": 3746,
  "aufzubauen": 3747,
  "überraschend": 3748,
  "entstand": 3749,
  "rennen": 3750,
  "prinzipien": 3751,
  "anhand": 3752,
  "kannte": 3753,
  "freien": 3754,
  "diskussion": 3755,
  "einiges": 3756,
  "schlechter": 3757,
  "macher": 3758,
  "teure": 3759,
  "geräusch": 3760,
  "dü@@": 3761,
  "grossen": 3762,
  "minister": 3763,
  "schritte": 3764,
  "unfall": 3765,
  "allgemeinen": 3766,
  "bekomme": 3767,
  "ausmaß": 3768,
  "höre": 3769,
  "beispielsweise": 3770,
  "analyse": 3771,
  "zitat": 3772,
  "tom": 3773,
  "internationalen": 3774,
  "meist": 3775,
  "gegründet": 3776,
  "solange": 3777,
  "gebieten": 3778,
  "erkannt": 3779,
  "üben": 3780,
  "ohren": 3781,
  "kenia": 3782,
  "versagen": 3783,
  "dauerte": 3784,
  "untersuchung": 3785,
  "setzten": 3786,
  "geber": 3787,
  "chemie": 3788,
  "schauten": 3789,
  "rechnen": 3790,
  "schuld": 3791,
  "vorhersagen": 3792,
  "presse": 3793,
  "füllen": 3794,
  "gekauft": 3795,
  "co": 3796,
  "müll@@": 3797,
  "willst": 3798,
  "element": 3799,
  "telefon@@": 3800,
  "jährige": 3801,
  "speziellen": 3802,
  "bene": 3803,
  "interessantes": 3804,
  "vorzustellen": 3805,
  "israel": 3806,
  "zivilisation": 3807,
  "unglaublichen": 3808,
  "vertraut": 3809,
  "schte": 3810,
  "anstelle": 3811,
  "ozeane": 3812,
  "tasche": 3813,
  "bedenken": 3814,
  "rad": 3815,
  "blase": 3816,
  "gegenwart": 3817,
  "gleichgewicht": 3818,
  "anfing": 3819,
  "verbreitung": 3820,
  "sprü@@": 3821,
  "station": 3822,
  "untersucht": 3823,
  "kurve": 3824,
  "sech@@": 3825,
  "probieren": 3826,
  "zähne": 3827,
  "zwischen@@": 3828,
  "pfund": 3829,
  "saal": 3830,
  "serie": 3831,
  "här@@": 3832,
  "bezüglich": 3833,
  "äußerst": 3834,
  "195@@": 3835,
  "erwachsenen": 3836,
  "anlage": 3837,
  "gelebt": 3838,
  "lichste": 3839,
  "kirche": 3840,
  "gemeinsame": 3841,
  "deutschland": 3842,
  "grundlage": 3843,
  "75": 3844,
  "toten": 3845,
  "holz@@": 3846,
  "woran": 3847,
  "unterschiedlich": 3848,
  "solcher": 3849,
  "genetische": 3850,
  "studio": 3851,
  "stammzellen": 3852,
  "heran@@": 3853,
  "stehe": 3854,
  "geräusche": 3855,
  "weltweiten": 3856,
  "kombination": 3857,
  "bemerken": 3858,
  "tag@@": 3859,
  "wikipedia": 3860,
  "kapital": 3861,
  "vorhanden": 3862,
  "südafrika": 3863,
  "verstehe": 3864,
  "2007": 3865,
  "zeichnung": 3866,
  "vieles": 3867,
  "resultat": 3868,
  "meinte": 3869,
  "freie": 3870,
  "hierher": 3871,
  "kanada": 3872,
  "entwicklungsländern": 3873,
  "geschenk": 3874,
  "tonnen": 3875,
  "flasche": 3876,
  "grippe": 3877,
  "momentan": 3878,
  "al-@@": 3879,
  "beschäftigen": 3880,
  "center": 3881,
  "kapitel": 3882,
  "aufnehmen": 3883,
  "darwin": 3884,
  "absicht": 3885,
  "sequenz": 3886,
  "dna-@@": 3887,
  "ausstellung": 3888,
  "glas@@": 3889,
  "schreibt": 3890,
  "willen": 3891,
  "gerufen": 3892,
  "entfernen": 3893,
  "müssten": 3894,
  "nas@@": 3895,
  "gemeinschaften": 3896,
  "dient": 3897,
  "akzeptieren": 3898,
  "aufs": 3899,
  "dienst": 3900,
  "beibringen": 3901,
  "mitglied": 3902,
  "14@@": 3903,
  "brust": 3904,
  "glaubte": 3905,
  "nase": 3906,
  "lebe": 3907,
  "plastik": 3908,
  "steve": 3909,
  "einfaches": 3910,
  "gegenseitig": 3911,
  "menschliches": 3912,
  "welchem": 3913,
  "religionen": 3914,
  "19.": 3915,
  "schaue": 3916,
  "konzentriert": 3917,
  "wovon": 3918,
  "tanzen": 3919,
  "änderungen": 3920,
  "reiche": 3921,
  "liefern": 3922,
  "halb@@": 3923,
  "zucker": 3924,
  "seid": 3925,
  "proteine": 3926,
  "kleidung": 3927,
  "tumor": 3928,
  "inzwischen": 3929,
  "zugänglich": 3930,
  "dan": 3931,
  "nasa": 3932,
  "felder": 3933,
  "risiken": 3934,
  "besessen": 3935,
  "twitter": 3936,
  "thomas": 3937,
  "ausgeben": 3938,
  "weiterer": 3939,
  "signal": 3940,
  "fasziniert": 3941,
  "physiker": 3942,
  "erweitern": 3943,
  "brasilien": 3944,
  "trat": 3945,
  "pinguine": 3946,
  "hinzu": 3947,
  "vermeiden": 3948,
  "geholfen": 3949,
  "erhöhen": 3950,
  "automatisch": 3951,
  "instrument": 3952,
  "schwieriger": 3953,
  "soweit": 3954,
  "fach": 3955,
  "bevölkerungs@@": 3956,
  "merken": 3957,
  "hafte": 3958,
  "schönes": 3959,
  "teams": 3960,
  "status": 3961,
  "psychologie": 3962,
  "pol@@": 3963,
  "drucken": 3964,
  "handlung": 3965,
  "handlungen": 3966,
  "stag": 3967,
  "positiv": 3968,
  "beschä@@": 3969,
  "stamm@@": 3970,
  "fakten": 3971,
  "gens": 3972,
  "schlu@@": 3973,
  "wünschte": 3974,
  "lehre": 3975,
  "zählt": 3976,
  "durchführen": 3977,
  "dieselben": 3978,
  "lebensmittel": 3979,
  "mittels": 3980,
  "froh": 3981,
  "insbesondere": 3982,
  "faszinierend": 3983,
  "schatten": 3984,
  "verlauf": 3985,
  "besitzt": 3986,
  "chinesische": 3987,
  "zuzu@@": 3988,
  "realen": 3989,
  "annahme": 3990,
  "übernehmen": 3991,
  "golf": 3992,
  "darunter": 3993,
  "manchen": 3994,
  "autor": 3995,
  "darstellen": 3996,
  "existenz": 3997,
  "debatte": 3998,
  "länge": 3999,
  "durchschnitt": 4000,
  "regierungs@@": 4001,
  "zweimal": 4002,
  "kontrolliert": 4003,
  "marke": 4004,
  "schienen": 4005,
  "ernsthaft": 4006,
  "elektrische": 4007,
  "kontinent": 4008,
  "b.": 4009,
  "haften": 4010,
  "ttert": 4011,
  "fehlt": 4012,
  "laptop": 4013,
  "blicken": 4014,
  "irgendeine": 4015,
  "schließt": 4016,
  "redu@@": 4017,
  "algorithmen": 4018,
  "gendes": 4019,
  "inner@@": 4020,
  "chteten": 4021,
  "100.000": 4022,
  "betrieben": 4023,
  "risiko@@": 4024,
  "effizienz": 4025,
  "tradition": 4026,
  "glücklicher": 4027,
  "internationale": 4028,
  "student": 4029,
  "welten": 4030,
  "veränderte": 4031,
  "heim": 4032,
  "global": 4033,
  "interaktion": 4034,
  "1.000": 4035,
  "sammlung": 4036,
  "literatur": 4037,
  "sprecher": 4038,
  "verwandelt": 4039,
  "leiter": 4040,
  "überwinden": 4041,
  "stieg": 4042,
  "fürs": 4043,
  "kabel": 4044,
  "erlebnis": 4045,
  "fortschritte": 4046,
  "mittlerweile": 4047,
  "konsequenzen": 4048,
  "komm": 4049,
  "besseres": 4050,
  "high": 4051,
  "mehrheit": 4052,
  "kreb@@": 4053,
  "wohlstand": 4054,
  "spektrum": 4055,
  "gefangen": 4056,
  "wirft": 4057,
  "aussage": 4058,
  "bericht": 4059,
  "gebäuden": 4060,
  "hoben": 4061,
  "folgenden": 4062,
  "perfekte": 4063,
  "schwestern": 4064,
  "organisieren": 4065,
  "tiefen": 4066,
  "ausgaben": 4067,
  "verbrechen": 4068,
  "seltsame": 4069,
  "hervor": 4070,
  "enthält": 4071,
  "beenden": 4072,
  "armee": 4073,
  "voraus": 4074,
  "aufgewachsen": 4075,
  "restaurant": 4076,
  "unteren": 4077,
  "ingenieure": 4078,
  "gewinn": 4079,
  "test@@": 4080,
  "ergibt": 4081,
  "hunde": 4082,
  "hof": 4083,
  "fantastische": 4084,
  "worauf": 4085,
  "11.": 4086,
  "star": 4087,
  "blaue": 4088,
  "besagt": 4089,
  "moral": 4090,
  "kugel": 4091,
  "lächeln": 4092,
  "lig": 4093,
  "sichtbar": 4094,
  "kaufte": 4095,
  "ursprünglich": 4096,
  "vogel@@": 4097,
  "gert": 4098,
  "großartigen": 4099,
  "eien": 4100,
  "gebrochen": 4101,
  "jener": 4102,
  "behaupten": 4103,
  "enorm": 4104,
  "ertes": 4105,
  "medizinischen": 4106,
  "organe": 4107,
  "zusätzlich": 4108,
  "lügen": 4109,
  "starben": 4110,
  "gespräche": 4111,
  "jung": 4112,
  "muskeln": 4113,
  "spät": 4114,
  "vorbei@@": 4115,
  "epidemie": 4116,
  "tja": 4117,
  "worum": 4118,
  "musiker": 4119,
  "geschäfte": 4120,
  "entfernung": 4121,
  "pakistan": 4122,
  "gemeinsamen": 4123,
  "volk": 4124,
  "leuchten": 4125,
  "macht@@": 4126,
  "schäd@@": 4127,
  "chaos": 4128,
  "magie": 4129,
  "farb@@": 4130,
  "gewisser": 4131,
  "nachgedacht": 4132,
  "chancen": 4133,
  "st-@@": 4134,
  "darstellung": 4135,
  "tü@@": 4136,
  "vierte": 4137,
  "diger": 4138,
  "gottes": 4139,
  "funktionierte": 4140,
  "university": 4141,
  "waffe": 4142,
  "ähnlichen": 4143,
  "wartet": 4144,
  "fokus": 4145,
  "auseinander": 4146,
  "böse": 4147,
  "afrikaner": 4148,
  "betreiben": 4149,
  "wahrnehmen": 4150,
  "ge-@@": 4151,
  "vogel": 4152,
  "unver@@": 4153,
  "alternative": 4154,
  "branche": 4155,
  "ebenen": 4156,
  "medium": 4157,
  "robert": 4158,
  "hunger": 4159,
  "besorgt": 4160,
  "gewählt": 4161,
  "enthalten": 4162,
  "weshalb": 4163,
  "krieges": 4164,
  "genetischen": 4165,
  "buchstaben": 4166,
  "räumen": 4167,
  "bibel": 4168,
  "pferd": 4169,
  "gedicht": 4170,
  "designs": 4171,
  "einstellung": 4172,
  "zeigten": 4173,
  "änderung": 4174,
  "gesamt@@": 4175,
  "mikroben": 4176,
  "anschaut": 4177,
  "küche": 4178,
  "feiern": 4179,
  "kümmert": 4180,
  "ante": 4181,
  "derer": 4182,
  "preise": 4183,
  "aktion": 4184,
  "francisco": 4185,
  "hiv-@@": 4186,
  "starken": 4187,
  "etc.": 4188,
  "mathematiker": 4189,
  "anische": 4190,
  "angeht": 4191,
  "x-@@": 4192,
  "nahen": 4193,
  "emissionen": 4194,
  "wurzeln": 4195,
  "vielmehr": 4196,
  "inspiration": 4197,
  "aufgeregt": 4198,
  "indischen": 4199,
  "milch": 4200,
  "innovationen": 4201,
  "ansieht": 4202,
  "programmieren": 4203,
  "kostenlos": 4204,
  "kameras": 4205,
  "nachzu@@": 4206,
  "world": 4207,
  "chinesen": 4208,
  "wenigstens": 4209,
  "lebende": 4210,
  "blau@@": 4211,
  "ökosystem": 4212,
  "ehe": 4213,
  "träumen": 4214,
  "gemälde": 4215,
  "höhere": 4216,
  "lokale": 4217,
  "eingeladen": 4218,
  "älteren": 4219,
  "letzter": 4220,
  "reduziert": 4221,
  "schwarz": 4222,
  "ägypten": 4223,
  "teren": 4224,
  "bemerkte": 4225,
  "blumen": 4226,
  "entdeckungen": 4227,
  "youtube": 4228,
  "aktivitäten": 4229,
  "sport": 4230,
  "verschwunden": 4231,
  "zerstörung": 4232,
  "weisheit": 4233,
  "potenzial": 4234,
  "ischem": 4235,
  "computern": 4236,
  "bibliothek": 4237,
  "spuren": 4238,
  "tisches": 4239,
  "live": 4240,
  "vorbereitet": 4241,
  "männchen": 4242,
  "ereignis": 4243,
  "vorteile": 4244,
  "verglichen": 4245,
  "seele": 4246,
  "2010": 4247,
  "cm": 4248,
  "bank@@": 4249,
  "ereignisse": 4250,
  "katastrophe": 4251,
  "beschrieben": 4252,
  "schlägt": 4253,
  "hinterlassen": 4254,
  "hinzufügen": 4255,
  "trafen": 4256,
  "verliert": 4257,
  "harvard": 4258,
  "schlug": 4259,
  "haie": 4260,
  "dauer": 4261,
  "gesammelt": 4262,
  "womit": 4263,
  "2005": 4264,
  "resultate": 4265,
  "langsamer": 4266,
  "niveau": 4267,
  "winter": 4268,
  "co2-@@": 4269,
  "konta@@": 4270,
  "sach@@": 4271,
  "schwierige": 4272,
  "bedrohung": 4273,
  "metern": 4274,
  "genügend": 4275,
  "dargestellt": 4276,
  "mitnehmen": 4277,
  "scheinbar": 4278,
  "lebendig": 4279,
  "voneinander": 4280,
  "könig": 4281,
  "wichtiges": 4282,
  "brust@@": 4283,
  "jahrzehnt": 4284,
  "eindeutig": 4285,
  "arabischen": 4286,
  "beachten": 4287,
  "sport@@": 4288,
  "kulturelle": 4289,
  "boston": 4290,
  "teufel": 4291,
  "schrieben": 4292,
  "gleichung": 4293,
  "darstellt": 4294,
  "schweden": 4295,
  "drogen": 4296,
  "paris": 4297,
  "informations@@": 4298,
  "erhielt": 4299,
  "interessanter": 4300,
  "probe": 4301,
  "island": 4302,
  "instrumente": 4303,
  "verfolgt": 4304,
  "art.": 4305,
  "schießen": 4306,
  "kühl@@": 4307,
  "islam": 4308,
  "schild": 4309,
  "mangel": 4310,
  "verursachen": 4311,
  "investitionen": 4312,
  "mächtig": 4313,
  "losigkeit": 4314,
  "aspekte": 4315,
  "ähnliches": 4316,
  "wem": 4317,
  "suchte": 4318,
  "funktionen": 4319,
  "jahrzehnten": 4320,
  "grundlegenden": 4321,
  "mama": 4322,
  "schichten": 4323,
  "stahl": 4324,
  "anti-@@": 4325,
  "angel@@": 4326,
  "nebenbei": 4327,
  "erinnerung": 4328,
  "basierend": 4329,
  "sechs@@": 4330,
  "eingeführt": 4331,
  "wärme": 4332,
  "umfeld": 4333,
  "dynamik": 4334,
  "fliege": 4335,
  "stift": 4336,
  "3d-@@": 4337,
  "zufall": 4338,
  "biologische": 4339,
  "ältere": 4340,
  "ologe": 4341,
  "gien": 4342,
  "anwendungen": 4343,
  "täuschung": 4344,
  "erforscht": 4345,
  "teilweise": 4346,
  "begrenzt": 4347,
  "bricht": 4348,
  "berechnen": 4349,
  "wolken": 4350,
  "beschreibt": 4351,
  "dh": 4352,
  "bewohner": 4353,
  "drittens": 4354,
  "respekt": 4355,
  "anstieg": 4356,
  "techniken": 4357,
  "zufrieden": 4358,
  "anscheinend": 4359,
  "ausrüstung": 4360,
  "komponenten": 4361,
  "planen": 4362,
  "fliegt": 4363,
  "winzig": 4364,
  "funk@@": 4365,
  "cent": 4366,
  "tiefer": 4367,
  "geleitet": 4368,
  "isieren": 4369,
  "speziell": 4370,
  "auswahl": 4371,
  "bergen": 4372,
  "beln": 4373,
  "erhöht": 4374,
  "definiert": 4375,
  "berge": 4376,
  "deiner": 4377,
  "hotel": 4378,
  "sonnenlicht": 4379,
  "geteilt": 4380,
  "einfachheit": 4381,
  "population": 4382,
  "batterie": 4383,
  "zusammenarbeiten": 4384,
  "operationen": 4385,
  "echtzeit": 4386,
  "vorgang": 4387,
  "stadt@@": 4388,
  "eigenschaft": 4389,
  "visuelle": 4390,
  "erkrankungen": 4391,
  "neuigkeiten": 4392,
  "geburtstag": 4393,
  "benden": 4394,
  "anzusehen": 4395,
  "gesundheit@@": 4396,
  "umständen": 4397,
  "röntgen@@": 4398,
  "derselben": 4399,
  "betroffen": 4400,
  "korea": 4401,
  "militär": 4402,
  "schicksal": 4403,
  "machst": 4404,
  "bedeutete": 4405,
  "wände": 4406,
  "antwortete": 4407,
  "kohle": 4408,
  "fahrzeuge": 4409,
  "plattform": 4410,
  "gericht": 4411,
  "berühren": 4412,
  "flügel": 4413,
  "überraschung": 4414,
  "trick": 4415,
  "artigen": 4416,
  "streiten": 4417,
  "umgeben": 4418,
  "komplexen": 4419,
  "meister@@": 4420,
  "such@@": 4421,
  "hieß": 4422,
  "offenen": 4423,
  "plastik@@": 4424,
  "pläne": 4425,
  "vorstellungskraft": 4426,
  "decke": 4427,
  "brief": 4428,
  "ernähren": 4429,
  "kation": 4430,
  "ergeben": 4431,
  "begegnen": 4432,
  "nationale": 4433,
  "besucht": 4434,
  "chicago": 4435,
  "weltraum": 4436,
  "zentrale": 4437,
  "ära": 4438,
  "lenken": 4439,
  "trieb": 4440,
  "depression": 4441,
  "stiftung": 4442,
  "dringen": 4443,
  "dame": 4444,
  "ursache": 4445,
  "niemanden": 4446,
  "anlagen": 4447,
  "besonderen": 4448,
  "box": 4449,
  "fordern": 4450,
  "nachbarschaft": 4451,
  "billionen": 4452,
  "moralischen": 4453,
  "wunderbaren": 4454,
  "traurig": 4455,
  "bf": 4456,
  "klinik": 4457,
  "budget": 4458,
  "maß": 4459,
  "zufriedenheit": 4460,
  "einst": 4461,
  "infiziert": 4462,
  "eier": 4463,
  "dunkel": 4464,
  "gabe": 4465,
  "blick@@": 4466,
  "mehreren": 4467,
  "übersetzen": 4468,
  "klassenzimmer": 4469,
  "21": 4470,
  "fressen": 4471,
  "kreativen": 4472,
  "riesen@@": 4473,
  "lebenserwartung": 4474,
  "bemerkenswert": 4475,
  "inspirieren": 4476,
  "köpfe": 4477,
  "bezeichnen": 4478,
  "schwere": 4479,
  "drehte": 4480,
  "leichter": 4481,
  "abgesehen": 4482,
  "philosophie": 4483,
  "dunkelheit": 4484,
  "stoppen": 4485,
  "still": 4486,
  "schlussendlich": 4487,
  "ursprung": 4488,
  "erneut": 4489,
  "studium": 4490,
  "altern": 4491,
  "veröffentlichen": 4492,
  "obama": 4493,
  "problems": 4494,
  "ländlichen": 4495,
  "pflanze": 4496,
  "dahinter": 4497,
  "anpassen": 4498,
  "elektrischen": 4499,
  "bären": 4500,
  "ruhe": 4501,
  "ökonomen": 4502,
  "beteiligt": 4503,
  "knapp": 4504,
  "teilnehmer": 4505,
  "vorhin": 4506,
  "bezeichnet": 4507,
  "vergangenen": 4508,
  "präsidenten": 4509,
  "geruch": 4510,
  "späten": 4511,
  "nannten": 4512,
  "drauf": 4513,
  "scheitern": 4514,
  "irgendwelche": 4515,
  "raub@@": 4516,
  "dienst@@": 4517,
  "poly@@": 4518,
  "genießen": 4519,
  "handys": 4520,
  "wünsche": 4521,
  "flugzeuge": 4522,
  "werbe@@": 4523,
  "dienen": 4524,
  "zuschauer": 4525,
  "öffnet": 4526,
  "verdient": 4527,
  "wahlen": 4528,
  "golf@@": 4529,
  "fließen": 4530,
  "falschen": 4531,
  "biologen": 4532,
  "akt": 4533,
  "frucht@@": 4534,
  "unterwegs": 4535,
  "katze": 4536,
  "stock": 4537,
  "steuer@@": 4538,
  "haiti": 4539,
  "weltkrieg": 4540,
  "technischen": 4541,
  "see@@": 4542,
  "besuchte": 4543,
  "symbol": 4544,
  "wolke": 4545,
  "gebrauch": 4546,
  "isierung": 4547,
  "organismus": 4548,
  "geistes@@": 4549,
  "störungen": 4550,
  "flüssigkeit": 4551,
  "tele@@": 4552,
  "organisiert": 4553,
  "spezielle": 4554,
  "stamm": 4555,
  "riesiges": 4556,
  "0,@@": 4557,
  "binden": 4558,
  "biologischen": 4559,
  "erinnerungen": 4560,
  "interessanten": 4561,
  "herunter": 4562,
  "heiß": 4563,
  "samkeit": 4564,
  "verwendung": 4565,
  "bewahren": 4566,
  "fließt": 4567,
  "tenden": 4568,
  "gewöhnt": 4569,
  "bekämpfen": 4570,
  "19": 4571,
  "half": 4572,
  "umzugehen": 4573,
  "party": 4574,
  "vorschlag": 4575,
  "oberen": 4576,
  "un": 4577,
  "trennen": 4578,
  "zunehmend": 4579,
  "verkehrs@@": 4580,
  "teilte": 4581,
  "belohnung": 4582,
  "jahrzehnte": 4583,
  "beruf": 4584,
  "konfrontiert": 4585,
  "wozu": 4586,
  "watt": 4587,
  "geworfen": 4588,
  "anführer": 4589,
  "ehre": 4590,
  "neulich": 4591,
  "circa": 4592,
  "chinesischen": 4593,
  "training": 4594,
  "beigebracht": 4595,
  "dunklen": 4596,
  "heran": 4597,
  "frankreich": 4598,
  "ausgesetzt": 4599,
  "wissenschaftlern": 4600,
  "irgendeinem": 4601,
  "kindes": 4602,
  "gemüse": 4603,
  "physische": 4604,
  "angriff": 4605,
  "gefüllt": 4606,
  "empfinden": 4607,
  "altes": 4608,
  "letztlich": 4609,
  "beides": 4610,
  "teilten": 4611,
  "wunderschöne": 4612,
  "kontroll@@": 4613,
  "chemische": 4614,
  "schlechtes": 4615,
  "blätter": 4616,
  "insgesamt": 4617,
  "sender": 4618,
  "diges": 4619,
  "chtes": 4620,
  "dinger": 4621,
  "symmetrie": 4622,
  "bewirken": 4623,
  "volles": 4624,
  "gegenden": 4625,
  "begreifen": 4626,
  "kette": 4627,
  "gold": 4628,
  "blind": 4629,
  "magazin": 4630,
  "versorgen": 4631,
  "2009": 4632,
  "in-@@": 4633,
  "afrikanische": 4634,
  "identifizieren": 4635,
  "2006": 4636,
  "zeitraum": 4637,
  "reaktionen": 4638,
  "offene": 4639,
  "zentral@@": 4640,
  "ausmachen": 4641,
  "street": 4642,
  "abhängigkeit": 4643,
  "zugeben": 4644,
  "käfer": 4645,
  "katastrophen": 4646,
  "kasten": 4647,
  "packen": 4648,
  "versteckt": 4649,
  "außergewöhnlich": 4650,
  "neigen": 4651,
  "angeles": 4652,
  "könne": 4653,
  "langweilig": 4654,
  "fahrzeug": 4655,
  "maße": 4656,
  "kalt": 4657,
  "pollen": 4658,
  "klima": 4659,
  "1000": 4660,
  "studiert": 4661,
  "lebensmittel@@": 4662,
  "winkel": 4663,
  "plätze": 4664,
  "blasen": 4665,
  "stille": 4666,
  "zweifel": 4667,
  "gelt": 4668,
  "erwähnen": 4669,
  "spur": 4670,
  "positiven": 4671,
  "erwärmung": 4672,
  "füße": 4673,
  "aktuelle": 4674,
  "verschieden": 4675,
  "wale": 4676,
  "vorsichtig": 4677,
  "peter": 4678,
  "spenden": 4679,
  "vorträge": 4680,
  "sichtweise": 4681,
  "2004": 4682,
  "27": 4683,
  "getrennt": 4684,
  "berechnungen": 4685,
  "auftrag": 4686,
  "visuellen": 4687,
  "papier@@": 4688,
  "fett": 4689,
  "kreative": 4690,
  "trage": 4691,
  "teenager": 4692,
  "physischen": 4693,
  "sions@@": 4694,
  "höhepunkt": 4695,
  "irgendwas": 4696,
  "dichter": 4697,
  "geschmack": 4698,
  "65": 4699,
  "west": 4700,
  "zone": 4701,
  "figur": 4702,
  "hinblick": 4703,
  "mechanismus": 4704,
  "maßnahmen": 4705,
  "sogenannte": 4706,
  "videospiele": 4707,
  "winzigen": 4708,
  "verrückte": 4709,
  "flog": 4710,
  "höchsten": 4711,
  "punkten": 4712,
  "tee": 4713,
  "fotografiert": 4714,
  "institut": 4715,
  "verschwindet": 4716,
  "jenseits": 4717,
  "gewann": 4718,
  "entstehung": 4719,
  "frequenz": 4720,
  "projekten": 4721,
  "stirbt": 4722,
  "interessen": 4723,
  "erklärte": 4724,
  "bösen": 4725,
  "adam": 4726,
  "kb": 4727,
  "verschiedener": 4728,
  "zentren": 4729,
  "wälder": 4730,
  "gestartet": 4731,
  "seide": 4732,
  "el-@@": 4733,
  "traditionelle": 4734,
  "saßen": 4735,
  "ghana": 4736,
  "prozesse": 4737,
  "texas": 4738,
  "zurückgehen": 4739,
  "block": 4740,
  "hassen": 4741,
  "inklusive": 4742,
  "schickte": 4743,
  "echtes": 4744,
  "ausdrücken": 4745,
  "umso": 4746,
  "britischen": 4747,
  "beitrag": 4748,
  "kohlenstoff": 4749,
  "heilen": 4750,
  "denselben": 4751,
  "andererseits": 4752,
  "tierten": 4753,
  "stämme": 4754,
  "kuchen": 4755,
  "zukommen": 4756,
  "wein": 4757,
  "exakt": 4758,
  "spannung": 4759,
  "denkweise": 4760,
  "krab@@": 4761,
  "diabetes": 4762,
  "amp": 4763,
  "emotionale": 4764,
  "gedächtnis": 4765,
  "i-@@": 4766,
  "kanal": 4767,
  "gebildet": 4768,
  "weltbevölkerung": 4769,
  "investiert": 4770,
  "benutze": 4771,
  "übung": 4772,
  "jeweils": 4773,
  "ausgegeben": 4774,
  "stufen": 4775,
  "symptome": 4776,
  "willkommen": 4777,
  "weibliche": 4778,
  "polio": 4779,
  "hoher": 4780,
  "general": 4781,
  "haare": 4782,
  "erfüllen": 4783,
  "eigentliche": 4784,
  "teleskop": 4785,
  "tende": 4786,
  "zukünftigen": 4787,
  "einheiten": 4788,
  "oxford": 4789,
  "design@@": 4790,
  "geraten": 4791,
  "ingenieur": 4792,
  "pause": 4793,
  "ignorieren": 4794,
  "sms": 4795,
  "benutzte": 4796,
  "real": 4797,
  "globalisierung": 4798,
  "kongo": 4799,
  "bewegungs@@": 4800,
  "filmen": 4801,
  "50.000": 4802,
  "wetter": 4803,
  "protein": 4804,
  "repräsentiert": 4805,
  "sprung": 4806,
  "poster": 4807,
  "babies": 4808,
  "berichtet": 4809,
  "verbrauch": 4810,
  "erfassen": 4811,
  "wundervolle": 4812,
  "verletzungen": 4813,
  "nervös": 4814,
  "hitze": 4815,
  "gründete": 4816,
  "logik": 4817,
  "schwerer": 4818,
  "grundlegend": 4819,
  "ener": 4820,
  "lehrern": 4821,
  "schätzung": 4822,
  "chip": 4823,
  "komplizierte": 4824,
  "pflege": 4825,
  "wieviele": 4826,
  "hinunter": 4827,
  "gelb": 4828,
  "zeitungen": 4829,
  "atoren": 4830,
  "feind": 4831,
  "gedanken@@": 4832,
  "wiederholt": 4833,
  "rum@@": 4834,
  "kapitalismus": 4835,
  "gewöhnlich": 4836,
  "gerettet": 4837,
  "profitieren": 4838,
  "motivation": 4839,
  "messer": 4840,
  "staats@@": 4841,
  "weltall": 4842,
  "detail": 4843,
  "strecken": 4844,
  "eng": 4845,
  "effizient": 4846,
  "brand@@": 4847,
  "versprechen": 4848,
  "vergnügen": 4849,
  "blickwinkel": 4850,
  "sogenannten": 4851,
  "universitäten": 4852,
  "billig": 4853,
  "knopf": 4854,
  ".com": 4855,
  "kaputt": 4856,
  "dazwischen": 4857,
  "ausnahme": 4858,
  "interessanterweise": 4859,
  "summe": 4860,
  "kreislauf": 4861,
  "kommunikations@@": 4862,
  "persönlichkeit": 4863,
  "falle": 4864,
  "22": 4865,
  "uni": 4866,
  "gesunde": 4867,
  "effekte": 4868,
  "blog": 4869,
  "erfinder": 4870,
  "entscheidende": 4871,
  "hang": 4872,
  "ten-@@": 4873,
  "diesmal": 4874,
  "lichter": 4875,
  "1.": 4876,
  "umgang": 4877,
  "anbieten": 4878,
  "spä@@": 4879,
  "aufstieg": 4880,
  "streit": 4881,
  "entscheidend": 4882,
  "schwanz": 4883,
  "benutzten": 4884,
  "frank": 4885,
  "lernten": 4886,
  "theorien": 4887,
  "argument": 4888,
  "gib": 4889,
  "köpfen": 4890,
  "nachrichten@@": 4891,
  "folgte": 4892,
  "tolles": 4893,
  "fache": 4894,
  "technische": 4895,
  "uganda": 4896,
  "szene": 4897,
  "zugleich": 4898,
  "höchste": 4899,
  "umstände": 4900,
  "kulturellen": 4901,
  "konflikte": 4902,
  "güter": 4903,
  "nachdenkt": 4904,
  "-jährige": 4905,
  "doktor": 4906,
  "doppel@@": 4907,
  "hinauf": 4908,
  "tricks": 4909,
  "gold@@": 4910,
  "drogen@@": 4911,
  "plus": 4912,
  "besitz": 4913,
  "höheren": 4914,
  "sieb@@": 4915,
  "intuition": 4916,
  "wahren": 4917,
  "2001": 4918,
  "lieder": 4919,
  "fabriken": 4920,
  "sag": 4921,
  "2003": 4922,
  "harte": 4923,
  "güte": 4924,
  "schöner": 4925,
  "glaubten": 4926,
  "statistik": 4927,
  "elefanten": 4928,
  "kiste": 4929,
  "ruhig": 4930,
  "nachhaltige": 4931,
  "strecke": 4932,
  "ausschließlich": 4933,
  "radio": 4934,
  "z.": 4935,
  "sternen": 4936,
  "iphone": 4937,
  "schnelle": 4938,
  "strategien": 4939,
  "schlimm": 4940,
  "reicher": 4941,
  "dumm": 4942,
  "kolonie": 4943,
  "konsum": 4944,
  "angetrieben": 4945,
  "&amp;": 4946,
  "berühmt": 4947,
  "fasern": 4948,
  "leistungen": 4949,
  "schlimmsten": 4950,
  "250": 4951,
  "künstliche": 4952,
  "klassen@@": 4953,
  "e-mail": 4954,
  "matischen": 4955,
  "strand": 4956,
  "zurückkehren": 4957,
  "korallen": 4958,
  "jugend": 4959,
  "keinem": 4960,
  "analysieren": 4961,
  "transparenz": 4962,
  "derek": 4963,
  "werdet": 4964,
  "angesichts": 4965,
  "allgemein": 4966,
  "väter": 4967,
  "erdbeben": 4968,
  "schulter": 4969,
  "ausmacht": 4970,
  "gegessen": 4971,
  "rechner": 4972,
  "jenen": 4973,
  "weitermachen": 4974,
  "liest": 4975,
  "sozialer": 4976,
  "anruf": 4977,
  "brustkrebs": 4978,
  "begriffen": 4979,
  "januar": 4980,
  "dert": 4981,
  "reichtum": 4982,
  "erwartungen": 4983,
  "pflanzen@@": 4984,
  "früheren": 4985,
  "motoren": 4986,
  "entwicklungsländer": 4987,
  "95": 4988,
  "20.000": 4989,
  "valley": 4990,
  "linke": 4991,
  "nerven": 4992,
  "störung": 4993,
  "entschuldigung": 4994,
  "erlangen": 4995,
  "verließ": 4996,
  "preis@@": 4997,
  "fahrrad": 4998,
  "aufrecht": 4999,
  "halben": 5000,
  "trend": 5001,
  "start": 5002,
  "reparieren": 5003,
  "eröffnet": 5004,
  "architekt": 5005,
  "autismus": 5006,
  "ältesten": 5007,
  "dick": 5008,
  "russland": 5009,
  "intelligente": 5010,
  "alisierten": 5011,
  "z-@@": 5012,
  "dollar-@@": 5013,
  "anzeige": 5014,
  "angebot": 5015,
  "diskutieren": 5016,
  "gegenstand": 5017,
  "microsoft": 5018,
  "übertragung": 5019,
  "wundervoll": 5020,
  "figuren": 5021,
  "bescheid": 5022,
  "verbesserung": 5023,
  "flaschen": 5024,
  "neugierig": 5025,
  "hirn": 5026,
  "bewegte": 5027,
  "wiederholen": 5028,
  "geh": 5029,
  "gezwungen": 5030,
  "m-@@": 5031,
  "würdest": 5032,
  "verliebt": 5033,
  "gipfel": 5034,
  "waschen": 5035,
  "rum": 5036,
  "dienstleistungen": 5037,
  "optimismus": 5038,
  "120": 5039,
  "mikroskop": 5040,
  "bip": 5041,
  "kauft": 5042,
  "open": 5043,
  "jährlich": 5044,
  "dienste": 5045,
  "deinem": 5046,
  "nahezu": 5047,
  "stammen": 5048,
  "stad@@": 5049,
  "chirurg": 5050,
  "wandern": 5051,
  "durchzuführen": 5052,
  "schreibe": 5053,
  "sicherer": 5054,
  "landete": 5055,
  "deckt": 5056,
  "abendessen": 5057,
  "überprüfen": 5058,
  "einziges": 5059,
  "festgestellt": 5060,
  "super": 5061,
  "hinsichtlich": 5062,
  "gesunden": 5063,
  "heiraten": 5064,
  "23": 5065,
  "westliche": 5066,
  "englischen": 5067,
  "privaten": 5068,
  "speicher": 5069,
  "verbrauchen": 5070,
  "jagen": 5071,
  "zug@@": 5072,
  "kas@@": 5073,
  "becken": 5074,
  "…": 5075,
  "ratten": 5076,
  "tote": 5077,
  "nachhaltigkeit": 5078,
  "kreiert": 5079,
  "chirurgen": 5080,
  "psycho@@": 5081,
  "wohnen": 5082,
  "kalten": 5083,
  "entwurf": 5084,
  "standpunkt": 5085,
  "europäischen": 5086,
  "angehen": 5087,
  "sierung": 5088,
  "antrieb": 5089,
  "gefängnis@@": 5090,
  "isten": 5091,
  "übersetzt": 5092,
  "allgemeine": 5093,
  "rechnung": 5094,
  "befreien": 5095,
  "knie": 5096,
  "nimm": 5097,
  "fotografie": 5098,
  "ballon": 5099,
  "te-@@": 5100,
  "beinen": 5101,
  "zurückkommen": 5102,
  "unterhalb": 5103,
  "indiens": 5104,
  "marketing": 5105,
  "rio": 5106,
  "enormen": 5107,
  "brüder": 5108,
  "glückliche": 5109,
  "verbraucht": 5110,
  "é": 5111,
  "abends": 5112,
  "politisch": 5113,
  "einzigartig": 5114,
  "zucker@@": 5115,
  "unterhalten": 5116,
  "kongress": 5117,
  "quer@@": 5118,
  "2.000": 5119,
  "schwarzes": 5120,
  "seil": 5121,
  "dialog": 5122,
  "gestaltung": 5123,
  "reagiert": 5124,
  "vorn": 5125,
  "fremden": 5126,
  "bord": 5127,
  "dutzend": 5128,
  "organ": 5129,
  "schlau": 5130,
  "prototypen": 5131,
  "praxis": 5132,
  "geblieben": 5133,
  "durfte": 5134,
  "ministerium": 5135,
  "aber@@": 5136,
  "kleinere": 5137,
  "behörde": 5138,
  "vieler": 5139,
  "design-@@": 5140,
  "bedienen": 5141,
  "konsumenten": 5142,
  "ängste": 5143,
  "betrieb": 5144,
  "lebensqualität": 5145,
  "apple": 5146,
  "800": 5147,
  "mochte": 5148,
  "bedeckt": 5149,
  "verlangt": 5150,
  "mittelpunkt": 5151,
  "wünschen": 5152,
  "onkel": 5153,
  "2.": 5154,
  "26": 5155,
  "dreimal": 5156,
  "einrichtung": 5157,
  "zusätzliche": 5158,
  "post@@": 5159,
  "eingehen": 5160,
  "chef": 5161,
  "selektion": 5162,
  "700": 5163,
  "institute": 5164,
  "stress": 5165,
  "oktober": 5166,
  "außergewöhnliche": 5167,
  "tony": 5168,
  "legten": 5169,
  "kohle@@": 5170,
  "wut": 5171,
  "dose": 5172,
  "anfängt": 5173,
  "ersetzt": 5174,
  "..": 5175,
  "errichten": 5176,
  "ansichten": 5177,
  "impfstoff": 5178,
  "wohlbefinden": 5179,
  "grafie": 5180,
  "atome": 5181,
  "ausgebildet": 5182,
  "schreckliche": 5183,
  "hinweise": 5184,
  "tisch@@": 5185,
  "gebäudes": 5186,
  "martin": 5187,
  "nachfrage": 5188,
  "unterscheidet": 5189,
  "lehrerin": 5190,
  "zweites": 5191,
  "klingen": 5192,
  "aufregende": 5193,
  "grä@@": 5194,
  "änderte": 5195,
  "katzen": 5196,
  "geöffnet": 5197,
  "dramatisch": 5198,
  "bandbreite": 5199,
  "hingehen": 5200,
  "bemerkenswerte": 5201,
  "sir": 5202,
  "erledigt": 5203,
  "auswirkung": 5204,
  "schlange": 5205,
  "wunderschönen": 5206,
  "beginne": 5207,
  "mannes": 5208,
  "atem": 5209,
  "berechnung": 5210,
  "ausgehen": 5211,
  "ausgabe": 5212,
  "zentimeter": 5213,
  "trainieren": 5214,
  "illusion": 5215,
  "geräten": 5216,
  "joe": 5217,
  "hauses": 5218,
  "amerikas": 5219,
  "kg": 5220,
  "bedürfnis": 5221,
  "nochmals": 5222,
  "gemessen": 5223,
  "spielten": 5224,
  "taschen": 5225,
  "weltweite": 5226,
  "deuten": 5227,
  "durchmesser": 5228,
  "religiöse": 5229,
  "bahnen": 5230,
  "nationalen": 5231,
  "besonderes": 5232,
  "ologische": 5233,
  "öffnete": 5234,
  "aktuellen": 5235,
  "skulptur": 5236,
  "großartiger": 5237,
  "beschreibung": 5238,
  "investition": 5239,
  "dimension": 5240,
  "gewinnt": 5241,
  "schlimmste": 5242,
  "getestet": 5243,
  "manager": 5244,
  "hersteller": 5245,
  "private": 5246,
  "kombinieren": 5247,
  "schafften": 5248,
  "komisch": 5249,
  "schaffte": 5250,
  "song": 5251,
  "auszudrücken": 5252,
  "anstellen": 5253,
  "entdeckten": 5254,
  "wunderschön": 5255,
  "bier": 5256,
  "löst": 5257,
  "streifen": 5258,
  "anreize": 5259,
  "hinweis": 5260,
  "gewalt@@": 5261,
  "erinnerte": 5262,
  "vorgestellt": 5263,
  "beitragen": 5264,
  "é@@": 5265,
  "á@@": 5266,
  "‹": 5267,
  "›": 5268,
  "°": 5269,
  "q": 5270,
  "+": 5271,
  "½": 5272,
  "²": 5273,
  "=": 5274,
  "‟": 5275,
  "ó@@": 5276,
  ")": 5277,
  "‚": 5278,
  "ñ@@": 5279,
  "í@@": 5280,
  "à": 5281,
  "ü": 5282,
  "è@@": 5283,
  "‒": 5284,
  "β@@": 5285,
  "#": 5286,
  "": 5287,
  "@": 5288,
  "(": 5289,
  "ç@@": 5290,
  "^": 5291,
  "ó": 5292,
  "": 5293,
  "": 5294,
  "`": 5295,
  "¥": 5296,
  "â@@": 5297,
  "­": 5298,
  "": 5299,
  "ã@@": 5300,
  "ö": 5301,
  "¼": 5302,
  "ê@@": 5303,
  "β": 5304,
  "ä": 5305,
  "×": 5306,
  "³": 5307,
  "í": 5308,
  "©": 5309,
  "ā@@": 5310,
  "®": 5311,
  "ô@@": 5312,
  "`@@": 5313,
  "*": 5314,
  "å@@": 5315,
  "ú@@": 5316,
  "ø@@": 5317,
  "你@@": 5318,
  "œ@@": 5319,
  "ō@@": 5320,
  "葱": 5321,
  "，": 5322,
  "﻿": 5323,
  "š@@": 5324,
  "ë@@": 5325,
  "ï@@": 5326,
  "¾": 5327,
  "à@@": 5328,
  "送@@": 5329,
  "_": 5330,
  "è": 5331,
  "\\": 5332,
  "ӓ@@": 5333,
  "ý@@": 5334,
  "£": 5335
}