, 158881
. 151561
the 115472
and 81556
to 67017
of 62744
a 58941
that 50887
i 46502
it 43518
in 42973
you 40250
is 37213
we 36935
&apos;s 32833
this 28776
so 21124
&quot; 20059
they 18554
was 16945
for 16258
are 15471
have 15117
what 15010
on 14740
but 14695
-- 14440
with 13548
? 13473
can 13318
&apos;t 12539
there 12139
about 11950
be 10864
all 10657
as 10547
at 10520
do 10372
not 10199
one 9906
&apos;re 9540
my 9524
people 9082
like 8763
from 8615
if 8576
now 8338
he 8334
an 8158
these 7911
just 7841
: 7574
our 7201
or 7163
very 7081
because 6995
when 6900
out 6687
how 6660
me 6608
know 6465
by 6389
up 6285
them 6226
going 6184
here 6118
see 5884
think 5860
more 5833
had 5678
which 5631
your 5559
really 5533
get 5343
were 5245
then 5210
who 5206
&apos;ve 5181
would 5170
their 5151
&apos;m 4955
us 4824
some 4815
world 4814
time 4772
don 4697
actually 4645
has 4634
into 4454
way 4286
things 4275
years 4203
will 4187
no 4123
well 4114
go 4075
where 4073
other 4022
want 3966
said 3852
could 3816
make 3710
been 3669
right 3627
something 3554
she 3491
first 3435
two 3413
look 3272
those 3252
little 3211
thing 3202
than 3191
got 3156
also 3154
his 3086
new 3066
much 3038
back 2968
say 2954
most 2891
life 2884
over 2867
work 2792
only 2780
take 2715
even 2712
did 2690
need 2664
kind 2651
many 2619
good 2610
lot 2534
why 2518
around 2478
&apos;ll 2436
down 2400
let 2383
; 2357
different 2356
every 2311
come 2230
through 2175
her 2168
use 2141
same 2127
doing 2073
put 2073
being 2024
three 2013
day 1949
called 1948
any 1913
percent 1890
made 1856
great 1850
&apos;d 1843
today 1816
tell 1782
after 1772
able 1744
year 1734
talk 1733
another 1697
its 1681
human 1666
big 1660
didn 1659
change 1618
last 1614
went 1613
find 1603
fact 1600
started 1584
should 1583
idea 1567
own 1563
before 1561
thought 1542
give 1527
never 1520
course 1518
thank 1518
story 1510
again 1495
off 1483
important 1482
does 1480
problem 1458
him 1451
show 1449
better 1448
start 1432
next 1416
ago 1406
system 1386
still 1380
part 1373
came 1362
might 1354
brain 1351
technology 1351
bit 1341
each 1338
together 1338
place 1311
used 1302
few 1290
re@@ 1288
water 1282
long 1280
mean 1271
between 1260
too 1240
looking 1236
question 1227
doesn 1223
end 1215
done 1209
love 1196
point 1194
found 1186
maybe 1180
example 1177
sort 1167
children 1165
wanted 1160
un@@ 1154
whole 1154
school 1153
million 1146
data 1142
understand 1137
&apos; 1118
man 1113
real 1108
four 1104
ed 1101
may 1095
away 1092
live 1084
always 1083
try 1077
call 1077
everything 1070
ever 1055
money 1053
believe 1050
feel 1049
women 1046
10 1041
working 1040
five 1034
trying 1032
kids 1031
second 1030
less 1021
person 1020
using 1013
design 1001
power 1001
country 998
space 996
number 991
! 989
times 983
took 982
help 980
light 977
in@@ 974
thinking 970
food 963
old 956
quite 956
ing 955
means 950
ted 948
create 948
information 948
am 932
probably 923
become 923
small 920
energy 916
enough 914
es 912
future 909
happened 908
getting 908
best 904
comes 899
making 898
without 897
sense 896
left 896
interesting 889
building 887
africa 883
play 883
stuff 868
home 867
talking 861
body 856
says 854
dollars 845
pretty 843
anything 838
social 837
goes 833
-@@ 832
coming 830
ask 826
earth 824
simple 819
science 816
side 810
city 805
makes 805
else 790
picture 787
told 787
happen 786
ways 781
room 781
living 777
saw 774
across 774
yet 771
lives 771
half 770
seen 770
happens 768
once 765
basically 764
imagine 764
okay 761
project 760
bad 759
hard 756
days 754
countries 754
move 750
asked 749
20 748
such 745
build 743
health 740
inside 736
family 732
experience 728
case 723
problems 723
everybody 722
moment 721
having 719
high 717
learn 716
ideas 716
care 711
while 708
later 707
reason 702
book 700
almost 700
nothing 699
six 698
process 692
looks 689
young 689
billion 689
business 689
both 688
states 687
line 687
hand 686
computer 684
planet 683
ok 682
car 682
mind 680
wrong 674
single 671
remember 667
within 667
global 666
men 665
child 662
age 661
history 661
true 660
guy 659
set 656
far 655
oh 654
saying 653
already 652
yes 651
top 650
form 649
music 644
war 641
cells 641
heard 639
cancer 633
looked 633
keep 632
answer 632
possible 629
nature 628
dis@@ 628
matter 625
hope 622
art 622
bring 621
video 619
sure 618
beautiful 616
often 615
months 612
o@@ 610
universe 610
built 608
face 607
india 606
isn 605
piece 605
read 604
under 604
amazing 604
open 604
god 603
sometimes 602
works 602
since 592
united 591
y 589
decided 589
words 587
someone 584
myself 582
species 580
... 580
education 579
until 579
per 579
whether 577
couple 577
yeah 575
instead 574
places 574
group 574
stories 572
turn 572
mother 571
exactly 571
taking 570
control 570
ated 567
de@@ 567
language 566
completely 563
turns 562
order 562
research 560
everyone 558
30 557
though 556
government 555
state 555
community 554
must 552
job 550
middle 550
internet 549
public 549
ourselves 548
wasn 548
head 547
somebody 547
minutes 547
red 547
itself 546
house 546
stop 544
word 543
gets 542
o 541
kinds 540
s 540
al 538
level 537
news 536
heart 536
woman 535
became 533
50 533
animals 532
america 530
di@@ 528
s@@ 527
run 527
model 527
themselves 527
happening 527
company 525
third 525
large 525
happy 525
rather 523
huge 521
students 520
share 520
environment 516
name 515
study 515
learned 514
ones 514
oil 513
china 513
guys 510
er 507
friends 507
sound 506
natural 506
hear 505
won 503
con@@ 503
along 503
game 502
front 501
hours 501
100 498
created 498
couldn 498
y@@ 498
knew 498
co@@ 496
worked 495
learning 494
lots 494
night 489
questions 489
gave 489
e@@ 488
&#91; 485
&#93; 485
air 485
perhaps 485
against 485
li@@ 485
machine 485
society 484
disease 483
finally 483
particular 479
american 479
ocean 477
en@@ 474
takes 472
century 471
area 470
difference 470
early 470
ting 469
others 469
during 469
land 468
figure 468
a@@ 468
ating 467
past 465
wonderful 465
moving 463
needs 461
ate 460
ability 459
least 457
taken 454
seven 453
entire 452
outside 451
systems 448
close 446
thousands 444
free 443
easy 443
ma@@ 442
view 441
changed 441
interested 441
parts 439
ro@@ 439
based 439
population 438
d@@ 437
cannot 436
shows 433
turned 432
given 431
ous 431
green 431
yourself 431
leave 430
beginning 430
c@@ 430
market 429
culture 428
image 428
cell 427
eight 426
difficult 424
15 424
buy 422
behind 420
ation 420
york 418
grow 418
size 418
ers 416
seeing 416
media 415
king 415
whatever 414
eyes 414
common 414
ti@@ 414
spend 413
needed 411
week 410
powerful 410
audience 410
began 410
born 408
black 407
fish 406
g@@ 406
certain 405
economic 403
u.s. 402
paper 402
tried 402
terms 401
father 401
gone 400
full 400
scale 399
cities 399
i@@ 398
t@@ 398
center 397
team 397
death 397
longer 396
parents 396
walk 395
test 394
local 394
simply 392
amount 391
incredible 391
humans 390
cost 389
feet 387
hands 387
growth 387
led 387
ly 386
rest 385
stage 385
p@@ 385
self-@@ 383
field 382
structure 382
e 381
known 380
ts 379
complex 378
watch 378
spent 378
deal 377
step 376
realized 376
books 375
national 375
girl 375
south 374
surface 374
quickly 373
force 373
value 371
ri@@ 370
blue 370
wouldn 369
animal 367
pay 367
white 367
sea 366
eat 366
dna 366
lost 365
sitting 364
companies 364
se@@ 364
fun 363
reality 363
either 362
felt 362
patients 361
write 360
weeks 360
behavior 359
fly 358
nice 358
brought 357
wrote 355
friend 354
opportunity 351
u@@ 351
feeling 350
changes 350
ground 349
die 349
growing 347
t 347
patient 347
average 346
poor 345
economy 345
theory 345
p 344
b 344
40 344
speak 343
anyone 342
political 342
son 342
scientists 341
developed 339
technologies 339
act 339
numbers 337
miles 336
met 336
street 335
cut 335
material 335
bottom 334
seems 333
an@@ 333
images 333
ar@@ 332
discovered 331
short 331
ding 331
ra@@ 329
nobody 328
starting 328
morning 327
ice 327
program 327
running 325
over@@ 325
le@@ 324
attention 324
c 324
playing 323
gives 323
rate 323
po@@ 322
literally 321
giving 321
pro@@ 321
absolutely 320
shape 320
d 320
deep 320
physical 320
personal 320
english 319
movement 319
map 319
l@@ 318
challenge 318
ds 317
realize 317
climate 317
telling 316
key 316
recently 316
areas 315
knowledge 314
cars 314
north 314
individual 314
anybody 314
film 314
v@@ 314
obviously 313
ates 313
seem 312
knows 311
died 310
hold 310
am@@ 310
incredibly 310
pre@@ 310
forward 309
blood 308
fast 307
sun 307
k 307
changing 306
focus 306
issue 305
industry 304
alone 304
dark 304
cool 303
phone 302
ch@@ 302
relationship 302
b@@ 302
im@@ 301
designed 300
creating 300
m@@ 300
chinese 299
showed 299
lab 299
understanding 299
kid 299
product 298
compassion 298
university 298
law 297
please 297
girls 297
result 297
de 297
guess 297
hundreds 296
modern 296
save 296
haven 295
millions 295
clear 295
games 294
effect 293
meet 293
tools 293
experiment 292
development 292
talked 292
box 292
begin 291
support 291
revolution 291
stand 290
tiny 290
ded 290
lo@@ 290
west 289
late 289
evolution 289
happiness 289
as@@ 289
wall 288
hour 288
developing 288
access 288
produce 287
si@@ 287
perfect 287
web 287
al@@ 286
normal 286
ac@@ 286
solution 286
innovation 285
als 285
beyond 285
inter@@ 285
bo@@ 285
europe 285
color 284
available 284
teach 283
pictures 283
especially 283
vision 283
online 282
east 282
action 282
12 282
medical 282
becomes 282
voice 281
lived 281
writing 281
table 280
major 280
type 280
computers 280
explain 279
k@@ 279
drive 279
solve 279
aren 278
allow 278
towards 278
groups 278
bu@@ 278
situation 277
generation 277
reasons 277
or@@ 277
teachers 276
25 276
materials 276
worth 276
special 276
resources 276
office 276
similar 275
several 275
digital 274
low 274
dead 274
starts 273
network 272
present 272
robot 272
fear 271
sts 271
device 271
rules 271
bigger 270
notice 269
certainly 269
ab@@ 269
baby 269
evidence 268
boy 268
putting 268
sounds 268
everywhere 267
quality 267
ings 267
car@@ 266
uses 266
mass 265
nine 264
hundred 264
th@@ 264
indeed 264
general 264
security 263
risk 263
truth 263
chance 263
soon 263
activity 263
grew 261
wants 261
scientific 261
impact 261
suddenly 261
schools 261
eye 260
listen 260
asking 260
examples 260
involved 259
month 259
wind 259
village 259
le 259
anyway 258
choice 258
com@@ 258
class 258
moral 258
stay 257
skin 257
fall 257
ready 256
basic 256
exciting 256
under@@ 255
version 255
per@@ 255
m 255
minute 255
walking 255
message 255
wish 254
moved 254
ni@@ 254
ant 254
issues 253
bed 253
wait 252
ta@@ 252
pattern 252
student 251
extremely 251
totally 250
college 250
gas 250
e-@@ 250
solar 249
non-@@ 249
mine 248
potential 248
further 248
l 248
forms 248
smart 248
biggest 248
hiv 248
me@@ 248
be@@ 246
page 246
projects 246
ist 246
hospital 245
largest 245
r@@ 245
particularly 245
ps 244
ended 244
break 244
showing 244
ze 243
software 243
object 243
hit 243
speed 243
journey 242
out@@ 242
ine 242
pick 242
carbon 241
road 241
n 241
pa@@ 241
connected 241
fire 240
n@@ 240
measure 240
ans 240
onto 240
sa@@ 239
medicine 238
points 238
reach 238
te 238
add 237
send 237
strong 237
nuclear 237
lead 237
follow 237
sit 237
ha@@ 236
tells 235
google 235
board 235
african 234
named 234
vi@@ 234
z@@ 233
visual 233
ve 233
rich 233
teacher 232
mom 232
positive 232
extraordinary 232
develop 232
ks 232
democracy 231
so@@ 231
ons 231
continue 230
list 230
usually 230
plants 230
for@@ 230
likely 229
buildings 229
poverty 229
doctor 229
te@@ 229
serious 229
at@@ 229
electricity 228
plan 228
larger 228
h@@ 228
60 228
fantastic 228
ses 228
watching 228
success 228
among 228
biology 228
door 227
st@@ 227
lose 227
x 227
th 227
ally 227
expect 227
su@@ 226
trees 226
except 226
sent 226
international 226
goal 226
essentially 225
objects 225
safe 225
ho@@ 224
mar@@ 224
series 224
pe@@ 224
ar 224
period 224
movie 224
tic 223
peace 223
david 223
standing 223
ent 223
sc@@ 223
mis@@ 222
killed 222
sh@@ 222
results 222
foot 222
perspective 222
eventually 222
products 221
wife 221
written 221
is@@ 221
somewhere 221
himself 221
thousand 221
beauty 221
traditional 221
higher 221
cause 220
crazy 220
organization 220
fine 220
code 220
complicated 220
conditions 220
impossible 219
sorts 219
response 219
mi@@ 218
approach 218
leaders 218
to@@ 218
lines 217
site 217
spread 217
stars 217
g 217
architecture 217
upon 217
jobs 216
screen 216
creative 216
80 216
older 216
du@@ 215
allowed 215
/ 215
ne@@ 215
source 214
favorite 214
bacteria 214
ty 214
sex 214
camera 213
thanks 213
11 213
ad@@ 213
individuals 213
military 212
ci@@ 212
brains 212
kept 212
200 212
super@@ 212
op@@ 212
finding 212
expensive 212
treatment 211
models 211
truly 211
somehow 211
successful 211
ction 211
er@@ 210
taught 210
excited 210
position 210
context 210
w 210
seconds 210
crisis 210
neurons 209
mo@@ 209
fully 209
ity 209
drugs 209
hi@@ 209
alive 209
western 208
faster 208
above 208
— 208
zero 208
worse 208
interest 208
training 208
shown 208
supposed 208
rise 208
role 207
tree 207
famous 207
physics 207
reading 207
meaning 207
tool 206
tions 206
h 206
ic 206
concept 205
touch 205
on@@ 205
beings 205
ex@@ 205
therefore 204
region 204
shot 204
kill 204
mon@@ 203
main 203
18 203
fundamental 203
hey 203
pieces 202
genes 202
mental 202
zing 202
pi@@ 202
ca@@ 202
dream 202
he@@ 202
es@@ 202
f@@ 201
um 201
including 201
trust 201
progress 201
meant 201
choose 201
bi@@ 201
ru@@ 201
zed 200
communities 199
do@@ 199
town 199
les 199
drug 199
central 199
throughout 198
fight 198
however 198
invented 198
ged 198
clearly 198
service 198
earlier 198
families 198
costs 198
se 197
pain 197
strange 197
sell 197
legs 197
americans 197
machines 197
la@@ 197
dangerous 197
smaller 196
hot 196
studies 196
aid 196
record 196
est 195
content 195
slow 195
bunch 195
familiar 195
plastic 194
actual 194
virus 194
policy 194
price 194
sub@@ 194
sky 194
cor@@ 193
income 193
increase 193
y-@@ 193
dance 193
greater 192
production 192
connect 192
dog 192
direction 192
listening 192
rights 192
although 192
magic 192
solutions 191
tv 191
unfortunately 191
dad 191
square 191
waiting 191
ors 190
high-@@ 190
ment 190
cases 190
robots 190
healthy 189
driving 189
slide 189
2 189
waste 189
allows 189
recognize 189
der 189
talks 188
go@@ 188
immediately 188
walked 188
500 188
ness 187
bar@@ 187
dollar 187
none 187
connection 187
arm 187
exist 186
tend 186
mu@@ 186
forget 186
function 186
active 186
surgery 186
train 186
skills 186
range 185
website 185
sorry 185
conversation 185
intelligence 185
anymore 185
specific 185
decisions 184
freedom 184
ties 184
fi@@ 184
gu@@ 184
patterns 184
museum 184
tra@@ 183
protect 183
effective 183
math 183
travel 183
pull 183
ran 183
d-@@ 183
consider 183
rule 183
sp@@ 182
draw 182
store 182
understood 182
hole 182
greatest 182
wonder 182
tu@@ 182
lower 181
humanity 181
ling 181
subject 181
bodies 181
ches 181
flying 181
ch 181
current 181
survive 180
president 180
plant 180
ship 180
genetic 179
clean 179
glass 179
ants 179
el@@ 179
babies 179
useful 179
remarkable 179
john 178
critical 178
cultural 178
performance 178
provide 178
anywhere 178
private 178
weren 178
photograph 178
song 178
artist 177
obvious 177
star 177
re-@@ 177
des 177
u 177
ck 177
flow 177
cold 176
press 176
ce 176
massive 176
practice 176
j@@ 176
bank 176
sing 176
enormous 176
mostly 176
ality 176
self 176
environmental 176
violence 175
religion 175
loved 175
teaching 175
win 175
fuel 175
television 175
evolved 175
eating 175
conference 175
mars 175
values 175
doctors 174
par@@ 174
forces 174
raise 174
weight 173
no@@ 173
floor 173
minds 173
tion 173
creativity 173
becoming 173
politics 173
engineering 172
markets 172
various 172
gene 172
1 172
stick 172
lights 171
dr. 171
wi@@ 171
cu@@ 171
final 171
birds 170
temperature 170
daughter 170
near 169
ten@@ 168
twice 168
quick 168
produced 168
services 168
search 168
aware 167
mission 167
feed 167
passion 167
mor@@ 167
consciousness 167
slightly 166
possibly 166
heat 166
pass 166
decade 166
institutions 166
wa@@ 166
capacity 166
island 166
one-@@ 166
ism 165
aids 165
w@@ 165
funny 165
ahead 165
path 165
treat 165
speaking 165
ations 165
r 165
it@@ 164
types 164
helped 164
unique 164
instance 164
sat 164
causes 164
bought 163
genome 163
networks 163
infrastructure 163
significant 163
recent 163
chris 163
afghanistan 163
experiments 163
16 163
designers 162
nation 162
shared 162
moon 162
chemical 162
societies 162
el 162
90 162
character 162
mobile 162
financial 162
cover 161
push 161
meeting 161
directly 161
degrees 161
following 161
ancient 161
charge 161
original 161
na@@ 160
18@@ 160
terrible 160
communication 160
related 160
park 160
ked 160
extra 160
ph@@ 159
industrial 159
carry 159
below 159
complexity 159
focused 159
police 159
gi@@ 159
worry 159
purpose 159
workers 159
fl@@ 159
london 159
indian 159
secret 158
ter 158
played 158
ary 158
ou@@ 158
boys 157
tri@@ 157
pressure 157
300 157
governments 157
career 157
summer 157
straight 157
paid 157
tive 157
up@@ 157
trade 156
inspired 156
emotional 156
man@@ 156
war@@ 156
levels 156
capital 155
whose 155
cra@@ 155
birth 155
bs 155
diseases 155
willing 155
artists 155
complete 155
foundation 155
biological 155
3@@ 154
creates 154
effects 154
closer 154
forth 154
conflict 154
micro@@ 154
can@@ 154
ge@@ 154
event 154
sleep 154
etc 154
qu@@ 153
ance 153
differences 153
mer@@ 153
scientist 153
gra@@ 153
oxygen 153
urban 153
har@@ 153
memory 152
apart 152
structures 152
molecules 152
ves 152
drop 152
laws 152
challenges 152
ge 151
pu@@ 151
explore 151
sustainable 151
fit 151
trouble 151
atmosphere 151
x@@ 151
supply 151
trans@@ 151
trial 151
bill 151
track 151
sharing 150
ct 150
yellow 150
$ 150
discover 150
particles 150
dying 150
hu@@ 149
spending 149
asia 149
devices 149
rock 149
party 148
broken 148
seemed 148
published 148
organisms 148
sign 148
10,000 147
california 147
colleagues 147
worst 147
ces 147
noticed 147
graph 147
radio 147
easily 147
total 146
ba@@ 146
prison 146
studying 146
popular 146
forest 146
answers 146
hearing 146
au@@ 146
highly 146
2@@ 145
electric 145
z 145
decide 145
ah 145
bio@@ 145
phenomenon 145
ders 145
passed 145
her@@ 145
ce@@ 145
blind 145
decades 145
bringing 144
lucky 144
ms 144
ators 144
condition 144
bra@@ 144
choices 144
check 144
stopped 144
necessarily 144
ste@@ 143
efficient 143
task 143
responsibility 143
agree 143
communicate 143
tremendous 142
70 142
iraq 142
noise 142
ess 142
knowing 142
surprising 141
window 141
mountain 141
coffee 141
feels 141
ving 141
decision 141
1,000 141
da@@ 141
richard 141
leads 140
term 140
improve 140
possibility 140
corner 140
cur@@ 140
engine 140
&amp; 140
fied 139
text 139
bone 139
helping 139
civil 139
fix 139
-year-old 139
return 139
farmers 139
achieve 139
sal@@ 139
bri@@ 139
ke 139
basis 139
cre@@ 139
programs 139
br@@ 139
balance 138
throw 138
argument 138
relationships 138
nearly 138
fairly 138
meters 138
tes 137
brings 137
fold 137
missing 137
em@@ 137
gotten 137
address 137
designer 137
tissue 137
fe@@ 136
ball 136
typical 136
race 136
dy 136
interact 136
giant 136
elements 136
definition 136
pen@@ 136
diversity 135
3 135
standard 135
ian 135
figured 135
ton 135
moments 135
om@@ 135
reduce 135
differently 135
14 135
flight 135
ously 134
river 134
grade 134
mark 134
organizations 134
held 134
join 134
benefits 134
imagination 134
religious 134
core 134
suffering 134
opportunities 134
landscape 133
hair 133
french 133
mouse 133
ging 133
shift 133
boat 133
che@@ 133
planets 133
ets 133
professor 133
breast 132
creatures 132
year-old 132
card 132
competition 132
sand 132
afraid 132
bread 132
os 132
benefit 132
engineers 132
mr. 132
stem 131
ver@@ 131
bridge 131
cting 130
sta@@ 130
streets 130
et@@ 130
stone 130
fa@@ 130
flu 130
colors 130
organic 130
forever 130
slowly 129
star@@ 129
lesson 129
prize 129
moves 129
fields 129
da 129
ved 129
british 129
block 129
heads 129
notion 129
holding 129
5,000 129
visit 129
negative 128
meat 128
campaign 128
matters 128
citizens 128
calls 128
despite 128
begins 128
circle 128
faces 128
insects 128
saving 128
turning 128
catch 128
mathematics 128
describe 128
base 128
degree 127
experiences 127
coast 127
ent@@ 127
bird 127
walls 127
otherwise 127
perfectly 127
events 127
helps 127
traffic 127
billions 127
discovery 127
opened 126
distance 126
den@@ 126
ced 126
brilliant 126
factory 126
ring 126
offer 126
entirely 126
studied 126
nations 126
effort 126
easier 126
edge 126
painting 126
fy 126
ter@@ 126
members 125
ultimately 125
sector 125
us@@ 125
emotions 125
normally 125
photo 125
ard 125
mit 125
afford 125
count 125
sister 125
responsible 125
bur@@ 125
aging 125
japan 125
print 125
statistics 124
profound 124
report 124
ying 124
opposite 124
enjoy 124
bl@@ 124
female 124
mouth 124
apply 124
magazine 124
bits 124
adults 124
wisdom 124
il@@ 123
foreign 123
two-@@ 123
ie 123
facebook 123
seriously 123
we@@ 123
u.k. 123
net 123
desert 123
13 123
400 123
ages 123
operating 123
sold 123
caught 123
engineer 123
leading 123
trained 123
ot@@ 123
investment 122
principles 122
respect 122
ga@@ 122
ars 122
fashion 122
influence 122
steps 122
5 122
galaxies 122
according 122
ters 122
wow 122
finished 121
shouldn 121
hand@@ 121
attack 121
phones 121
extreme 121
identity 121
engage 121
sick 121
cheap 121
pping 120
argue 120
ry 120
constantly 120
ur@@ 120
commercial 120
thinks 120
consumption 120
re 120
cks 120
res@@ 120
failed 120
gre@@ 120
date 120
limited 120
stuck 120
fourth 120
loss 120
oceans 120
dra@@ 120
cal 119
raised 119
wild 119
ies 119
san 119
wood 119
quote 119
sequence 119
metaphor 119
tumor 119
fighting 119
capable 119
ments 119
airplane 119
era 119
hopefully 119
legal 119
wealth 119
cts 119
24 118
invest 118
wh@@ 118
shoes 118
id 118
leaving 118
ic@@ 118
8 118
dynamic 118
beat 118
prevent 118
9 118
transform 118
ful 118
pri@@ 118
husband 118
vers 118
lets 118
co2 118
followed 118
ctions 118
agriculture 118
predict 118
2,000 117
article 117
male 117
medi@@ 117
background 117
arms 117
harder 117
labor 117
dreams 117
due 117
il 117
importantly 117
fascinating 117
virtual 117
ble 117
mothers 117
believed 116
crime 116
damage 116
finger 116
desire 116
distribution 116
tens 116
hate 116
bees 116
tough 116
ma 116
tomorrow 116
ol@@ 116
ology 116
creation 116
washington 116
em 116
languages 116
cycle 115
organized 115
4 115
advantage 115
majority 115
sti@@ 115
spaces 115
station 115
viruses 115
dinner 115
invisible 115
ck@@ 115
spirit 115
brother 115
random 115
ja@@ 115
justice 115
survival 114
caused 114
ver 114
weird 114
v 114
row 114
sha@@ 114
cs 114
apple 114
whenever 114
paint 114
molecule 114
driven 114
4@@ 114
pages 114
pounds 114
equivalent 114
wide 114
fair 114
speech 114
the@@ 113
sad 113
fu@@ 113
note 113
compare 113
wearing 113
belief 113
necessary 113
treated 113
failure 113
farm 113
yesterday 113
ig@@ 113
enter 113
cal@@ 113
economics 113
va@@ 113
sli@@ 113
principle 113
neighborhood 112
dri@@ 112
zes 112
dimensions 112
20th 112
deeply 112
ca 112
unless 112
ad 112
opening 112
jo@@ 112
managed 112
sting 112
childhood 112
ten 112
intelligent 112
theater 112
warming 111
pat@@ 111
ence 111
ser@@ 111
paul 111
leaves 111
proud 111
versus 111
construction 111
bal@@ 111
mortality 111
worried 111
lack 111
dinosaurs 111
malaria 111
soil 111
17 110
charles 110
muscle 110
bear 110
nu@@ 110
ends 110
cking 110
cli@@ 110
6 110
concerned 110
everyday 110
gs 110
shapes 110
surprise 110
church 110
names 110
sed 110
electrical 110
covered 110
sexual 110
represent 110
paying 110
cked 110
galaxy 110
launched 109
increasingly 109
brand 109
mentioned 109
weapons 109
drawing 109
ster 109
suppose 109
houses 109
photos 109
lies 108
rid 108
vehicle 108
professional 108
ingly 108
sudden 108
wing 108
et 108
roughly 108
classroom 108
motion 108
appear 108
protein 108
ctive 108
letter 108
institute 108
camp 108
bright 108
currently 108
expression 108
civilization 108
puts 108
holes 108
european 108
described 108
designing 108
plane 107
leadership 107
hidden 107
universal 107
fell 107
mexico 107
coral 107
debate 107
losing 107
invited 107
hell 107
cy 107
deliver 107
japanese 107
kenya 107
george 107
affect 107
vast 107
arts 107
lunch 107
ched 107
ins 107
cloud 107
tail 107
copy 107
pped 107
honest 106
continent 106
smell 106
threat 106
separate 106
ordinary 106
flies 106
wear 106
exists 106
spot 106
horse 106
heavy 106
interaction 106
teeth 106
awful 106
35 106
voices 106
toward 106
seat 106
grandmother 106
garden 106
tional 106
zation 106
depression 105
direct 105
producing 105
19@@ 105
99 105
emotion 105
einstein 105
comp@@ 105
lie 105
ber@@ 105
finish 105
gold 105
chair 105
strategy 105
collective 105
surprised 104
trip 104
pl@@ 104
definitely 104
planning 104
leader 104
compared 104
link 104
mile 104
dly 104
hasn 104
ges 104
underneath 104
associated 104
notes 104
sugar 104
bar 104
keeping 104
steel 104
cted 104
experts 104
newspaper 104
signal 104
nigeria 104
evil 104
collect 103
fat 103
valley 103
soldiers 103
rural 103
chemicals 103
feelings 103
accident 103
s-@@ 103
equal 103
ator 103
pre-@@ 103
&apos;@@ 103
worldwide 102
well-@@ 102
interface 102
filled 102
ir@@ 102
jump 102
equipment 102
resource 102
sides 102
multiple 102
roll 102
prime 102
grown 102
conscious 102
demand 102
signals 102
double 101
tur@@ 101
three-@@ 101
consequences 101
controlled 101
corruption 101
independent 101
stream 101
f 101
ching 101
married 101
sur@@ 101
sphere 101
generations 101
chemistry 101
facing 101
highest 101
ag@@ 101
essential 101
alized 101
closed 101
sites 101
transformation 101
joy 101
budget 101
cognitive 101
ning 101
union 101
artificial 101
studio 101
email 100
miss 100
wars 100
australia 100
cr@@ 100
100,000 100
emerging 100
vote 100
ladies 100
status 100
library 100
nervous 100
killing 100
selling 100
shop 100
importance 100
cultures 100
whom 100
contact 100
ise 100
layer 100
typically 99
empty 99
letters 99
iran 99
pole 99
stood 99
150 99
property 99
plus 99
chicken 99
technical 99
respond 99
spoke 99
molecular 99
formed 99
northern 99
cally 99
7 98
picked 98
back@@ 98
dogs 98
department 98
solved 98
player 98
army 98
relatively 98
flat 98
deeper 98
avoid 98
spectrum 98
folks 98
des@@ 98
israel 98
james 98
england 98
wire 98
fellow 98
forced 98
master 98
users 97
sive 97
weather 97
ents 97
dry 97
dots 97
regular 97
anti-@@ 97
protection 97
prove 97
account 97
brown 97
intellectual 97
adult 97
lady 97
practical 97
efficiency 97
breath 97
match 97
ably 97
characters 97
ia 97
spring 97
sharks 97
curious 97
leg 96
homes 96
thoughts 96
ley 96
wave 96
invention 96
detail 96
bus 96
daily 96
michael 96
kilometers 96
stri@@ 96
suggest 96
mountains 96
senses 96
calling 96
britain 96
mathematical 96
dies 96
round 96
alternative 96
rain 95
diet 95
.@@ 95
photographs 95
en 95
7@@ 95
clinical 95
organs 95
possibilities 95
pleasure 95
experienced 95
los 95
reaction 95
chain 95
movies 95
brazil 95
absolute 95
cards 95
lessons 95
canada 95
twitter 95
tor@@ 95
affected 95
fresh 95
marketing 95
nasa 95
remote 95
ls 95
ul@@ 95
ven@@ 94
long-term 94
waves 94
ing@@ 94
in-@@ 94
ws 94
arrived 94
addition 94
disaster 94
effectively 94
minister 94
scene 94
fishing 94
kitchen 94
bor@@ 94
method 94
introduced 94
600 94
bang 94
ently 93
details 93
sentence 93
radiation 93
min@@ 93
dealing 93
load 93
axis 93
ger 93
considered 93
partner 93
ap@@ 93
alism 93
ically 93
management 93
bush 93
drink 93
penguins 93
acts 93
maps 93
grand 93
metal 93
saved 93
lation 92
hall 92
soci@@ 92
struggle 92
gl@@ 92
spo@@ 92
employees 92
inner 92
pun@@ 92
3,000 92
3d 92
buying 92
setting 92
bling 92
germany 92
hadn 92
cross 92
specifically 92
gift 92
received 92
winter 92
cing 92
sion 92
gain 92
players 92
ker 92
gravity 92
cat@@ 92
epidemic 92
cooking 92
switch 91
cul@@ 91
analysis 91
darwin 91
southern 91
location 91
laptop 91
alize 91
cru@@ 91
radical 91
businesses 91
fail 91
mistake 91
eastern 91
valuable 91
fill 91
mention 91
cas@@ 91
a-@@ 91
liked 91
exercise 91
lt 91
beach 91
fossil 91
2008 91
testing 91
transition 91
graduate 91
requires 91
section 91
cutting 91
ecosystem 90
broke 90
ished 90
atoms 90
bro@@ 90
mistakes 90
trials 90
democratic 90
appropriate 90
silk 90
express 90
mal@@ 90
reward 90
introduce 90
tests 90
feedback 90
dan 90
tons 90
ely 89
pop 89
restaurant 89
theme 89
motor 89
gen@@ 89
psychology 89
unusual 89
ff 89
bing 89
lu@@ 89
properties 89
generate 89
dro@@ 89
consumer 89
techniques 89
sted 89
existence 89
ping 89
components 89
target 89
behaviors 89
unlike 89
five-@@ 89
click 89
ical 89
prepared 89
fication 89
arab 89
sun@@ 89
primary 89
manage 89
factor 89
lifetime 89
milk 89
wo@@ 89
bubble 88
wake 88
infected 88
lying 88
instrument 88
display 88
proteins 88
writer 88
gap 88
medium 88
hi 88
generally 88
sho@@ 88
carrying 88
quantum 88
videos 88
whereas 88
naturally 88
visible 88
safety 88
lat@@ 88
indi@@ 88
ative 88
bottle 88
ve@@ 88
politicians 88
evolutionary 88
represents 88
acting 88
dar@@ 88
accept 88
increasing 88
fewer 88
rare 88
poetry 88
convince 87
ha 87
sets 87
neighbors 87
faith 87
gar@@ 87
identify 87
cy@@ 87
roof 87
variety 87
credit 87
vo@@ 87
user 87
connections 87
swim 87
watched 87
define 87
runs 87
therapy 87
wikipedia 87
processes 87
cap@@ 87
capture 87
honor 87
sir 87
serve 86
tic@@ 86
6@@ 86
novel 86
string 86
por@@ 86
al-@@ 86
driver 86
u.n. 86
satellite 86
battle 86
member 86
brothers 86
pulled 86
platform 86
situations 86
perception 86
researchers 86
error 86
crash 86
cat 86
personally 86
ute 86
ancestors 86
ours 86
expected 86
exchange 86
unit 86
comfortable 86
continued 86
gri@@ 86
- 86
style 86
wired 85
fake 85
risks 85
tru@@ 85
blocks 85
former 85
closely 85
mirror 85
depends 85
stic 85
liquid 85
peak 85
ned 85
pollution 85
rates 85
cure 85
recorded 85
goods 85
burning 85
advanced 85
clip 85
lay 85
burn 85
marriage 85
gulf 85
reached 85
defined 85
correct 84
2007 84
ought 84
joke 84
9@@ 84
ka@@ 84
relate 84
goals 84
win@@ 84
amounts 84
meter 84
ats 84
vaccine 84
ears 84
co 84
ory 84
nar@@ 84
warm 84
sources 84
profit 84
promise 84
battery 84
sensitive 84
tradition 84
require 84
architect 84
stupid 84
steve 84
sunlight 84
traveling 83
ride 83
75 83
environments 83
taste 83
gentlemen 83
healthcare 83
1@@ 83
quiet 83
pollen 83
emissions 83
post 83
aspect 83
45 83
sees 83
fo@@ 83
movements 83
hoping 83
frame 83
empathy 83
algorithms 83
gay 83
thomas 83
fying 83
solving 83
ultimate 83
collaboration 83
organ 83
discussion 83
percentage 83
ben@@ 83
prote@@ 82
ky 82
sk@@ 82
replace 82
three-dimensional 82
je@@ 82
trick 82
ish 82
wine 82
destruction 82
band 82
topic 82
sending 82
shall 82
shaped 82
opinion 82
hotel 82
figures 82
carefully 82
remain 82
interests 82
dramatic 82
fer@@ 82
signs 81
collection 81
exploration 81
ized 81
van@@ 81
survey 81
awareness 81
operation 81
shoot 81
tape 81
san@@ 81
youtube 81
ny 81
gun 81
vulnerable 81
men@@ 81
centers 81
protected 81
shark 81
applied 81
shake 81
hero 81
facts 81
wondering 81
convinced 81
element 81
hits 80
harvard 80
5@@ 80
st 80
cker 80
sophisticated 80
computing 80
technological 80
stress 80
islands 80
explanation 80
electronic 80
birthday 80
supp@@ 80
added 80
include 80
pan@@ 80
neuro@@ 80
religions 80
skill 80
falling 80
francisco 80
dropped 80
existing 80
crowd 80
hydrogen 80
amp 80
hal@@ 80
curve 80
applications 80
feeding 80
laboratory 80
strength 80
gers 80
bones 80
robert 79
institution 79
stra@@ 79
windows 79
increased 79
smile 79
remains 79
gr@@ 79
tr@@ 79
claim 79
encourage 79
literature 79
bag 79
conventional 79
sample 79
to-@@ 79
nose 79
economists 79
ii 79
t-@@ 79
fund 79
down@@ 79
pakistan 79
insight 79
cl@@ 79
transportation 79
boston 79
polio 79
violent 79
ali@@ 79
radi@@ 79
channel 79
breaking 79
ns 79
productive 79
relevant 79
combination 79
logic 79
tube 79
bomb 79
boxes 79
singing 79
solid 78
accurate 78
tracking 78
marine 78
mate 78
advice 78
fundamentally 78
islam 78
combined 78
pacific 78
grid 78
relative 78
sin@@ 78
odd 78
gdp 78
previous 78
flowers 78
tered 78
flu@@ 78
low-@@ 78
sw@@ 78
confidence 78
upper 78
partners 78
neither 78
trillion 78
hurt 78
cameras 78
far@@ 78
2000 78
keeps 78
ler 77
sight 77
length 77
linked 77
dr@@ 77
wor@@ 77
outcome 77
title 77
shares 77
yed 77
fingers 77
presentation 77
sweet 77
monkeys 77
falls 77
sters 77
cow 77
21 77
land@@ 77
rocket 77
roots 77
microbes 77
presence 77
entertainment 77
gh@@ 77
cortex 77
fil@@ 77
roads 77
reverse 77
horrible 77
tics 76
pack 76
factors 76
collapse 76
director 76
telescope 76
options 76
pair 76
expand 76
explains 76
and@@ 76
entrepreneurs 76
operate 76
equation 76
shame 76
coal 76
ke@@ 76
patent 76
suggests 76
sions 76
ths 76
framework 76
component 76
option 76
circumstances 76
fed 76
mix 76
wed 76
occur 76
deaths 75
rapidly 75
my@@ 75
musical 75
recording 75
dancing 75
surgeon 75
manufacturing 75
uni@@ 75
detect 75
grain 75
finance 75
genius 75
stands 75
doubt 75
funding 75
magnetic 75
ob@@ 75
queen 75
fire@@ 75
worlds 75
behavioral 75
col@@ 75
staff 75
thin 75
well-being 75
symmetry 75
paris 75
authority 75
architects 75
2010 75
mystery 75
simplicity 75
films 75
ped 75
younger 75
boring 75
flew 75
remind 75
hospitals 75
le-@@ 74
lake 74
wheel 74
wireless 74
anti@@ 74
performing 74
mid-@@ 74
treating 74
organism 74
pres@@ 74
17@@ 74
philosophy 74
features 74
clo@@ 74
wondered 74
squ@@ 74
determine 74
internal 74
cro@@ 74
pin@@ 74
clouds 74
rooms 74
illness 74
subjects 74
activities 74
tested 74
tonight 74
mechanical 74
selection 74
sculpture 74
chicago 74
der@@ 74
inspiration 74
climb 74
sol@@ 73
walks 73
regions 73
occurred 73
stronger 73
unexpected 73
air@@ 73
distributed 73
head@@ 73
nowhere 73
technique 73
passionate 73
nor 73
obsessed 73
ari@@ 73
decline 73
prices 73
pocket 73
tea 73
chan@@ 73
release 73
mat@@ 73
pure 73
afternoon 73
innovative 73
ther@@ 73
victims 73
vehicles 73
1,@@ 73
ys 73
ff@@ 73
angle 73
comfort 73
origami 73
paradigm 73
touched 73
statement 73
particle 73
mechanism 73
abstract 73
illegal 72
heroes 72
pr@@ 72
cri@@ 72
vessels 72
eggs 72
quarter 72
printing 72
educational 72
phase 72
meaningful 72
ju@@ 72
functional 72
conclusion 72
sustainability 72
author 72
defense 72
handle 72
swe@@ 72
creature 72
wherever 72
combine 72
raw 72
sor@@ 72
dh 72
explained 72
swimming 72
actions 72
bas@@ 72
scan 72
africans 72
designs 72
ko@@ 72
chose 72
unclear 72
van 72
required 72
exact 72
tically 72
celebrate 72
lighting 71
20@@ 71
globe 71
directions 71
potentially 71
election 71
plans 71
generated 71
proof 71
ber 71
drives 71
intense 71
spe@@ 71
sen@@ 71
yo@@ 71
button 71
ak 71
egypt 71
messages 71
ologist 71
frankly 71
surely 71
graphic 71
sty 71
suit 71
clothes 71
makers 71
fla@@ 71
rein@@ 71
underwater 71
ki@@ 71
gro@@ 71
transformed 71
largely 71
collected 71
careful 71
21st 71
launch 71
attempt 71
gue 71
engaged 71
ss 71
blog 71
golden 71
processing 71
han@@ 70
participate 70
60s 70
piano 70
pal@@ 70
poem 70
dense 70
severe 70
instruments 70
19th 70
embrace 70
admit 70
economies 70
mad 70
dge 70
zo@@ 70
equally 70
grows 70
trend 70
released 70
stayed 70
sticks 70
plate 70
laugh 70
evening 70
identical 70
lovely 70
german 70
court 70
bible 70
cents 70
ford 70
paintings 70
iron 70
measured 70
somewhat 70
actor 70
obama 70
tom 69
split 69
cook 69
overall 69
welcome 69
wise 69
ct@@ 69
chocolate 69
chapter 69
cation 69
electro@@ 69
divide 69
korea 69
gram 69
end@@ 69
14@@ 69
hello 69
unknown 69
divided 69
haiti 69
pla@@ 69
volume 69
graphy 69
muslim 69
physically 69
ta 69
1.@@ 69
root 69
sweden 69
pur@@ 69
pile 69
ships 69
gender 69
false 69
zone 69
puzzle 69
weak 69
resistance 69
fli@@ 69
bf 68
prototype 68
50,000 68
ren@@ 68
christmas 68
berg 68
tre@@ 68
whales 68
greenhouse 68
perform 68
measuring 68
j 68
ple@@ 68
chip 68
feature 68
france 68
soul 68
grand@@ 68
que 68
scared 68
nor@@ 68
zoom 68
faced 68
infinite 68
atory 68
congress 68
obesity 68
co-@@ 68
four-@@ 68
joined 68
passing 68
incentives 68
flower 68
usual 68
dirty 68
fortune 68
september 68
immune 68
savings 68
kingdom 68
soft 68
busy 68
bility 67
ink 67
invent 67
spreading 67
sheep 67
cry 67
pregnant 67
commitment 67
placed 67
multi@@ 67
post-@@ 67
speci@@ 67
session 67
10@@ 67
existed 67
secondly 67
tall 67
frank 67
depend 67
powered 67
connecting 67
consumers 67
silence 67
cam@@ 67
furniture 67
shock 67
disappeared 67
housing 67
ner 67
automatically 67
agreed 67
happier 67
lung 67
mc@@ 67
reaching 67
ases 67
tac@@ 67
ward 67
med 67
bike 67
forming 67
ori@@ 67
va 67
dent 67
carried 67
clinic 67
density 67
struck 67
offered 67
teams 67
hunger 66
19 66
input 66
songs 66
20,000 66
shut 66
hum@@ 66
suffer 66
nets 66
ft 66
romantic 66
ear 66
fre@@ 66
sto@@ 66
half-@@ 66
parking 66
nest 66
2005 66
clever 66
ol 66
iled 66
exploring 66
dolphins 66
conver@@ 66
narrative 66
functions 66
interview 66
granted 66
implications 66
probability 66
villages 66
march 66
enable 65
sum 65
gy 65
appreciate 65
pig 65
extinct 65
fra@@ 65
ray 65
chart 65
ban@@ 65
club 65
danger 65
painful 65
classic 65
apparently 65
long-@@ 65
x-ray 65
val@@ 65
depending 65
ken 65
lifestyle 65
gray 65
gates 65
stations 65
translate 65
son@@ 65
causing 65
height 65
tower 65
symptoms 65
inspiring 65
bat@@ 65
year-olds 65
attacks 65
interactive 65
interestingly 65
ists 65
grab 65
bre@@ 65
estimate 65
agency 65
synthetic 65
phrase 65
border 65
till 65
microscope 65
awesome 65
circuit 65
aries 65
spider 65
breathe 65
mess 64
hill 64
reference 64
fortunately 64
disorder 64
calculate 64
dot 64
assume 64
higgs 64
script 64
2009 64
secure 64
grass 64
rising 64
samples 64
ne 64
ads 64
powers 64
constant 64
islamic 64
dan@@ 64
iphone 64
wanting 64
silicon 64
arguments 64
application 64
bell 64
properly 64
vely 64
dor@@ 64
balloon 64
records 64
don@@ 64
tasks 64
links 64
water@@ 64
friendly 64
entered 64
latin 64
ered 64
tively 64
latest 64
concrete 64
spoken 64
spar@@ 64
bles 64
cies 64
ese 64
centuries 63
hed 63
score 63
inch 63
aside 63
geographic 63
ear@@ 63
capitalism 63
ase 63
prefer 63
chest 63
tag 63
,000 63
inspire 63
determined 63
sal 63
wil@@ 63
dozen 63
tie 63
reflect 63
zz@@ 63
clock 63
gener@@ 63
pra@@ 63
ran@@ 63
optimistic 63
shell 63
liver 63
lin@@ 63
la 63
snow 63
toxic 63
judge 63
dramatically 63
cent 63
tied 63
70s 63
recovery 63
oxford 63
curiosity 63
reputation 63
breathing 63
shoulder 63
congo 63
symbol 63
ghana 63
remove 63
behave 63
ering 63
tele@@ 63
hip 63
2004 62
disorders 62
productivity 62
hy@@ 62
mainly 62
mul@@ 62
mid@@ 62
ble@@ 62
whale 62
breaks 62
linear 62
app@@ 62
exhibition 62
hide 62
dish 62
drinking 62
illusion 62
disappear 62
classes 62
lens 62
ide@@ 62
advertising 62
27 62
fore@@ 62
ignore 62
tour 62
dependent 62
texas 62
cute 62
adam 62
standards 62
fle@@ 62
distant 62
russia 62
bet 62
scary 62
bel@@ 62
all-@@ 62
hang 62
sis 62
slides 62
elephant 62
destroyed 61
extent 61
adapt 61
ines 61
parent 61
neuron 61
hom@@ 61
op 61
educated 61
enemy 61
22 61
work@@ 61
conservation 61
seed 61
clay 61
apartment 61
attached 61
tragedy 61
outcomes 61
shed 61
by@@ 61
peter 61
thrown 61
meetings 61
reduction 61
hat@@ 61
legacy 61
fixed 61
chaos 61
concepts 61
orbit 61
virtually 61
st-@@ 61
darkness 61
charity 61
units 61
afterwards 61
organize 61
physicist 61
ture 61
facial 61
ited 61
transparency 61
appears 61
populations 61
destroy 61
contra@@ 61
ideal 61
telephone 61
embedded 60
desk 60
chimpanzees 60
traveled 60
season 60
counter@@ 60
pos@@ 60
ridiculous 60
backwards 60
memories 60
els 60
papers 60
headed 60
seats 60
rational 60
autism 60
mic 60
sy 60
bly 60
heaven 60
gate 60
talent 60
monkey 60
dig 60
hardly 60
ctor 60
herself 60
surrounded 60
appeared 60
kers 60
positions 60
16@@ 60
nurses 60
challenging 60
blow 60
sheet 60
conversations 60
locked 60
dynamics 60
atlantic 60
on-@@ 60
signed 60
january 60
contrast 60
parallel 60
worker 60
len@@ 60
ologists 60
dioxide 60
ugly 60
historical 60
mur@@ 60
fin@@ 60
orange 60
produces 60
vulnerability 60
pet@@ 59
ending 59
bias 59
ash 59
resolution 59
golf 59
ots 59
floating 59
muscles 59
filter 59
so-called 59
anger 59
fifth 59
bee 59
tired 59
uganda 59
overcome 59
rever@@ 59
involves 59
derek 59
microsoft 59
opens 59
currency 59
excuse 59
landed 59
fan 59
corporate 59
cup 59
accessible 59
frequency 59
oldest 59
ach@@ 59
smoke 59
wn 59
eric 59
fiber 59
stock 59
80s 59
cheaper 59
presented 59
o-@@ 59
stu@@ 59
controlling 59
increases 59
spiritual 59
soviet 59
morality 59
jack 59
photography 59
rel@@ 59
academic 59
provides 58
reef 58
pen 58
plays 58
chosen 58
stanford 58
angeles 58
mas@@ 58
lecture 58
achieved 58
new@@ 58
static 58
includes 58
adding 58
naked 58
cher 58
funded 58
ens 58
not@@ 58
maintain 58
2006 58
expert 58
drawn 58
via 58
truck 58
ctors 58
photographed 58
sy@@ 58
poorest 58
diabetes 58
pushing 58
sports 58
post@@ 58
spots 58
super-@@ 58
smallpox 58
rice 58
official 58
frozen 58
tan@@ 58
volunteers 58
colony 58
pace 58
personality 58
plenty 58
ell@@ 58
tax 58
stable 58
val 57
precisely 57
quar@@ 57
flo@@ 57
writers 57
excellent 57
muslims 57
lam@@ 57
hing 57
demonstrate 57
raising 57
foods 57
killer 57
shi@@ 57
yours 57
vis@@ 57
gam@@ 57
.com 57
journalist 57
reduced 57
fluid 57
beer 57
silent 57
matic 57
host 57
lift 57
rush 57
toilet 57
fears 57
tech 57
asks 57
globalization 57
allowing 57
hearts 57
copyright 57
rarely 57
tricks 57
agenda 57
wal@@ 57
2003 57
thick 57
continues 57
psychological 57
discoveries 57
ben 57
ined 57
trucks 57
brief 57
practices 57
habitat 57
um@@ 57
missed 57
drill 57
laid 57
26 57
stat@@ 57
sl@@ 57
glamorous 56
pit@@ 56
fascinated 56
astonishing 56
opposed 56
capita 56
oc@@ 56
k-@@ 56
ham@@ 56
chi@@ 56
pointed 56
courage 56
dedicated 56
arctic 56
imagined 56
searching 56
fabulous 56
tation 56
tro@@ 56
with@@ 56
sle@@ 56
removed 56
0@@ 56
ances 56
cable 56
gps 56
kb 56
fuels 56
qui@@ 56
hungry 56
geo@@ 56
provided 56
terrorism 56
orchestra 56
integrated 56
earthquake 56
license 56
speakers 56
letting 56
motivation 56
boards 56
0.@@ 56
storm 56
tribes 56
diagram 56
native 56
ethiopia 56
finds 56
kar@@ 56
angry 56
sil@@ 56
extract 56
95 56
ure 56
emergency 56
facility 56
fiction 56
shooting 55
bicycle 55
bars 55
she@@ 55
retro@@ 55
graphics 55
nurse 55
pilot 55
th-@@ 55
tries 55
drove 55
grandfather 55
0,000 55
atten@@ 55
holds 55
likes 55
ners 55
crying 55
ore 55
cated 55
recognized 55
controls 55
loud 55
hollywood 55
qualities 55
react 55
permanent 55
ration 55
photo@@ 55
glasses 55
ain 55
pers 55
jail 55
limits 55
bla@@ 55
elsewhere 55
surfaces 55
gang 55
clients 55
ethical 55
explaining 55
ther 55
ani@@ 55
affordable 55
conclude 55
gging 55
13@@ 55
skull 55
recognition 55
cambridge 55
posing 55
pyramid 55
super 55
collecting 54
nobel 54
trends 54
polar 54
consequence 54
airport 54
customers 54
review 54
knee 54
dignity 54
figuring 54
observation 54
sla@@ 54
origin 54
tt@@ 54
contains 54
ination 54
4,000 54
receive 54
ing-@@ 54
aircraft 54
ger@@ 54
tank 54
succeed 54
sub-@@ 54
informed 54
ye@@ 54
chief 54
suicide 54
artistic 54
architectural 54
dust 54
transport 54
ant@@ 54
char@@ 54
pool 54
saturn 54
fri@@ 54
harm 54
eu@@ 54
returned 54
cats 54
circles 54
8@@ 54
wards 54
economist 54
edi@@ 54
2001 54
escape 54
protecting 54
ra 54
gore 54
emerge 54
picking 54
consume 54
resi@@ 54
biologists 54
smo@@ 54
agricultural 54
suggesting 54
les@@ 54
poster 54
cap 54
initial 53
jewish 53
represented 53
af@@ 53
separated 53
regret 53
rwanda 53
glamour 53
bears 53
alization 53
elled 53
climbing 53
encounter 53
yer 53
rescue 53
underground 53
sharp 53
repair 53
quest 53
borders 53
poet 53
june 53
offers 53
focusing 53
rebuild 53
fathers 53
bin 53
dimension 53
sport 53
accidents 53
computation 53
transparent 53
ine@@ 53
neighbor 53
gut 53
capit@@ 53
rio 53
photographer 53
cartoon 53
neural 53
crossing 53
sensory 53
mice 53
23 53
alien 53
layers 53
cash 53
ep 53
bon@@ 53
mammals 53
fortunate 53
proper 53
cave 53
martin 53
scales 53
predictions 53
palm 53
openness 53
by-@@ 53
vable 53
precise 53
providing 53
lan@@ 53
-up 53
mining 53
ya 53
variation 53
rocks 53
musicians 53
del@@ 53
brian 53
dy@@ 53
realm 53
1990s 52
output 52
na 52
optimism 52
bot@@ 52
vacuum 52
highway 52
mines 52
800 52
boundaries 52
vertical 52
characteristics 52
hardware 52
someday 52
ris@@ 52
diverse 52
ed@@ 52
concern 52
lon@@ 52
monitor 52
buried 52
injury 52
shelf 52
din@@ 52
weapon 52
devil 52
october 52
ites 52
ka 52
im 52
65 52
hire 52
constructed 52
barely 52
ei@@ 52
unbelievable 52
ils 52
symbols 52
strategies 52
ey 52
inv@@ 52
gathering 52
sales 52
pe 52
bul@@ 52
kes 52
reports 52
pump 52
dress 52
diagnosed 52
electronics 52
owned 52
neuroscience 52
maker 52
watts 52
amongst 52
pulling 52
explo@@ 52
inches 52
loop 52
lands 52
ecosystems 52
interactions 52
ph 52
preserve 51
tension 51
treatments 51
vital 51
bottles 51
harvest 51
asteroid 51
winning 51
mall 51
privilege 51
plot 51
damn 51
federal 51
essence 51
frog 51
hydro@@ 51
limb 51
250 51
mixed 51
crops 51
wea@@ 51
non@@ 51
cher@@ 51
dinosaur 51
stages 51
seeds 51
ingredients 51
alities 51
detection 51
hanging 51
lac@@ 51
favor 51
unlikely 51
interacting 51
app 51
revenue 51
council 51
innovations 51
tumors 51
dness 51
seek 51
reported 51
exposed 51
sely 51
n-@@ 51
rely 51
pointing 51
efforts 51
pushed 51
humor 51
corn 51
dolphin 51
fruit 51
cast 51
marks 51
tures 51
-like 51
flip 51
insurance 51
emerged 51
mode 51
bay 51
uns@@ 51
smooth 51
eless 51
governance 51
joe 51
hot@@ 51
policies 51
farmer 51
speaker 51
backs 51
manhattan 51
gy@@ 51
bis@@ 51
tin@@ 51
failing 51
c. 51
classical 51
richer 51
historic 50
om 50
shrimp 50
domestic 50
ics 50
scratch 50
struggling 50
gentleman 50
depressed 50
methods 50
den 50
guide 50
oni@@ 50
amazon 50
ize 50
may@@ 50
consistent 50
liberal 50
successfully 50
parties 50
announced 50
sleeping 50
males 50
skeleton 50
served 50
laser 50
allo@@ 50
cooperation 50
alists 50
tan 50
evolve 50
shopping 50
committed 50
originally 50
bac@@ 50
1960 50
footprint 50
procedure 50
spinal 50
subway 50
mit@@ 50
silly 50
tations 50
sentences 50
garbage 50
hea@@ 50
wash 50
globally 50
stores 50
pil@@ 50
teenagers 50
pris@@ 50
dive 50
forests 50
hes 50
ku@@ 50
conflicts 50
robotic 50
intuitive 50
und@@ 50
32 50
engaging 50
toes 50
document 50
meal 50
stones 50
besides 50
invite 49
industries 49
aspects 49
cho@@ 49
mus@@ 49
imaging 49
alzheimer 49
blogs 49
underlying 49
spectacular 49
actors 49
predicted 49
brush 49
opera 49
vagina 49
armed 49
mation 49
pay@@ 49
cau@@ 49
witness 49
ina 49
affects 49
wat@@ 49
cheese 49
founded 49
translation 49
tony 49
blo@@ 49
blame 49
pt 49
shit 49
upset 49
explosion 49
cotton 49
uncle 49
liber@@ 49
sam@@ 49
county 49
occasionally 49
robust 49
tile 49
operations 49
identified 49
green@@ 49
mayor 49
briefly 49
tip 49
bronx 49
lawyers 49
regime 49
domain 49
viol@@ 49
tracks 49
visited 49
contain 49
perceive 49
eted 49
nerve 49
february 49
shadow 49
buil@@ 49
gli@@ 49
baseball 49
rats 49
mil@@ 49
advis@@ 49
rolling 49
whatsoever 49
str@@ 49
soli@@ 49
fac@@ 49
articles 49
90s 49
oned 48
transplant 48
demographic 48
pink 48
intuition 48
signature 48
football 48
kills 48
colleague 48
reminded 48
phantom 48
florida 48
luck 48
pound 48
delivered 48
describes 48
tap 48
amed 48
ak@@ 48
improvement 48
collaborative 48
attract 48
cour@@ 48
instructions 48
howard 48
views 48
footage 48
trash 48
persi@@ 48
acy 48
cell@@ 48
washing 48
inten@@ 48
contemporary 48
gather 48
person@@ 48
human@@ 48
aring 48
mri 48
jesus 48
luckily 48
life-@@ 48
compli@@ 48
pas@@ 48
est@@ 48
surprisingly 48
contract 48
flows 48
senior 48
banks 48
subtle 48
hyper@@ 48
elections 48
thin@@ 48
warning 48
serving 48
ec@@ 48
toy 48
oxytocin 48
micro-@@ 48
bizarre 48
thri@@ 48
dest 47
fires 47
tubes 47
iness 47
gal@@ 47
dopamine 47
suspect 47
colored 47
shu@@ 47
essed 47
scra@@ 47
extended 47
fits 47
syndrome 47
drew 47
expectancy 47
kno@@ 47
tting 47
begun 47
cop@@ 47
shifting 47
staying 47
discuss 47
sensors 47
tiles 47
leverage 47
permission 47
glad 47
miracle 47
universities 47
jim 47
pigs 47
nowadays 47
slavery 47
simulation 47
worms 47
genetics 47
restor@@ 47
gras 47
honey 47
sits 47
theories 47
contribute 47
tion@@ 47
threw 47
beliefs 47
initially 47
kin@@ 47
diving 47
reducing 47
debt 47
abilities 47
journal 47
700 47
leather 47
plastics 47
kit@@ 47
cou@@ 47
cla@@ 47
rope 47
relations 47
exponential 47
ming 47
dictionary 47
mechanisms 47
taliban 47
painted 47
reform 47
hor@@ 47
methane 47
lawyer 47
empire 47
ining 47
pandemic 47
reliable 47
onal 47
sisters 47
cake 47
lea@@ 47
dominant 47
plug 46
cross-@@ 46
cycles 46
ological 46
ids 46
bags 46
accepted 46
engagement 46
italy 46
independence 46
crucial 46
mol@@ 46
jellyfish 46
fusion 46
regul@@ 46
1980s 46
hitting 46
entrepreneur 46
spin 46
plan@@ 46
balls 46
tuna 46
initi@@ 46
discovering 46
dear 46
daughters 46
mail 46
wildlife 46
panels 46
forgotten 46
elderly 46
worthy 46
turkey 46
shots 46
ll@@ 46
keyboard 46
memes 46
extinction 46
ir 46
ty@@ 46
motors 46
lin 46
programming 46
gged 46
shanghai 46
dd@@ 46
arrive 46
hur@@ 46
inventor 46
sm@@ 46
translated 46
ill@@ 46
belong 46
external 46
sa 46
imagery 46
smith 46
winds 46
flexible 46
ownership 46
salt 46
tical 46
promote 46
coke 46
exam@@ 46
caring 46
vegetables 46
henry 46
biodiversity 46
elementary 46
earn 46
algorithm 46
terribly 46
dating 46
guns 46
ensure 46
ures 46
replicate 46
six-@@ 46
breakfast 46
pm 46
neat 46
expanding 46
cations 46
suggested 46
outer 46
boom 46
hypothesis 46
terror 46
experimental 46
sub-saharan 46
cious 46
route 46
cord 46
lincoln 46
airplanes 46
the-@@ 46
sons 46
trains 46
arian 46
bin@@ 46
aming 46
youth 46
consciously 46
sand@@ 45
depth 45
scores 45
answered 45
shirt 45
mathematicians 45
sauce 45
rb 45
portion 45
tribe 45
flowing 45
gan@@ 45
wings 45
power@@ 45
comparison 45
ooh 45
antly 45
description 45
bow 45
sixth 45
proposed 45
-to-@@ 45
needle 45
expectations 45
fting 45
iting 45
fraction 45
investing 45
cus 45
comedy 45
iling 45
mushroom 45
paralyzed 45
moore 45
communications 45
altitude 45
wider 45
promised 45
feynman 45
robotics 45
comic 45
elected 45
sheets 45
pul@@ 45
criminal 45
trajectory 45
december 45
sky@@ 45
scre@@ 45
established 45
gonna 45
black@@ 45
tate 45
mo 45
fro@@ 45
egg 45
shelter 45
generating 45
ken@@ 45
surgeons 45
sacred 45
g-@@ 45
bob 45
tim 45
mapping 45
edges 45
discipline 45
clothing 45
investig@@ 45
geometry 45
pockets 45
pants 45
supported 45
impression 45
advance 45
tendency 44
ony 44
analyze 44
stops 44
thir@@ 44
bli@@ 44
hon@@ 44
multi-@@ 44
immediate 44
fragile 44
pt@@ 44
assumptions 44
unding 44
participants 44
penguin 44
rose 44
entropy 44
ridge 44
za@@ 44
aff@@ 44
quit 44
tends 44
verse 44
poly@@ 44
primitive 44
abraham 44
enti@@ 44
ev@@ 44
rat 44
ach 44
fis@@ 44
extend 44
tar@@ 44
summit 44
persu@@ 44
remaining 44
eaten 44
widely 44
crack 44
seas 44
ville 44
charges 44
aw@@ 44
esses 44
bats 44
portrait 44
limit 44
merely 44
bucks 44
annual 44
resistant 44
pet 44
fancy 44
sum@@ 44
s. 44
shocked 44
prepare 44
slo@@ 44
first-@@ 44
sar@@ 44
pause 44
russian 44
uncomfortable 44
engineered 44
continuing 44
hat 44
initiative 44
pitch 44
pretend 44
jazz 44
ale 44
laughing 44
strike 44
wheat 44
endangered 44
profoundly 44
printer 44
cosmic 44
realizing 43
bug 43
lic 43
steven 43
homo 43
bled 43
di 43
demonstration 43
dropping 43
vel@@ 43
gotta 43
neck 43
earliest 43
command 43
narrow 43
plum@@ 43
dialogue 43
6,000 43
hear@@ 43
substance 43
stroke 43
christian 43
comment 43
confused 43
remained 43
15@@ 43
supplies 43
tent 43
mt 43
array 43
phosphorus 43
resilience 43
agent 43
gic 43
lar@@ 43
ner@@ 43
holy 43
q@@ 43
sunday 43
adventure 43
civilizations 43
abo@@ 43
28 43
thers 43
gods 43
ral 43
flag 43
thus 43
pled 43
grateful 43
owner 43
reminds 43
2050 43
audio 43
arabic 43
suffered 43
smoking 43
glo@@ 43
sw 43
loves 43
tissues 43
folds 43
ham 43
improving 43
cin@@ 43
1970s 43
counting 43
infections 43
planes 43
compassionate 43
50s 43
enables 43
repeat 43
fer 43
objective 43
captured 43
adopted 43
client 43
freely 43
plain 43
woke 43
ading 43
clu@@ 43
antibiotics 43
chairs 43
traditions 43
delivery 43
fibers 43
puzzles 43
factories 43
obje@@ 43
rings 43
120 43
stepped 43
extension 43
tain 43
abuse 43
sciences 43
cows 43
ot 42
2002 42
beneath 42
choosing 42
bubbles 42
nat@@ 42
cuts 42
ecological 42
ade 42
smarter 42
syn@@ 42
drivers 42
sher@@ 42
nutrients 42
insights 42
fabric 42
reli@@ 42
categories 42
doors 42
kevin 42
reserve 42
greek 42
pes 42
association 42
proportion 42
bat 42
nuts 42
hil@@ 42
tives 42
entering 42
biosphere 42
antarctica 42
odds 42
blank 42
rapid 42
administration 42
philosopher 42
soup 42
pad 42
technically 42
transfer 42
innocent 42
channels 42
poli@@ 42
database 42
10-@@ 42
ana 42
mosquito 42
ll 42
insect 42
mer 42
30,000 42
tran@@ 42
weak@@ 42
circuits 42
eting 42
sandwich 42
frustrated 42
documents 42
wheels 42
ass 42
blin@@ 42
interpretation 42
astro@@ 42
researcher 42
spain 42
smallest 42
play@@ 42
significantly 42
oning 42
1990 42
gained 42
profits 42
formula 42
analogy 42
infection 42
consul@@ 42
achievement 42
sel@@ 42
ghts 42
no-@@ 42
gically 42
eness 42
strangers 42
wers 42
incentive 42
hong 42
magical 42
kan@@ 42
proven 42
dawn 42
tears 42
garage 42
soldier 42
visions 42
gaps 42
inevitable 42
errors 41
kick 41
johnson 41
expecting 41
restaurants 41
accounts 41
over-@@ 41
ster@@ 41
horizon 41
dated 41
ts@@ 41
toys 41
newspapers 41
april 41
limitations 41
uncertainty 41
mel@@ 41
anxiety 41
deception 41
profile 41
scanning 41
p-@@ 41
jumped 41
che 41
chil@@ 41
20-@@ 41
grasp 41
renewable 41
breeding 41
charged 41
experiencing 41
impressive 41
twi@@ 41
closest 41
dutch 41
clear@@ 41
exc@@ 41
expansion 41
download 41
ph.d. 41
delhi 41
eve 41
ill 41
myth 41
blown 41
open-@@ 41
occurs 41
remembered 41
ual 41
gallery 41
approaching 41
reveal 41
fur@@ 41
recover 41
hunting 41
ceo 41
grandchildren 41
open-source 41
pursue 41
bend 41
cle@@ 41
atomic 41
predators 41
partly 41
ells 41
packed 41
defining 41
covering 41
gradually 41
calories 41
autonomous 41
crew 41
rock@@ 41
pose 41
0s 41
suck 41
utili@@ 41
bulb 41
logical 41
citizen 41
20s 41
ai@@ 41
continents 41
alcohol 41
bangladesh 41
shar@@ 41
expedition 41
mini@@ 41
interior 41
prisoners 41
representation 41
jihad 41
communic@@ 41
bound 41
measures 41
dominated 41
psycho@@ 41
physician 41
district 41
all@@ 41
pp@@ 41
w-@@ 41
gt 41
builds 40
explored 40
attractive 40
grades 40
nearby 40
ax@@ 40
curriculum 40
homeless 40
huh 40
barrier 40
virginia 40
foot@@ 40
amy 40
ratio 40
agreement 40
campus 40
pairs 40
yu@@ 40
rivers 40
dean 40
laptops 40
ah@@ 40
steal 40
knife 40
cancers 40
eling 40
33 40
ery 40
ticket 40
confident 40
redwood 40
pizza 40
assemble 40
firm 40
insulin 40
vietnam 40
attitude 40
illustrate 40
homework 40
formation 40
cen@@ 40
wheelchair 40
jet 40
completed 40
friday 40
passenger 40
beating 40
lg 40
helicopter 40
potent 40
terrorists 40
instantly 40
capability 40
agencies 40
sh 40
observe 40
moder@@ 40
clon@@ 40
sale 40
realistic 40
law@@ 40
gol@@ 40
m-@@ 40
musician 40
colonies 40
despair 40
elephants 40
installation 40
off@@ 40
adapted 40
85 40
mysterious 40
viral 40
appearance 40
contrary 40
phenomena 40
classrooms 40
shortly 40
alist 40
comics 40
restore 40
deserve 40
tering 40
swiss 40
yield 40
selfish 40
prevention 40
enemies 40
ceiling 40
psychologists 40
ambi@@ 40
canopy 40
quot@@ 40
0-@@ 40
conducted 40
category 40
philanthropy 40
threats 40
bo 40
grandparents 40
marketplace 40
physicists 40
wan@@ 40
wealthy 40
influenced 40
gor@@ 40
replaced 40
oms 40
included 40
tone 40
breakthrough 40
compelling 40
electron 39
detailed 39
shor@@ 39
teenage 39
victim 39
arity 39
yourselves 39
mathematician 39
terrifying 39
dressed 39
ngos 39
seeking 39
correctly 39
tsunami 39
bia 39
ace 39
ful@@ 39
ene 39
inequality 39
sustain 39
cha@@ 39
origins 39
stack 39
miserable 39
eg@@ 39
reflection 39
foundations 39
stre@@ 39
fran@@ 39
scope 39
wooden 39
retirement 39
blu@@ 39
strongly 39
hunt 39
meanwhile 39
privacy 39
helium 39
recipe 39
harmony 39
tragic 39
indians 39
exception 39
throwing 39
facilities 39
manual 39
teri@@ 39
rhythm 39
assumption 39
two-thirds 39
arguing 39
000-@@ 39
plu@@ 39
crows 39
full-@@ 39
invested 39
hired 39
isolated 39
judgment 39
cricket 39
tongue 39
lord 39
gases 39
italian 39
performed 39
alpha 39
delicious 39
intensity 39
demands 39
vice 39
partnership 39
generous 39
fun@@ 39
fastest 39
branches 39
affecting 39
benjamin 39
kidney 39
tam@@ 39
glue 39
eli@@ 39
tly 39
diameter 39
voted 39
connectivity 39
refer 39
unhappy 39
insane 39
troops 39
engines 39
eye@@ 39
30-@@ 39
ecology 39
dec@@ 39
bulbs 39
hei@@ 39
spi@@ 39
seti 39
forgot 39
zi@@ 39
bond 39
lations 39
mechanics 39
tackle 39
denial 39
joshua 39
spanish 39
anonymous 39
disability 39
newton 39
parliament 39
ang@@ 39
essing 39
fallen 39
pleasant 39
volunteer 39
brain@@ 39
planetary 39
picks 39
impacts 39
digit 39
od@@ 38
wrap 38
boats 38
narratives 38
titan 38
wires 38
ass@@ 38
threshold 38
lists 38
calm 38
boss 38
clubs 38
targets 38
convert 38
lungs 38
bun@@ 38
marry 38
bit@@ 38
deals 38
ton@@ 38
posted 38
dozens 38
prediction 38
seal 38
voting 38
folded 38
reefs 38
lion 38
auto@@ 38
ries 38
3.@@ 38
ethnic 38
ep@@ 38
gated 38
nan@@ 38
burden 38
ty-@@ 38
radically 38
tear 38
competing 38
tolerance 38
wa 38
foie 38
ze@@ 38
panic 38
vaccin@@ 38
badly 38
nerves 38
defen@@ 38
gear 38
lowest 38
estimated 38
passive 38
vaccines 38
broad@@ 38
transforming 38
cer@@ 38
encouraging 38
unable 38
microbial 38
mature 38
stability 38
domin@@ 38
smiling 38
absence 38
cartoons 38
simultaneously 38
frightening 38
scenario 38
boo@@ 38
ess@@ 38
instru@@ 38
approved 38
lic@@ 38
bite 38
alistic 38
headlines 38
tter 38
goodbye 38
tail@@ 38
deli@@ 38
broad 38
neighborhoods 38
flash 38
day@@ 38
electrodes 38
locations 38
literacy 38
sei@@ 38
tin 38
tune 38
handed 38
nelson 38
offices 38
scenes 38
wright 38
bombs 38
dough 38
absor@@ 38
prostate 38
construct 38
torture 38
catching 38
reasonable 38
thro@@ 38
lli@@ 38
biologist 38
mindset 38
dal 38
deaf 38
sexy 38
alig@@ 38
offering 38
theoretical 37
plates 37
ency 37
distinct 37
alizing 37
communicating 37
surgeries 37
leap 37
competitive 37
tioned 37
wedding 37
duck 37
larry 37
strands 37
likelihood 37
storytelling 37
panel 37
migr@@ 37
binary 37
prior 37
missions 37
hol@@ 37
fate 37
paradox 37
hr@@ 37
sections 37
pride 37
ased 37
primarily 37
expressions 37
fence 37
electrons 37
unds 37
similarly 37
decrease 37
coat 37
audiences 37
teaches 37
jeff 37
professionals 37
shocking 37
difficulty 37
elite 37
bru@@ 37
ignored 37
tionally 37
masses 37
file 37
rotate 37
dre@@ 37
stac@@ 37
chips 37
dimensional 37
carries 37
santa 37
downtown 37
overhead 37
ately 37
dilemma 37
matrix 37
gesture 37
compete 37
memor@@ 37
reactions 37
2.@@ 37
l.a. 37
equations 37
mating 37
branch 37
au 37
sized 37
approaches 37
labs 37
guarantee 37
equality 37
instant 37
animation 37
versions 37
+ 37
supermarket 37
st. 37
banking 37
mandela 37
and-@@ 37
x-@@ 37
emergence 37
lee 37
supporting 37
republic 37
fought 37
academy 37
deci@@ 37
officer 37
aked 37
obese 37
occurring 37
utes 37
sm 37
eight-@@ 37
pills 37
connects 37
oth@@ 37
conservative 37
publish 37
48 37
beautifully 37
mike 37
tal@@ 37
sink 37
restri@@ 37
carolina 37
compromise 36
amazingly 36
drum 36
halfway 36
distra@@ 36
bridges 36
follows 36
neutral 36
swi@@ 36
authorities 36
zones 36
passes 36
aero@@ 36
genocide 36
scanner 36
shine 36
poss@@ 36
estimates 36
william 36
yards 36
suits 36
commit 36
40,000 36
failures 36
structural 36
veri@@ 36
daniel 36
commodity 36
200,000 36
backyard 36
located 36
temp@@ 36
mary 36
approached 36
interpre@@ 36
yp@@ 36
dependence 36
publishing 36
conf@@ 36
time-@@ 36
addi@@ 36
mentally 36
inevitably 36
jones 36
disabled 36
phenomenal 36
ba 36
storage 36
purposes 36
stretch 36
august 36
tedtalk 36
koran 36
top@@ 36
previously 36
biomass 36
heart@@ 36
skeletal 36
genetically 36
magnitude 36
mushrooms 36
camel 36
read@@ 36
improved 36
55 36
stics 36
tom@@ 36
ft@@ 36
transmission 36
sch@@ 36
chances 36
dose 36
mutation 36
ored 36
motivated 36
cate 36
cyber@@ 36
additional 36
calculations 36
selected 36
camps 36
cube 36
worrying 36
landscapes 36
ireland 36
eliminate 36
regardless 36
cement 36
wer 36
package 36
aggressive 36
lions 36
heating 36
waters 36
systematically 36
kin 36
bold 36
stro@@ 36
adver@@ 36
kong 36
poll@@ 36
corals 36
cellular 36
guilty 36
straightforward 36
destiny 36
concentrated 36
hans 36
trace 36
human-@@ 36
ell 36
bes 36
ai 36
gathered 36
abed 36
equ@@ 35
rubber 35
heritage 35
sen 35
cooperative 35
hook 35
asian 35
succeeded 35
distances 35
nick 35
angiogenesis 35
home@@ 35
rough 35
ements 35
murder 35
determines 35
loads 35
intended 35
peoples 35
monitoring 35
females 35
welfare 35
surgical 35
chim@@ 35
remarkably 35
amazed 35
hun@@ 35
unprecedented 35
cer 35
kindness 35
tunnel 35
bacterial 35
concert 35
responses 35
zer 35
continuous 35
beijing 35
i. 35
drops 35
propose 35
slums 35
lock 35
fr@@ 35
batteries 35
division 35
strings 35
actively 35
chase 35
ences 35
four@@ 35
obser@@ 35
asi@@ 35
stephen 35
disagree 35
choir 35
doubled 35
fs 35
installed 35
gorgeous 35
folding 35
demo@@ 35
investors 35
cir@@ 35
predictable 35
enabled 35
alle@@ 35
intact 35
donor 35
ental 35
arily 35
heading 35
listened 35
hardest 35
regard 35
safer 35
sni@@ 35
ented 35
scaling 35
glimpse 35
assignment 35
pac@@ 35
enjoyed 35
variations 35
reas@@ 35
transformative 35
tex@@ 35
spinning 35
acid 35
tedtalks 35
grant 35
minimum 35
visually 35
blood@@ 35
proposition 35
vessel 35
lit 35
intervention 35
ingredient 35
attitudes 35
parks 35
de-@@ 35
collapsed 35
trou@@ 35
sequ@@ 35
horses 35
strip 35
everest 35
aesthetic 35
ultrasound 35
rolled 35
oring 35
venture 35
break@@ 35
census 35
harbor 35
calculus 35
pon@@ 35
hin@@ 35
reactor 35
copenhagen 35
cti@@ 35
spon@@ 34
traits 34
elegant 34
feeds 34
reserves 34
excitement 34
themes 34
mimic 34
nation@@ 34
stored 34
mind@@ 34
continuously 34
virgin 34
striking 34
rub@@ 34
and-a-half 34
raped 34
smells 34
secrets 34
index 34
controversial 34
presents 34
threatened 34
29 34
diarrhea 34
ongoing 34
simplest 34
truths 34
36 34
detector 34
advan@@ 34
loving 34
elev@@ 34
ater 34
drag 34
condoms 34
civic 34
convey 34
cia 34
medication 34
prosthetic 34
é@@ 34
verbal 34
lottery 34
xi@@ 34
navigate 34
silver 34
charlie 34
texting 34
activist 34
span 34
intensive 34
mes@@ 34
recession 34
chef 34
manipulate 34
hiding 34
publi@@ 34
creator 34
ampli@@ 34
telescopes 34
12@@ 34
pupp@@ 34
high-tech 34
rewards 34
joseph 34
posi@@ 34
compute 34
rating 34
ories 34
tanzania 34
devastating 34
favorites 34
1960s 34
olympics 34
perfe@@ 34
spill 34
broader 34
authentic 34
andrew 34
healthier 34
urge 34
dung 34
deepest 34
hemisphere 34
acquired 34
d. 34
fal@@ 34
blowing 34
leonardo 34
rent 34
para@@ 34
norden 34
illu@@ 34
candidate 34
inf@@ 34
advances 34
namely 34
cheat 34
sensation 34
ert 34
gas@@ 34
nigerian 34
atom 34
arrested 34
cians 34
pill 34
precious 34
obstacles 34
hills 34
milo 34
helpful 34
healing 34
customer 34
thor@@ 34
empowered 34
assets 34
double-@@ 34
motiv@@ 34
elling 34
covers 34
significance 34
lined 34
luxury 34
graphs 34
relation 34
dumb 34
applying 34
socially 34
1950s 34
ubiquitous 34
believes 34
approximately 34
cus@@ 34
vation 34
rainforest 34
eds 34
inging 34
preparing 34
pic@@ 34
vol@@ 34
ddle 34
sively 34
leaf 34
copied 34
capabilities 34
mere 34
legislation 34
participation 34
contribution 33
tale 33
journalists 33
life@@ 33
integrate 33
enjoying 33
genomes 33
wel@@ 33
storyteller 33
thr@@ 33
sau@@ 33
icon 33
suggestion 33
mycelium 33
measurements 33
nant 33
bert 33
selves 33
closing 33
nearest 33
expertise 33
patents 33
periods 33
tropical 33
cape 33
habits 33
poses 33
carpet 33
comparing 33
activated 33
sacrifice 33
bab@@ 33
ministry 33
farms 33
aims 33
bedroom 33
topics 33
interviews 33
destroying 33
zealand 33
landing 33
ut 33
masters 33
pis@@ 33
poison 33
ack 33
aching 33
historically 33
clue 33
chat@@ 33
mainstream 33
loan 33
bers 33
rays 33
items 33
chamber 33
ulating 33
pling 33
hopeful 33
pouring 33
hallucinations 33
filling 33
mobility 33
mentation 33
weigh 33
interpret 33
terrain 33
ski 33
mates 33
relief 33
extra@@ 33
a.m. 33
shakespeare 33
minus 33
household 33
prisoner 33
sam 33
adopt 33
bowl 33
meals 33
stal@@ 33
dation 33
locally 33
keys 33
temple 33
challenged 33
wer@@ 33
satellites 33
temporary 33
acquire 33
bored 33
six@@ 33
logo 33
ction@@ 33
demonstrated 33
proved 33
philosophical 33
high@@ 33
realization 33
speaks 33
resolve 33
copies 33
graduated 33
mud 33
believing 33
psychologist 33
tags 33
lun@@ 33
shore 33
simpler 33
institutional 33
canvas 33
lou@@ 33
hopes 33
meme 33
fet@@ 33
arri@@ 33
cliff 33
item 33
processor 33
dding 33
farming 33
bad@@ 33
magician 33
intent 33
stically 33
form@@ 33
request 33
ibm 33
crossed 33
honestly 33
mp@@ 33
right-hand 33
posed 33
sequences 33
cylinder 33
courses 33
interviewed 33
impli@@ 32
criminals 32
professors 32
cares 32
dents 32
sible 32
autonomy 32
surveillance 32
multiply 32
unfair 32
pity 32
cyrus 32
ally-@@ 32
mankind 32
stays 32
automobile 32
tables 32
sac@@ 32
coverage 32
sake 32
aged 32
outs 32
grams 32
flavor 32
defe@@ 32
whoa 32
july 32
exploit 32
consumed 32
textbooks 32
2,@@ 32
sou@@ 32
safely 32
aliens 32
8,000 32
decor@@ 32
contributed 32
understands 32
whoever 32
37 32
aro@@ 32
loose 32
stor@@ 32
hawaii 32
mumbai 32
producers 32
ney 32
bacterium 32
large-scale 32
travels 32
authors 32
chur@@ 32
lewis 32
sensor 32
visualization 32
strategic 32
lessly 32
1999 32
pollin@@ 32
scul@@ 32
revealed 32
scans 32
inst@@ 32
dist@@ 32
squares 32
whi@@ 32
longevity 32
workforce 32
peers 32
ye 32
indonesia 32
run@@ 32
burned 32
probe 32
triangle 32
integration 32
tar 32
millimeter 32
shy 32
hometown 32
diplomacy 32
194@@ 32
hen@@ 32
clinton 32
cheating 32
curves 32
60,000 32
72 32
concentration 32
sma@@ 32
oma 32
monterey 32
accomplished 32
symphony 32
mobili@@ 32
scott 32
admini@@ 32
observed 32
coin 32
ted@@ 32
attacked 32
poles 32
opinions 32
introduction 32
pulls 32
gui@@ 32
ature 32
texts 32
privileged 32
tured 32
thrilled 32
iranian 32
beam 32
israeli 32
trigger 32
yeast 32
stewart 32
documented 32
conser@@ 32
exclu@@ 32
indus 32
proposal 32
overwhelming 32
25,000 32
jay 32
dirt 32
sizes 32
residents 32
bills 32
bed@@ 32
award 32
frequently 32
passage 32
hierarchy 32
arthur 32
diver@@ 32
frontal 32
stolen 32
recycling 32
zer@@ 32
bic 32
swal@@ 32
portraits 32
dul@@ 32
spiders 32
connectome 32
ck-@@ 32
horror 32
habit 32
an-@@ 32
dancers 32
ay 32
retina 32
mount 32
warmer 32
evolving 32
juice 32
rob 32
cups 32
educate 32
cluster 32
eri@@ 32
deployed 32
taxes 32
corre@@ 32
temperatures 32
singapore 32
lifted 32
ared 32
shing 32
1998 32
cocaine 32
teenager 31
shifted 31
famine 31
ek 31
acted 31
separation 31
ppy 31
accountability 31
seattle 31
programmers 31
extraordinarily 31
heal@@ 31
deadly 31
190@@ 31
free@@ 31
switched 31
lanes 31
constitu@@ 31
mot@@ 31
senti@@ 31
tel@@ 31
fts 31
frightened 31
secretary 31
proce@@ 31
visualize 31
irony 31
surrounding 31
matched 31
algae 31
ams 31
mes 31
calculation 31
sectors 31
activ@@ 31
expressed 31
exten@@ 31
sometime 31
neanderthals 31
terrific 31
mood 31
respe@@ 31
priorities 31
depos@@ 31
grace 31
websites 31
classi@@ 31
school@@ 31
column 31
fan@@ 31
anesthesia 31
reveals 31
magnificent 31
overwhelmed 31
sele@@ 31
bil@@ 31
utterly 31
ple 31
exposure 31
hand-@@ 31
shifts 31
coach 31
apples 31
horri@@ 31
scri@@ 31
ini@@ 31
aim 31
lifespan 31
dam@@ 31
useless 31
prints 31
observations 31
clinics 31
pot 31
priority 31
swa@@ 31
shoe 31
territory 31
olympic 31
conductor 31
nevertheless 31
afghan 31
tants 31
joint 31
blindness 31
comm@@ 31
november 31
reproduce 31
youngest 31
expen@@ 31
nonprofit 31
printed 31
rs 31
intimacy 31
discrimin@@ 31
rul@@ 31
maximum 31
lity 31
scrip@@ 31
rethink 31
ish@@ 31
gel 31
bian 31
alex 31
refer@@ 31
medicines 31
reck@@ 31
1950 31
drawings 31
goo@@ 31
er-@@ 31
bugs 31
grave 31
mal 31
mess@@ 31
self-interest 31
implant 31
encouraged 31
behalf 31
chemi@@ 31
onstage 31
recommend 31
codes 31
chromosome 31
ross 31
networking 31
seemingly 31
colle@@ 31
toilets 31
hormones 31
ron 31
paste 31
fir@@ 31
olo@@ 31
gandhi 31
platforms 31
recor@@ 31
founder 31
holders 31
computational 31
personalized 31
ritual 31
oy@@ 31
tioning 31
parachute 31
concentrate 31
adoption 31
repli@@ 31
celebrated 31
ast 31
variable 31
accelerating 31
purple 31
streams 31
korean 31
&apos;clock 31
-and-@@ 31
cially 31
stairs 31
single-@@ 31
embarrassing 31
virtu@@ 31
pois@@ 30
unfortunate 30
sculptures 30
symmetries 30
diagnosis 30
poin@@ 30
tis 30
dun@@ 30
damaged 30
off-@@ 30
pie 30
vas@@ 30
omy 30
harry 30
embracing 30
burst 30
corporation 30
30s 30
arians 30
deb@@ 30
ko 30
hostile 30
vel 30
tors 30
dow@@ 30
labeled 30
milli@@ 30
tum@@ 30
ki 30
but@@ 30
beetle 30
stum@@ 30
ambitious 30
thy 30
za 30
philosophers 30
wind@@ 30
optical 30
twin 30
seventh 30
sing@@ 30
hard-@@ 30
stated 30
profession 30
chasing 30
usa 30
commu@@ 30
wage 30
copper 30
ali 30
attracted 30
vent 30
improvements 30
unconscious 30
prosperity 30
ups 30
witnessed 30
visi@@ 30
admi@@ 30
dates 30
twenty-@@ 30
jerusalem 30
tool@@ 30
craft 30
oran@@ 30
belly 30
funds 30
destination 30
tiger 30
contributing 30
activists 30
ja 30
pin 30
cleaning 30
intention 30
collectively 30
iceland 30
imit@@ 30
dur@@ 30
prey 30
survived 30
girlfriend 30
revenues 30
rape 30
counts 30
bir@@ 30
shorter 30
see@@ 30
ght@@ 30
fres@@ 30
winner 30
til@@ 30
reflected 30
univers@@ 30
synchroni@@ 30
manager 30
ion 30
gent 30
carri@@ 30
emails 30
wrist 30
separ@@ 30
functioning 30
gation 30
ick 30
transi@@ 30
cence 30
accelerate 30
highlight 30
estate 30
nin@@ 30
peaceful 30
disasters 30
aristotle 30
orders 30
t. 30
pel@@ 30
composition 30
gues 30
quarters 30
marrow 30
ment@@ 30
sylvia 30
interconnected 30
se-@@ 30
en-@@ 30
devi@@ 30
lim@@ 30
a.@@ 30
transmit 30
grains 30
conduct 30
cattle 30
vin 30
squir@@ 30
switzerland 30
distinction 30
incident 30
captain 30
crimes 30
shoulders 30
projection 30
investments 30
unseen 30
viewing 30
spreads 30
towns 30
inhi@@ 30
occasion 30
coordination 30
repeated 30
aling 30
claims 30
revol@@ 30
metric 30
jupiter 30
mixing 30
pricing 30
ctable 30
spare 30
reaches 30
hormone 30
fired 30
associate 30
stly 30
belongs 30
cham@@ 30
encyclopedia 30
desktop 30
organizing 30
shr@@ 30
berry 29
viewer 29
apo@@ 29
empower 29
economically 29
receptor 29
storms 29
wiped 29
thesis 29
alan 29
cart 29
universes 29
dama@@ 29
98 29
corporations 29
recommen@@ 29
ght 29
meditation 29
tab@@ 29
b. 29
mask 29
heavily 29
kiss 29
preparation 29
inse@@ 29
presenting 29
prayer 29
pursuit 29
greatly 29
perceived 29
beef 29
cope 29
pipes 29
electromagnetic 29
l-@@ 29
install 29
wore 29
provo@@ 29
cloth 29
weighs 29
melt 29
millennium 29
asthma 29
wound 29
coding 29
sadly 29
condu@@ 29
synthesis 29
jh 29
ent-@@ 29
key@@ 29
demo 29
thailand 29
color@@ 29
workplace 29
abundance 29
corresponds 29
cracy 29
mcdonald 29
open@@ 29
judgments 29
cables 29
wir@@ 29
tor 29
natasha 29
passions 29
rob@@ 29
sty@@ 29
momentum 29
punishment 29
h-@@ 29
tokyo 29
shining 29
concerns 29
teen 29
counter 29
2020 29
nasty 29
195@@ 29
dragonflies 29
sey 29
revolutions 29
touching 29
ffs 29
ora 29
abandoned 29
d.c. 29
rome 29
barrel 29
playful 29
odor 29
satisfaction 29
convicted 29
secular 29
berlin 29
johnny 29
soap 29
caps 29
craig 29
pour 29
gran@@ 29
gains 29
upside 29
dev@@ 29
oli@@ 29
apps 29
depic@@ 29
propaganda 29
physicians 29
lied 29
celebrity 29
3,@@ 29
vitamin 29
octopus 29
was@@ 29
broccoli 29
ums 29
enhan@@ 29
mom@@ 29
wishes 29
disgust 29
2011 29
ckers 29
spacecraft 29
pipeline 29
electri@@ 29
dete@@ 29
hop@@ 29
rockets 29
tagged 29
wells 29
som@@ 29
desperate 29
ric 29
decent 29
chemotherapy 29
shoots 29
intriguing 29
yemen 29
digging 29
entry 29
budgets 29
readers 29
prop@@ 29
squid 29
shipping 29
gross 29
dom@@ 29
laughter 29
bol@@ 29
implement 29
pharmaceutical 29
pencil 29
findings 29
sierra 29
spec@@ 29
trivial 29
adjust 29
stimulation 29
minority 29
wrapped 29
heal 29
dian 29
borrow 29
credi@@ 29
mind-@@ 29
jun@@ 29
occupy 29
beg@@ 29
fai@@ 29
bull@@ 29
disap@@ 29
max 29
practicing 29
disappears 29
eigh@@ 29
egyptian 29
int 29
perspectives 29
tricky 29
chile 29
prin@@ 29
ena 29
bath 29
enormously 29
bio-@@ 29
tanks 29
woods 29
spray 29
agents 28
defend 28
sco@@ 28
authenticity 28
mentor 28
nonsense 28
catholic 28
firms 28
rises 28
tion-@@ 28
eats 28
boundary 28
thi@@ 28
mag@@ 28
after@@ 28
recycled 28
label 28
copying 28
vations 28
sage 28
ities 28
pollu@@ 28
crashes 28
protocell 28
vibra@@ 28
flesh 28
cousin 28
350 28
decision-making 28
ome 28
disciplines 28
dden 28
vac@@ 28
politically 28
paths 28
easiest 28
acc@@ 28
laden 28
17th 28
buttons 28
vegetable 28
thermal 28
dity 28
compound 28
addiction 28
planned 28
fungi 28
incre@@ 28
bandwidth 28
basking 28
gasoline 28
port 28
perpet@@ 28
maintenance 28
tated 28
exotic 28
loses 28
dishes 28
renewables 28
sna@@ 28
jane 28
year@@ 28
gh 28
pack@@ 28
calculated 28
mand@@ 28
firing 28
sequencing 28
seals 28
mia 28
iconic 28
ada@@ 28
democra@@ 28
pro-@@ 28
pan 28
penet@@ 28
columns 28
chin 28
whistle 28
oriented 28
emplo@@ 28
cont@@ 28
or-@@ 28
assumed 28
bble 28
pick@@ 28
wk 28
predator 28
sahara 28
risky 28
marathon 28
climbed 28
treasure 28
noisy 28
roo@@ 28
ops 28
accum@@ 28
acids 28
junk 28
sexually 28
embarrassed 28
immense 28
pathetic 28
mutations 28
injuries 28
low-cost 28
ve-@@ 28
intimate 28
programmed 28
pc 28
lebanon 28
reporter 28
cream 28
vent@@ 28
honored 28
tized 28
ular 28
audi@@ 28
trapped 28
shat@@ 28
netherlands 28
gradu@@ 28
dat@@ 28
pleased 28
pray 28
ceremony 28
tz 28
dire@@ 28
i.@@ 28
whit@@ 28
premise 28
lay@@ 28
powerpoint 28
cel@@ 28
ares 28
mosquitos 28
diamonds 28
congestion 28
arti@@ 28
fulness 28
lips 28
rei@@ 28
artifacts 28
bribe 28
timing 28
motivate 28
pathways 28
path@@ 28
secondary 28
ce-@@ 28
1994 28
debris 28
trading 28
advo@@ 28
abundant 28
fit@@ 28
ght-@@ 28
crop 28
worm 28
tuesday 28
equals 28
collision 28
clusters 28
tains 28
cating 28
accuracy 28
pulse 28
refugee 28
tted 28
reasoning 28
deri@@ 28
roofs 28
strations 28
pays 28
spatial 28
ao 28
left-hand 28
contained 28
tedly 28
horizontal 28
islam@@ 28
well-known 28
gecko 28
tuned 28
visiting 28
asset 28
criteria 28
chapters 28
blah 28
gest@@ 28
palestinian 28
abstra@@ 28
riding 28
brands 28
poems 28
ultraviolet 28
pros@@ 28
behold 27
accompanied 27
shops 27
18th 27
messy 27
acres 27
uh 27
establish 27
boun@@ 27
spra@@ 27
fantasy 27
sensing 27
counter-@@ 27
rehear@@ 27
yard 27
hyper-@@ 27
traces 27
instruction 27
of-@@ 27
nau@@ 27
kelly 27
counted 27
operated 27
sketch 27
reader 27
randomly 27
festival 27
deck 27
vary 27
prince 27
magnet 27
awkward 27
interviewer 27
equity 27
leopard 27
slower 27
tick@@ 27
lighter 27
materi@@ 27
albert 27
indicate 27
yers 27
12,000 27
consensus 27
adds 27
gle 27
frustration 27
att@@ 27
pipe 27
mp 27
columbia 27
trips 27
touches 27
stomach 27
tasmanian 27
convincing 27
fat@@ 27
common@@ 27
assuming 27
foster 27
patch 27
ards 27
simulate 27
chimpanzee 27
stare 27
licen@@ 27
zero-@@ 27
alexander 27
fores@@ 27
authoritarian 27
escal@@ 27
ly@@ 27
royal 27
dial 27
gles 27
donors 27
exponentially 27
generates 27
vor@@ 27
slice 27
sends 27
sarah 27
degra@@ 27
select 27
laughed 27
finger@@ 27
é 27
fever 27
cruel 27
melting 27
47 27
mammal 27
130 27
arise 27
shepherd 27
blew 27
inventions 27
chromosomes 27
emp@@ 27
lum@@ 27
turing 27
jum@@ 27
un-@@ 27
nam@@ 27
metals 27
cular 27
presidential 27
tun@@ 27
stic@@ 27
nonetheless 27
candidates 27
translator 27
crap 27
frontier 27
offen@@ 27
republicans 27
clean@@ 27
candy 27
consuming 27
machinery 27
infinity 27
refriger@@ 27
talented 27
frequencies 27
canadian 27
farther 27
archive 27
seven-@@ 27
e. 27
symbolic 27
investigation 27
seawater 27
door@@ 27
who@@ 27
acceler@@ 27
attach 27
glacier 27
stry 27
livestock 27
staircase 27
coloni@@ 27
profitable 27
mother@@ 27
humanitarian 27
comments 27
exploded 27
kat@@ 27
terrified 27
accumulate 27
kit 27
lego 27
richest 27
lasting 27
dic@@ 27
considering 27
differenti@@ 27
phoenix 27
shield 27
night@@ 27
metabolism 27
hydr@@ 27
spell 27
famously 27
prototypes 27
chemist 27
planted 27
ash@@ 27
ge-@@ 27
ama 27
ethics 27
mies 27
adaptation 27
fda 27
1900 27
steam 27
marked 27
c-@@ 27
vocabulary 27
squared 27
han 27
committee 27
observing 27
doses 27
angles 27
hood 27
bombsight 27
comple@@ 27
indicates 27
balanced 27
vari@@ 27
ire 27
negotiate 27
ven 27
manner 27
symmetrical 27
composed 27
spheres 27
ima@@ 27
jan@@ 26
involve 26
defeat 26
implemented 26
wiring 26
hop 26
cool@@ 26
spontaneous 26
daddy 26
millennia 26
quad@@ 26
fabri@@ 26
fruits 26
ordered 26
mon 26
brazilian 26
titles 26
culturally 26
corners 26
gestures 26
preventing 26
tas@@ 26
empowering 26
ishing 26
representing 26
appreciation 26
dome 26
nutrition 26
irrational 26
crea@@ 26
1980 26
prevalence 26
grabbed 26
recognizing 26
formal 26
pit 26
staring 26
analyzed 26
stein 26
loaded 26
transit 26
convenient 26
infectious 26
disney 26
verb 26
terrorist 26
kindergarten 26
lamp 26
constraints 26
wheel@@ 26
tales 26
solo 26
deny 26
ama@@ 26
kidding 26
bag@@ 26
monsoon 26
perceptions 26
friendship 26
powder 26
shaking 26
bother 26
atlanta 26
hmm 26
veness 26
texture 26
loc@@ 26
kilometer 26
cardboard 26
aim@@ 26
affe@@ 26
sticking 26
dvd 26
critic 26
heroic 26
generosity 26
sang 26
facili@@ 26
nitrogen 26
1997 26
dr 26
favor@@ 26
1930s 26
aston@@ 26
von 26
embar@@ 26
chronic 26
juvenile 26
stopping 26
loo@@ 26
anatomy 26
pond 26
format 26
hh 26
biop@@ 26
monster 26
onia 26
omed 26
bee@@ 26
nights 26
tating 26
fifty 26
aters 26
lectures 26
nodes 26
calculating 26
enter@@ 26
ples 26
analy@@ 26
assure 26
rop@@ 26
4.@@ 26
cage 26
tali@@ 26
primate 26
43 26
editor 26
ressing 26
cratic 26
mach@@ 26
ulated 26
deficit 26
checked 26
chains 26
ball@@ 26
primates 26
31 26
wr@@ 26
psychiatric 26
jewelry 26
exceptions 26
34 26
96 26
alike 26
tel 26
kling 26
manufacture 26
camels 26
diplomat 26
brave 26
confront 26
dic 26
ever-@@ 26
slope 26
friction 26
stam@@ 26
unity 26
prescription 26
responded 26
master@@ 26
milky 26
guards 26
tooth 26
float 26
1,500 26
broadcast 26
lately 26
mammography 26
rage 26
disturbing 26
bust 26
colorful 26
ego 26
optimi@@ 26
mm 26
aluminum 26
alice 26
apartments 26
artwork 26
critically 26
saudi 26
praying 26
sms 26
checking 26
modest 26
filmmaker 26
hospit@@ 26
rap@@ 26
earth@@ 26
catastrophic 26
mmed 26
commit@@ 26
berkeley 26
calcium 26
hard@@ 26
resem@@ 26
roll@@ 26
elizabeth 26
mesh 26
stock@@ 26
under-@@ 26
schizophrenia 26
matches 26
clips 26
mapped 26
insu@@ 26
beaten 26
7,000 26
piles 26
uniform 26
2030 26
b-@@ 26
vering 26
needles 26
orized 26
buddhist 26
rum@@ 26
anderson 26
alarm 26
coca-cola 26
tight 25
delight 25
r. 25
sudan 25
refugees 25
holi@@ 25
wri@@ 25
headline 25
awe 25
operates 25
resilient 25
alphabet 25
arable 25
tattoo 25
regrets 25
bran@@ 25
diamond 25
leap@@ 25
ly-@@ 25
zers 25
tates 25
mouths 25
lap 25
snake 25
rituals 25
refuse 25
nt 25
50-@@ 25
finan@@ 25
mimi@@ 25
snakes 25
ast@@ 25
liberty 25
jer@@ 25
seasons 25
parkinson 25
free-@@ 25
households 25
beha@@ 25
ac 25
meta@@ 25
38 25
eternal 25
tibet 25
sands 25
commodities 25
freezing 25
gallon 25
kicked 25
compounds 25
age-@@ 25
kosovo 25
relativity 25
graduates 25
cian 25
bent 25
sus@@ 25
participating 25
supports 25
nity 25
banjo 25
secu@@ 25
forgive 25
parenting 25
reporting 25
mixture 25
regulations 25
coo@@ 25
countless 25
dreamed 25
pigeon 25
tide 25
julian 25
couch 25
fishermen 25
surviving 25
thful 25
resist 25
resses 25
97 25
finishing 25
carl 25
frogs 25
beetles 25
persuade 25
alright 25
jug@@ 25
correlation 25
occupied 25
climbers 25
sheer 25
wins 25
wolfram 25
spike 25
ane@@ 25
sne@@ 25
kennedy 25
statistical 25
microscopic 25
peculiar 25
democrats 25
tious 25
assembly 25
emphasize 25
invi@@ 25
breakdown 25
wonderfully 25
ebay 25
ban 25
conclu@@ 25
simul@@ 25
obe@@ 25
managing 25
tooth@@ 25
logi@@ 25
exhibit 25
projected 25
enterprise 25
fix@@ 25
non-zero-sum 25
hackers 25
novelty 25
caves 25
stamp 25
teszler 25
wra@@ 25
acknowledge 25
denti@@ 25
offspring 25
owners 25
chron@@ 25
nike 25
belt 25
minerals 25
specialists 25
evaluate 25
coastal 25
stake 25
jews 25
cambodia 25
injured 25
hai@@ 25
surround 25
pets 25
cigarette 25
immuni@@ 25
rolls 25
enters 25
apes 25
pittsburgh 25
ancestor 25
deserves 25
pir@@ 25
francis 25
motor@@ 25
textbook 25
illumin@@ 25
carto@@ 25
ette 25
specialized 25
ele@@ 25
norm 25
arch@@ 25
termin@@ 25
jonathan 25
managers 25
tangible 25
scheme 25
documentary 25
rick 25
happily 25
far-@@ 25
tedsters 25
eff@@ 25
goat 25
cro 25
spaghetti 25
web@@ 25
dys@@ 25
cooling 25
overnight 25
woo@@ 25
checklist 25
impaired 25
targeted 25
divergence 25
spiral 25
bluefin 25
ress 25
oes 25
regenerate 25
tat@@ 25
ame 25
150,000 25
commons 25
innovate 25
road@@ 25
lei@@ 25
crude 25
dru@@ 25
louis 25
redu@@ 25
explanations 25
dancer 25
clapping 25
toss 25
filmed 25
chickens 25
consent 25
exam 25
fault 25
forcing 25
pper 25
disk 25
analyzing 25
pump@@ 25
recall 25
cousins 25
du 25
stunning 25
xy 25
2.0 25
screening 25
dp 25
convention 25
nucleus 25
confined 25
mirrors 25
rejected 25
dering 25
wasted 25
disappointed 25
receiving 25
eth@@ 25
desperately 25
tesla 25
asteroids 25
42 25
gently 25
dum@@ 25
peer 25
characteristic 25
ere@@ 25
disabilities 25
lo 24
reads 24
joining 24
humility 24
popul@@ 24
refused 24
supportive 24
actu@@ 24
radar 24
24@@ 24
condom 24
300,000 24
carbon-@@ 24
entrepreneurship 24
juggling 24
rows 24
feminist 24
infant 24
galleries 24
tomato 24
liberals 24
conservatives 24
oming 24
ami 24
baseline 24
hugely 24
greeks 24
ultra-@@ 24
lower@@ 24
intend 24
virtue 24
ern@@ 24
earned 24
portugal 24
denmark 24
equilibrium 24
cocktail 24
regi@@ 24
brad 24
trusted 24
neutr@@ 24
gru@@ 24
promising 24
million-@@ 24
spectro@@ 24
gens 24
stan@@ 24
are@@ 24
monday 24
combat 24
symbio@@ 24
nicely 24
kid@@ 24
imagining 24
ann 24
sebastian 24
practically 24
journalism 24
isolation 24
microphone 24
tribal 24
markers 24
washed 24
elevator 24
antibodies 24
gigantic 24
interrupted 24
wives 24
bc 24
filters 24
1.5 24
40@@ 24
render 24
barrels 24
nurturing 24
condi@@ 24
64 24
jac@@ 24
declining 24
cared 24
aver@@ 24
whis@@ 24
strikes 24
hut 24
diagnostic 24
th-century 24
ue 24
impressed 24
expanded 24
jumps 24
hacking 24
affairs 24
accountable 24
infinitely 24
tem@@ 24
systematic 24
watson 24
expectation 24
cracks 24
carnegie 24
shelves 24
prece@@ 24
losses 24
guidance 24
sticky 24
michigan 24
bery 24
unstable 24
tary 24
secre@@ 24
snow@@ 24
ank@@ 24
distribute 24
rains 24
happiest 24
than@@ 24
butter@@ 24
charter 24
custom@@ 24
semi-@@ 24
ga 24
acknowled@@ 24
agile 24
grove 24
protest 24
accounting 24
ambition 24
kins 24
delivering 24
applies 24
sj 24
cost-@@ 24
grow@@ 24
confronted 24
ston 24
statistically 24
belie@@ 24
thousand@@ 24
environmentally 24
marvelous 24
moment@@ 24
dark@@ 24
hacker 24
uniquely 24
ethanol 24
fixing 24
reproduction 24
buses 24
promises 24
paralysis 24
descen@@ 24
funeral 24
barry 24
collaborator 24
scripts 24
guinea 24
alling 24
pier@@ 24
gled 24
sputnik 24
grocery 24
discussions 24
babbage 24
refined 24
segment 24
ption 24
ala 24
upright 24
frames 24
kidna@@ 24
repeatedly 24
answering 24
ctively 24
astronomy 24
orph@@ 24
deep-@@ 24
knock 24
sul@@ 24
deforestation 24
portable 24
compar@@ 24
awa@@ 24
400,000 24
rowing 24
republican 24
gen 24
namibia 24
breed 24
salary 24
circular 24
navi@@ 24
brooklyn 24
ession 24
substit@@ 24
adh@@ 24
clarity 24
delay 24
insi@@ 24
cellphone 24
declared 24
,@@ 24
guitar 24
emotionally 24
photographers 24
guard 24
dare 24
tz@@ 24
margin@@ 24
frustrating 24
justify 24
temporal 24
purchase 24
surfing 24
prescri@@ 24
valu@@ 24
auth@@ 24
embodied 24
cop 24
crab 24
ich 24
tters 24
inger 24
strand 24
commission 24
rosling 24
stealing 24
beneficial 24
rou@@ 24
250,000 24
jefferson 24
mir@@ 24
acre 24
dave 24
cholera 24
obsolete 24
hman 24
moreover 24
oo@@ 24
pation 24
decre@@ 24
volcano 24
cybercriminals 24
processed 24
marker 24
reser@@ 24
ech@@ 24
astronomers 24
rod 24
hybrid 24
sedu@@ 24
nut 24
helmet 24
poll 24
ames 23
museums 23
obstacle 23
attempts 23
clues 23
skep@@ 23
saturday 23
deliber@@ 23
serves 23
replacing 23
unded 23
hus@@ 23
mama 23
controversy 23
apollo 23
bow@@ 23
labels 23
biases 23
fisheries 23
arrest 23
gla@@ 23
stine 23
sooner 23
noble 23
chess 23
intrinsic 23
geography 23
matt 23
cataly@@ 23
grou@@ 23
strangely 23
posters 23
auditorium 23
slip 23
therapies 23
peri@@ 23
variables 23
episode 23
likewise 23
tips 23
goodness 23
demon@@ 23
progr@@ 23
calendar 23
thered 23
developmental 23
successes 23
allies 23
min 23
rail@@ 23
threatening 23
brilli@@ 23
rd 23
surveys 23
alties 23
exagger@@ 23
improvis@@ 23
hoo@@ 23
petro@@ 23
typing 23
ow@@ 23
1991 23
beds 23
bonus 23
atro@@ 23
bangalore 23
wished 23
anxious 23
itable 23
thinkers 23
ethic 23
encountered 23
pathway 23
arose 23
sadness 23
incidentally 23
cooperate 23
draws 23
bea@@ 23
bathroom 23
pollutants 23
ols 23
15,000 23
mar 23
imperative 23
relatives 23
pumps 23
1995 23
researching 23
supreme 23
addressing 23
scientifically 23
christians 23
democracies 23
banned 23
hurricane 23
slept 23
ea@@ 23
agrees 23
ski@@ 23
mexican 23
contradiction 23
bi 23
var@@ 23
zoo 23
progression 23
regularly 23
politician 23
ruins 23
absorb 23
caribbean 23
glorious 23
achieving 23
bono 23
survivors 23
knees 23
bloody 23
cafe 23
headquarters 23
command@@ 23
colli@@ 23
kibera 23
skilled 23
ishes 23
aled 23
fi 23
obsession 23
mage 23
rachel 23
post-conflict 23
planting 23
eit 23
2012 23
oven 23
intentions 23
constru@@ 23
dable 23
vacation 23
anniversary 23
crystal 23
struc@@ 23
part@@ 23
lobby 23
spa@@ 23
conceptual 23
plankton 23
52 23
summarize 23
basement 23
theirs 23
towers 23
andy 23
blocked 23
sells 23
red@@ 23
heights 23
qualified 23
book@@ 23
keith 23
fg 23
dylan 23
coma 23
specu@@ 23
indigenous 23
125 23
alternatives 23
rainforests 23
logy 23
nine-@@ 23
unified 23
pregnancy 23
hammer 23
hawking 23
instinct 23
eradication 23
twist 23
describing 23
log 23
jumping 23
basket 23
recognizes 23
adaptive 23
acou@@ 23
stan 23
commissioned 23
princeton 23
conducting 23
self-assembly 23
second-@@ 23
surplus 23
flat@@ 23
projections 23
celebration 23
influences 23
mild 23
elbow 23
rain@@ 23
morph@@ 23
galapagos 23
logging 23
blogging 23
submit 23
barriers 23
interventions 23
gover@@ 23
sensitivity 23
viewed 23
icons 23
gon@@ 23
precision 23
dia 23
talents 23
sucks 23
purch@@ 23
candle 23
paper@@ 23
contamin@@ 23
sufficient 23
wonders 23
marke@@ 23
soccer 23
1984 23
origin@@ 23
chimps 23
haw@@ 23
enabling 23
coun@@ 23
sb 23
bikes 23
kis@@ 23
roles 23
patience 23
altered 23
promoting 23
reviewed 23
accepting 23
relie@@ 23
angel@@ 23
bureau@@ 23
full-time 23
ker@@ 23
norms 23
bj 23
oops 23
greenland 23
cture 23
personalities 23
tax@@ 23
sett@@ 23
ter-@@ 23
survi@@ 23
nathan 23
cardiac 23
potatoes 23
acceptance 23
assembled 23
statue 23
preten@@ 23
levi@@ 23
inform 23
minded 23
unic@@ 23
ero@@ 23
wet 23
solar-@@ 23
dered 23
fru@@ 23
rover 23
squeeze 23
lonely 23
eighth 23
replacement 23
orgasm 23
el-@@ 23
enlightenment 23
non-lethal 23
ype 23
rewar@@ 23
appeal 23
pol@@ 23
bless 23
airline 23
civili@@ 23
philip 23
genuine 23
weekend 23
whe@@ 23
manipulation 23
plac@@ 23
yl@@ 23
astronomical 22
guilt 22
jerry 22
pristine 22
pat 22
elegan@@ 22
topo@@ 22
consideration 22
din 22
larvae 22
goats 22
mix@@ 22
settle 22
naive 22
veterans 22
ticul@@ 22
tural 22
examine 22
hal 22
heck 22
gat@@ 22
mega@@ 22
ya@@ 22
fairness 22
arrange 22
spades 22
compatible 22
lever@@ 22
archi@@ 22
employed 22
sue 22
disruptive 22
nap@@ 22
investigate 22
hatred 22
emerges 22
argued 22
lane 22
delta 22
owe 22
egyptians 22
76 22
mustard 22
brand@@ 22
laundry 22
atheist 22
sterile 22
involving 22
tenth 22
sten@@ 22
bruce 22
continually 22
awake 22
irs 22
lers 22
alaska 22
access@@ 22
edinburgh 22
grounds 22
ex-@@ 22
polari@@ 22
rier 22
settled 22
utility 22
jar 22
valve 22
stret@@ 22
low-income 22
cabinet 22
mos@@ 22
nutri@@ 22
handful 22
physi@@ 22
intricate 22
blessed 22
suspended 22
diagnose 22
renaissance 22
expose 22
alert 22
exercis@@ 22
individually 22
divorce 22
pearl 22
drama 22
encing 22
regulation 22
dom 22
market@@ 22
problematic 22
child@@ 22
mysteries 22
lasts 22
apparatus 22
voyage 22
queens 22
misery 22
geese 22
spite 22
coll@@ 22
displays 22
relax 22
painter 22
ands 22
mac 22
shower 22
mythology 22
modeling 22
hated 22
pair@@ 22
eing 22
minor 22
fuzzy 22
fox 22
implanted 22
prob@@ 22
enhance 22
generic 22
server 22
sweat 22
voluntary 22
censorship 22
preserved 22
tren@@ 22
com 22
herd 22
predi@@ 22
yo 22
flights 22
competi@@ 22
tch@@ 22
wee@@ 22
sighted 22
subsi@@ 22
sno@@ 22
independently 22
tia 22
puzz@@ 22
ninth 22
accurately 22
poets 22
hair@@ 22
rna 22
quantities 22
individu@@ 22
toronto 22
stered 22
jackson 22
votes 22
maintaining 22
peti@@ 22
iter@@ 22
myths 22
ised 22
attacking 22
towel 22
forum 22
synesthesia 22
plot@@ 22
rendered 22
aches 22
deciding 22
1-@@ 22
morally 22
ideological 22
fog 22
cosmos 22
pennsylvania 22
fragments 22
fted 22
yle 22
linking 22
lage 22
illusions 22
penalty 22
foam 22
distribu@@ 22
ella 22
heavens 22
impulse 22
humble 22
sensible 22
neocortex 22
ger-@@ 22
yor@@ 22
singer 22
traditionally 22
rowed 22
probable 22
revi@@ 22
desertification 22
glu@@ 22
bou@@ 22
collider 22
distingu@@ 22
afterward 22
valid 22
scream 22
staggering 22
doub@@ 22
modified 22
bioluminescence 22
lethal 22
hence 22
tech@@ 22
apologize 22
louder 22
aria 22
edit 22
waited 22
collaborators 22
partnerships 22
fails 22
ind 22
simpli@@ 22
walker 22
glory 22
leone 22
ideology 22
govern 22
parked 22
palestine 22
globalized 22
hotels 22
optimal 22
accomplish 22
gold@@ 22
founding 22
tization 22
aded 22
coincidence 22
ligh@@ 22
dreaming 22
acle 22
fulfilling 22
delicate 22
acute 22
lama 22
ushahidi 22
disappearing 22
spine 22
tightly 22
returns 22
learns 22
radius 22
intervene 22
resurre@@ 22
circulation 22
victory 22
redefine 22
parasite 22
envelope 22
genic 22
bosnia 22
suitcase 22
consists 22
24-@@ 22
1970 22
magazines 22
upward 22
chunk 22
unemployment 22
augu@@ 22
stres@@ 22
notation 22
ints 22
buddha 22
grass@@ 22
pleas@@ 22
deploy 22
responsibilities 22
j. 22
fertility 22
thumb 22
league 22
susan 22
meets 22
fers 22
rides 22
aggregate 22
writes 22
liberia 22
cess 22
ration@@ 22
assistance 22
distinguish 22
syria 22
hung 22
basketball 22
gon 22
pher@@ 22
derived 22
invasive 22
checks 22
wilson 22
ambiguity 22
reforms 22
corrupt 22
innovators 22
relates 22
prisons 22
grey 22
mou@@ 22
destructive 22
breath@@ 22
ference 22
volcanic 22
stimulate 22
satisfied 22
lows 22
balloons 22
phy@@ 22
ath@@ 22
plug@@ 22
ani 22
appliances 21
asing 21
gaining 21
rendering 21
grief 21
hooked 21
1.2 21
stressed 21
conve@@ 21
activate 21
laure@@ 21
crum@@ 21
christ 21
cracked 21
dee@@ 21
summar@@ 21
terri@@ 21
inherent 21
comprehensive 21
whistling 21
1989 21
abandon 21
cnn 21
reinvent 21
dug 21
singers 21
representative 21
schooling 21
tagging 21
tt 21
conscience 21
encoura@@ 21
numerous 21
employment 21
jaw 21
holiday 21
gravitational 21
unt 21
bananas 21
anytime 21
caltech 21
specialist 21
prototyping 21
adolescence 21
hel@@ 21
punch 21
subsidi@@ 21
defi@@ 21
kiribati 21
ghtest 21
vibrating 21
atheists 21
devo@@ 21
battle@@ 21
starvation 21
cum@@ 21
jokes 21
constitution 21
legitimate 21
jordan 21
stru@@ 21
elaborate 21
transported 21
turn@@ 21
concep@@ 21
arrow 21
chop 21
packaging 21
repe@@ 21
documenting 21
graham 21
bamboo 21
darwinian 21
energi@@ 21
deple@@ 21
stranger 21
rescued 21
arly 21
converted 21
eller 21
you@@ 21
sensi@@ 21
modul@@ 21
lor@@ 21
norman 21
commerce 21
purely 21
inventing 21
responding 21
voters 21
ivan 21
inherently 21
ram 21
vents 21
screaming 21
crowds 21
cide 21
alongside 21
sovereig@@ 21
dest@@ 21
imm@@ 21
hypo@@ 21
scape 21
respected 21
breakthroughs 21
lining 21
slight 21
detected 21
humankind 21
alter 21
thereby 21
matching 21
erectus 21
australian 21
titanic 21
gle@@ 21
boom@@ 21
ipod 21
attraction 21
extending 21
tamiflu 21
nectar 21
god@@ 21
nails 21
edited 21
hopeless 21
burns 21
daylight 21
applause 21
reduces 21
libraries 21
digits 21
accoun@@ 21
unleas@@ 21
mediate 21
mutual 21
bankers 21
arena 21
tage 21
reasonably 21
colum@@ 21
fatal 21
mad@@ 21
darfur 21
warren 21
summary 21
jar@@ 21
blade 21
kal@@ 21
courageous 21
benign 21
aspi@@ 21
asleep 21
equator 21
folk 21
recovered 21
container 21
willingness 21
ckets 21
bounce 21
fibonacci 21
aqu@@ 21
cochlear 21
wol@@ 21
curi@@ 21
evo@@ 21
peripher@@ 21
dodo 21
stell@@ 21
browser 21
vivid 21
hint 21
deter@@ 21
tracked 21
policing 21
genomics 21
humili@@ 21
bending 21
parameters 21
fing 21
ashamed 21
northwest 21
harvesting 21
high-speed 21
vs 21
starbucks 21
slum 21
entities 21
watt 21
elders 21
appropriately 21
2015 21
fea@@ 21
bes@@ 21
collaborate 21
gosh 21
limbs 21
biologically 21
immer@@ 21
bullet 21
inci@@ 21
doug 21
slowed 21
questioning 21
gardens 21
worries 21
squee@@ 21
our@@ 21
close@@ 21
mck@@ 21
head-tail-@@ 21
ica 21
demanding 21
reson@@ 21
tivity 21
archy 21
vir@@ 21
crowd@@ 21
petition 21
strengths 21
outbreak 21
realities 21
loans 21
lagos 21
eng@@ 21
abroad 21
armstrong 21
cathedral 21
deca@@ 21
jo 21
nightmare 21
screw 21
lean 21
phot@@ 21
tremendously 21
mola 21
900 21
pedal 21
optimize 21
orphanage 21
zipcar 21
spli@@ 21
statements 21
casting 21
quietly 21
deser@@ 21
pressed 21
manu@@ 21
drunk 21
fetus 21
contin@@ 21
invitation 21
nation-@@ 21
3-@@ 21
worthwhile 21
imagin@@ 21
sustained 21
remix 21
stunt 21
flourish 21
entrance 21
requ@@ 21
savan@@ 21
involvement 21
real-@@ 21
conditioning 21
que@@ 21
peaks 21
mat 21
creators 21
jam 21
disconnected 21
bot 21
sanitation 21
neil 21
variability 21
visceral 21
regimes 21
comparable 21
bench 21
question@@ 21
cheap@@ 21
quanti@@ 21
romance 21
bonds 21
improvise 21
bump 21
scotland 21
real-time 21
honey@@ 21
hoped 21
lever 21
net@@ 21
grapher 21
ji@@ 21
q 21
joy@@ 21
ctu@@ 21
dalai 21
viable 21
principal 21
textile 21
agnes 21
shipped 21
commer@@ 21
one-on-one 21
standpoint 21
infrared 21
pressures 21
analog 21
officers 21
sprin@@ 21
continuity 21
colo@@ 21
velocity 21
kings 21
devoted 21
sel 21
penis 21
intra@@ 21
reed 21
canyon 21
py 21
potato 21
nurture 21
cket 21
ounce 21
default 21
depressing 21
divine 21
serendi@@ 20
screens 20
longest 20
retreat 20
tty 20
streng@@ 20
sounded 20
annoying 20
athletes 20
rel 20
album 20
diana 20
day-to-day 20
accor@@ 20
axes 20
ro 20
patho@@ 20
modes 20
khan 20
duty 20
unintended 20
cooper 20
cky 20
gun@@ 20
saves 20
launching 20
wounded 20
band@@ 20
spends 20
ease 20
measurable 20
tennis 20
gement 20
moma 20
malnutrition 20
sequenced 20
spills 20
esti@@ 20
stadium 20
scaled 20
retired 20
sin 20
slave 20
mov@@ 20
lakota 20
neuroscientist 20
augmented 20
enthusiasm 20
cot@@ 20
bumps 20
rem@@ 20
evan 20
grassroots 20
constrained 20
laugh@@ 20
imple@@ 20
curved 20
tastes 20
zy 20
chin@@ 20
two-dimensional 20
neys 20
regenerative 20
oney 20
exquisite 20
trunk 20
doodling 20
wandering 20
entrepreneurial 20
riots 20
inje@@ 20
poorer 20
jungle 20
moms 20
standardi@@ 20
injustice 20
indire@@ 20
iranians 20
philadelphia 20
house@@ 20
forbid 20
urban@@ 20
frequent 20
86 20
delighted 20
wre@@ 20
dictionaries 20
near-@@ 20
search@@ 20
steer 20
beside 20
contagious 20
rooted 20
trap 20
cheet@@ 20
automobiles 20
-based 20
trailer 20
ough 20
holder 20
worship 20
dow 20
resonance 20
risd 20
lean@@ 20
spouse 20
gras@@ 20
reactors 20
governor 20
1.3 20
linux 20
ais@@ 20
warrior 20
beans 20
fall@@ 20
steady 20
cling 20
literal 20
informal 20
revolutionary 20
jacket 20
reflects 20
concer@@ 20
hall@@ 20
yves 20
agu@@ 20
needing 20
fighters 20
composer 20
selective 20
atri@@ 20
rated 20
historian 20
nail 20
cerebral 20
dop@@ 20
cubic 20
configuration 20
expres@@ 20
indu@@ 20
toxins 20
suff@@ 20
aggre@@ 20
demographics 20
hotter 20
physiology 20
torial 20
listed 20
200-@@ 20
scare 20
governmental 20
spect 20
gar 20
predicting 20
assistant 20
envy 20
excess 20
biotechnology 20
animate 20
pops 20
imposed 20
accommo@@ 20
ji 20
sony 20
decides 20
heated 20
ians 20
skeptical 20
us-@@ 20
murray 20
memorial 20
v. 20
wood@@ 20
11th 20
fertili@@ 20
confron@@ 20
expor@@ 20
ables 20
slogan 20
light-@@ 20
referred 20
jan 20
avian 20
calculator 20
province 20
burg 20
distorted 20
registered 20
speeds 20
pinn@@ 20
assi@@ 20
throws 20
contest 20
hitler 20
alb@@ 20
veil 20
racing 20
approval 20
bare 20
anda 20
integrity 20
biased 20
dissemin@@ 20
ement 20
lled 20
harmful 20
jamie 20
combining 20
update 20
oecd 20
agre@@ 20
ur 20
add@@ 20
underestimate 20
jason 20
wei@@ 20
leds 20
hamburger 20
box@@ 20
gil@@ 20
knocked 20
triangles 20
panbanisha 20
computer-@@ 20
pioneer 20
confir@@ 20
roman@@ 20
maldives 20
weekly 20
tress 20
regional 20
sity 20
trait 20
cassini 20
admit@@ 20
luci@@ 20
dick 20
irrigation 20
expense 20
olly 20
dunes 20
recycle 20
fitting 20
scat@@ 20
cles 20
collar 20
tch 20
eman@@ 20
centimeter 20
acoustic 20
ort 20
police@@ 20
directed 20
ideo 20
swing 20
attachment 20
dening 20
explorers 20
donations 20
inner@@ 20
cursor 20
kur@@ 20
40s 20
tick 20
stunts 20
pharma@@ 20
massachusetts 20
improvisation 20
corrid@@ 20
yale 20
vin@@ 20
swedish 20
statistic 20
vor 20
appreciated 20
certified 20
convenience 20
psych@@ 20
cartoonist 20
publicly 20
glucose 20
1945 20
routine 20
gentle 20
trin@@ 20
glow 20
kansas 20
artic@@ 20
barefoot 20
tad@@ 20
mediterranean 20
pervasive 20
temper@@ 20
theft 20
valued 20
cooked 20
simon 20
resolved 20
rup@@ 20
coherent 20
metropolitan 20
res 20
15th 20
soft@@ 20
beloved 20
migration 20
cookie 20
hung@@ 20
epidemi@@ 20
metabolic 20
accelerated 20
avoi@@ 20
-in-law 20
ambiguous 20
der-@@ 20
contents 20
conception 20
testosterone 20
pursuing 20
enceladus 20
exit 20
chaotic 20
grim 20
ab 20
mastery 20
rigid 20
simulated 20
correlated 20
placing 20
self-organizing 20
young@@ 20
agnostic 20
compla@@ 20
luther 20
signing 20
randomness 20
onists 20
f-@@ 20
grounded 20
depths 20
guardian 20
avenue 20
tickets 19
rotating 19
lightning 19
incomplete 19
correspond 19
holocaust 19
lyn@@ 19
intellectu@@ 19
atmospheric 19
taiwan 19
basics 19
contacts 19
cros@@ 19
pentagon 19
cyber 19
paradise 19
focuses 19
thirds 19
potter 19
cab@@ 19
prizes 19
ush 19
billion-@@ 19
adop@@ 19
harness 19
ark 19
multinational 19
traumatic 19
manages 19
blan@@ 19
unpredictable 19
icy 19
parall@@ 19
industri@@ 19
hippo@@ 19
arab@@ 19
bour@@ 19
satisfying 19
manufacturers 19
habit@@ 19
producer 19
dead@@ 19
sth@@ 19
accent 19
lings 19
angels 19
tourist 19
tweet 19
ctivity 19
uc@@ 19
owns 19
2.5 19
rehabilitation 19
bmw 19
raises 19
mber@@ 19
remembering 19
instincts 19
glaciers 19
acidi@@ 19
carcino@@ 19
subsequ@@ 19
dumped 19
procedures 19
imp@@ 19
fossils 19
rec@@ 19
practiced 19
sync 19
unlock 19
dos 19
spontaneously 19
intern@@ 19
menu 19
infra@@ 19
compen@@ 19
epy 19
limestone 19
membrane 19
hl@@ 19
eled 19
argentina 19
venezuela 19
doubling 19
recipro@@ 19
twins 19
williams 19
gifts 19
packing 19
graphically 19
gratitude 19
fool 19
decei@@ 19
10th 19
7,@@ 19
ara@@ 19
defines 19
cis@@ 19
sent@@ 19
know@@ 19
sole 19
ung@@ 19
strains 19
share@@ 19
nick@@ 19
tu 19
autistic 19
attributes 19
nuclei 19
nas@@ 19
sessions 19
quo 19
carved 19
transmit@@ 19
kyoto 19
inefficient 19
dwar@@ 19
fellows 19
operational 19
beats 19
desires 19
12-@@ 19
charcoal 19
exce@@ 19
treas@@ 19
arithmetic 19
accompli@@ 19
editors 19
stries 19
spee@@ 19
dwell 19
ri 19
compu@@ 19
shrink 19
dallas 19
thic 19
certainty 19
graphical 19
wages 19
austri@@ 19
employ 19
attra@@ 19
iceberg 19
leak 19
oliver 19
georgia 19
ong 19
centered 19
4,@@ 19
settlement 19
state-of-the-art 19
hallucin@@ 19
identities 19
intersection 19
surroundings 19
anticipate 19
hive 19
disciplinary 19
beethoven 19
ppers 19
evolves 19
neu@@ 19
underway 19
operator 19
bottom-up 19
poland 19
macro@@ 19
thirdly 19
slices 19
t-shirt 19
quir@@ 19
addressed 19
enced 19
180 19
admire 19
discussing 19
negoti@@ 19
encryp@@ 19
jur@@ 19
varieties 19
less@@ 19
coperni@@ 19
del 19
steering 19
relevance 19
gaze 19
investigating 19
detroit 19
linguistic 19
stand@@ 19
magnets 19
ky@@ 19
ital 19
nano-@@ 19
pic 19
officials 19
ologically 19
entity 19
manuscript 19
stimulus 19
constit@@ 19
bali 19
associ@@ 19
hero@@ 19
flexibility 19
interfaces 19
rap 19
ous@@ 19
uk 19
opposition 19
crowded 19
trum@@ 19
reinventing 19
kable 19
revolution@@ 19
nairobi 19
coined 19
sat@@ 19
boost 19
archae@@ 19
hadron 19
profession@@ 19
ues 19
rhin@@ 19
chers 19
figu@@ 19
blur@@ 19
sailing 19
favelas 19
acade@@ 19
carrot 19
norway 19
degraded 19
drift 19
eradicated 19
ox@@ 19
mister 19
cator 19
utter 19
empath@@ 19
programmer 19
forehead 19
attend 19
publication 19
kl@@ 19
mammogram 19
bites 19
falcon 19
lenses 19
angular 19
ironically 19
searches 19
environment@@ 19
million@@ 19
aire 19
butt 19
ety 19
foun@@ 19
lakes 19
hob@@ 19
tails 19
acquisition 19
employee 19
tattoos 19
fills 19
playground 19
tude 19
bited 19
cha 19
inclusive 19
amateurs 19
slu@@ 19
redesign 19
gene@@ 19
lobe 19
ingenuity 19
organi@@ 19
kim 19
backed 19
acceleration 19
pedestri@@ 19
audac@@ 19
dimin@@ 19
medications 19
galileo 19
flags 19
dog@@ 19
drilling 19
helpless 19
dividing 19
detectors 19
dings 19
essions 19
complaining 19
altogether 19
deserts 19
troubled 19
reagan 19
replicating 19
brick 19
has@@ 19
bus@@ 19
respectful 19
hug 19
offshore 19
caregi@@ 19
sten 19
developers 19
rat@@ 19
transistor 19
rightly 19
venter 19
closure 19
suburban 19
cane 19
mista@@ 19
plying 19
scarce 19
respiratory 19
strictly 19
nanotechnology 19
adju@@ 19
stumbled 19
cali@@ 19
beaches 19
ignorance 19
aquatic 19
cris@@ 19
coordinate 19
contemp@@ 19
siblings 19
58 19
symboli@@ 19
orbiting 19
immensely 19
inher@@ 19
sound@@ 19
bucket 19
scanned 19
correspon@@ 19
complain 19
stigma 19
priest 19
um-@@ 19
mming 19
finite 19
marin@@ 19
sri 19
cists 19
ate@@ 19
.com. 19
substantial 19
hetero@@ 19
for-@@ 19
tuberculosis 19
oll@@ 19
worldview 19
orientation 19
watches 19
degradation 19
permanently 19
shadows 19
choreo@@ 19
amino 19
oceano@@ 19
let@@ 19
theor@@ 19
scand@@ 19
oxy@@ 19
.org 19
stering 19
psychopath 19
rainfall 19
differ 19
drinks 19
synapses 19
83 19
ni 19
qaeda 19
das 19
erotic 19
ef@@ 19
bath@@ 19
execution 19
custom 19
existential 18
kilo@@ 18
montana 18
dune 18
wasting 18
ras@@ 18
indoors 18
pts 18
displaced 18
tops 18
dissi@@ 18
ious 18
strict 18
lasted 18
git@@ 18
injection 18
subur@@ 18
kes@@ 18
bump@@ 18
fulfill 18
arizona 18
ier 18
keepers 18
77 18
ste 18
natalie 18
mini 18
inte@@ 18
compass 18
extensive 18
sars 18
,000-@@ 18
inexpensive 18
flock 18
terminal 18
ium 18
balcon@@ 18
mosque 18
squat@@ 18
combinations 18
pel 18
sustaining 18
lau@@ 18
sup@@ 18
crushed 18
contribu@@ 18
announ@@ 18
entertaining 18
russians 18
distinctive 18
ander 18
ini 18
doc 18
indoor 18
mons 18
nee@@ 18
evi@@ 18
sperm 18
defending 18
recon@@ 18
hect@@ 18
relax@@ 18
developments 18
roy 18
manipulated 18
nepal 18
partial 18
biomimicry 18
elu@@ 18
twen@@ 18
melody 18
dependen@@ 18
attribu@@ 18
cosm@@ 18
bell@@ 18
slate 18
vy 18
midst 18
camp@@ 18
visu@@ 18
zations 18
circuitry 18
method@@ 18
ctly 18
transmitted 18
sign@@ 18
obtained 18
honesty 18
furthermore 18
seafood 18
rsw 18
bank@@ 18
gan 18
rab@@ 18
visitors 18
remin@@ 18
nicole 18
nings 18
verge 18
ata 18
boyfriend 18
empowerment 18
generator 18
jill 18
ila 18
translates 18
shallow 18
regulate 18
monum@@ 18
christopher 18
submersible 18
i.q. 18
ception 18
sect 18
firmly 18
aug@@ 18
140 18
convergence 18
inmates 18
unacceptable 18
penetrate 18
turtles 18
ung 18
witn@@ 18
eliminated 18
450 18
vis 18
affir@@ 18
wrest@@ 18
acceptable 18
peac@@ 18
multiverse 18
oting 18
ara 18
interven@@ 18
pools 18
aerial 18
appealing 18
orn 18
pancreatic 18
camer@@ 18
1986 18
grabs 18
inhal@@ 18
gordon 18
races 18
countryside 18
dam 18
anic 18
advocate 18
scru@@ 18
footprints 18
dude 18
mantis 18
lized 18
policy@@ 18
explode 18
big@@ 18
roger 18
d-up 18
80,000 18
sation 18
puppet 18
excellence 18
crow@@ 18
victori@@ 18
implication 18
banker 18
charts 18
bibli@@ 18
isi@@ 18
dump 18
bl 18
smiles 18
brus@@ 18
lapse 18
compos@@ 18
ening 18
issued 18
band-@@ 18
margaret 18
scholars 18
midnight 18
fort 18
barbar@@ 18
implants 18
airports 18
accidentally 18
donation 18
smartest 18
intentional 18
weir@@ 18
criticism 18
taller 18
yorker 18
directors 18
katrina 18
blue@@ 18
unemployed 18
darpa 18
tian 18
zimbabwe 18
tunas 18
bud@@ 18
twin@@ 18
clou@@ 18
improves 18
great-@@ 18
tedx 18
old-@@ 18
nonviolent 18
wal-mart 18
rail 18
commentary 18
equipped 18
suspen@@ 18
right-@@ 18
sque@@ 18
plo@@ 18
baker 18
kel@@ 18
good-@@ 18
third-@@ 18
cion 18
asto@@ 18
beginnings 18
stag@@ 18
controller 18
northeast 18
earth-@@ 18
mmer 18
tot@@ 18
x-rays 18
consu@@ 18
briga@@ 18
dj 18
register 18
toll 18
eradicate 18
algebra 18
locking 18
apparent 18
jon 18
cess@@ 18
edu@@ 18
portra@@ 18
jeans 18
struggled 18
mortal 18
competitors 18
lifes@@ 18
40-@@ 18
onics 18
enzyme 18
lab@@ 18
hex@@ 18
accused 18
bury 18
cand@@ 18
stin@@ 18
echo@@ 18
idiot 18
thou@@ 18
kilos 18
appeti@@ 18
intel 18
murdered 18
interviewing 18
interro@@ 18
instances 18
phthalates 18
crank 18
amateur 18
ry@@ 18
arteries 18
peanuts 18
remotely 18
mite 18
atrazine 18
stretched 18
freeze 18
transcendence 18
vali@@ 18
export 18
personnel 18
insecure 18
onic 18
billboard 18
varied 18
donated 18
industrialized 18
i-@@ 18
evident 18
reflective 18
heel 18
hs 18
migrate 18
prioritize 18
hunters 18
germs 18
chie@@ 18
disgusting 18
rex 18
treaty 18
1968 18
mold 18
transcen@@ 18
ffed 18
elessly 18
endeavor 18
produ@@ 18
scop@@ 18
nerd 18
lamb 18
ag 18
1996 18
pig@@ 18
clar@@ 18
bladder 18
barack 18
block@@ 18
pilots 18
mentary 18
numb 18
jeal@@ 18
walkable 18
mites 18
reject 18
iq 18
anom@@ 18
hypothetical 18
explorer 18
limitation 18
connecticut 18
tape@@ 18
subtra@@ 18
asis 18
editing 18
scrat@@ 18
minimal 18
00@@ 18
routinely 18
notions 18
een 18
anten@@ 18
famili@@ 18
hy 18
charging 18
ola 18
veget@@ 18
tortured 18
peel 18
dele@@ 18
cils 18
oppon@@ 18
tality 18
p. 18
bulg@@ 18
iner@@ 18
recru@@ 18
dn@@ 18
ground@@ 18
middle-class 18
pressing 18
addicted 18
fame 18
mustache 18
take-@@ 18
bos@@ 18
endless 18
log@@ 18
ironic 18
chalk 18
dispen@@ 18
te-@@ 18
saint 18
julia 18
main@@ 18
reminder 18
translating 18
demos 18
anne 18
arabia 18
extremes 18
cairo 18
world-@@ 18
jam@@ 18
brow@@ 18
grandmothers 18
centigrade 18
verte@@ 18
graders 18
carbonate 18
refu@@ 18
blast 18
pads 18
artifi@@ 18
abu 18
fon@@ 18
59 18
compose 18
acu@@ 18
mum 18
irri@@ 18
empiri@@ 18
disper@@ 18
news@@ 18
vented 18
superior 18
releases 18
intrinsically 18
conclusions 18
hurts 18
prou@@ 18
bands 17
not-@@ 17
eries 17
flash@@ 17
floods 17
ticism 17
regar@@ 17
ddled 17
civilian 17
belts 17
sums 17
lifelong 17
dg 17
cooler 17
divers 17
imaginary 17
flap 17
residential 17
introducing 17
inviting 17
aks 17
fies 17
bioluminescent 17
novels 17
illa 17
fum@@ 17
couples 17
winners 17
coins 17
literary 17
110 17
restricted 17
eco-@@ 17
fulfilled 17
hour@@ 17
jennifer 17
excuses 17
articulate 17
aspirations 17
brutal 17
formu@@ 17
grapes 17
references 17
labor@@ 17
eps 17
suspicious 17
lightweight 17
costa 17
integrating 17
node 17
et-@@ 17
highways 17
crawling 17
imbalance 17
invaded 17
dangers 17
whist@@ 17
cephal@@ 17
consi@@ 17
ivory 17
manifestation 17
legiti@@ 17
hairs 17
lithium 17
94 17
anticipated 17
dged 17
pus 17
ancy 17
galois 17
developer 17
way@@ 17
dragged 17
finland 17
ingu@@ 17
mills 17
fairy 17
southeast 17
rot@@ 17
motorcycle 17
wipe 17
hig@@ 17
tapped 17
skip 17
humane 17
fights 17
mentors 17
circul@@ 17
oxide 17
impor@@ 17
discussed 17
extrover@@ 17
curator 17
pakistani 17
blows 17
ar-@@ 17
kenyan 17
57 17
paradox@@ 17
dious 17
technician 17
southwest 17
pepsi 17
pathogens 17
triggers 17
presidents 17
ema@@ 17
duration 17
dol@@ 17
laying 17
bom@@ 17
appe@@ 17
ust 17
transistors 17
educators 17
creation@@ 17
good@@ 17
skies 17
gram@@ 17
turkish 17
decentralized 17
lump 17
oral 17
manipul@@ 17
mr 17
scopy 17
recept@@ 17
short-term 17
fin 17
crabs 17
essi@@ 17
payment 17
ambassador 17
e.u. 17
exhi@@ 17
negotiation 17
educating 17
sculp@@ 17
ony@@ 17
strips 17
dence 17
versa 17
valent@@ 17
fluctuations 17
tter@@ 17
beck 17
ie@@ 17
academics 17
drip 17
libr@@ 17
unite 17
bulk 17
gian 17
rus 17
cues 17
len 17
mechan@@ 17
depri@@ 17
exhausted 17
ression 17
mundane 17
brea@@ 17
structured 17
ipad 17
sketches 17
swap 17
spin@@ 17
1993 17
fundraising 17
mari@@ 17
orleans 17
gies 17
junior 17
nm 17
revelation 17
explicit 17
gour@@ 17
reje@@ 17
mathematically 17
mble 17
paleont@@ 17
consider@@ 17
bili@@ 17
archie 17
hes@@ 17
opo@@ 17
alliance 17
sympathy 17
stocks 17
conc@@ 17
biom@@ 17
sic 17
euros 17
cameron 17
crater 17
ruled 17
ett 17
metrics 17
vibrant 17
cent@@ 17
tahrir 17
roman 17
senator 17
mark@@ 17
antiangiogenic 17
bronze 17
impac@@ 17
buys 17
expands 17
fans 17
retail 17
widespread 17
olive 17
gifted 17
followers 17
returning 17
meantime 17
triple 17
drowning 17
sweat@@ 17
lays 17
floors 17
kindly 17
synthesize 17
chewing 17
gists 17
cleaned 17
tell@@ 17
twenty 17
orable 17
ddler 17
chat 17
reacting 17
intri@@ 17
suring 17
supermassive 17
iraq@@ 17
colom@@ 17
embassy 17
experimenting 17
thrust 17
mics 17
ny@@ 17
ctoral 17
rouge 17
1,100 17
perpetu@@ 17
oce@@ 17
displayed 17
amanda 17
gling 17
mozart 17
sig@@ 17
halls 17
flood 17
marines 17
emily 17
consistently 17
isaac 17
dil@@ 17
absorbed 17
goliath 17
campaigns 17
25@@ 17
acumen 17
claws 17
trust@@ 17
lear@@ 17
menting 17
moses 17
15-@@ 17
automatic 17
rg 17
uring 17
rabbits 17
rot 17
crashed 17
pathology 17
engths 17
anony@@ 17
50@@ 17
alter@@ 17
incremental 17
ffer 17
1918 17
shouting 17
quiz 17
ore@@ 17
pa 17
laboratories 17
pli@@ 17
explosions 17
champion 17
rabbit 17
bak@@ 17
precipit@@ 17
dor 17
recei@@ 17
negotiating 17
throat 17
70,000 17
telephones 17
gyrus 17
recipes 17
serotonin 17
rebuilding 17
focal 17
tizing 17
live@@ 17
gating 17
vegas 17
surge 17
subjective 17
sponsor 17
providers 17
fiscal 17
rhythms 17
triggered 17
mash 17
antenna 17
shaping 17
slowing 17
refin@@ 17
judges 17
simplistic 17
highl@@ 17
clin@@ 17
wning 17
sweeping 17
allen 17
interference 17
submer@@ 17
ignor@@ 17
thankfully 17
venus 17
indication 17
sidewalk 17
blocking 17
deta@@ 17
erup@@ 17
usable 17
inhabited 17
mani@@ 17
explores 17
formul@@ 17
blueprint 17
ough@@ 17
plat@@ 17
inno@@ 17
preventable 17
space-time 17
loops 17
feminine 17
stepping 17
manifest 17
foxo 17
himalayas 17
amsterdam 17
desc@@ 17
oscar 17
emitted 17
boson 17
publisher 17
specimens 17
neurological 17
pirate 17
poured 17
holistic 17
embraced 17
shuff@@ 17
appearing 17
enrich@@ 17
halt 17
53 17
malig@@ 17
adverti@@ 17
submitted 17
mamm@@ 17
oth 17
tos@@ 17
mono@@ 17
currents 17
hunter 17
lative 17
placebo 17
benef@@ 17
movember 17
nollywood 17
thur@@ 17
fe 17
30@@ 17
attempted 17
croch@@ 17
ane 17
punish 17
shout 17
glas@@ 17
stabilize 17
flas@@ 17
periodic 17
styles 17
gangs 17
1975 17
gn@@ 17
poorly 17
mill 17
cleaner 17
blink 17
progressive 17
persons 17
arbitrary 17
metaphors 17
cosmology 17
vector 17
shells 17
reco@@ 17
cross@@ 17
crow 17
processors 17
yel@@ 17
beard 17
basin 17
liers 17
kam@@ 17
contradi@@ 17
observer 17
coinci@@ 17
faint 17
skeletons 17
lement 17
rectangle 17
captcha 17
aby@@ 17
sydney 17
trek 17
prescribe 17
arrows 17
settings 17
dou@@ 17
thou 17
vors 17
underwear 17
fishes 17
similarities 17
executive 17
occupation 17
mahmoud 17
id@@ 17
freak 17
confusing 17
animations 17
som 17
atu@@ 17
diver 17
palace 17
m.@@ 17
dove 17
thick@@ 17
eager 17
paro@@ 17
una 17
madness 17
keen 17
touch@@ 17
consumer@@ 17
pesticides 17
obli@@ 17
ren 17
yr 17
ison 17
jury 17
cds 17
outrageous 17
pill@@ 17
superhero 17
unsustainable 16
south@@ 16
rebel 16
feasi@@ 16
athlete 16
stical 16
tropics 16
suffici@@ 16
bach 16
contributions 16
reg@@ 16
emit@@ 16
boil 16
ight 16
5.@@ 16
def@@ 16
harn@@ 16
hundred-@@ 16
bloggers 16
ingenious 16
biography 16
foreground 16
optics 16
timber 16
poke 16
noises 16
nur@@ 16
explicitly 16
ached 16
low@@ 16
az@@ 16
check@@ 16
contaminated 16
rus@@ 16
2,500 16
psychotic 16
usage 16
transcend 16
handy 16
bal 16
incorporate 16
kilograms 16
pine 16
tempest 16
ggles 16
recipi@@ 16
dances 16
93 16
startling 16
protective 16
hul@@ 16
vietnamese 16
enlightened 16
lover 16
80@@ 16
ceos 16
cative 16
surprises 16
neanderthal 16
replied 16
homo@@ 16
hable 16
hack 16
diagno@@ 16
blobs 16
erase 16
quantity 16
d.@@ 16
uter@@ 16
arrangement 16
construc@@ 16
slaves 16
thread 16
reviews 16
embarras@@ 16
tain@@ 16
dining 16
conceived 16
impres@@ 16
automotive 16
obligation 16
suburbs 16
suggestions 16
illiterate 16
reconcile 16
joel 16
typed 16
thouse 16
sex@@ 16
enthusiastic 16
sanitary 16
bleeding 16
animated 16
slime 16
classified 16
ath 16
solves 16
ho 16
overwhel@@ 16
nests 16
ampu@@ 16
outsi@@ 16
reconciliation 16
44 16
cist 16
migraine 16
lhc 16
tarian 16
maneu@@ 16
remembers 16
fluidi@@ 16
tigers 16
call@@ 16
stop@@ 16
innov@@ 16
shal@@ 16
bumble@@ 16
maximize 16
bertie 16
containing 16
sop@@ 16
mermaid 16
dictator 16
evapo@@ 16
embryo 16
conceive 16
incubator 16
auditory 16
0 16
commonly 16
juven@@ 16
rip 16
49 16
-free 16
inity 16
reverber@@ 16
archimedes 16
lure 16
arkansas 16
whistles 16
marcus 16
pragmatic 16
bind 16
semin@@ 16
volts 16
out-of-@@ 16
chariot 16
sors 16
flickr 16
swear 16
liberation 16
profiles 16
1957 16
aus 16
mm@@ 16
vague 16
arch 16
experimentation 16
treadmill 16
illnesses 16
swarm 16
evolution@@ 16
microwave 16
haul 16
fragmented 16
floo@@ 16
surrounds 16
elder 16
short-@@ 16
intimi@@ 16
denomin@@ 16
stence 16
fier@@ 16
forgiveness 16
hypotheses 16
28@@ 16
ballet 16
cruise 16
missile 16
dawkins 16
milit@@ 16
eva 16
reluct@@ 16
eye-@@ 16
strator 16
mac@@ 16
spre@@ 16
downstairs 16
fried 16
taboo 16
bloo@@ 16
kni@@ 16
inflation 16
rented 16
quantitative 16
proves 16
plato 16
inhabit@@ 16
vised 16
ancestry 16
europa 16
nicholas 16
dentist 16
anthropologist 16
myth@@ 16
newly 16
bb@@ 16
costly 16
c.@@ 16
of-the-@@ 16
cals 16
spiritu@@ 16
ania 16
genuinely 16
vocal 16
delivers 16
marshall 16
startu@@ 16
exclusive 16
deva@@ 16
chord 16
rar@@ 16
will@@ 16
diego 16
marijuana 16
communal 16
drought 16
exceptional 16
khmer 16
aka 16
1982 16
hyun-sook 16
bonobo 16
boy@@ 16
extracted 16
oper@@ 16
nano 16
ere 16
moo@@ 16
bbc 16
hab@@ 16
dig@@ 16
injected 16
spr@@ 16
advantages 16
left-@@ 16
anno@@ 16
dealt 16
syll@@ 16
pr 16
enjo@@ 16
dela@@ 16
gallons 16
bund@@ 16
intellect 16
grape 16
inadequate 16
nanotu@@ 16
pulses 16
fluids 16
prefer@@ 16
prospect 16
colorado 16
kepler 16
urgent 16
timeline 16
1976 16
sopa 16
langley 16
fitness 16
locks 16
practition@@ 16
some@@ 16
charis@@ 16
rand 16
doha 16
digitize 16
earning 16
professions 16
preservation 16
birth@@ 16
denied 16
physiological 16
retain 16
subscri@@ 16
istic 16
isol@@ 16
wallet 16
viewers 16
efficiently 16
fine-@@ 16
boots 16
geometric 16
commandments 16
posts 16
germ 16
modi@@ 16
square-@@ 16
vinci 16
aesthetics 16
lastly 16
superstar 16
erness 16
tedglobal 16
needless 16
shoreline 16
protocells 16
gadgets 16
meadow 16
indul@@ 16
decisi@@ 16
analytical 16
warfare 16
digitally 16
nish 16
eins 16
parap@@ 16
stabili@@ 16
discre@@ 16
abused 16
chor@@ 16
ware 16
tennessee 16
one-third 16
sulfide 16
adventures 16
cumulative 16
sab@@ 16
six-year-old 16
ape 16
epo@@ 16
sym@@ 16
eyed 16
opped 16
advertise@@ 16
aspiration 16
sword 16
superconductor 16
sacrifi@@ 16
experimenter 16
elites 16
philippe 16
monopoly 16
ee@@ 16
evol@@ 16
gehry 16
skir@@ 16
intangible 16
av 16
wned 16
grasses 16
drank 16
fifteen 16
booms 16
ay@@ 16
1983 16
12th 16
legendary 16
uph@@ 16
counterintuitive 16
wrong@@ 16
ades 16
anders 16
commercials 16
undergraduate 16
emission 16
nazi 16
gamma 16
eliminating 16
founders 16
clicks 16
lessness 16
catalog 16
prone 16
assau@@ 16
ti 16
adily 16
centimeters 16
mented 16
got@@ 16
reconstruct 16
circum@@ 16
embo@@ 16
evapor@@ 16
navigation 16
commands 16
photographing 16
posture 16
visuals 16
grace@@ 16
taxi 16
percei@@ 16
pushes 16
hazard 16
mortgage 16
imitation 16
instinctively 16
competent 16
suite 16
jersey 16
turbul@@ 16
pies 16
ch-@@ 16
glori@@ 16
stit@@ 16
hyperbolic 16
zu@@ 16
certificate 16
moun@@ 16
fry 16
antidote 16
respects 16
headaches 16
claimed 16
hir@@ 16
dder 16
awards 16
ino@@ 16
evalu@@ 16
inspe@@ 16
fast-forward 16
files 16
nment 16
sealed 16
convi@@ 16
defini@@ 16
e.@@ 16
skype 16
enduring 16
poe@@ 16
seven@@ 16
breasts 16
propulsion 16
scarcity 16
56 16
trauma 16
alia 16
sman 16
switches 16
grip 16
maternal 16
characteri@@ 16
maj@@ 16
fitted 16
ss@@ 16
insist 16
spac@@ 16
leo 16
billion@@ 16
bonobos 16
deprivation 16
conqu@@ 16
walmart 16
unaware 16
ponds 16
titude 16
graffiti 16
passionately 16
alo@@ 16
unvei@@ 16
restra@@ 16
surve@@ 16
miracul@@ 16
87 16
prayers 16
enzymes 16
positively 16
diagrams 16
giants 16
pix@@ 16
ozone 16
cran@@ 16
mas 16
use@@ 16
delete 16
guided 16
kite 16
temptation 16
catastrophe 16
refers 16
wax 16
teens 16
distress 16
devastated 16
anth@@ 16
emaker 16
romo 16
railroad 16
contracts 16
kas@@ 16
casual 16
ologies 16
cd 16
entitled 16
officially 16
pepper 16
popped 16
fertilizer 16
transpor@@ 16
capacities 16
fol@@ 16
mineral 16
presumably 16
phen@@ 16
loy@@ 16
three-year-old 16
medieval 16
bakery 15
still@@ 15
tectonic 15
rift 15
melan@@ 15
scaffolding 15
tte 15
gical 15
robo@@ 15
tless 15
mmers 15
monk 15
mutant 15
interfere 15
boot 15
scuba 15
altruism 15
tofu 15
glob@@ 15
sages 15
trusting 15
hiv-positive 15
resonate 15
cers 15
sever@@ 15
fungus 15
scot@@ 15
philanthro@@ 15
trick@@ 15
turtle 15
sevent@@ 15
hoods 15
quick@@ 15
mentality 15
hebrew 15
tha 15
maggots 15
puberty 15
persist 15
crocodile 15
top-@@ 15
attribute 15
ills 15
manure 15
lyri@@ 15
ngo 15
encies 15
elle 15
schizophren@@ 15
dental 15
navy 15
mitted 15
jonas 15
introverts 15
whisper@@ 15
somalia 15
visualizing 15
genesis 15
bern@@ 15
nie@@ 15
warriors 15
non 15
bitten 15
subje@@ 15
protects 15
listen@@ 15
fif@@ 15
veling 15
clap 15
declined 15
spaceship 15
cello 15
imf 15
conflicting 15
upli@@ 15
responsive 15
smartphone 15
bearing 15
intrigued 15
5,@@ 15
stimulated 15
justi@@ 15
paraly@@ 15
strokes 15
pneumonia 15
haz@@ 15
kles 15
vaginas 15
unimaginable 15
legally 15
meaningless 15
tim@@ 15
his@@ 15
juan 15
bomb@@ 15
inde@@ 15
mile@@ 15
onset 15
marshmallow 15
rator 15
ises 15
retire 15
impose 15
nian 15
persistent 15
side@@ 15
prolifer@@ 15
impress 15
jud@@ 15
scissors 15
proving 15
metast@@ 15
rear 15
tribute 15
inent 15
testimony 15
placement 15
ranges 15
asive 15
ikea 15
scholarship 15
knives 15
eleanor 15
magni@@ 15
hears 15
compact 15
acious 15
manufacturer 15
hertz 15
impulses 15
switching 15
refrigerator 15
mighty 15
ili@@ 15
prevents 15
thylacine 15
symptom 15
per-@@ 15
roughness 15
satisfy 15
si 15
intuitions 15
art@@ 15
maneuver@@ 15
macy 15
rider 15
sensu@@ 15
thylacines 15
replicator 15
tes@@ 15
compressed 15
estrogen 15
bottlen@@ 15
asser@@ 15
rati@@ 15
collections 15
siberia 15
fundament@@ 15
aking 15
yemen@@ 15
vascular 15
dron 15
spir@@ 15
relaxed 15
6.@@ 15
regarded 15
weighed 15
sali@@ 15
xes 15
habitats 15
capsule 15
sought 15
atheism 15
seriousness 15
maintained 15
absurd 15
jet@@ 15
argues 15
preferences 15
shortage 15
suffers 15
requirements 15
peer-to-peer 15
projecting 15
fron@@ 15
barbara 15
metaboli@@ 15
perceptual 15
ringing 15
boiling 15
notebook 15
centralized 15
weed 15
take@@ 15
balancing 15
inherited 15
scenarios 15
ins@@ 15
skinn@@ 15
puri@@ 15
sexuality 15
artery 15
blend 15
fashi@@ 15
tunisia 15
oiled 15
paint@@ 15
supposedly 15
aunt 15
hou@@ 15
comet 15
intergalactic 15
carb@@ 15
disparate 15
autonom@@ 15
cuba 15
photographic 15
ruin 15
adolescents 15
arized 15
paragra@@ 15
governed 15
nove@@ 15
severely 15
hers 15
situ@@ 15
performances 15
sponsored 15
prostit@@ 15
beekeepers 15
swar@@ 15
denser 15
sad@@ 15
promot@@ 15
popping 15
memorable 15
epiphany 15
boarding 15
violin 15
semi@@ 15
cultiv@@ 15
trilli@@ 15
monthly 15
rene@@ 15
vision@@ 15
blind@@ 15
alled 15
bread@@ 15
rupees 15
imperi@@ 15
installations 15
prejudice 15
automated 15
urbanization 15
dried 15
titled 15
adap@@ 15
pipa 15
hness 15
a. 15
pins 15
jas@@ 15
questioned 15
kets 15
ota 15
ecolo@@ 15
anthropologists 15
sunny 15
alfred 15
self-esteem 15
tehran 15
energetic 15
sideways 15
gary 15
knit 15
sket@@ 15
pigmentation 15
stole 15
cigarettes 15
monolo@@ 15
oon 15
harsh 15
blessing 15
cators 15
ential 15
pronoun@@ 15
fingertips 15
clip@@ 15
pianist 15
rest@@ 15
mity 15
swam 15
abalone 15
raging 15
radioactive 15
izing 15
foremost 15
polite 15
mimics 15
transferred 15
filmmakers 15
notori@@ 15
danish 15
b.c. 15
side-by-side 15
integra@@ 15
negotiations 15
booth 15
med@@ 15
penny 15
provi@@ 15
zip 15
ener@@ 15
cele@@ 15
eviden@@ 15
complained 15
jaws 15
plaque 15
celebrating 15
incarcer@@ 15
burial 15
il-@@ 15
dominance 15
flown 15
crashing 15
irrelevant 15
curr@@ 15
there@@ 15
flipping 15
congratu@@ 15
cereal 15
193@@ 15
74 15
enjoyable 15
shade 15
bhutan 15
springs 15
sta 15
anatom@@ 15
decep@@ 15
inventors 15
lich@@ 15
omet@@ 15
fic 15
threaten 15
interfer@@ 15
man-made 15
outdoor 15
appointment 15
dreadful 15
chad 15
greece 15
asy 15
longing 15
kle 15
scalable 15
ington 15
class@@ 15
databases 15
tourism 15
noticing 15
nancy 15
ape@@ 15
claim@@ 15
salmon 15
illustrates 15
contexts 15
hid 15
yan 15
bookstore 15
aly 15
cochrane 15
participat@@ 15
performers 15
uploaded 15
orbital 15
amphi@@ 15
europeans 15
emes 15
guar@@ 15
ddy 15
twel@@ 15
tipping 15
kick@@ 15
quali@@ 15
dent@@ 15
vet 15
grading 15
kir@@ 15
massively 15
margin 15
ruined 15
astronauts 15
bricks 15
pain@@ 15
world-class 15
concus@@ 15
christi@@ 15
sank 15
cides 15
adjacent 15
aviation 15
type@@ 15
99.@@ 15
gando 15
ubuntu 15
dle 15
urgency 15
banana 15
fishery 15
warmth 15
fatty 15
warn 15
societal 15
anim@@ 15
inser@@ 15
clone 15
fibro@@ 15
rank 15
expeditions 15
gateway 15
cognition 15
anes@@ 15
assigned 15
liqui@@ 15
districts 15
negle@@ 15
rant 15
eden 15
arranged 15
clinically 15
compet@@ 15
borrowing 15
assessment 15
oregon 15
easter 15
ont@@ 15
cos@@ 15
vals 15
moon@@ 15
196@@ 15
cried 15
incorpor@@ 15
middle-aged 15
toughest 15
lobes 15
commun@@ 15
anthropology 15
belonging 15
encounters 15
eyebro@@ 15
secretly 15
lot@@ 15
psychiatrist 15
seller 15
ministers 15
resulted 15
multi-touch 15
elevated 15
awar@@ 15
replication 15
boar@@ 15
criticized 15
anecdot@@ 15
mocking@@ 15
fooled 15
avoiding 15
inconvenient 15
it-@@ 15
crus@@ 15
technicians 15
soluble 15
ily 15
soils 15
scaffold 15
kay 15
ened 15
collabor@@ 15
schedule 15
esi@@ 15
copy@@ 15
retin@@ 15
triumph 15
extracting 15
progressively 15
lie@@ 15
mounted 15
rigorous 15
tougher 15
edward 15
ladder 15
cinema 15
susceptible 15
ang 15
follo@@ 15
daf-2 15
financially 15
stirling 15
illustration 15
availability 15
1985 15
month-@@ 15
occu@@ 15
inject 15
induced 15
centri@@ 15
cultivate 15
pillars 15
transplants 15
opaque 15
tempor@@ 15
sulfur 15
well@@ 15
guidelines 15
convul@@ 15
repertoire 15
gb 15
miracles 15
flooding 15
anna 15
skyscra@@ 15
concent@@ 15
table@@ 15
lousy 15
insul@@ 15
geological 15
polls 15
cates 15
ghten@@ 15
capitalist 15
walter 15
atives 15
hurry 15
yan@@ 15
proje@@ 15
thes@@ 15
demonstrates 14
stereotypes 14
adjusted 14
waterfall 14
hummingbird 14
vien@@ 14
facade 14
recruit 14
joints 14
thriving 14
hiroshima 14
diary 14
festivals 14
nursing 14
ed-@@ 14
revealing 14
rabbi 14
kate 14
traded 14
rediscover 14
oped 14
populated 14
dazz@@ 14
tutoring 14
p.m. 14
weal@@ 14
unra@@ 14
lux@@ 14
moti@@ 14
contemplating 14
pop-up 14
dispar@@ 14
seas@@ 14
snu@@ 14
scen@@ 14
internation@@ 14
kamen 14
tiniest 14
nour@@ 14
freud 14
crafted 14
legos 14
gharial 14
destined 14
snap 14
marriages 14
desal@@ 14
cymatics 14
test@@ 14
mik@@ 14
colonization 14
gi 14
spoo@@ 14
payments 14
arc 14
orchestras 14
differential 14
greg 14
tras@@ 14
exu@@ 14
vibrations 14
steep@@ 14
oused 14
80-@@ 14
reptiles 14
emphasis 14
confuse 14
ope 14
drone 14
speeding 14
salad 14
hudson 14
gloves 14
divor@@ 14
what@@ 14
wavelength 14
zin@@ 14
fab@@ 14
anima@@ 14
wetlands 14
prevalent 14
bihar 14
mi 14
clash 14
filing 14
reply 14
infect 14
extremism 14
escaped 14
polymer 14
fade 14
1987 14
inhabit 14
measurement 14
1992 14
recruited 14
collide 14
announcement 14
itali@@ 14
forestry 14
glowing 14
62 14
cryp@@ 14
merge 14
lingu@@ 14
lexico@@ 14
asion 14
valves 14
scroll 14
collector 14
swee@@ 14
ateral 14
gal 14
fresh@@ 14
captures 14
dispersed 14
meanings 14
adolescent 14
lah 14
membran@@ 14
connectedness 14
py@@ 14
wu@@ 14
technolog@@ 14
scholar 14
queue 14
delu@@ 14
uranium 14
presentations 14
unrelated 14
coup 14
vola@@ 14
ug@@ 14
geeks 14
penicillin 14
reposit@@ 14
commander 14
bart 14
user-@@ 14
friend@@ 14
locomo@@ 14
miami 14
diff@@ 14
kened 14
lling 14
lexicon 14
84 14
supercomputer 14
nutritional 14
wander 14
roommate 14
behaving 14
appreci@@ 14
incentivi@@ 14
juxta@@ 14
flute 14
recur@@ 14
fertilizers 14
bursts 14
ury 14
round@@ 14
jams 14
tasted 14
requests 14
stewardship 14
cradle 14
empires 14
dm@@ 14
sugars 14
palms 14
criticize 14
sediment 14
snails 14
concei@@ 14
sha 14
cookies 14
rhetoric 14
oneself 14
bp 14
effectiveness 14
flush 14
hosti@@ 14
roosevelt 14
superman 14
kr@@ 14
fahrenheit 14
communist 14
regulated 14
pavilion 14
expo 14
grandma 14
top-down 14
crat 14
receiver 14
thest 14
atured 14
wels 14
air-@@ 14
burger 14
insurgency 14
50th 14
desired 14
prospe@@ 14
dio@@ 14
pigmented 14
broadcasting 14
token 14
hands-on 14
ranging 14
assembling 14
battles 14
concerts 14
titudes 14
solly 14
prefrontal 14
performs 14
releasing 14
therapist 14
promp@@ 14
ideals 14
dictator@@ 14
crates 14
loser 14
submarine 14
tedster 14
scottish 14
vest@@ 14
thu@@ 14
expressing 14
ria 14
atori@@ 14
crises 14
immersion 14
ank 14
und 14
line@@ 14
invasion 14
determination 14
molas 14
racism 14
of@@ 14
regain 14
disconnect 14
emergent 14
geek 14
uns 14
world@@ 14
m. 14
dai 14
ju 14
phe@@ 14
canary 14
conne@@ 14
modify 14
celebr@@ 14
guts 14
cabin 14
infants 14
weibo 14
fractal 14
hamlet 14
jacqueline 14
lib@@ 14
ousness 14
traw@@ 14
vermeer 14
hybri@@ 14
kil@@ 14
sally 14
zambia 14
crafts@@ 14
extern@@ 14
sail 14
combin@@ 14
diffusion 14
dividend 14
odd@@ 14
paints 14
coordin@@ 14
sham@@ 14
specialization 14
etary 14
simulator 14
nes@@ 14
1949 14
geri@@ 14
abnormal 14
antarctic 14
back-@@ 14
benki 14
cler@@ 14
bombers 14
accidental 14
mass-@@ 14
vc 14
robin 14
teapot 14
ribb@@ 14
mechanically 14
alian 14
excerpt 14
arousal 14
accumulation 14
announce 14
doctrine 14
freedoms 14
ling@@ 14
samuel 14
enas 14
skiing 14
avatar 14
obscure 14
uv 14
immigrants 14
fluctu@@ 14
las 14
algorith@@ 14
lowing 14
doo 14
attempting 14
karen 14
sean 14
sweet@@ 14
aky 14
diet@@ 14
heels 14
irrever@@ 14
determin@@ 14
multitasking 14
prophe@@ 14
rela@@ 14
technologists 14
workshop 14
flam@@ 14
cobra 14
gger 14
dementia 14
afflu@@ 14
predat@@ 14
las@@ 14
pots 14
coordinated 14
ffing 14
confirm 14
runner 14
js 14
stake@@ 14
categ@@ 14
patri@@ 14
corresponding 14
jelly 14
picasso 14
lawn 14
180@@ 14
intuitively 14
cule 14
fisher@@ 14
dot@@ 14
edible 14
y-based 14
1,200 14
cutting-edge 14
sail@@ 14
epilepsy 14
mississippi 14
tobacco 14
aimee 14
torn 14
inputs 14
fort@@ 14
margins 14
metic 14
womb 14
horrific 14
vatory 14
insula 14
conspiracy 14
stereotyp@@ 14
ires 14
melted 14
oblivi@@ 14
upload 14
containers 14
eding 14
pharmaceuticals 14
judaism 14
dra 14
chunks 14
miller 14
lesterland 14
modeled 14
reali@@ 14
contacted 14
deceased 14
julie 14
flashing 14
imaginative 14
sor 14
bet@@ 14
500,000 14
scal@@ 14
wild@@ 14
thood 14
show@@ 14
promotion 14
ome@@ 14
crust 14
ions 14
similarity 14
sporting 14
t-in 14
relational 14
ggling 14
guests 14
numer@@ 14
chuck 14
docum@@ 14
infe@@ 14
doll@@ 14
buddy 14
erosion 14
collaborating 14
zk 14
richness 14
alarming 14
gratification 14
excites 14
vered 14
tm 14
pasted 14
kahn 14
weigh@@ 14
row@@ 14
snapshot 14
galvao 14
je 14
aven@@ 14
bear@@ 14
stereo 14
theoretically 14
legged 14
infl@@ 14
slam@@ 14
arma@@ 14
fbi 14
defle@@ 14
ulate 14
strous 14
descriptions 14
two-way 14
polish 14
bases 14
poisoning 14
tiv@@ 14
tivism 14
operators 14
adul@@ 14
cheated 14
overweight 14
endo@@ 14
munici@@ 14
african-american 14
intelli@@ 14
broadmoor 14
cled 14
expressive 14
depressants 14
punk 14
distracted 14
21st-century 14
carter 14
citizenship 14
smi@@ 14
centr@@ 14
dod@@ 14
cardiovascular 14
verbs 14
microscop@@ 14
wilderness 14
dragl@@ 14
waking 14
gir@@ 14
warehouse 14
heroin 14
) 14
attendance 14
delusion 14
nevada 14
serial 14
rainbow 14
boils 14
levers 14
inc@@ 14
chu@@ 14
filming 14
mati@@ 14
organizational 14
jazeera 14
enco@@ 14
humani@@ 14
demonstrating 14
non-profit 14
black-eyed 14
susie 14
scheduled 14
dep@@ 14
disturbed 14
zzy 14
uh-@@ 14
160 14
biting 14
stand-up 14
pest 14
overlap 14
wash@@ 14
resemble 14
elusive 14
tieth 14
settlements 14
furi@@ 14
sia 14
achievements 14
fuse 14
vores 14
exploitation 14
hubble 14
rig 14
mrs. 14
graphers 14
adi@@ 14
villa@@ 14
outward 14
mantra 14
tours 14
kt 14
cle 14
strain 14
af 14
shortcut 14
shrinking 14
browse 14
thanksgiving 14
404 14
bureaucratic 14
adapting 14
adulthood 14
collapses 14
ridicul@@ 14
ange@@ 14
unfolding 14
russell 14
lish 14
righ@@ 14
mers 14
brakes 14
geny 14
racial 14
to-one 14
contributes 14
drums 14
ris 14
sioux 14
mutually 14
jewel@@ 14
divin@@ 14
domestic@@ 14
lesters 14
charming 14
fax 14
story@@ 14
motions 14
oprah 14
wiz@@ 14
1962 14
seasonal 14
spirits 14
unequal 14
go-@@ 14
efully 14
cit 13
journeys 13
cops 13
responds 13
p.@@ 13
encode 13
receives 13
vani@@ 13
comprehen@@ 13
8.@@ 13
self-organization 13
agoni@@ 13
embody 13
capturing 13
wounds 13
eyes@@ 13
fascination 13
funders 13
spins 13
umin@@ 13
cuban 13
chro@@ 13
aquarium 13
crawl 13
courts 13
disrupt 13
wasteful 13
bloom 13
parasites 13
thoughtful 13
ohio 13
diffuse 13
predicts 13
fluorescent 13
lip 13
printers 13
coupled 13
beast 13
fins 13
cancer@@ 13
dispute 13
bean 13
carro@@ 13
digest 13
mber 13
matthew 13
inters 13
janine 13
cycli@@ 13
kilogram 13
39 13
marco 13
partments 13
excessive 13
analogies 13
abc 13
collap@@ 13
incidence 13
kabul 13
circumstance 13
definitions 13
fertile 13
bends 13
sanctu@@ 13
oly@@ 13
civilians 13
fueled 13
qatar 13
carve 13
canal 13
rang 13
madagascar 13
gaming 13
conductive 13
pioneering 13
paus@@ 13
astrolabe 13
ial 13
peek 13
istanbul 13
ghter 13
strongest 13
anas 13
archet@@ 13
masks 13
suey 13
athle@@ 13
enhanced 13
framed 13
stupi@@ 13
campaigning 13
depended 13
assignments 13
rotten 13
coc@@ 13
meg@@ 13
wrin@@ 13
dads 13
bombing 13
82 13
hem 13
vividly 13
instability 13
comfortably 13
mod@@ 13
redund@@ 13
undercover 13
vre 13
butterflies 13
death@@ 13
supernova 13
fearless 13
hindu 13
vul@@ 13
nanome@@ 13
me-@@ 13
rais@@ 13
yields 13
sprint 13
occupa@@ 13
pardon 13
manife@@ 13
complexities 13
extinctions 13
gler 13
pathy 13
phili@@ 13
customization 13
maria 13
template 13
downs 13
170 13
extraction 13
hydrothermal 13
dictat@@ 13
akers 13
ressed 13
saturated 13
participant 13
teddy 13
dives 13
ambulance 13
saul 13
botswana 13
toyota 13
kn@@ 13
dolby 13
minimize 13
rep@@ 13
proble@@ 13
maxi@@ 13
inquiry 13
smug@@ 13
tator 13
function@@ 13
dip 13
luke 13
insur@@ 13
kurzweil 13
chant 13
identification 13
evacu@@ 13
porn 13
monitored 13
hallway 13
bicycles 13
mainframe 13
gridlock 13
geria 13
tos 13
antiretroviral 13
ald 13
overseas 13
mats 13
moisture 13
ddling 13
horse@@ 13
pediatrician 13
crocodi@@ 13
concentrations 13
blues 13
shape-@@ 13
conductors 13
sliced 13
71 13
protons 13
payoff 13
substantially 13
careers 13
hunter-gather@@ 13
prevail@@ 13
porno@@ 13
manifest@@ 13
shack 13
substances 13
sav@@ 13
preserving 13
leather@@ 13
rement 13
channel@@ 13
fuck 13
frontiers 13
exhilarating 13
tant 13
judged 13
armor 13
decreased 13
fireman 13
film@@ 13
protocols 13
workshops 13
closes 13
hives 13
unbe@@ 13
conventions 13
cod 13
executed 13
sour@@ 13
seat@@ 13
hub 13
homeland 13
inferior 13
best-@@ 13
mann 13
tutor 13
lymph 13
removing 13
durable 13
occasions 13
lifts 13
establishment 13
liberated 13
nanoscale 13
lightly 13
rebel@@ 13
tist 13
netra 13
quarks 13
lassi@@ 13
extra-@@ 13
upgrade 13
clarify 13
wondrous 13
handi@@ 13
chas@@ 13
diabe@@ 13
tense 13
treaties 13
contemplate 13
geo-@@ 13
ser 13
closet 13
ational 13
fel@@ 13
tro 13
stefan 13
cutter 13
folder 13
daunting 13
mmm 13
neighbor@@ 13
ignorant 13
philippines 13
ira 13
out-@@ 13
passengers 13
ves@@ 13
mind-wandering 13
presum@@ 13
boomers 13
shaw 13
eks 13
executives 13
berries 13
cult 13
titanium 13
charitable 13
male-@@ 13
reporters 13
eck 13
simplify 13
lock@@ 13
sergey 13
doom 13
graded 13
resort 13
insisted 13
karl 13
tactics 13
fees 13
harris 13
israelis 13
ring@@ 13
essex 13
jargon 13
exposing 13
reproductive 13
view@@ 13
guru 13
forecast 13
headphones 13
orient 13
eduardo 13
genom@@ 13
bid 13
unbelievably 13
ino 13
credited 13
epidemics 13
dysle@@ 13
xic 13
influential 13
systemic 13
threads 13
borne 13
pple 13
censored 13
crane 13
makeup 13
junction 13
ruption 13
bye 13
tallest 13
energy-@@ 13
primal 13
tism 13
apartheid 13
cern 13
fleet 13
shelters 13
casually 13
ann@@ 13
rations 13
oping 13
fear@@ 13
kissing 13
proton 13
phon@@ 13
7.@@ 13
mop 13
yn@@ 13
arguably 13
volcanoes 13
downstream 13
shook 13
.org. 13
ein 13
experim@@ 13
seren@@ 13
shiny 13
preferred 13
foraging 13
usda 13
end-@@ 13
hardwired 13
helix 13
unky 13
ister 13
mba 13
hem@@ 13
cognitively 13
clini@@ 13
ptor 13
geable 13
plank 13
pessimi@@ 13
mond 13
angel 13
zi 13
rect@@ 13
trail 13
ethiop@@ 13
prostitution 13
backward 13
esive 13
characterized 13
role-@@ 13
leukemia 13
sabbatical 13
posting 13
servant 13
mahatma 13
incomes 13
colonial 13
champion@@ 13
remot@@ 13
tis@@ 13
trade-offs 13
reme@@ 13
pains 13
parab@@ 13
mitchell 13
carp@@ 13
geniuses 13
pork 13
confusion 13
cue 13
wick@@ 13
jor@@ 13
champagne 13
ee 13
gall@@ 13
considerably 13
usi@@ 13
inspirational 13
sick@@ 13
terrestrial 13
launder@@ 13
asym@@ 13
aler 13
browne 13
develops 13
assu@@ 13
dominate 13
shel@@ 13
reflecting 13
tivi@@ 13
yo-yo 13
gears 13
reserved 13
discarded 13
memorize 13
transc@@ 13
orch@@ 13
optic 13
framing 13
critics 13
plen@@ 13
sergio 13
difficulties 13
compul@@ 13
exports 13
learner 13
achilles 13
lisa 13
stunned 13
ptions 13
lawrence 13
bathing 13
trafficking 13
ong@@ 13
exxon 13
intimately 13
tize 13
ctives 13
journals 13
old-fashioned 13
treat@@ 13
plur@@ 13
tolerate 13
op-@@ 13
malcolm 13
proli@@ 13
ceramics 13
revenge 13
succe@@ 13
passi@@ 13
esy 13
do-@@ 13
colon@@ 13
stripped 13
sers 13
small-scale 13
fur 13
bedro@@ 13
sations 13
qua@@ 13
forged 13
telecommunications 13
cac@@ 13
blance 13
leisure 13
understandable 13
crimin@@ 13
breast@@ 13
distin@@ 13
parti@@ 13
1969 13
os@@ 13
performer 13
day-@@ 13
bollywood 13
sequel 13
meen 13
essive 13
trade@@ 13
prie@@ 13
counseling 13
pastor 13
chairman 13
bald 13
arises 13
declar@@ 13
coded 13
face-to-@@ 13
waste@@ 13
unks 13
cockroach 13
crush 13
unfinished 13
lls 13
handsome 13
husbands 13
aus@@ 13
cible 13
geologists 13
forcement 13
fau@@ 13
epic 13
strangeness 13
freeway 13
suspected 13
donate 13
biofuels 13
centric 13
cit@@ 13
magnetism 13
johan@@ 13
nes 13
rory 13
faculty 13
ventil@@ 13
autobio@@ 13
sn@@ 13
companion 13
gho@@ 13
boreal 13
mali@@ 13
gravi@@ 13
scarf 13
bree@@ 13
stimulating 13
bitter 13
participated 13
degrade 13
weekends 13
vancouver 13
weight@@ 13
predict@@ 13
an-american 13
interrupt 13
ttle 13
transformational 13
ballast 13
humidity 13
refle@@ 13
flourishing 13
next-@@ 13
bribes 13
blow@@ 13
utilized 13
nomin@@ 13
gilbert 13
sweeney 13
extrater@@ 13
gossi@@ 13
any@@ 13
moons 13
illed 13
dynamically 13
calculators 13
peace@@ 13
innate 13
voyager 13
even@@ 13
killers 13
spores 13
bai@@ 13
steak 13
aggression 13
carni@@ 13
cone 13
emailed 13
lanka 13
packs 13
conferences 13
cucumber 13
uprising 13
pioneers 13
embryonic 13
loyalty 13
assign 13
fictional 13
representatives 13
vo 13
at-@@ 13
73 13
eames 13
mosquit@@ 13
pus@@ 13
bam@@ 13
zable 13
downloaded 13
programmable 13
hab 13
1967 13
succ@@ 13
branded 13
rushed 13
dl 13
fo 13
plau@@ 13
leaks 13
nac@@ 13
geographical 13
princi@@ 13
germans 13
spines 13
communism 13
cad 13
necessi@@ 13
akes 13
apocalyp@@ 13
historians 13
toaster 13
partially 13
import 13
ecologist 13
60@@ 13
enth 13
ezra 13
schwarz@@ 13
1978 13
digitized 13
resour@@ 13
blanket 13
gad@@ 13
betting 13
astronomer 13
nonviolence 13
ordin@@ 13
twe@@ 13
lowed 13
kanzi 13
deployment 13
dubai 13
caution 13
guaranteed 13
front-@@ 13
malware 13
georgetown 13
deliberately 13
popcorn 13
drake 13
volunteered 13
sourcing 13
70@@ 13
aorta 13
strive 13
rainwater 13
dars 13
landfill 13
stero@@ 13
humpback 13
immigration 13
neglected 13
stir@@ 13
41 13
refres@@ 13
yelling 13
multiplied 13
defeated 13
nis@@ 13
illumination 13
palette 13
costing 13
milliseconds 13
ddt 13
shredded 13
aster 13
unnecessary 13
metaphorical 13
isions 13
strat@@ 13
cology 13
sas@@ 13
fortun@@ 13
crystals 13
reflex 13
limitless 13
fract@@ 13
deshow 13
phrases 13
myo@@ 13
fraud 13
handling 13
spl@@ 13
lazy 13
occasi@@ 13
ctional 13
polymers 13
establi@@ 13
delightful 13
ku 13
virg@@ 13
windmill 13
consisten@@ 13
assumes 13
cet 13
vate 13
diplomatic 13
exca@@ 13
skins 13
dash@@ 13
ratings 12
photoshop 12
emu@@ 12
correctness 12
sheila 12
omin@@ 12
conveni@@ 12
ipods 12
darwin@@ 12
introver@@ 12
fighter 12
propor@@ 12
buck@@ 12
ler@@ 12
repu@@ 12
jen@@ 12
westerners 12
beck@@ 12
prophet 12
messen@@ 12
rica 12
ez 12
100-@@ 12
fmri 12
lap@@ 12
archives 12
syner@@ 12
buff@@ 12
americas 12
deadline 12
experiment@@ 12
tium 12
contagi@@ 12
bahamas 12
shah 12
autop@@ 12
3.5 12
68 12
ces@@ 12
diagnostics 12
messaging 12
mili@@ 12
continuum 12
nitri@@ 12
geolo@@ 12
strate 12
dges 12
short@@ 12
heada@@ 12
lemon 12
billy 12
orthodox 12
pover@@ 12
catalo@@ 12
2-@@ 12
maslow 12
domini@@ 12
rut 12
aspen 12
vot@@ 12
low-tech 12
expan@@ 12
spectac@@ 12
teen@@ 12
amo@@ 12
eval 12
screen@@ 12
colleges 12
leg@@ 12
propri@@ 12
whip 12
great@@ 12
approxima@@ 12
purchasing 12
rid@@ 12
tweets 12
residen@@ 12
ci 12
riverside 12
waving 12
danny 12
ramp@@ 12
alls 12
seth 12
femin@@ 12
es-@@ 12
sober@@ 12
-a-@@ 12
wick 12
ventilation 12
disson@@ 12
gel@@ 12
farm@@ 12
tely 12
taylor 12
sea@@ 12
melo@@ 12
wiki 12
babylon 12
sutherland 12
ima 12
rip@@ 12
1979 12
oter 12
requi@@ 12
hysi@@ 12
fora@@ 12
yep 12
jad 12
real@@ 12
geor@@ 12
aw 12
tso 12
infil@@ 12
venice 12
represent@@ 12
straig@@ 12
traffi@@ 12
dynam@@ 12
elvis 12
negroponte 12
duke 12
dennett 12
odysseus 12
giga@@ 12
feder@@ 12
andre@@ 12
echo 12
ens@@ 12
immersive 12
mete@@ 12
eless@@ 12
xen@@ 12
chs 12
360 12
ref@@ 12
anec@@ 12
dote 12
1973 12
hardy 12
advent@@ 12
dock 12
manage@@ 12
straw 12
heli@@ 12
inter-@@ 12
guer@@ 12
franch@@ 12
proportion@@ 12
rian 12
width 12
irish 12
exhau@@ 12
immigrant 12
fas@@ 12
dimitri 12
í@@ 12
priva@@ 12
h5n1 12
quadri@@ 12
mellon 12
rede@@ 12
exac@@ 12
hill@@ 12
splashy 12
voic@@ 12
stral 12
jimmy 12
manic 12
blogger 12
nostal@@ 12
psychopath@@ 12
potter@@ 12
opec 12
asper@@ 12
emphasi@@ 12
invasi@@ 12
knowled@@ 12
whiskey 12
nega@@ 12
incu@@ 12
destro@@ 12
tention 12
davis 12
rezero 12
oles@@ 12
flor@@ 12
cowboy 12
tb 12
cavi@@ 12
equi@@ 12
51 12
statisti@@ 12
maje@@ 12
apprentice 12
clever@@ 12
futur@@ 12
carol 12
gul@@ 12
29@@ 12
tablet 12
mitochondri@@ 12
recycl@@ 12
modular 12
stes 12
meme@@ 12
dir@@ 12
grad 12
chari@@ 12
doodle 12
astic 12
tra 12
metri@@ 12
identi@@ 12
dump@@ 12
natur@@ 12
chy 12
fossi@@ 12
event@@ 12
mun@@ 12
utop@@ 12
hangs 12
ari 12
ywood 12
upper-@@ 12
nies 12
nazis 12
humano@@ 12
bruno 12
rufus 12
ethni@@ 12
o.@@ 12
sandwiches 12
packa@@ 12
proto@@ 12
beverly 12
flop 12
buster 12
graphi@@ 12
blob 12
thetic 12
bail@@ 12
partis@@ 12
lob@@ 12
gorilla 12
times@@ 12
chu 12
gab@@ 12
divi@@ 12
exp@@ 12
k. 12
accenture 12
theatre 12
one@@ 12
sudhir 12
ascen@@ 12
79 12
zero-sum 12
welling 12
volu@@ 12
fty 12
diment 12
janit@@ 12
play-doh 12
arrangements 12
anian 12
random@@ 12
sophistic@@ 12
gery 12
illinois 12
controllers 12
light@@ 12
harm@@ 12
leys 12
sapiens 12
outsour@@ 12
banda@@ 12
emi@@ 12
deer 12
trickster 12
gaga 12
lier 12
kore@@ 12
hypertext 12
1974 12
technologi@@ 12
derer 12
arche@@ 12
vage 12
tul@@ 12
hoo 12
formats 12
olds 12
iry 12
sprawl 12
cardi@@ 12
homosexu@@ 12
chor 12
skydiving 12
eping 12
ging@@ 12
shave 12
leton 12
bill@@ 12
# 12
collagen 12
never@@ 12
nd 12
minnesota 12
scar@@ 12
terior 12
sk 12
ula 12
disgu@@ 12
street@@ 12
nett 12
shuttle 12
premi@@ 12
okap@@ 12
8,@@ 12
lur@@ 12
volum@@ 12
89 12
monsters 12
dice 12
fast-@@ 12
xic@@ 12
ity-@@ 12
hock@@ 12
oakland 12
cubi@@ 12
spring@@ 12
portland 12
1981 12
kh 12
antici@@ 12
spikes 12
arrogant 12
ryan 12
franklin 12
ze-@@ 12
red-@@ 12
monument 12
aires 12
epit@@ 12
vegetation 12
maitreya 12
e8 12
troy 12
appl@@ 12
preci@@ 12
kans 12
keeper 12
cun@@ 12
twisted 12
stion 12
án 12
sie@@ 12
noma@@ 12
shirky 12
mandate 12
provin@@ 12
schild 12
justin 12
lian 12
chemo@@ 12
cohen 12
shes 12
paradig@@ 12
pale 12
une 12
dispu@@ 12
favela 12
yl 12
christ@@ 12
dumping 12
arb@@ 12
boeing 12
ming@@ 12
feed@@ 12
spu@@ 12
tour@@ 12
tasman@@ 12
bulldo@@ 12
evaluation 12
terence 12
mp3 12
f. 12
osc@@ 12
v-day 12
orphan@@ 12
offensive 12
formers 12
understand@@ 12
dar 12
eeg 12
synapse 12
lovers 12
uli@@ 12
nano@@ 12
wellness 12
warner 12
merito@@ 12
buffalo 12
patrick 12
castle 12
al-qaeda 12
newton@@ 12
palestini@@ 12
norwe@@ 12
synchr@@ 11
reiter@@ 11
60-@@ 11
81 11
rotation 11
bug@@ 11
i.m. 11
stant 11
backup 11
intensi@@ 11
transplan@@ 11
apologi@@ 11
dale 11
noah 11
peru 11
00 11
choo@@ 11
54 11
nic@@ 11
interstate 11
oxi@@ 11
motto 11
meas@@ 11
veteran 11
bren@@ 11
horn 11
influen@@ 11
distur@@ 11
effici@@ 11
propag@@ 11
fern@@ 11
paulo 11
cient 11
asth@@ 11
missouri 11
uri 11
batman 11
erie 11
implan@@ 11
psyche 11
ct-@@ 11
alexandria 11
sunshine 11
know-how 11
medic@@ 11
lest 11
aura 11
alty 11
ests 11
hyderabad 11
usc 11
poni@@ 11
ander@@ 11
astern 11
transforma@@ 11
tus@@ 11
1988 11
ada 11
wi-fi 11
retri@@ 11
vodka 11
zar@@ 11
atlas 11
memo@@ 11
batt@@ 11
onist 11
esot@@ 11
unaids 11
chi 11
1947 11
heim 11
jack@@ 11
diversi@@ 11
invisi@@ 11
netflix 11
quet@@ 11
hierarch@@ 11
shment 11
biotech 11
bonnie 11
dilemmas 11
cathe@@ 11
bb 11
wolf 11
diplo@@ 11
reno@@ 11
psy@@ 11
22@@ 11
ppe@@ 11
eureka 11
cp 11
ctures 11
750 11
hay@@ 11
zy@@ 11
epi@@ 11
north@@ 11
extremi@@ 11
cock 11
mao 11
aph@@ 11
hiv-@@ 11
tunnels 11
rockefeller 11
hitch@@ 11
gamble 11
jacques 11
ng 11
friedman 11
bolt 11
foren@@ 11
yellow@@ 11
decl@@ 11
vern@@ 11
tts 11
urbani@@ 11
safe@@ 11
tinkering 11
pope 11
pale@@ 11
pep@@ 11
clark 11
babylon@@ 11
yang 11
eti@@ 11
pande@@ 11
sies 11
typo@@ 11
foreig@@ 11
promin@@ 11
biomedi@@ 11
suppor@@ 11
sures 11
therapeu@@ 11
masterpieces 11
up-@@ 11
auto 11
helicop@@ 11
t.@@ 11
cep@@ 11
ket@@ 11
greg@@ 11
dies@@ 11
erik 11
sis@@ 11
trage 11
amaz@@ 11
idol 11
and-a-@@ 11
anni@@ 11
infer@@ 11
rhex 11
jesse 11
desper@@ 11
consum@@ 11
shir@@ 11
fee 11
utter@@ 11
broo@@ 11
aspir@@ 11
tarahumara 11
pean@@ 11
business@@ 11
migra@@ 11
gill 11
pression 11
mash@@ 11
dah 11
analyst 11
swahili 11
limit@@ 11
plas@@ 11
ses@@ 11
exhibi@@ 11
opho@@ 11
ile 11
thumb@@ 11
patter@@ 11
osama 11
beri@@ 11
interrup@@ 11
ted-@@ 11
discus@@ 11
frau@@ 11
priv@@ 11
lucent 11
faul@@ 11
fond 11
webs 11
cellulose 11
ringe 11
hansen 11
paired 11
alligator 11
pension 11
jabbar 11
frost 11
virul@@ 11
so-@@ 11
kim@@ 11
homini@@ 11
mum@@ 11
crete 11
dine 11
steri@@ 11
aden@@ 11
eco@@ 11
webcam 11
saddam 11
jon@@ 11
ona 11
oted 11
evange@@ 11
dengue 11
ade@@ 11
dry@@ 11
inary 11
adv@@ 11
watt-@@ 11
pper@@ 11
gia 11
inver@@ 11
sati@@ 11
stimul@@ 11
suc@@ 11
portal 11
roy@@ 11
enz@@ 11
hen 11
martha 11
spears 11
gag@@ 11
zur@@ 11
ronald 11
psychiat@@ 11
jama@@ 11
chand@@ 11
iphones 11
dc 11
bei@@ 11
angu@@ 11
11@@ 11
ellip@@ 11
jeep 11
doc@@ 11
fest 11
touri@@ 11
vivian 11
pisa 11
pho@@ 11
sergeant 11
hein@@ 11
proteomics 11
g.@@ 11
dt 11
mr@@ 11
pore 11
km 11
insky 11
proc@@ 11
phan@@ 11
46 11
liter 11
multipli@@ 11
demand@@ 11
ans@@ 11
casey 11
asphalt 11
influenza 11
alg@@ 11
calcul@@ 11
bub@@ 11
ation@@ 11
redwoods 11
gend 11
carolyn 11
dley 11
strated 11
emmanuel 11
monit@@ 11
91 11
esday 11
sustain@@ 11
arm@@ 11
victoria 11
ke-@@ 11
0,@@ 11
lucy 11
bass 11
anthony 11
legis@@ 11
amy@@ 11
baxter 11
tho@@ 11
uss 11
structions 11
cortisol 11
restrial 11
fren@@ 11
bris 11
itely 11
champi@@ 11
1965 11
head-@@ 11
siege 11
hit@@ 11
hemis@@ 11
peer-@@ 11
gie 11
hr 11
disrup@@ 11
institution@@ 11
flakes 11
essay 11
phil@@ 11
wag@@ 11
disc 11
ranger 11
nel 11
johns 11
tent@@ 11
mathematica 11
enting 11
tans 11
nesses 11
flus@@ 11
bies 11
bure@@ 11
yiel@@ 11
kon@@ 11
michoac@@ 11
musi@@ 11
thetics 11
101 11
stran@@ 11
shop@@ 11
snack 11
suspe@@ 11
posal 11
moderni@@ 11
tbp 11
port@@ 11
autos 11
bandura 11
anga 11
helen 11
stanley 11
coalition 11
synthesi@@ 11
pur 11
mous 11
hipp@@ 11
exi@@ 11
200@@ 11
cryst@@ 11
78 11
alhambra 11
smiley 11
jets 11
vei@@ 11
mbi 11
eg 11
humor@@ 11
achie@@ 11
jean 11
rie 11
kli@@ 11
negatives 11
92 11
styro@@ 11
administra@@ 11
pp 11
mach 11
bilbao 11
acr@@ 11
onym 11
nut@@ 11
ernest 11
ice@@ 11
cans 11
tial 11
najmuddin 11
unk 11
goose 11
psychiatri@@ 11
tled 11
hippie 11
poo@@ 11
disco@@ 11
crats 11
ó@@ 11
vement 11
betra@@ 10
bine 10
monade 10
gadget 10
q. 10
connectomes 10
ett@@ 10
synthes@@ 10
ckens 10
idi@@ 10
ig 10
tee 10
thei@@ 10
wan 10
gen-@@ 10
6,@@ 10
vet@@ 10
arc@@ 10
salman 10
afford@@ 10
wy@@ 10
stigmati@@ 10
introdu@@ 10
nylon 10
city-@@ 10
sp 10
fish@@ 10
analog@@ 10
agen@@ 10
alli@@ 10
iden@@ 10
pto@@ 10
t.b. 10
vam@@ 10
pou@@ 10
gence 10
osaurus 10
parano@@ 10
mexic@@ 10
nih 10
coura@@ 10
gurt 10
homer 10
23@@ 10
chau@@ 10
shred@@ 10
craw@@ 10
ati 10
rebecca 10
sousa 10
rupt 10
overflow 10
thank@@ 10
uc 10
poten@@ 10
dotcom 10
west@@ 10
white@@ 10
gosla@@ 10
scho@@ 10
mam@@ 10
inti@@ 10
wing@@ 10
occurr@@ 10
seymour 10
indiana 10
dens 10
aker 10
miser@@ 10
los@@ 10
cook@@ 10
dough@@ 10
cyberspace 10
tus 10
laun@@ 10
yoga 10
sion@@ 10
sch 10
mus 10
taining 10
eral 10
lux 10
63 10
evelyn 10
cargill 10
kerala 10
anthropo@@ 10
team@@ 10
celine 10
arthritis 10
malaysia 10
distor@@ 10
orthop@@ 10
lone 10
hoe 10
ille 10
pione@@ 10
conserva@@ 10
positives 10
euro 10
arro@@ 10
esther 10
stomatopo@@ 10
teraby@@ 10
itation 10
gus@@ 10
fascin@@ 10
rene 10
gau@@ 10
minim@@ 10
carson 10
dupli@@ 10
cabin@@ 10
mission@@ 10
pinker 10
grab@@ 10
hypothes@@ 10
dless 10
bobby 10
dations 10
1966 10
caus@@ 10
kuwait 10
econom@@ 10
rey 10
lander 10
slash 10
golfer 10
av@@ 10
elli 10
chap@@ 10
stance 10
wl 10
chen 10
max@@ 10
marc 10
transplantation 10
mcluhan 10
atom@@ 10
wom@@ 10
cker@@ 10
240 10
aviv 10
literate 10
zon@@ 10
sofa 10
whirlwind 10
novogratz 10
spam 10
aer@@ 10
hn 10
gaza 10
eruption 10
tata 10
seni@@ 10
zhou 10
sche@@ 10
delegation 10
alco@@ 10
shirts 10
viking 10
ml 10
ance@@ 10
engel@@ 10
wid@@ 10
myri@@ 10
queu@@ 10
trade-@@ 10
nab@@ 10
intu@@ 10
lucas 10
ron@@ 10
tral 10
pont 10
opping 10
yn 10
tori@@ 10
wales 10
sachs 10
un 10
sins 10
wollen 10
agri@@ 10
makoko 10
disc@@ 10
cafeteria 10
grin@@ 10
neo@@ 10
cial 10
emper@@ 10
conven@@ 10
pos 10
prosper@@ 10
stress@@ 10
airbnb 10
psycholo@@ 10
constra@@ 10
ein@@ 10
thermo@@ 10
stat 10
ried 10
celsius 10
stuart 10
sagmeister 10
wiser 10
bonnet 10
ridi@@ 10
spor@@ 10
engli@@ 10
hirshhorn 10
orion 10
obs@@ 10
prestige 10
sane 10
5-@@ 10
resol@@ 10
hussein 10
cam 10
kri@@ 10
lang 10
mandarin 10
stockholm 10
gut@@ 10
geno@@ 10
rin@@ 10
igbo 10
antor 10
ices 10
klu@@ 10
dd 10
veter@@ 10
gang@@ 10
triceratops 10
instin@@ 10
gress@@ 10
uruguay 10
banal 10
ority 10
oz 10
eal 10
celebri@@ 10
reservo@@ 10
rough@@ 10
beat@@ 10
fragment 10
obsessi@@ 10
austin 10
nobyl 10
word@@ 10
magne@@ 10
beatles 10
hannah 10
hopkins 10
lynn 10
trate 10
pron@@ 10
gesti@@ 10
car-sharing 10
tta 10
plutonium 10
optimist 10
burma 10
unle@@ 10
fraser 10
forma@@ 10
lifest@@ 10
gould 10
targe@@ 10
hose 10
kw@@ 10
tedmed 10
diaspora 10
liche 10
randi 10
cockpit 10
gible 10
dame 10
o.k. 10
pipelines 10
suspi@@ 10
singularity 10
ret@@ 10
tolerant 10
sargas@@ 10
abdu@@ 10
racy 10
rebellion 10
rm 10
fare 10
sushi 10
hawai@@ 10
ghet@@ 10
lev@@ 10
tres@@ 10
posite 10
crunch 10
bombar@@ 10
jurassic 10
skeptic 10
ffe@@ 10
mubarak 10
geneti@@ 10
alisa 10
berners-lee 10
scap@@ 10
butter 10
fuss 10
gist 10
eh 10
stimuli 10
fragi@@ 10
vels 10
fuller 10
scan@@ 10
dem@@ 10
unge 10
confer@@ 10
cardo 10
rockett 10
nbc 10
where@@ 10
rag@@ 10
teach@@ 10
fig@@ 10
profan@@ 10
bottom@@ 10
zen 10
corn@@ 10
hydropho@@ 10
influ@@ 10
psychopa@@ 10
pro 10
legi@@ 10
nib@@ 10
g. 10
dred 10
frederick 10
ori 10
fusi@@ 10
harlem 10
ende@@ 10
strate@@ 10
rapi@@ 10
pluri@@ 10
thum@@ 10
charlotte 10
pam@@ 10
tier 10
mammo@@ 10
lasers 10
git 10
aurora 10
andro@@ 10
chop@@ 10
eno 10
lider 10
mort@@ 10
tyran@@ 10
chment 10
weapon@@ 10
alabama 10
iv 10
hore 10
depres@@ 10
klein 10
extrem@@ 10
logarith@@ 10
transducer 10
shire 10
interval 10
strato@@ 10
moglobin 10
missi@@ 10
forbes 10
boltzmann 10
adequate 10
manus@@ 10
alterna@@ 10
pert 10
zz 10
nuan@@ 10
matri@@ 10
nixon 10
cynthia 10
ques 10
dennis 10
prosp@@ 10
explor@@ 10
turbin@@ 10
kne@@ 10
madison 10
gee@@ 10
herbi@@ 10
daw@@ 10
ek@@ 10
ket 10
manchester 10
tunisi@@ 10
aah 10
judy 9
nom@@ 9
auschwitz 9
etti 9
ana@@ 9
nf@@ 9
inspir@@ 9
simpson 9
sardin@@ 9
jere@@ 9
illusion@@ 9
peg 9
8-@@ 9
curity 9
resul@@ 9
16-@@ 9
tunnel@@ 9
dant 9
romegal@@ 9
linus 9
eded 9
chem@@ 9
sao 9
td 9
mato@@ 9
terr@@ 9
dently 9
hyp@@ 9
modernis@@ 9
po 9
curtis 9
orium 9
minto 9
eu 9
otto 9
z. 9
nah 9
thai 9
amen 9
jordans 9
chan 9
pursu@@ 9
hospi@@ 9
toll@@ 9
morgan 9
mini-@@ 9
fei@@ 9
eur@@ 9
leop@@ 9
jean-@@ 9
michel 9
nino 9
kiva 9
inn@@ 9
gin 9
shri@@ 9
gabyte 9
pesti@@ 9
guatemala 9
knight 9
ffel 9
pakistan@@ 9
collins 9
middle-@@ 9
volvo 9
bypass 9
iles 9
err@@ 9
nyu 9
jeopar@@ 9
theo@@ 9
sec 9
soundtrack 9
epa 9
88 9
wig 9
sopran@@ 9
pascal 9
ret 9
gressi@@ 9
dicate 9
hillary 9
r-@@ 9
dn 9
ghty 9
jab@@ 9
fluctus 9
dyson 9
comedian 9
mau@@ 9
brook 9
vity 9
mega-@@ 9
descartes 9
religi@@ 9
signat@@ 9
ahmed 9
itarian 9
headset 9
ole@@ 9
tained 9
muffin 9
offs 9
á@@ 9
robinson 9
laps 9
gabriel 9
sacks 9
magi@@ 9
ree 9
oklahoma 9
marie 9
transmitter 9
ularly 9
glenn 9
deregu@@ 9
hyperbo@@ 9
ukra@@ 9
wide-@@ 9
yam@@ 9
mt@@ 9
lex@@ 9
synthesizer 9
alan@@ 9
tk 9
bay@@ 9
argu@@ 9
kens 9
simu@@ 9
ak-@@ 9
lust 9
yment 9
mobs 9
cism 9
trage@@ 9
iler 9
envel@@ 9
mohamed 9
gand@@ 9
poker 9
eful 9
anor@@ 9
crews 9
tibet@@ 9
repres@@ 9
budapest 9
365 9
mail@@ 9
pitt 9
math@@ 9
ura 9
rying 9
cision 9
quer 9
lihood 9
goldman 9
inuit 9
laura 9
guinness 9
dus 9
67 9
laparo@@ 9
artill@@ 9
winter@@ 9
hundre@@ 9
yst@@ 9
mise 9
bras 9
parade 9
aut 9
hap@@ 9
kaluza 9
fou@@ 9
ds@@ 9
controversi@@ 9
effor@@ 9
antibio@@ 9
ever@@ 9
dac@@ 9
rockwell 9
typ@@ 9
fair@@ 9
warf 9
patrio@@ 9
genealo@@ 9
gallup 9
baby@@ 9
preg@@ 9
kiki 9
criti@@ 9
frank@@ 9
cox 9
ide 9
starter 9
lobby@@ 9
argent@@ 9
fermi 9
gymnosop@@ 9
versa@@ 9
erb@@ 9
informa@@ 9
altar 9
catherine 9
tai@@ 9
gren@@ 9
oll 9
barri@@ 9
angola 9
freu@@ 9
fracking 9
45-@@ 9
erer 9
tery 9
mole@@ 9
sari 9
senegal 9
arrogan@@ 9
herr@@ 9
blogo@@ 9
cust@@ 9
turk 9
airlines 9
entation 9
orate 9
ment-@@ 9
daphne 9
inven@@ 9
epiphy@@ 9
studios 9
parach@@ 9
sem@@ 9
holland 9
cleveland 9
ghtly 9
spaces@@ 9
ap 9
thre@@ 9
alley 9
esa@@ 9
elly 9
danger@@ 9
thal@@ 9
leb@@ 9
turbo 9
inge 9
commodi@@ 9
hobby 9
pedi@@ 9
lol 9
aris 9
amputation 9
shack@@ 9
yi 9
pent@@ 9
inland 9
fisher 9
fluores@@ 9
pal 9
wingsuit 9
aller@@ 9
tora@@ 9
cockro@@ 9
pear@@ 9
adrenal@@ 9
cl 9
magnesium 9
atur@@ 9
tyr@@ 9
kentucky 9
18-@@ 9
lolcats 9
bess 9
jol@@ 9
grizz@@ 9
thom 9
nikola 9
pie@@ 9
proportional 9
ficial 9
quake 9
papua 9
samarit@@ 9
fred 9
beau 9
curren@@ 9
suns@@ 9
hare 9
yochai 9
nashville 9
android 9
wel 9
caroline 9
hurdy-gurdy 9
discipl@@ 9
brut@@ 9
nonverb@@ 9
caf@@ 9
muti 9
wall@@ 9
secon@@ 9
sanghamitra 9
j.@@ 9
chr@@ 9
metaphor@@ 9
trainer 9
bien@@ 9
iowa 9
giraffe 9
cholester@@ 9
reformation 9
25-@@ 9
himi 9
brun@@ 9
wurman 9
remix@@ 9
tedx@@ 9
clari@@ 9
enri@@ 9
kindle 9
ucla 9
concern@@ 9
chocol@@ 9
greenpeace 9
lyn 9
centi@@ 9
tornado 9
urable 9
transfer@@ 9
66 9
ager 9
stron@@ 9
capsu@@ 9
ctory 9
nerds 9
clim@@ 9
hedon@@ 9
ually 9
pyth@@ 9
yahoo 9
tou@@ 9
sala 9
nina 9
alberto 9
realist 9
coher@@ 9
pong 9
ik@@ 9
compani@@ 9
chandler 9
matthieu 9
flexi@@ 9
grum@@ 9
ela 9
ram@@ 9
diale@@ 9
eson 9
cad@@ 9
yin 9
dis 9
marsh@@ 9
dney 9
stern 9
pani@@ 9
australopithe@@ 9
ite@@ 9
terry 9
telev@@ 9
zu 9
rhy@@ 9
– 9
thermodynam@@ 9
stab@@ 9
ports 9
prozac 9
win-win 9
moz@@ 9
goli@@ 9
sui@@ 9
boyle 9
stent 9
haring 9
baugh 9
budrus 9
1858 9
hindi 9
stair@@ 9
imper@@ 9
pierre 9
utopia 9
hausti@@ 9
boli@@ 9
maui 9
heres 9
cerem@@ 9
huntington 9
emma 9
eloqu@@ 9
vine 9
phil 9
edy 9
lements 9
macintosh 9
deu@@ 9
normal@@ 9
bby 9
amnes@@ 9
issu@@ 9
threat@@ 9
stun@@ 9
douglas 9
maeda 9
www.@@ 9
kor@@ 9
bu 9
taxon@@ 9
cken@@ 8
splas@@ 8
yor 8
mated 8
barbie 8
lindbergh 8
schul@@ 8
quor@@ 8
gate@@ 8
liver@@ 8
salaam 8
testam@@ 8
richards 8
thier 8
kaaba 8
bingo 8
li 8
durga 8
aden 8
great-great-@@ 8
identifi@@ 8
australi@@ 8
1929 8
partner@@ 8
hype 8
meth@@ 8
stere@@ 8
newcastle 8
sensor@@ 8
quisi@@ 8
specim@@ 8
gni@@ 8
wikileaks 8
levin 8
cational 8
enriquez 8
ph.@@ 8
ensler 8
tedwomen 8
sovi@@ 8
mahab@@ 8
1977 8
harmon@@ 8
christina 8
invent@@ 8
machin@@ 8
vind 8
deen 8
allan 8
toler@@ 8
hc 8
marduk 8
sher 8
urs 8
spiderman 8
deplo@@ 8
hier@@ 8
tal 8
macar@@ 8
brid@@ 8
kra@@ 8
noon 8
kle@@ 8
ganges 8
strom 8
nel@@ 8
mona@@ 8
stery 8
ches@@ 8
barcode 8
notic@@ 8
certain@@ 8
ization 8
esthes@@ 8
thes 8
marx 8
pradesh 8
aser 8
sit@@ 8
karajan 8
deng 8
rotterdam 8
philharmon@@ 8
tational 8
lan 8
bard 8
rho@@ 8
trach@@ 8
whitney 8
duolingo 8
cocktails 8
integr@@ 8
gapmin@@ 8
ansari 8
make@@ 8
video-@@ 8
bon 8
dana 8
leslie 8
cornell 8
seman@@ 8
radio@@ 8
kew 8
osi@@ 8
arium 8
kaplan 8
pediatri@@ 8
lett 8
earle 8
muti@@ 8
oste@@ 8
gs@@ 8
scient@@ 8
garrett 8
illi@@ 8
philosophi@@ 8
tn@@ 8
snap@@ 8
troll 8
israeli@@ 8
shi 8
wong 8
tual 8
anti 8
teamwork 8
esa 8
gans 8
escap@@ 8
helpl@@ 8
rele@@ 8
und-@@ 8
flour@@ 8
vid 8
dimension@@ 8
ebola 8
ovirus 8
irration@@ 8
uplo@@ 8
nato 8
queensland 8
1953 8
mcdon@@ 8
paci@@ 8
hulk 8
louise 8
tect@@ 8
velo@@ 8
mathema@@ 8
pollock 8
hump@@ 8
nai@@ 8
harvest@@ 8
exo@@ 8
emer@@ 8
burkina 8
faso 8
horo@@ 8
digi@@ 8
chill 8
wavel@@ 8
photore@@ 8
zap@@ 8
dem 8
selam 8
prego 8
servi@@ 8
tivo 8
fiel@@ 8
perma@@ 8
tern@@ 8
stetho@@ 8
gage 8
byrne 8
kies 8
vibrio 8
agle 8
chaz 8
oi@@ 8
podium 8
eira 8
lis 8
1800 8
ehouse 8
oy 8
respon@@ 8
meter-@@ 8
neurolog@@ 8
jr 8
maestro 8
ius 8
atta@@ 8
medicare 8
feu@@ 8
grandio@@ 8
todd 8
jacob@@ 8
witz 8
phi@@ 8
650 8
altos 8
1500 8
clau@@ 8
synago@@ 8
pati@@ 8
pam 8
nie 8
rhyth@@ 8
padd@@ 8
trance 8
1850 8
kleiber 8
myhrvold 8
pointment 8
goldilocks 8
americ@@ 8
num@@ 8
ralph 8
smil@@ 8
ousy 8
hmen 8
prick@@ 8
veg@@ 8
freaks 8
alexis 8
fide 8
hori@@ 8
houston 8
smith@@ 8
calcu@@ 8
pulsion 8
eisenhower 8
pyg@@ 8
zen@@ 8
warcraft 8
fedex 8
chit@@ 8
espres@@ 8
eld 8
logos 8
2100 8
reddit 8
shekhar 8
sug@@ 8
awk@@ 8
jpl 8
toma@@ 8
rosie 8
metal@@ 8
skul@@ 8
das@@ 8
tica 8
planet@@ 8
exem@@ 8
leviathan 8
neurolo@@ 8
brit@@ 8
partment 8
abel 8
cutt@@ 8
lingui@@ 8
opium 8
sori@@ 8
iran-@@ 8
matically 8
journ@@ 8
dvds 8
confli@@ 8
opa@@ 8
down-@@ 8
loh 8
robicsek 8
ario 8
stle 8
maine 8
mist 8
theremin 8
func@@ 8
perio@@ 8
pete 8
chen@@ 8
embryos 8
fili@@ 8
arnold 8
mei@@ 8
wet@@ 8
linear@@ 8
bionic@@ 8
attac@@ 8
techno@@ 8
traje@@ 8
hyperson@@ 8
alberta 8
skyline 8
rand@@ 8
buckminster 8
beginn@@ 8
itunes 8
port-au-prince 8
tee@@ 8
twitter@@ 8
kler 8
ply 8
tenden@@ 8
maryland 8
warm@@ 8
volunte@@ 8
flyer 8
mast 8
thos 8
edith 8
ith 8
nug@@ 8
immun@@ 8
bra 8
herbie 8
fle 8
axi@@ 8
vier 8
chevy 8
crick 8
diane 8
modifi@@ 8
umar 8
malawi 8
46@@ 8
lak@@ 8
oud 8
dabad 8
bmi 8
pei 8
chlorop@@ 8
tages 8
maccready 8
willi@@ 8
jessica 8
fanta@@ 8
encoder 8
rad@@ 8
nk 8
bpa 8
dson 8
pessi@@ 8
dium 8
jai@@ 8
joplin 8
responsi@@ 8
joey 8
tyler 8
govern@@ 8
ano 8
nigeri@@ 8
miner 8
shmi 8
neumann 8
improv 8
paula 8
vana 8
vishn@@ 8
wisconsin 8
fuge 8
flir@@ 8
okin@@ 8
yi@@ 8
hh@@ 8
o. 8
kath@@ 8
jour@@ 8
lick@@ 8
qualit@@ 8
bap@@ 8
gratu@@ 8
dialog 8
willie 8
cpu 8
bio 8
man-@@ 8
girl@@ 8
disser@@ 8
wack@@ 8
pauling 8
sophia 8
barbecue 8
organ@@ 8
tore 8
kan 8
ethan 8
rocky 8
edison 8
747 8
torna@@ 8
frag@@ 8
adventi@@ 8
cover@@ 8
bunker 8
endea@@ 8
gorillas 8
kofi 8
annan 8
span@@ 8
petersburg 8
wiki@@ 8
jose 8
domen 8
pe-@@ 8
raleigh 8
mption 8
geomet@@ 8
ghraib 8
guit@@ 8
amd 8
marathons 8
priori@@ 8
syste@@ 8
kobe 8
dentally 8
adams 8
liz 8
tories 8
palin 8
philips 8
rca 8
solidar@@ 8
pranav 8
reti@@ 8
fool@@ 8
gering 8
anato@@ 7
ores 7
noam 7
carmen 7
robbins 7
state-@@ 7
1971 7
llo 7
kathryn 7
antiqu@@ 7
dner 7
point-@@ 7
krishn@@ 7
lauren 7
neutrinos 7
kinect 7
nate 7
pachy@@ 7
tili@@ 7
confi@@ 7
naomi 7
qualifi@@ 7
norm@@ 7
uv@@ 7
geoffrey 7
glac@@ 7
cel 7
cere@@ 7
lag 7
eter 7
juarez 7
sponsor@@ 7
metron@@ 7
harv@@ 7
rich@@ 7
mosqu@@ 7
stur@@ 7
rhode 7
cken 7
v-@@ 7
tment 7
tera 7
bomber 7
buffet 7
jm 7
sche 7
annie 7
isla@@ 7
h. 7
vic 7
beau@@ 7
idy@@ 7
semester 7
fildes 7
helios 7
ishment 7
coast@@ 7
timothy 7
spencer 7
ibuprofen 7
michel@@ 7
rossy 7
sistema 7
firewall 7
nikol@@ 7
kro@@ 7
deniso@@ 7
xiaoping 7
note@@ 7
ellen 7
blair 7
timel@@ 7
media-@@ 7
usion 7
tetr@@ 7
ahmadin@@ 7
inclu@@ 7
tender 7
aaron 7
zeitgeist 7
wac@@ 7
dewey 7
veli@@ 7
ecks 7
reuters 7
ariely 7
gaby@@ 7
asha 7
aless@@ 7
venti@@ 7
db 7
mysti@@ 7
gest 7
quez 7
kilo 7
perv@@ 7
fana@@ 7
jurvetson 7
ensemble 7
mali 7
gluten 7
beatrice 7
scha@@ 7
rick@@ 7
infr@@ 7
enne 7
laurie 7
stoma@@ 7
codex 7
keene 7
bose 7
through@@ 7
julius 7
sell@@ 7
jung 7
amt 7
slas@@ 7
1912 7
ese@@ 7
gments 7
dick@@ 7
dyst@@ 7
opera@@ 7
campaig@@ 7
lovins 7
vide@@ 7
cas 7
cala 7
troph@@ 7
ender 7
dows 7
space-@@ 7
metropoli@@ 7
galvan@@ 7
instit@@ 7
zens 7
menopause 7
pol 7
josh 7
baltimore 7
mously 7
custo@@ 7
marcel 7
ores@@ 7
canyons 7
be-@@ 7
demor@@ 7
1954 7
stro 7
parikrma 7
carl@@ 7
mauritius 7
chir@@ 7
boot@@ 7
schedul@@ 7
mycop@@ 7
probio@@ 7
ecx 7
dodgers 7
ecuador 7
turi@@ 7
sandy 7
guil@@ 7
inda 7
ok@@ 7
cept@@ 7
unts 7
buch@@ 7
gros@@ 7
preser@@ 7
r.@@ 7
elli@@ 7
neuro-@@ 7
gly 7
kelley 7
tolsto@@ 7
tier@@ 7
bene@@ 7
legen@@ 7
pac-@@ 7
swaptree 7
attenborough 7
7-@@ 7
cyborg 7
gom@@ 7
è@@ 7
starck 7
twain 7
verti@@ 7
berkley 7
dema 7
spoofer 7
rotum 7
cardio@@ 7
tank@@ 7
lega@@ 7
lus@@ 7
w. 7
rhi@@ 7
obsc@@ 7
visit@@ 7
jenny 7
pyrami@@ 7
portfolio 7
freeman 7
kun@@ 7
pes@@ 7
hyperi@@ 7
degeneration 7
hell@@ 7
stream@@ 7
ip 7
ack@@ 7
hillis 7
rudi@@ 7
mafia 7
dient 7
voo@@ 7
egos 7
as-@@ 7
polis 7
belon@@ 7
diag@@ 7
gend@@ 7
tish 7
joyce 7
lol@@ 7
lessig 7
tempo 7
element@@ 7
entertain@@ 7
ufos 7
enthusi@@ 7
ipcc 7
con 7
formaldehy@@ 7
rabbis 7
trig@@ 7
tedness 7
electr@@ 7
blackberry 7
etry 7
aber@@ 7
leymah 7
mangro@@ 7
u.@@ 7
ord 7
uniqu@@ 7
tle 7
blog@@ 7
ks@@ 7
rationale 7
kt@@ 7
busines@@ 7
mandel@@ 7
brot 7
chester 7
caro@@ 7
br 7
flan@@ 7
eur 7
hygiene 7
fa 7
joan 7
execu@@ 7
okol@@ 7
regre@@ 7
burn@@ 7
derartu 7
tulu 7
sus 7
param@@ 7
sinclair 7
arsenal 7
opi@@ 7
kistan 7
buddh@@ 7
hew@@ 7
web-@@ 7
taskrabbit 7
gail 7
isot@@ 7
certi@@ 7
bacteri@@ 7
nei@@ 7
quit@@ 7
bule 7
odys@@ 7
shermer 7
appear@@ 7
kerry 7
polynes@@ 7
n1 7
griff@@ 7
investor 7
dago@@ 7
brainstor@@ 7
sper@@ 7
t-shirts 7
elo@@ 7
antonio 7
sarajevo 7
babysi@@ 7
seoul 7
gent@@ 7
tamil 7
suns 7
critici@@ 7
tox@@ 7
liter@@ 7
biaf@@ 7
noaa 7
cow@@ 7
vil@@ 7
hava 7
e-mail 7
airstream 7
explan@@ 7
ordinarily 7
toast@@ 7
albat@@ 7
video@@ 7
year-@@ 7
buddhas 7
gyp@@ 7
99@@ 7
chopin 7
vitam@@ 7
assem@@ 7
met@@ 7
celebra@@ 7
strand@@ 7
google@@ 7
kev@@ 7
percep@@ 7
thle@@ 7
polye@@ 7
carbon@@ 7
brin 7
dood@@ 7
stration 7
contain@@ 7
opy 7
habi 7
muster 7
mont@@ 7
penelope 7
1890 7
dise@@ 7
portu@@ 7
villa 7
prepar@@ 7
dracorex 7
appropri@@ 7
pcbs 7
compan@@ 7
playstation 7
toris 7
agra@@ 7
action@@ 7
latrine 7
freest@@ 7
chefs 7
ado 7
ego@@ 7
pate 7
viagra 7
qat@@ 7
diam@@ 7
randy 7
fen@@ 7
uri@@ 7
monica 7
asw@@ 7
gly@@ 7
jim@@ 7
parasi@@ 7
amer 7
nathaniel 7
schum@@ 7
zetas 7
uba 7
gell-mann 7
science-@@ 7
essenti@@ 7
laden@@ 7
institu@@ 7
horizon@@ 7
replac@@ 7
broadway 7
strug@@ 7
curitiba 7
rem 7
hypnoti@@ 7
elimin@@ 7
= 7
seligman 7
altru@@ 7
mut@@ 7
success@@ 7
aristoteli@@ 7
layma 7
hm@@ 7
vers@@ 7
enron 7
eli 7
revel@@ 7
oren 7
cain 7
etes 7
6-@@ 7
lankton 7
agi@@ 7
mosa@@ 7
nerv@@ 7
kili@@ 7
symmetri@@ 7
levine 7
toug@@ 7
tribunal 7
shreddies 7
dit 7
vos 7
anticip@@ 7
reu@@ 7
sacramento 7
borges 7
robbie 7
forest@@ 7
delic@@ 7
atmosp@@ 7
mcmurdo 7
intro@@ 7
e.t. 7
techni@@ 7
otaku 7
kill@@ 7
viscer@@ 7
wade 7
counsel@@ 7
module 7
haha@@ 7
dakota 7
hasan 7
zational 7
tex 7
traumati@@ 7
kermit 7
cin 7
pf@@ 7
stereot@@ 7
cloud@@ 7
appli@@ 7
sultan 7
beth 7
quantifi@@ 7
pseu@@ 7
foli@@ 7
malé 7
bt 7
190 7
funk@@ 7
mutter@@ 7
1939 7
lear 7
% 7
dhar@@ 7
smartphones 7
claes 7
oldenburg 7
cambo@@ 7
rwand@@ 7
allosphere 7
teries 7
patricia 7
t-up 7
dy-@@ 7
dill@@ 7
enab@@ 6
kine@@ 6
stick@@ 6
hip-@@ 6
agra 6
disne@@ 6
dinger 6
gur@@ 6
photovol@@ 6
enes 6
int@@ 6
ando 6
novo@@ 6
mps 6
crick@@ 6
eder 6
comman@@ 6
tow@@ 6
rott@@ 6
nanometer 6
phosphor@@ 6
king@@ 6
abili@@ 6
protag@@ 6
avi@@ 6
turally 6
plex 6
bel 6
umines@@ 6
wes@@ 6
canadi@@ 6
braun 6
invol@@ 6
schro@@ 6
account@@ 6
ose 6
vory 6
fox@@ 6
speak@@ 6
zucker@@ 6
ey@@ 6
actic 6
osity 6
stad@@ 6
aa 6
( 6
lik@@ 6
gela@@ 6
liest 6
gig 6
hau@@ 6
infi@@ 6
1000 6
river@@ 6
joystick 6
schwar@@ 6
cht 6
accep@@ 6
ant-@@ 6
da-@@ 6
cript 6
circu@@ 6
hamas 6
gurus 6
bler 6
pi 6
ingness 6
bins 6
fantas@@ 6
googl@@ 6
patriot 6
mel 6
bec@@ 6
rau@@ 6
promis@@ 6
natu@@ 6
riet 6
vices 6
lasma 6
taxi@@ 6
masse 6
experi@@ 6
eine 6
por 6
afgh@@ 6
cleverer 6
stadi@@ 6
locke 6
biome@@ 6
fischer@@ 6
ceram@@ 6
travel@@ 6
emergen@@ 6
famil@@ 6
ritu@@ 6
maid 6
mell@@ 6
euph@@ 6
ma-@@ 6
geiger 6
hydra@@ 6
agr@@ 6
wonder@@ 6
dollar@@ 6
hi-@@ 6
sir@@ 6
dak@@ 6
kant 6
code@@ 6
scholar@@ 6
job@@ 6
infan@@ 6
stark 6
abra@@ 6
sives 6
tice 6
dee 6
har 6
rels 6
jake 6
futuri@@ 6
astrolab@@ 6
roller 6
stein@@ 6
simil@@ 6
impro@@ 6
allison 6
u-@@ 6
cept 6
plei@@ 6
reper@@ 6
orie 6
manipu@@ 6
deutsch 6
bhu@@ 6
simp@@ 6
sole@@ 6
ution 6
tory 6
motiva@@ 6
och@@ 6
zab@@ 6
controll@@ 6
station@@ 6
rad 6
ita 6
mir 6
fam@@ 6
such@@ 6
lud@@ 6
allende 6
impul@@ 6
phthal@@ 6
valent 6
beno@@ 6
fing@@ 6
kac@@ 6
eters 6
biolo@@ 6
glimp@@ 6
ges@@ 6
nec@@ 6
geb@@ 6
lle 6
lett-@@ 6
kel 6
sung 6
shei@@ 6
gap@@ 6
reb@@ 6
ano@@ 6
alain 6
commission@@ 6
chal@@ 6
lit@@ 6
unders 6
tipper 6
start@@ 6
gupta 6
deo 6
play-@@ 6
descri@@ 6
tast@@ 6
gam 6
puer@@ 6
cole 6
recogni@@ 6
zim@@ 6
adequ@@ 6
embra@@ 6
genous 6
feld 6
rescu@@ 6
leon@@ 6
latte 6
geous 6
best@@ 6
shrin@@ 6
eline 6
occupi@@ 6
expe@@ 6
tyrannosaurus 6
wander@@ 6
amazon@@ 6
albu@@ 6
hu 6
ihu@@ 6
.a. 6
raid 6
til 6
liar 6
skate@@ 6
stud@@ 6
rober@@ 6
anagnorisis 6
fic@@ 6
nuggets 6
wen 6
neon@@ 6
kis 6
reci@@ 6
stin 6
@ 6
dients 6
tung 6
emotion@@ 6
nir@@ 6
riel 6
sants 6
asp@@ 6
side-@@ 6
u.s.-@@ 6
signi@@ 6
pc@@ 6
madur@@ 6
frame@@ 6
locom@@ 6
couch@@ 6
ef 6
worth@@ 6
meet@@ 6
eil 6
bie 6
wal 6
^ 6
prising 6
aes@@ 6
arsen@@ 6
aggressi@@ 6
kar 6
ale@@ 6
comedi@@ 6
seminar 6
regeneration 6
parli@@ 6
kon 6
eb@@ 6
hof@@ 6
arin 6
percent@@ 6
satis@@ 6
auto-@@ 6
aband@@ 6
small-@@ 6
aaaa@@ 6
unab@@ 6
finder 6
esh 6
hamp@@ 6
za-@@ 6
mens 6
aor@@ 6
opti@@ 6
college-@@ 6
theat@@ 6
need@@ 6
elt 6
bachel@@ 6
lager 6
sava@@ 6
wen@@ 6
iel 6
volk@@ 6
britan@@ 6
tig@@ 6
do-it-@@ 6
bezo@@ 6
monu@@ 6
amm@@ 6
pson 6
continu@@ 6
smar@@ 6
kru@@ 6
ballo@@ 6
quer@@ 6
quarti@@ 6
hm 6
lazar@@ 6
rr@@ 6
respect@@ 5
aid@@ 5
unch 5
sinus@@ 5
excer@@ 5
daun@@ 5
geon 5
yland 5
sili@@ 5
zig@@ 5
effe@@ 5
incar@@ 5
bitter@@ 5
other@@ 5
mize 5
sim@@ 5
eis@@ 5
verb@@ 5
trea@@ 5
aba 5
info@@ 5
hai 5
hygi@@ 5
lifel@@ 5
abe 5
mean@@ 5
fund@@ 5
doms 5
steu@@ 5
prototyp@@ 5
moderator 5
rea@@ 5
thur 5
nier 5
brazi@@ 5
ote 5
black-@@ 5
bial 5
flung 5
mah@@ 5
ha-@@ 5
immedi@@ 5
upp@@ 5
ite 5
orni@@ 5
strating 5
noti@@ 5
ateful 5
anthro@@ 5
tually 5
eland 5
tabo@@ 5
s-on 5
pasta 5
arbitr@@ 5
stuntman 5
matics 5
sier 5
musli@@ 5
nik 5
ht@@ 5
alds 5
mana@@ 5
ster-@@ 5
vie@@ 5
food-@@ 5
khan@@ 5
feld@@ 5
drin@@ 5
space@@ 5
mira@@ 5
defic@@ 5
chlor@@ 5
edly 5
megawatt 5
rors 5
astron@@ 5
ey-@@ 5
exer@@ 5
multination@@ 5
arran@@ 5
die-@@ 5
vili@@ 5
ener 5
millenni@@ 5
excep@@ 5
gather@@ 5
trie@@ 5
glen@@ 5
xe 5
encounter@@ 5
happ@@ 5
behavi@@ 5
himalay@@ 5
onally 5
prior@@ 5
zac@@ 5
aha 5
wand 5
euro@@ 5
is-@@ 5
therap@@ 5
lind@@ 5
leans 5
amit@@ 5
arre@@ 5
stif@@ 5
incen@@ 5
neutrin@@ 5
capac@@ 5
gration 5
arbit@@ 5
author@@ 5
stopp@@ 5
hub@@ 5
fest@@ 5
citly 5
bor 5
pment 5
den-@@ 5
gib@@ 5
stil@@ 5
geckos 5
thie@@ 5
pas 5
sels 5
kran 5
21@@ 5
ticals 5
wit@@ 5
appar@@ 5
feel@@ 5
osau@@ 5
era@@ 5
irani@@ 5
ehrlich 5
muni@@ 5
massi@@ 5
kul@@ 5
batter@@ 5
yfish 5
ultr@@ 5
lotto 5
trium@@ 5
coch@@ 5
floss 5
holo@@ 5
wolf@@ 5
ball-@@ 5
dei@@ 5
expect@@ 5
trau@@ 5
nev@@ 5
rut@@ 5
synchron@@ 5
kane 5
graph@@ 5
bever@@ 5
wis@@ 5
ultra@@ 5
like@@ 5
wie@@ 5
ten-@@ 5
ld 5
western@@ 5
chens 5
cet@@ 5
prei@@ 5
kab@@ 5
weblogs 5
depressi@@ 5
codi@@ 5
grun@@ 5
koso@@ 5
avo@@ 5
glam@@ 5
slow@@ 5
bie@@ 5
walt 5
pixel 5
pop@@ 5
ene@@ 5
montage 5
mea@@ 5
tv-@@ 5
motive 5
afel 5
ign 5
muff@@ 5
nia 5
annu@@ 5
found@@ 5
ante 5
minu@@ 5
stung 5
tw@@ 5
surro@@ 5
instrument@@ 5
langu@@ 5
vens 5
9.@@ 5
raff@@ 5
miner@@ 5
car-@@ 5
differ@@ 5
contr@@ 5
expli@@ 5
gered 5
ros@@ 5
rist 5
desig@@ 5
cei@@ 5
000@@ 5
ament 5
stead 5
alp@@ 5
gymnasium 5
icon@@ 5
hoff@@ 5
templ@@ 5
trand 5
jag@@ 5
dragon@@ 5
inn 5
tag@@ 5
captch@@ 5
musta@@ 5
todes 5
spit@@ 5
hend 5
die@@ 5
menop@@ 5
ctual 5
school-@@ 5
parameter 5
modu@@ 5
orities 5
tode 5
prevent@@ 5
chri@@ 5
facul@@ 5
exhilar@@ 5
figh@@ 5
ela@@ 5
expos@@ 5
tatto@@ 5
psychop@@ 5
mountain@@ 5
atten 5
modern@@ 5
ubi@@ 5
alisch 5
gman 5
taneous 5
fris@@ 5
jell@@ 5
ffe 5
solar@@ 5
femini@@ 5
mitten 5
tanz@@ 5
bik 5
two@@ 5
juli@@ 5
zig 5
vivi@@ 5
absur@@ 5
tribu@@ 5
ully 5
kas 5
aida 5
chair@@ 5
degre@@ 5
skr@@ 5
eren 5
industr@@ 5
brah@@ 5
face@@ 5
more@@ 5
schen 5
staf@@ 5
quas@@ 5
insulin@@ 5
bron@@ 5
-in-@@ 5
sci@@ 5
reich 5
sine 5
kapu@@ 5
ssi@@ 5
contro@@ 5
turk@@ 5
teds 5
iden 5
inspi@@ 5
maer@@ 5
phenomen@@ 5
aa@@ 5
thom@@ 5
ambassad@@ 5
privat@@ 5
malari@@ 5
pler 5
sich@@ 5
gress 5
tible 5
certific@@ 5
protot@@ 5
gator 5
inevit@@ 5
ng@@ 5
vism 5
fail@@ 5
jose@@ 4
potenti@@ 4
wein@@ 4
sprang 4
viron@@ 4
hart@@ 4
schrö@@ 4
thres@@ 4
knopf 4
smart@@ 4
sest 4
shepher@@ 4
oct@@ 4
suit@@ 4
tara@@ 4
omes 4
flau@@ 4
orten 4
mm-@@ 4
spiri@@ 4
elec@@ 4
califor@@ 4
cola 4
develop@@ 4
horr@@ 4
hack@@ 4
unimagin@@ 4
appro@@ 4
naz@@ 4
transpar@@ 4
forestation 4
tutor@@ 4
vably 4
fischer 4
rhetor@@ 4
riski@@ 4
brill@@ 4
neur@@ 4
pite 4
ult 4
kenne@@ 4
challen@@ 4
titu@@ 4
vat@@ 4
pension@@ 4
esis 4
pop-@@ 4
gos 4
magnifi@@ 4
nois@@ 4
angst 4
holl@@ 4
jude 4
mobil@@ 4
ctiveness 4
consci@@ 4
rockstar 4
agon 4
vulner@@ 4
hacker@@ 4
routin@@ 4
labyrinth 4
kom@@ 4
acht 4
ticed 4
mass@@ 4
gio 4
kern@@ 4
tas 4
shou@@ 4
kie@@ 4
va-@@ 4
fashioned 4
arr@@ 4
popu@@ 4
mich@@ 4
gem 4
versary 4
samer 4
billi@@ 4
verage 4
metr@@ 4
worl@@ 4
bens 4
nun 4
mush@@ 4
expand@@ 4
kos 4
accessi@@ 4
emo@@ 4
convin@@ 4
progno@@ 4
thane 4
cks@@ 4
kraft 4
donn@@ 4
spri@@ 4
mahl@@ 4
centu@@ 4
spani@@ 4
guten@@ 4
voy@@ 4
see-@@ 4
leblo@@ 4
dopamin@@ 4
blas@@ 4
raft 4
encyclo@@ 4
haus@@ 4
mund 4
stating 4
accu@@ 4
silic@@ 4
vey 4
shoul@@ 4
zit@@ 4
cock@@ 4
gestion 4
fabul@@ 4
synap@@ 4
supre@@ 4
hol 4
ik 4
profi@@ 4
pedia 4
ã@@ 4
bots@@ 4
vene@@ 4
ghtful 4
renew@@ 4
marvel@@ 4
gels 4
chines@@ 4
leth@@ 4
enth@@ 4
cke 4
sterili@@ 4
fung@@ 4
alphab@@ 4
kunst@@ 4
oto@@ 4
mug@@ 4
weiser 4
expec@@ 4
resear@@ 4
fter 4
unter 4
abs 4
volun@@ 4
astronom@@ 4
suggesti@@ 4
large-@@ 4
frie@@ 4
wich 4
complic@@ 4
arot 4
primi@@ 4
rett 4
aly@@ 4
stens 4
iny 4
stab 4
hl 4
inhab@@ 4
hast 4
satur@@ 4
nami@@ 4
resur@@ 4
entin 4
ween 4
kol@@ 4
ader 4
tern 4
locker 4
week@@ 4
mart 4
decision-@@ 4
bm@@ 4
robben 4
orthodo@@ 4
4-@@ 4
tea@@ 4
nus@@ 4
ahen 4
trivi@@ 4
elast@@ 4
tod 4
90@@ 4
architec@@ 4
ros 4
brie@@ 4
oper 4
bilities 4
flick@@ 4
ww@@ 4
100@@ 4
n. 4
enligh@@ 4
extre@@ 4
kavi@@ 4
pau@@ 4
practic@@ 4
ps@@ 4
assess@@ 4
oun@@ 4
profit-@@ 4
banglades@@ 4
ghted 4
kung 4
compre@@ 4
ied 4
erin 4
alas@@ 4
arial 4
friedrich 4
sinn@@ 4
koko 4
hmmm 4
elizab@@ 4
tasking 4
presi@@ 4
frei@@ 4
margar@@ 4
seg@@ 4
aber 4
hic 4
pari@@ 4
etal 4
ido@@ 4
meaning@@ 4
entary 4
dal@@ 4
infla@@ 4
ypt 4
phosp@@ 4
pecu@@ 4
flag@@ 4
fant@@ 4
catho@@ 4
essen@@ 4
dread@@ 4
jes@@ 4
schnei@@ 4
distan@@ 4
rome@@ 4
robu@@ 4
mack@@ 4
ales 4
rum 4
ym@@ 4
drum@@ 4
afri@@ 4
ings@@ 4
wher@@ 4
bos 4
reflexi@@ 4
nagel 4
geop@@ 4
dir 4
indones@@ 4
orchest@@ 4
12.@@ 4
elyn 4
pow@@ 4
mauri@@ 4
sos 4
pup@@ 4
tten@@ 4
kre@@ 4
197@@ 4
uit 4
attle 4
tete 4
symp@@ 4
milie@@ 4
gell@@ 4
polar@@ 4
asse 4
-fi 4
mysteri@@ 4
zel 4
hindu@@ 4
zeal@@ 4
gus 4
cisco 4
spiel@@ 4
chai 4
your@@ 4
ç@@ 4
hous@@ 4
kus@@ 4
orchestr@@ 4
ortho@@ 4
s.@@ 4
discover@@ 4
bach@@ 4
quadra@@ 4
semble 4
lag@@ 4
doch 4
alum@@ 4
circa 4
ley@@ 4
zon 4
la-@@ 4
formal@@ 4
lov@@ 4
episo@@ 4
chel@@ 4
mly 4
const@@ 4
perfor@@ 4
อ@@ 4
airs 4
strateg@@ 4
auge 4
b.@@ 4
cyber-@@ 4
cybor@@ 4
hormon@@ 4
aner 4
myce@@ 4
ater@@ 4
terrori@@ 4
payo@@ 4
gele@@ 4
cafe@@ 4
existenti@@ 4
illeg@@ 4
mb 4
seem@@ 4
flatter 4
heir@@ 4
mme 4
omen@@ 4
att 4
premiere 4
evolu@@ 3
tet 3
baum@@ 3
arier 3
ato@@ 3
bang@@ 3
primar@@ 3
genei@@ 3
tise 3
aper 3
spur@@ 3
sager 3
nich@@ 3
aar@@ 3
ambulan@@ 3
oton@@ 3
ê@@ 3
opar@@ 3
tner 3
phic 3
ones@@ 3
berg@@ 3
ois 3
dener 3
soc@@ 3
lium 3
aga@@ 3
internets 3
mode@@ 3
fixi@@ 3
midd@@ 3
bao 3
cras@@ 3
care@@ 3
indepen@@ 3
ired 3
datab@@ 3
dimit@@ 3
sburg 3
sack 3
angri@@ 3
ator@@ 3
ur-@@ 3
dicke 3
gestalt 3
prise 3
iest 3
volks@@ 3
wagen 3
prax@@ 3
brenn@@ 3
franc@@ 3
enz 3
athan 3
ae@@ 3
nein 3
gabe 3
uni 3
buddhi@@ 3
vil 3
kland 3
humi@@ 3
gross@@ 3
politi@@ 3
pon 3
vict@@ 3
manuel 3
diarr@@ 3
wald 3
vehi@@ 3
borough 3
inferi@@ 3
zir@@ 3
mph 3
enor@@ 3
himalaya 3
venting 3
nels 3
posit@@ 3
tomo@@ 3
pps 3
rigi@@ 3
oh@@ 3
substan@@ 3
argumentation 3
koll@@ 3
quantita@@ 3
phas@@ 3
glas 3
liby@@ 3
alis@@ 3
diplom@@ 3
dollar-@@ 3
ferin 3
eler@@ 3
ims 3
papa 3
clas@@ 3
inquir@@ 3
zent@@ 3
seme@@ 3
cials 3
amazonas 3
angio@@ 3
internet-@@ 3
relev@@ 3
bush-@@ 3
dab@@ 3
ungs 3
ober@@ 3
them@@ 3
gelo@@ 3
eben 3
opini@@ 3
auff@@ 3
genie 3
intervie@@ 3
ske@@ 3
kinder 3
schle@@ 3
tun 3
signifi@@ 3
kell@@ 3
tissu@@ 3
john@@ 3
mmi@@ 3
know-@@ 3
econ@@ 3
tsun@@ 3
--@@ 3
conspi@@ 3
him@@ 3
mble@@ 3
jo-@@ 3
whir@@ 3
curricul@@ 3
intelligent@@ 3
exempl@@ 3
ist@@ 3
tung@@ 3
ktor 3
wis 3
prag@@ 3
tau@@ 3
ems 3
kak@@ 3
apri@@ 3
ken-@@ 3
elab@@ 3
hef@@ 3
inve@@ 3
unger 3
kop@@ 3
kris@@ 3
citi@@ 3
rigor@@ 3
ente 3
unken 3
gravitation 3
rie@@ 3
iron@@ 3
entic@@ 3
hart 3
goti@@ 3
dez@@ 3
enthusiast@@ 3
rosa 3
alu@@ 3
dipl@@ 3
marath@@ 3
nex@@ 3
chol@@ 3
mohammed 3
iken 3
agno@@ 3
scaff@@ 3
sach@@ 3
halten@@ 3
haus 3
ñ@@ 3
bauer 3
diction@@ 3
nest@@ 3
curri@@ 3
methodi@@ 3
business-@@ 3
rohe 3
mock@@ 3
guidel@@ 3
ema 3
etown 3
schizop@@ 3
fisch@@ 3
yester@@ 3
gegen@@ 3
schatz 3
hirsh@@ 3
stil 3
prison@@ 3
acker@@ 3
saurus 3
cently 3
programm@@ 3
iti 3
google-@@ 3
este@@ 3
fig 3
gency 3
geni@@ 3
és 3
fu 3
warn@@ 3
richter 3
requisi@@ 3
photogra@@ 3
domest@@ 3
atz 3
bs@@ 3
kav@@ 3
chao@@ 3
medes 3
ech 3
iss 3
opport@@ 3
tzer 3
weh 3
des-@@ 3
uner@@ 3
later@@ 3
ause 3
juni@@ 3
insel 3
etc. 3
det 3
marri@@ 3
mobi@@ 3
phant@@ 3
ele 3
orche@@ 3
ü@@ 3
wehr@@ 3
authentic@@ 3
dialo@@ 3
anta 3
schol@@ 3
tol@@ 3
depen@@ 3
absol@@ 3
faction 3
african-@@ 3
tyranno@@ 3
vocabul@@ 3
zine 3
metro@@ 3
belo@@ 3
place@@ 3
bo-@@ 3
dv@@ 3
valence 3
spider@@ 3
avat@@ 3
saf@@ 3
olog@@ 3
ceptions 3
toi@@ 3
achil@@ 3
iq@@ 3
ecu@@ 3
zep@@ 3
ador 3
stem@@ 3
stimu@@ 3
ethi@@ 3
angiogenic 3
chel 3
latr@@ 3
gment 3
thyl@@ 3
titan@@ 3
dass 3
scienti@@ 3
arou@@ 3
strie@@ 3
uts 3
won@@ 3
stol@@ 3
dnis@@ 3
ford-@@ 3
hurri@@ 3
orgas@@ 3
book-@@ 3
teu@@ 3
kum@@ 3
mafi@@ 3
dur 3
krist@@ 3
shakespe@@ 3
klas@@ 3
kap@@ 3
hn@@ 3
republi@@ 3
olymp@@ 3
vag@@ 3
karti@@ 3
atures 3
seine 3
son-@@ 3
riss 3
ultras@@ 3
nanot@@ 3
nacht@@ 3
wey 3
last@@ 3
disappe@@ 3
sexu@@ 3
almo@@ 3
seroton@@ 3
rupe@@ 3
luck@@ 3
tem 3
mie 3
strangel@@ 3
string@@ 3
det@@ 3
anium 3
swis@@ 3
guarante@@ 3
mend@@ 3
imag@@ 3
sene 3
teller 3
andes 3
testim@@ 3
ien 3
theore@@ 3
victi@@ 3
sie 3
nichol@@ 3
bau@@ 3
kleiner 3
deep@@ 3
ih@@ 3
venezu@@ 3
synthe@@ 3
metall@@ 3
genug 3
wart 3
benjam@@ 3
prof@@ 3
mais 3
coli 3
ernst 3
ond 3
ppm 3
staff@@ 3
dia@@ 3
kum 3
heu@@ 3
erden 3
â 3
 3
 3
amer@@ 3
bis 2
calyp@@ 2
alie 2
mie@@ 2
vail@@ 2
compati@@ 2
rucksack 2
lauf@@ 2
derly 2
country@@ 2
tinker@@ 2
nen 2
omen 2
honest@@ 2
corpo@@ 2
hosp@@ 2
ieties 2
ulti@@ 2
lem 2
w.@@ 2
dership 2
vention 2
dlock 2
kram 2
symph@@ 2
rehabili@@ 2
computer@@ 2
leiter 2
arte@@ 2
bizar@@ 2
cise 2
dinosau@@ 2
essen 2
sanit@@ 2
prot@@ 2
wale 2
invest@@ 2
alex@@ 2
iker 2
pid 2
ton-@@ 2
modus 2
arche 2
gei@@ 2
afro@@ 2
superno@@ 2
vae 2
tten 2
fon 2
energe@@ 2
aller 2
near@@ 2
ern 2
besser 2
vio@@ 2
urin 2
privile@@ 2
eth 2
jul@@ 2
garb@@ 2
catastrop@@ 2
brew 2
possi@@ 2
mins 2
foo@@ 2
inder 2
ziger 2
can-@@ 2
inju@@ 2
austral@@ 2
try@@ 2
flei@@ 2
scher 2
oul 2
massa@@ 2
geries 2
spil@@ 2
parado@@ 2
quid 2
aya 2
ā@@ 2
sala@@ 2
whirl@@ 2
für 2
iges 2
gebra@@ 2
citizen@@ 2
ries@@ 2
tasmani@@ 2
rom 2
roh@@ 2
hea 2
zog 2
chy@@ 2
mensch 2
gier 2
anglo@@ 2
ffen 2
butt@@ 2
gif@@ 2
arities 2
einem 2
illas 2
ppe 2
schi@@ 2
live-@@ 2
vege@@ 2
seba@@ 2
stunt@@ 2
maus@@ 2
mein@@ 2
herr 2
happen@@ 2
minder@@ 2
boo 2
astero@@ 2
tribun@@ 2
analo@@ 2
proper@@ 2
mium 2
opus 2
humming@@ 2
philanthrop@@ 2
bani@@ 2
cucum@@ 2
toge@@ 2
iers 2
preju@@ 2
glau@@ 2
ib 2
brett 2
hing@@ 2
atz@@ 2
irre@@ 2
eisen 2
rauf 2
balan@@ 2
programme 2
sear@@ 2
toy@@ 2
gen. 2
sep@@ 2
nem 2
ige 2
nen@@ 2
unes 2
mails 2
zt 2
alles 2
tsch@@ 2
stren@@ 2
censor@@ 2
ps-@@ 2
muse@@ 2
perman@@ 2
landscap@@ 2
cheryl 2
fert 2
half@@ 2
ble-@@ 2
wus@@ 2
lette 2
eben@@ 2
lei 2
arthri@@ 2
rang@@ 2
waff@@ 2
infin@@ 2
entle@@ 2
198@@ 2
alters 2
halle 2
nette 2
reag@@ 2
qual@@ 2
gess@@ 2
lunge 2
schn@@ 2
smit@@ 2
kuba 2
yable 2
tlen@@ 2
small@@ 2
mail-@@ 2
approach@@ 2
quat@@ 2
egal 2
kels 2
om-@@ 2
stel 2
spiel 2
derick 2
alen 2
sz@@ 2
hinter@@ 2
mately 2
esse 2
health@@ 2
ost@@ 2
kh@@ 2
egypti@@ 2
sack@@ 2
koff@@ 2
² 2
epilep@@ 2
lang@@ 2
micha@@ 2
teres 2
embed@@ 2
u. 2
contempl@@ 2
rami@@ 2
mitt@@ 2
astrop@@ 2
alla@@ 2
aspe@@ 2
kleb@@ 2
verlei@@ 2
tuber@@ 2
alt 2
nach@@ 2
pizz@@ 2
hle 2
progressi@@ 2
cogni@@ 2
aum 2
mans 2
cht@@ 2
garten 2
anal@@ 2
habili@@ 2
schwei@@ 2
holt 2
train@@ 2
naj@@ 2
abled 2
dik@@ 2
partic@@ 2
tik@@ 2
tana 2
lern@@ 2
dramati@@ 2
sse 2
sprung 2
singapo@@ 2
spen@@ 2
jen 2
tod@@ 2
redwood-@@ 2
kg 2
phoeni@@ 2
lange 2
karo@@ 2
elementar@@ 2
atra@@ 2
ceptible 2
zwei@@ 2
chter 2
anthrop@@ 2
à 2
disci@@ 2
asters 2
ods 2
nst 2
excit@@ 2
complexi@@ 2
operative 2
hip@@ 2
berk@@ 2
blatt 2
wilde 2
apor@@ 2
noby@@ 2
hin 2
inform@@ 2
west-@@ 2
endanger@@ 2
paras@@ 2
face-@@ 2
ement@@ 2
complex@@ 2
ob 2
lemm@@ 2
charlot@@ 2
lep@@ 2
kus 2
denburg 2
wal-@@ 2
isse 2
iger 2
nun@@ 2
prostitu@@ 2
russ@@ 2
resili@@ 2
brookl@@ 2
empi@@ 2
miss@@ 2
atrice 2
isis 2
biotechnolo@@ 2
ece 2
therine 2
koch 2
calci@@ 2
novel@@ 2
onie 2
mmert 2
drin 2
dary 2
rosen@@ 2
aqua@@ 2
í 2
furni@@ 2
solu@@ 2
tha@@ 2
hio 2
kapa@@ 2
expon@@ 2
gression 2
3d-@@ 2
palme 2
spie@@ 2
millen@@ 2
dich@@ 2
onate 2
luf@@ 2
--- 2
abad 2
protokoll 2
fft 2
liger 2
leu@@ 2
bergs 2
enga@@ 2
volt 2
kuri@@ 2
entr@@ 2
oner 2
schu@@ 2
gung 2
cines 2
genial 2
twent@@ 2
destru@@ 2
toile@@ 2
vibr@@ 2
keller 2
kara@@ 2
zin 2
quisition 2
wana 2
intelligen@@ 2
atus 2
hunter-@@ 2
pox 2
telescop@@ 2
susta@@ 2
hier 2
ร 2
่ 2
000 2
kamer@@ 2
nucle@@ 2
beauti@@ 2
grie@@ 2
basket@@ 2
manufac@@ 2
abund@@ 2
serv@@ 2
outs@@ 2
further@@ 2
ultraso@@ 2
absolu@@ 2
sport@@ 2
schin@@ 2
dler 2
hri@@ 2
relation@@ 2
regener@@ 2
erob@@ 2
versi@@ 2
pavili@@ 2
eni@@ 2
kilome@@ 2
angi@@ 2
matthe@@ 2
bender 2
amateur@@ 2
hams 2
tempo@@ 2
brett@@ 2
awi 2
zium 2
fore 2
circuit@@ 2
anag@@ 2
bn@@ 2
rasi@@ 2
heter@@ 2
stian 2
plasti@@ 2
corpor@@ 2
dorf 2
transdu@@ 2
adel@@ 2
ceu@@ 2
tles 2
prim@@ 2
isra@@ 2
ceased 2
recyc@@ 2
delph@@ 2
guay 2
peop@@ 2
finale 2
schwa@@ 2
tack@@ 2
esthesia 2
ito@@ 2
funk 2
standard-@@ 2
cumu@@ 2
ind@@ 2
uss@@ 2
alo 2
ira@@ 2
oa@@ 2
eck@@ 2
humanit@@ 2
rifi@@ 2
ften 2
laut 2
prü@@ 2
beet@@ 2
sms-@@ 2
golf@@ 2
infecti@@ 2
ean 2
biot@@ 2
ondri@@ 2
klo@@ 2
kupp@@ 2
atur 2
genu@@ 2
spru@@ 2
penic@@ 2
rote 2
zet@@ 2
eigen@@ 2
performan@@ 2
lithi@@ 2
stans 2
teig 2
hiro@@ 2
zei@@ 2
atlan@@ 2
testoster@@ 2
desk@@ 2
sud@@ 2
hydrate 2
alga@@ 2
incredi@@ 2
ellen@@ 2
schmuck 2
aur@@ 2
phosphor 2
spiegel 2
verk@@ 2
figuration 2
bedient 2
digit@@ 2
ambia 2
wird 2
bett@@ 2
brei@@ 2
ssen 1
drich 1
schachtel 1
frontal@@ 1
vements 1
zel@@ 1
compon@@ 1
felder 1
minster 1
childr@@ 1
phr@@ 1
kapital 1
lö@@ 1
lich 1
onk@@ 1
licht@@ 1
nolo@@ 1
effi@@ 1
trum 1
palest@@ 1
ein-@@ 1
are-@@ 1
samar@@ 1
tie@@ 1
intui@@ 1
ingen 1
karb@@ 1
bier 1
dosis 1
ppel 1
druck 1
participa@@ 1
alumini@@ 1
regen@@ 1
milch 1
morgen 1
regnet 1
gere@@ 1
klon@@ 1
heavi@@ 1
recom@@ 1
dolph@@ 1
questi@@ 1
entre@@ 1
emis@@ 1
zip@@ 1
cil 1
repar@@ 1
tami@@ 1
eini@@ 1
gigan@@ 1
stard 1
iso@@ 1
eles 1
lichen 1
extr@@ 1
manufactur@@ 1
stille 1
entations 1
welle 1
tur 1
latz 1
tit@@ 1
zell@@ 1
kern 1
xide 1
doppel@@ 1
lige 1
dank 1
steward@@ 1
prostat@@ 1
genöss@@ 1
ische 1
geist@@ 1
eigentum 1
bern 1
bla 1
origam@@ 1
lk@@ 1
connect@@ 1
sump@@ 1
z-@@ 1
vill@@ 1
seil 1
japan@@ 1
mae@@ 1
bile 1
beza@@ 1
lebe@@ 1
chimpanze@@ 1
devel@@ 1
unities 1
送@@ 1
你@@ 1
葱 1
mento 1
toten 1
elen 1
gem@@ 1
base@@ 1
nass 1
jaze@@ 1
etab@@ 1
diesel@@ 1
ddin 1
schil@@ 1
stati@@ 1
peking 1
mmer@@ 1
lime@@ 1
vor-@@ 1
ubiquit@@ 1
maden 1
sahar@@ 1
ousa 1
atedly 1
phen 1
stag 1
inta@@ 1
gym@@ 1
lapt@@ 1
aka@@ 1
regen 1
splan@@ 1
â@@ 1
lymph@@ 1
.... 1
kais@@ 1
stie@@ 1
desto 1
mut 1
kolo@@ 1
mbers 1
veillan@@ 1
tum 1
eng 1
gottes@@ 1
ingo 1
diab@@ 1
schach@@ 1
room@@ 1
egoi@@ 1
kolle@@ 1
national@@ 1
laborat@@ 1
pran@@ 1
kends 1
kö@@ 1
alab@@ 1
fer-@@ 1
taschen 1
bei 1
guten 1
abend 1
sohn 1
bein 1
roug@@ 1
biolumines@@ 1
frei 1
mann@@ 1
rech@@ 1
iland 1
besie@@ 1
design-@@ 1
gedanken 1
£ 1
ingeni@@ 1
adjac@@ 1
macin@@ 1
filter@@ 1
exist@@ 1
ie-@@ 1
symb@@ 1
\ 1
sequen@@ 1
itre@@ 1
tonne 1
rhe@@ 1
facebook-@@ 1
kind-@@ 1
vagin@@ 1
deter 1
unprece@@ 1
blings 1
asse@@ 1
harr@@ 1
mein 1
kampf 1
estro@@ 1
kran@@ 1
sein@@ 1
tread@@ 1
netfli@@ 1
elles 1
stances 1
rett@@ 1
guine@@ 1
wurzel 1
chert 1
nah@@ 1
festi@@ 1
isten 1
ei 1
unbelie@@ 1
tifi@@ 1
imi@@ 1
rede 1
spaghet@@ 1
infor@@ 1
deck@@ 1
lawr@@ 1
ec 1
wege 1
swit@@ 1
cm 1
carcin@@ 1
zur 1
sance 1
bergen 1
bip 1
orous 1
amor@@ 1
ne-@@ 1
von@@ 1
flori@@ 1
witz@@ 1
wand@@ 1
weg@@ 1
repor@@ 1
xima@@ 1
breit@@ 1
tot 1
viel@@ 1
arithme@@ 1
ez@@ 1
weh@@ 1
gott 1
profit@@ 1
strich 1
nung 1
brief@@ 1
€ 1
faust@@ 1
mende 1
studi@@ 1
schaf@@ 1
teria 1
region@@ 1
online-@@ 1
bein@@ 1
viet@@ 1
dea@@ 1
link@@ 1
embry@@ 1
enlighten@@ 1
café 1
sapi@@ 1
chic@@ 1
geist 1
ktu@@ 1
ï@@ 1
reich@@ 1
core@@ 1
surge@@ 1
extin@@ 1
dented 1
auti@@ 1
softwar@@ 1
detro@@ 1
herit@@ 1
tze 1
pst 1
rent@@ 1
hetti 1
mathe@@ 1
matte 1
taskrab@@ 1
immer 1
ier@@ 1
korn 1
acci@@ 1
pl 1
gymn@@ 1
feuer@@ 1
peng 1
bilder@@ 1
arz@@ 1
chti@@ 1
ushahi@@ 1
kuns@@ 1
potat@@ 1
holz@@ 1
mclu@@ 1
ideal@@ 1
picas@@ 1
symbo@@ 1
com. 1
… 1
schwin@@ 1
wood-@@ 1
excell@@ 1
kee@@ 1
else@@ 1
iga 1
assic 1
* 1
mosqui@@ 1
wo 1
remember@@ 1
alph@@ 1
sst 1
profess@@ 1
candi@@ 1
hinder@@ 1
olympi@@ 1
jazz@@ 1
brasili@@ 1
schwe@@ 1
hten 1
sei 1
partici@@ 1
maus 1
stewar@@ 1
reka 1
ul 1
uno 1
passa@@ 1
gefil@@ 1
kot@@ 1
leber@@ 1
echt 1
christen 1
espe@@ 1
kenn@@ 1
respir@@ 1
ness@@ 1
trine 1
saat@@ 1
tok@@ 1
unter@@ 1
risi@@ 1
anagnor@@ 1
cen 1
zeit@@ 1
incenti@@ 1
robot@@ 1
mosk@@ 1
hine 1
mals 1
rants 1
adoles@@ 1
fester 1
ย@@ 1
ย 1
è 1
deutsche 1
metaph@@ 1
_ 1
chinas 1
phab@@ 1
sender 1
alexand@@ 1
pers@@ 1
quiet@@ 1
eier 1
dehy@@ 1
feri@@ 1
ler-@@ 1
fang@@ 1
brin@@ 1
zop@@ 1
accept@@ 1
raus@@ 1
vital@@ 1
ingenu@@ 1
schl@@ 1
konz@@ 1
rements 1
ence-@@ 1
regal 1
thly 1
ppi 1
atmospher@@ 1
manhat@@ 1
reven@@ 1
schau@@ 1
erde 1
londoner 1
chen-@@ 1
kali@@ 1
acqui@@ 1
engl@@ 1
geck@@ 1
ø@@ 1
ike@@ 1
ib@@ 1
design@@ 1
demie 1
mah 1
nanotechnolo@@ 1
denly 1
blen@@ 1
anxi@@ 1
haut 1
gert 1
forgi@@ 1
od 1
innova@@ 1
genz 1
idee 1
ft-@@ 1
win-@@ 1
tions-@@ 1
exponenti@@ 1
kauf@@ 1
inji@@ 1
reach@@ 1
kio 1
oreg@@ 1
ambigu@@ 1
sass 1
jungfrau 1
schen@@ 1
premier@@ 1
sier@@ 1
otro@@ 1
kaner 1
barbec@@ 1
ffee 1
hren@@ 1
malt 1
habe 1
proteom@@ 1
sens 1
mend 1
haft 1
mythos 1
gab 1
dopam@@ 1
freude 1
ettes 1
ord@@ 1
debat@@ 1
ibu@@ 1
broc@@ 1
ner-@@ 1
seli@@ 1
trom@@ 1
stently 1
gots 1
spur 1
sek 1
moral@@ 1
dach@@ 1
jeffer@@ 1
stahl 1
marshmal@@ 1
every@@ 1
ă@@ 1
ť 1
wilder@@ 1
steins 1
nov@@ 1
otech@@ 1
veland 1
gust 1
eln 1
zwe@@ 1
legal@@ 1
edel@@ 1
sabba@@ 1
charac@@ 1
uru@@ 1
comic@@ 1
nee 1
menti@@ 1
arez 1
meer 1
thema 1
offic@@ 1
baby-@@ 1
seaf@@ 1
gna@@ 1
sko@@ 1
pä@@ 1
ä@@ 1
chev@@ 1
ror 1
shif@@ 1
rönt@@ 1
tester 1
bere@@ 1
syndro@@ 1
george@@ 1
geld@@ 1
ö@@ 1
brem@@ 1
apar@@ 1
quant@@ 1
ision 1
sincla@@ 1
aids-@@ 1
dau@@ 1
tzen 1
legen 1
heim@@ 1
chromosom@@ 1
nitro@@ 1
lung@@ 1
ë@@ 1
ć 1
appetit 1
system@@ 1
schwi@@ 1
blumen@@ 1
throughs 1
io@@ 1
youn@@ 1
abli@@ 1
star-@@ 1
ô@@ 1
awes@@ 1
verdi@@ 1
obvi@@ 1
bras@@ 1
kongo 1
gener 1
lok@@ 1
sandwi@@ 1
accom@@ 1
vas 1
dall@@ 1
thieu 1
neur 1
inne 1
difficul@@ 1
baum 1
egyp@@ 1
bele@@ 1
previ@@ 1
vier@@ 1
labyrin@@ 1
ambu@@ 1
london@@ 1
peter@@ 1
ganz 1
merk@@ 1
shang@@ 1
verr@@ 1
kodi@@ 1
accumu@@ 1
vibri@@ 1
poor@@ 1
nettes 1
syl@@ 1
stern@@ 1
herein 1
vention@@ 1
kei@@ 1
magin@@ 1
papu@@ 1
wechs@@ 1
straight@@ 1
stig@@ 1
fos@@ 1
symptom@@ 1
jung@@ 1
christop@@ 1
trainings 1
nago@@ 1
seus 1
liches 1
ersch@@ 1
ency@@ 1
therlands 1
boll@@ 1
kyo@@ 1
enten@@ 1
ē 1
bela@@ 1
interest@@ 1
schlei@@ 1
wetter 1
zun@@ 1
dex 1
macinto@@ 1
reality-@@ 1
absen@@ 1
onen 1
anthropolo@@ 1
beam@@ 1
fant 1
reason@@ 1
eigen 1
kuh@@ 1
sä@@ 1
ú@@ 1
digital@@ 1
ba-@@ 1
gö@@ 1
hlen@@ 1
verfahr@@ 1
sweise 1
rechtlich 1
geschützt 1
welche 1
kunst 1
durch 1
spezifisch 1
auf@@ 1
gerä@@ 1
regel@@ 1
mä@@ 1
keiten 1
allgemeinen 1
mensch@@ 1
neue 1
wirkungen 1
erzielen 1
möglich 1
one-on-@@ 1
information@@ 1
program@@ 1
fte 1
blen 1
arist@@ 1
freie 1
universi@@ 1
tat 1
labors 1
mptions 1
bord 1
diagra@@ 1
dicated 1
winn@@ 1
apparate 1
mantel 1
ablen@@ 1
klavier 1
fs@@ 1
biolog@@ 1
gps-@@ 1
extro@@ 1
blitz@@ 1
krieg 1
krab@@ 1
passion@@ 1
antiretro@@ 1
ipo@@ 1
sylv@@ 1
internationale 1
sylvania 1
kam 1
ghters 1
hie@@ 1
supr@@ 1
schnell 1
spontan@@ 1
stors 1
hypothe@@ 1
richar@@ 1
kino 1
zelle 1
biomimi@@ 1
exemplar 1
europe@@ 1
able@@ 1
wie 1
immobili@@ 1
bion@@ 1
alt@@ 1
inne@@ 1
software-@@ 1
stipen@@ 1
pare 1
gou@@ 1
tradition@@ 1
topf 1
