, 196073
. 154664
und 72195
die 66049
sie 45550
das 44118
ich 43211
der 42186
ist 39804
es 37361
wir 36208
in 33908
zu 31163
&quot; 22452
ein 22295
eine 20433
von 20393
nicht 20019
dass 19586
den 17088
mit 16198
wie 15322
auf 14515
sich 13385
sind 13155
aber 12993
? 12929
: 12852
haben 12696
man 12529
für 12494
was 12315
wenn 12085
als 11039
er 10934
so 10704
an 10624
diese 10586
war 10505
um 9764
im 9284
also 8938
dem 8536
einen 8187
uns 7938
können 7871
hier 7743
werden 7286
hat 7138
aus 7091
oder 7018
des 6749
über 6693
auch 6475
kann 6393
einer 6355
sehr 6228
dann 6090
einem 6008
nur 5903
wird 5845
– 5805
gibt 5648
ihnen 5520
mich 5479
menschen 5382
sehen 5212
sein 5162
etwas 4928
dieser 4834
habe 4831
noch 4828
nach 4694
mir 4460
-- 4274
mehr 4130
alle 4110
vor 4097
bei 4036
welt 3967
meine 3883
nun 3810
machen 3762
ihre 3750
leben 3709
zum 3707
- 3655
weil 3633
wirklich 3620
wurde 3617
dieses 3553
dies 3552
da 3469
tun 3285
immer 3256
jetzt 3251
am 3196
wissen 3173
durch 3160
ihr 3144
unsere 3142
hatte 3024
keine 3012
zeit 2976
leute 2926
viel 2904
sagte 2848
viele 2821
diesem 2792
einfach 2736
du 2736
denn 2723
sagen 2722
zwei 2721
eines 2701
dinge 2700
diesen 2678
alles 2650
waren 2638
bin 2589
-@@ 2582
müssen 2577
jahren 2548
andere 2497
ver@@ 2484
art 2467
würde 2377
wo 2376
anderen 2364
mein 2359
damit 2327
geht 2273
vielleicht 2270
gut 2260
bis 2258
zur 2241
selbst 2238
mal 2195
jahre 2118
muss 2044
heute 2016
warum 1983
schon 1978
er@@ 1930
ja 1928
möchte 1910
ab@@ 1908
einige 1906
geschichte 1901
tatsächlich 1863
all 1860
ge@@ 1855
macht 1853
wieder 1838
gehen 1826
an@@ 1780
dort 1756
denken 1756
davon 1754
ganz 1748
genau 1712
kinder 1701
&apos; 1692
drei 1687
un@@ 1683
lassen 1674
hatten 1670
ein@@ 1657
ihn 1648
paar 1635
jahr 1601
aus@@ 1593
seine 1589
könnte 1588
darüber 1584
werde 1579
kommen 1573
wollen 1564
be@@ 1559
meiner 1541
ob 1514
ten 1511
wurden 1491
ihren 1469
problem 1466
gab 1457
gemacht 1444
weg 1443
beispiel 1426
auf@@ 1422
jeder 1419
! 1416
frage 1412
denke 1403
geben 1402
teil 1401
kein 1390
während 1387
glaube 1385
finden 1367
kommt 1361
natürlich 1355
doch 1343
ende 1334
dazu 1333
neue 1332
wäre 1332
te 1331
unser 1330
; 1330
unserer 1328
vom 1322
sogar 1305
nichts 1301
einmal 1294
tag 1285
weiter 1282
ohne 1279
weiß 1276
gerade 1273
arbeit 1268
zwischen 1260
zeigen 1255
denen 1251
sondern 1244
ihrer 1243
dafür 1240
stellen 1237
erste 1236
sieht 1226
passiert 1223
prozent 1220
s 1215
würden 1214
nie 1205
vielen 1205
zurück 1201
vor@@ 1185
verstehen 1181
unter 1174
über@@ 1172
will 1165
millionen 1163
große 1160
ersten 1151
daran 1150
bild 1145
ganze 1145
konnte 1144
land 1141
nehmen 1134
etwa 1120
fragen 1118
idee 1115
sagt 1092
sollte 1090
ziemlich 1083
sprechen 1082
arbeiten 1080
bekommen 1079
letzten 1072
ging 1058
dabei 1055
wollte 1046
meisten 1042
sollten 1041
geld 1038
könnten 1036
meinem 1032
kam 1030
frauen 1027
meinen 1016
bringen 1014
welche 1009
seite 1008
wichtig 1008
sache 1002
kleinen 968
wasser 967
daten 965
danke 964
zusammen 962
technologie 962
darauf 957
besser 953
weniger 945
eigentlich 945
weise 943
dollar 927
ent@@ 921
system 918
en 916
lernen 912
gesehen 907
kleine 905
brauchen 905
menge 904
vier 901
ganzen 899
bedeutet 898
glauben 897
dachte 894
ihm 890
en@@ 889
jemand 888
großen 887
nein 868
raum 866
unseren 865
jedes 851
versuchen 847
ihrem 846
gehirn 844
mann 843
schauen 818
jeden 816
gen 816
ab 810
10 806
frau 805
ins 805
gesagt 804
fall 803
ort 802
sch@@ 802
keinen 799
seit 792
gute 790
wer 790
zu@@ 787
zukunft 784
zeigt 782
nutzen 774
fast 773
grund 772
k@@ 769
essen 767
später 756
um@@ 755
spielen 754
fünf 753
indem 751
... 751
eigenen 749
ungefähr 747
beim 746
gegen 740
heraus 739
person 738
kind 738
schaffen 736
funktioniert 736
hätte 735
wahrscheinlich 734
seiner 734
erde 733
richtig 730
mutter 729
s@@ 727
allen 725
20 723
jede 722
wenig 720
probleme 719
arten 718
sten 715
pro 715
sicher 706
heißt 704
erzählen 698
dank 698
ung 696
bauen 694
unter@@ 689
sah 687
konnten 687
bisschen 685
liebe 683
form 681
helfen 681
schnell 678
oft 678
a 676
begann 667
lange 666
punkt 665
neuen 664
schule 664
ter 664
moment 663
genug 663
los 662
reden 655
körper 653
möglich 651
nächsten 651
ideen 650
licht 648
t 648
stadt 647
überall 646
halten 644
erst 644
afrika 641
t@@ 641
okay 640
lang 639
manchmal 637
unserem 635
% 631
gruppe 630
euch 629
darum 629
teilen 628
seinen 627
stehen 624
liegt 623
anders 623
milliarden 622
leuten 620
buch 619
projekt 618
je 617
ungs@@ 617
liche 614
gehört 612
bevor 605
sagten 604
planeten 604
computer 603
anderes 602
energie 601
kennen 597
hin 596
ok 595
machte 593
nennen 593
sei 591
eren 591
verändern 589
hören 587
ern 584
mädchen 584
z@@ 583
i 580
entwickelt 580
ge 575
lichen 574
unternehmen 573
deshalb 573
besonders 572
in@@ 571
weit 571
steht 570
ungen 570
minuten 569
informationen 566
g@@ 566
oben 564
usa 562
tat 562
bilder 559
natur 557
seinem 556
wissenschaft 556
bereits 555
namens 553
erreichen 552
familie 552
antwort 551
verschiedene 551
30 551
de 549
benutzen 549
gar 546
durch@@ 545
chen 544
gerne 543
ische 542
musste 541
sechs 539
i@@ 539
sprache 535
ste 533
se@@ 533
indien 533
geschichten 532
lebens 532
st 532
klar 531
ischen 530
wert 530
al@@ 529
enden 529
musik 527
haus 526
dich 526
braucht 524
oh 523
e@@ 523
o@@ 523
50 522
new 519
darin 518
führen 518
erkennen 517
100 516
spiel 515
hand 515
recht 514
design 513
nach@@ 513
end 512
gefühl 512
gleich 511
niemand 511
einzige 508
hätten 508
möglichkeit 508
ere 507
wegen 505
augen 505
d@@ 504
verhalten 504
irgendwie 503
lage 502
treffen 502
innerhalb 500
bewegen 499
gott 499
soll 499
ch@@ 497
kopf 495
vater 494
vorstellen 494
ert 493
sage 493
re@@ 493
gebäude 491
stunden 491
eins 491
zellen 491
e 491
internet 490
gesellschaft 489
besten 489
schreiben 486
patienten 486
jedem 484
sachen 484
stück 484
lich 480
ändern 477
beiden 477
kindern 476
m@@ 476
regierung 475
wollten 474
bitte 473
a@@ 473
n@@ 471
erhalten 469
gleiche 469
menschlichen 468
länder 468
schwer 466
stellt 466
unglaublich 466
herum 464
tiere 463
einigen 463
daher 462
obwohl 461
beginnen 461
mit@@ 461
f@@ 460
verschiedenen 459
film 459
zusammen@@ 458
china 458
st@@ 458
dir 457
alt 456
tes 454
entwickeln 453
nächste 452
überhaupt 451
hoch 450
kunst 449
damals 449
universum 448
glück 447
bringt 447
männer 447
gleichen 446
gern 446
verwenden 446
lesen 445
ziehen 443
hause 440
verändert 439
ma@@ 438
versucht 438
angst 437
tut 436
aller 436
o 434
fand 433
lässt 432
eltern 432
unten 431
nämlich 431
getan 430
kamen 430
15 426
junge 426
ar@@ 425
falls 425
auto 423
isch 423
ti@@ 422
fühlen 419
wort 419
weitere 419
sinn 419
bewegung 418
wirtschaft 418
groß 418
hilfe 417
wohl 417
kurz 416
möglichkeiten 415
l@@ 415
stand 415
zurück@@ 415
p@@ 414
staaten 414
menschliche 410
führt 410
m 409
zahlen 409
kultur 408
de@@ 408
fahren 407
unterschied 407
jedoch 406
li@@ 405
letzte 405
worden 405
g 404
schön 403
stelle 402
nachdem 402
entwicklung 402
teile 401
ro@@ 401
zwar 401
lösung 400
bar 400
el@@ 399
dingen 399
roboter 399
nimmt 398
dessen 397
allem 396
erfahrung 395
tage 395
ted 394
eher 394
fähigkeit 393
modell 392
betrachten 391
eigene 391
meines 390
le@@ 390
muster 389
setzen 388
fliegen 388
hin@@ 387
lehrer 386
falsch 386
york 386
lösen 386
tragen 386
krebs 386
zweite 386
mag 386
interessant 385
kosten 385
ziel 385
anfang 385
her 384
prozess 383
2 382
beste 382
em 382
wahr 381
guten 381
erinnern 381
woche 380
jungen 378
neu 378
bleiben 376
grunde 376
kaufen 376
boden 375
erten 375
u@@ 375
ger 375
genauso 374
publikum 374
welches 374
b@@ 373
solche 373
mussten 373
erte 373
thema 372
k 371
hinter 370
zer@@ 370
sieben 370
laufen 370
fragte 369
schließlich 369
wissenschaftler 369
di@@ 369
ken 369
wasser@@ 368
zahl 368
maschine 368
ra@@ 367
stellte 367
sollen 367
deren 367
sen 366
la@@ 366
or@@ 365
direkt 364
video 364
bereich 364
verbindung 364
danach 364
kraft 363
gen@@ 362
namen 362
richtung 361
sterben 361
größte 361
wären 359
gt 357
hast 357
au@@ 357
zuvor 357
ausge@@ 357
struktur 357
nahm 356
&#91; 356
wusste 355
hoch@@ 355
monate 354
&#93; 354
neues 354
40 353
gedanken 353
anderer 352
ei@@ 350
formen 350
r@@ 350
zuerst 348
plötzlich 348
alter 347
mache 347
manche 346
freunde 346
wochen 345
besteht 345
zehn 344
her@@ 343
reise 343
h@@ 343
scheint 343
ihres 342
platz 342
beginnt 341
genannt 340
y@@ 340
bildung 340
gewesen 340
autos 339
luft 338
gebaut 338
genommen 338
funktionieren 337
technologien 337
möchten 337
gefunden 336
ger@@ 336
bereit 334
völlig 333
erschaffen 333
lebens@@ 332
schwierig 332
aussehen 331
ie 331
draußen 330
ä@@ 330
material 330
technik 329
größe 329
anfangen 328
schritt 328
ko@@ 328
fest 328
reihe 327
tages 326
geworden 326
bist 326
markt 326
jahrhundert 324
passieren 324
krieg 323
alen 323
brachte 322
niemals 321
sehe 321
acht 320
suchen 320
wachsen 320
team 320
licher 319
schul@@ 319
stimme 319
ländern 319
alten 319
beide 319
am@@ 318
studenten 318
forschung 318
firma 318
ta@@ 318
gingen 317
kleines 317
glücklich 317
ischer 317
tieren 317
ri@@ 316
b 316
anzahl 316
situation 316
jemals 316
amerika 315
gemeinschaft 314
daraus 314
mensch 314
bekommt 313
1 313
miteinander 313
morgen 312
gruppen 312
nachdenken 311
fanden 311
aufgabe 311
on 311
erklären 311
bekannt 311
unseres 310
findet 310
bücher 308
tatsache 308
verwendet 308
egal 307
3 307
wahrheit 307
foto 307
schrieb 307
größten 307
es@@ 307
gesundheit 307
gelernt 306
ange@@ 306
krankheit 305
gezeigt 305
geboren 304
se 304
welt@@ 304
karte 304
5 302
leicht 301
kontrolle 301
bau@@ 301
en-@@ 300
te@@ 300
n 299
gerät 299
hälfte 299
interessiert 299
richtige 298
bewusst 298
soziale 298
schlecht 297
rolle 296
ni@@ 296
den@@ 296
stimmt 296
allein 296
entfernt 296
geschrieben 295
s-@@ 294
vorstellung 294
umgebung 294
vortrag 294
gegeben 293
städte 293
ben 293
lo@@ 292
verbunden 292
kleiner 291
anstatt 290
oberfläche 290
systeme 289
schulen 289
z 288
veränderung 288
benutzt 288
meinung 288
jemanden 287
ding 287
theorie 287
erreicht 287
straße 286
ale 286
mitte 286
bedeutung 286
meter 286
heutzutage 285
stark 285
gebracht 285
ten@@ 284
einfache 284
fehler 284
tisch 283
liches 283
offensichtlich 282
labor 282
freund 281
hoffe 281
links 281
revolution 281
absolut 281
be 281
mögen 281
komplett 281
bewegt 281
sicherheit 279
25 279
voll 278
gene 278
kon@@ 278
grund@@ 278
anzu@@ 278
beziehung 278
ens 278
gebiet 278
zeit@@ 278
politik 278
blick 277
verloren 277
bekam 277
regeln 277
versuche 277
dachten 276
erzählt 275
zeige 275
on@@ 275
nacht 275
kt 275
sen@@ 274
generation 274
sk@@ 274
mittel 274
fähigkeiten 274
zi@@ 273
wann 273
preis 273
nennt 272
rest 272
finde 272
vereinigten 271
d 270
seiten 270
gegenüber 270
at@@ 269
trotzdem 268
pflanzen 268
ansehen 268
folgen 268
hand@@ 267
ur@@ 267
heraus@@ 266
machten 266
arbeitet 265
sofort 265
as 265
gekommen 264
normalerweise 264
liegen 264
lieben 264
gesamte 263
sonst 263
gesicht 263
wei@@ 263
sonne 263
einzelne 263
einge@@ 261
wichtige 261
le 261
herausforderung 261
selbst@@ 261
bilden 260
haupt@@ 260
l 260
geschieht 260
ähnlich 260
sorgen 260
studie 260
tischen 259
statt 259
spricht 259
gewinnen 259
tier 259
weg@@ 257
zen 257
linie 257
erfolg 257
punkte 256
gesch@@ 256
ne 256
mitgefühl 256
passierte 255
sa@@ 255
taten 254
ck@@ 254
mi@@ 254
realität 254
begannen 254
information 254
is 253
ständig 253
hoffnung 253
kannst 252
ergebnis 252
voller 252
alte 252
größer 251
der@@ 251
entscheidungen 251
monaten 251
h 250
tagen 250
einander 250
lei@@ 250
bevölkerung 250
möglichen 250
men 249
gearbeitet 249
hält 249
gemeinsam 249
aufmerksamkeit 249
na 249
denkt 249
übrigens 249
deine 249
richtigen 249
bald 249
erung 248
isches 248
eln 247
ts 247
vergessen 247
me@@ 247
legen 246
bei@@ 246
th@@ 246
schneller 246
spaß 246
vorher 246
u 246
ter@@ 246
überleben 245
langsam 245
sicht 245
verlieren 245
wussten 245
hei@@ 245
sobald 245
tod 244
länger 244
großer 244
fangen 244
weltweit 243
experiment 243
ne@@ 243
— 243
sitzen 242
nachrichten 242
ru@@ 242
programm 242
hal@@ 242
sahen 241
auszu@@ 241
ebene 241
wesen 241
200 241
bi@@ 241
80 241
öl 241
außer 241
produkt 240
bestimmt 240
industrie 240
ak@@ 240
si@@ 240
europa 240
orte 240
gutes 240
gesprochen 239
tet 239
ges@@ 239
fallen 239
schen 239
künstler 238
anschauen 238
ordnung 238
ka@@ 238
wieder@@ 238
herauszufinden 238
beispiele 238
me 238
großes 238
wahl 238
4 237
beobachten 237
kan@@ 236
gleichzeitig 235
evolution 235
medien 235
fa@@ 235
job 235
spiele 235
aussieht 234
mon@@ 234
interessante 234
außerdem 234
wieso 234
geschehen 234
che 233
grenzen 233
wichtiger 233
messen 233
umwelt 232
bessere 232
zweiten 232
he@@ 232
sozialen 231
zelle 230
medizin 230
arbeitete 230
bleibt 230
bestimmten 230
versuchte 230
cht 230
mar@@ 229
orten 229
sekunden 229
aufge@@ 229
60 228
firmen 228
einzelnen 228
bewusstsein 228
demokratie 227
ben@@ 227
t-@@ 227
abzu@@ 227
tier@@ 227
tausende 227
hab 227
12 227
tigen 227
pa@@ 227
lebt 227
zeiten 227
aufzu@@ 226
sp@@ 226
sprachen 226
500 226
frei@@ 226
ch 226
bare 226
einfluss 225
nahmen 225
ha@@ 225
gestellt 225
nachricht 225
methode 225
/ 225
arm 225
konzept 224
testen 224
frei 224
krankheiten 224
sprach 224
amerikaner 224
läuft 223
großartige 223
papier 223
entdecken 223
verbessern 223
schaut 223
fällt 223
amerikanischen 223
führte 223
rede 223
gi@@ 223
universität 223
warten 223
al 223
spezies 222
zustand 222
sowohl 222
da@@ 222
dadurch 221
ke 221
nenne 221
klein 221
dna 221
spiel@@ 221
rück@@ 220
haut 220
dorf 220
wirklichkeit 220
v@@ 220
befinden 220
innovation 219
us 219
nachzudenken 219
fen 219
klasse 219
nen 219
nummer 219
wand 218
zumindest 218
zeug 218
toll 218
vergangenheit 218
chten 217
gte 217
david 217
po@@ 217
man@@ 217
strom 216
ung@@ 216
farbe 216
at 216
et@@ 216
gegangen 215
typ 215
fing 215
suche 215
prinzip 215
holen 214
organisation 214
einzu@@ 214
bühne 214
bo@@ 214
handelt 214
erlaubt 214
men@@ 214
herstellen 213
grad 213
verlassen 213
mo@@ 213
monat 213
wer@@ 213
kom@@ 213
hinaus 213
ö@@ 213
mathematik 213
produzieren 213
solchen 213
ber@@ 212
tiert 212
of 212
gten 212
computer@@ 212
zentrum 212
version 211
laden 211
fotos 211
menschheit 211
rechts 211
früher 211
name 211
umwelt@@ 211
erzeugen 210
dritte 210
gründen 210
worte 210
arzt 210
gel@@ 210
behandlung 209
diejenigen 209
gründe 209
aufgrund 209
ozean 209
e-@@ 209
gewalt 208
na@@ 208
irgendwo 208
lichkeit 208
arbeite 208
designer 208
werte 208
dasselbe 208
artikel 207
neben 207
neu@@ 207
spielt 207
befindet 207
super@@ 207
personen 207
sammeln 206
unmöglich 206
materialien 206
voll@@ 206
ton 206
tische 206
» 206
antworten 206
schüler 205
entdeckt 205
welcher 205
google 205
18 205
ster 205
arbeits@@ 205
feld 205
verstanden 205
globalen 204
stunde 204
gefragt 204
öl@@ 204
studien 204
zugang 204
liste 204
traf 203
the 203
sohn 203
selben 203
r 203
betrachtet 202
entschieden 202
innen 202
test 202
geschäft 202
« 202
nahrung 202
naja 202
geist 202
architektur 202
baren 201
to@@ 201
riesige 201
iert 201
wachstum 201
eben 201
6 201
3@@ 200
schicken 200
werfen 200
elle 200
neun 200
leisten 200
sinne 200
geschwindigkeit 200
produkte 199
lösungen 199
region 199
ers 199
maschinen 199
hilft 199
leider 199
großartig 199
biologie 199
familien 199
zwei@@ 198
kollegen 198
armut 198
himmel 198
rei@@ 198
ges 198
entweder 197
eis 197
handeln 197
we@@ 197
ellen 197
ergebnisse 196
netz 196
versuch 196
sche 195
treten 195
setzt 195
zunächst 195
verständnis 195
freiheit 195
interesse 195
ebenso 195
herum@@ 195
mu@@ 195
stimmen 195
extrem 195
zeigte 195
kaum 195
fällen 194
untersuchen 194
keiner 194
do@@ 194
hiv 194
verbinden 194
8 194
stellten 193
million 193
spitze 193
tige 193
schlechte 192
op@@ 192
erstens 192
gung 192
näher 192
bestimmte 192
chte 192
beginn 192
verstand 192
w@@ 192
vertrauen 192
ca. 191
deswegen 191
hörte 191
verkaufen 191
schönheit 191
energie@@ 190
hielt 190
ebenfalls 190
dein 190
bisher 190
gleich@@ 189
chance 189
uhr 189
raus 189
plan 189
2@@ 189
fertig 189
entscheiden 189
wichtigste 189
reaktion 189
kinder@@ 189
ermöglicht 189
ressourcen 189
ler 188
bu@@ 188
hundert 188
herz 188
hände 188
objekt 188
ell 188
bedingungen 188
komme 188
re 187
ser@@ 187
außerhalb 187
weiter@@ 187
bakterien 186
kampf 186
fi@@ 186
meer 186
mikro@@ 186
so@@ 186
lag 186
unglaubliche 186
retten 186
gesamten 186
wa@@ 186
projekte 185
getroffen 185
rechte 185
einfachen 185
drehen 185
kar@@ 185
ber 185
rechten 185
dern 185
ehrlich 184
ho@@ 184
endlich 184
druck 184
verrückt 184
fort@@ 184
letztes 184
krankenhaus 183
nehme 183
unterschiede 183
000 183
gend 183
är@@ 183
erzählte 183
erwarten 182
ku@@ 182
reichen 182
gesetz 182
as@@ 182
zeitpunkt 181
unterschiedliche 181
erfolgreich 181
bio@@ 181
bar@@ 181
j@@ 181
gehirn@@ 181
einzigen 181
heit 181
besch@@ 181
km 181
eller 181
pro@@ 180
all@@ 180
hört 180
enen 180
erklärt 180
wege 180
abge@@ 180
is@@ 180
geschaffen 180
erinnere 179
lernte 179
eigenschaften 179
leidenschaft 179
auge 179
drei@@ 178
landes 178
fisch 178
fest@@ 178
c@@ 178
rund 177
straßen 177
schützen 177
strukturen 177
typen 177
software 177
zweitens 177
du@@ 177
traum 177
gehe 177
erfahren 177
worten 177
su@@ 176
herausfinden 176
virus 176
freude 176
masse 176
john 175
hunderte 175
seines 175
ahnung 175
abend 174
englisch 174
ckt 174
schlagen 174
f 174
el 174
90 174
beziehungen 174
geräte 173
bezug 173
geb@@ 173
körper@@ 173
kern 173
regel 173
wider@@ 173
westen 172
lasst 172
per@@ 172
öffentlichen 172
netzwerk 172
finger 172
brauchte 172
tief 172
langen 172
gedacht 172
cher 172
kamera 171
erfunden 171
flugzeug 171
wohin 171
angefangen 171
konferenz 171
ließ 171
gehirns 171
mittel@@ 171
auswirkungen 170
dreht 170
hängt 170
bäume 170
globale 170
gang 170
tung 170
erleben 170
sh@@ 170
mehrere 170
geschah 169
vi@@ 169
desto 169
verantwortung 169
z.b. 169
wi@@ 169
tt@@ 169
groß@@ 169
behandeln 169
ker 169
a-@@ 168
ff@@ 168
us-@@ 168
erfahrungen 168
gende 168
gebe 168
kli@@ 168
sekunde 167
nahe 167
ärzte 167
seien 167
regierungen 167
trifft 167
karten 167
ene 167
entschied 167
gesellschaften 167
ft 167
gel 167
echt 166
armen 166
stecken 166
tem 166
farben 166
religion 166
werk 166
schließen 166
elt 166
büro 166
tig 165
gesundheits@@ 165
weiss 165
ganzes 165
daten@@ 165
lief 165
chris 165
wichtigsten 165
fälle 165
runter 165
zeichen 164
d-@@ 164
hinein 164
medikamente 164
online 164
sicherlich 164
herzustellen 164
tete 164
verbindungen 164
jahrhunderts 164
versch@@ 164
gaben 164
kunst@@ 164
tern 163
erstaunlich 163
fühlte 163
stattdessen 163
pi@@ 163
halte 163
öffnen 163
hey 163
gu@@ 163
geführt 163
echte 163
neuronen 163
ster@@ 162
fahr@@ 162
dr. 162
loch 162
ot@@ 162
jemandem 162
werkzeuge 162
ck 162
guter 162
größeren 162
kostet 162
wunsch 161
waffen 161
fähig 161
geschafft 161
konzentrieren 161
begonnen 161
veränderungen 161
jene 161
erstes 161
herzen 161
größere 161
gefühle 160
satz 160
c 160
ja@@ 160
spreche 160
produziert 160
bt 160
schöne 160
fühlt 160
ß@@ 160
ms 160
fuß 160
tochter 160
existiert 160
ans 160
genutzt 159
verbringen 159
wenige 159
vier@@ 159
höhe 159
osten 159
beeinflusst 159
verursacht 159
tür 158
produktion 158
komplexität 158
heutigen 158
freunden 158
infrastruktur 158
frühen 158
brot 158
spieler 158
par@@ 158
ar 157
18@@ 157
stische 157
organisationen 157
position 157
amerikanische 157
qualität 157
reich 157
aktivität 157
luft@@ 156
vorbei 156
ste@@ 156
erzeugt 156
300 156
reisen 156
folgendes 156
eigenes 156
fleisch 156
fühle 156
lie@@ 156
ernst 156
fernsehen 156
dorthin 156
leistung 155
leiden 155
wörter 155
nächstes 155
zug 155
unterstützen 155
stern 154
erlauben 154
to 154
linken 153
weisen 153
herz@@ 153
dar@@ 153
zusammenhang 153
funktion 153
genden 153
4@@ 153
16 153
physik 153
kriegen 153
wählen 152
mer 152
gewicht 152
gegen@@ 152
cken 152
end@@ 152
tz@@ 152
steigen 152
ieren 152
ze 152
äu@@ 152
tolle 152
stücke 152
sucht 152
raum@@ 152
gewebe 152
arme 152
ki@@ 151
x 151
weiterhin 151
begriff 151
nicht-@@ 151
are 151
fragt 151
somit 151
ke@@ 151
rate 151
entscheidung 151
kor@@ 151
and 151
museum 151
fenster 150
bau 150
stolz 150
ums 150
er-@@ 150
roten 150
mars 150
zog 150
allerdings 150
kreativität 150
gelegenheit 150
steckt 149
quelle 149
tra@@ 149
endes 149
partner 149
wind 149
feuer 148
ausbildung 148
systems 148
klingt 148
materie 148
afghanistan 148
bel@@ 148
schluss 148
x@@ 148
aufgenommen 148
ted-@@ 148
city 147
vergleich 147
trotz 147
sex 147
zimmer 147
entstehen 147
benötigt 147
qu@@ 147
wirst 147
hart 146
kten 146
bestehen 146
fluss 146
beine 146
filme 146
universums 146
sozusagen 146
botschaft 146
irgendwann 146
it@@ 146
hu@@ 146
fische 146
habt 145
kal@@ 145
kraft@@ 145
band 145
nochmal 145
tionen 145
selber 145
ner 145
leid 145
kilometer 145
scheinen 144
laut 144
tiger 144
soldaten 144
sta@@ 144
zieht 144
sterne 144
nähe 144
wahrscheinlichkeit 144
effekt 144
einsatz 144
70 144
einfacher 144
mor@@ 144
san@@ 144
sodass 144
perspektive 144
vielfalt 143
kämpfen 143
darf 143
kte 143
lautet 143
modelle 143
hinter@@ 143
7 143
natürliche 143
dung 143
politischen 143
großbritannien 143
offen 143
stein 143
baby 143
kr@@ 143
modernen 143
bildern 142
wagen 142
benötigen 142
videos 142
töten 142
daß 142
weiteres 142
bezahlen 142
frieden 142
teten 142
br@@ 142
bitten 142
politische 142
wirtschafts@@ 142
investieren 141
kommunikation 141
aufgaben 141
genen 141
dagegen 141
fer@@ 141
kontrollieren 141
städten 141
erforschen 141
ü@@ 141
haufen 141
verfügung 141
natur@@ 141
schätzen 141
pu@@ 140
berg 140
vermutlich 140
dritten 140
kl@@ 140
one 140
hen 140
einkommen 140
kunden 140
fortschritt 140
schaft 140
gilt 140
sti@@ 140
gesetze 140
ken@@ 140
kenne 140
räume 140
erinnert 140
fehl@@ 139
ansatz 139
dennoch 139
kräfte 139
männern 139
senden 139
ts@@ 139
wissenschaftliche 139
werkzeug 139
os 139
mond 139
weiteren 139
zieren 139
ändert 139
war@@ 139
staat 139
sitzt 139
auto@@ 138
lehr@@ 138
wohn@@ 138
folge 138
ad@@ 138
objekte 138
ex@@ 138
lose 138
schafft 138
vollkommen 138
verkauft 138
intelligenz 138
london 138
zuhause 138
starb 137
vollständig 137
hinein@@ 137
20. 137
bewegungen 137
wesentlichen 137
schutz 137
perfekt 137
ausdruck 137
welchen 137
verfolgen 137
verdienen 137
än@@ 137
elles 136
entwickelten 136
gestern 136
entlang 136
kontakt 136
stoff 136
methoden 136
titel 136
problemen 136
kurzem 136
entwerfen 136
wiederum 136
hirn@@ 136
reagieren 136
krise 136
gewonnen 136
richard 136
risiko 135
besitzen 135
losen 135
steuern 135
beschäftigt 135
atmosphäre 135
phänomen 135
volle 135
moleküle 135
cool 135
fragten 135
ermöglichen 135
möglicherweise 135
saß 135
durchgeführt 135
gestalten 134
dieselbe 134
herausgefunden 134
us@@ 134
tief@@ 134
gemeinde 134
behandelt 134
mer@@ 134
grenze 134
mp@@ 134
unbedingt 134
s. 134
meistens 134
wächst 134
riesigen 134
beschreiben 134
lebte 133
lachen 133
inter@@ 133
onen 133
zei@@ 133
11 133
fuhr 133
vision 133
pen@@ 133
licht@@ 133
schwester 132
hergestellt 132
wirkung 132
basis 132
zufällig 132
veröffentlicht 132
unterschiedlichen 132
wahre 132
scher 132
arbeiter 132
lu@@ 132
ses 132
teil@@ 132
bin@@ 132
elemente 131
gelangen 131
code 131
win@@ 131
äre 131
woher 131
davor 131
land@@ 131
hauptsächlich 131
setzte 131
milliarde 131
hoffentlich 131
lich@@ 131
sonnen@@ 131
letztendlich 130
gefängnis 130
familien@@ 130
drittel 130
unterstützung 130
wunderbare 130
ender 130
gehalten 130
kommunizieren 130
stre@@ 130
mütter 130
kennt 130
flug@@ 129
meilen 129
wuchs 129
lern@@ 129
eigen@@ 129
deutlich 129
basiert 129
ober@@ 129
rein 129
temperatur 129
jahres 129
irgendetwas 129
wohl@@ 129
stufe 129
dauert 129
buchstäblich 128
laufe 128
tri@@ 128
falsche 128
themen 128
fläche 128
umgehen 128
ah 128
bett 128
reicht 128
sommer 128
ir@@ 128
erstellen 128
dahin 128
ziert 128
fe@@ 128
insekten 128
worüber 128
experimente 128
ameisen 128
gesetzt 127
jungs 127
tr@@ 127
verbracht 127
lebten 127
hohe 127
schwarze 127
klimawandel 127
massen@@ 127
baum 127
wunderbar 127
kurze 127
14 127
weder 127
wo@@ 126
see 126
lauf 126
gra@@ 126
fach@@ 126
beeinflussen 126
aufnahme 126
bürger 126
sparen 126
hohen 126
ecke 126
übertragen 126
täglich 126
zusammenarbeit 126
begeistert 126
präsident 126
entwickelte 125
det 125
steigt 125
hund 125
häuser 125
erzähle 125
karriere 125
erwartet 125
viren 125
pf@@ 125
brauche 125
wal@@ 125
tan@@ 125
mögliche 125
wandel 124
zell@@ 124
geburt 124
meeres@@ 124
alleine 124
schutz@@ 124
haft 124
verantwortlich 124
forscher 124
großteil 124
führung 124
fort 124
knochen 124
9 123
entsteht 123
gewissen 123
morgens 123
hervor@@ 123
aufhören 123
kümmern 123
gedanke 123
film@@ 123
om@@ 123
haus@@ 123
nannte 123
organismen 123
brachten 122
opfer 122
ismus 122
ließen 122
könnt 122
handel 122
gefahr 122
ziele 122
tten 122
verhindern 122
versuchten 122
bildschirm 122
pri@@ 122
neuer 122
400 122
jobs 122
2000 122
lin@@ 122
betrifft 122
schwimmen 122
experten 122
tausend 122
rücken 122
behalten 122
erster 121
buch@@ 121
im@@ 121
normale 121
ban@@ 121
brechen 121
blut 121
zählen 121
lernt 121
herr 121
zogen 121
ktion 121
mitten 121
fe 121
verbreitet 121
wow 121
getötet 120
län@@ 120
len 120
ba@@ 120
tiefe 120
besseren 120
ig@@ 120
vergleichen 120
co@@ 120
normalen 120
passt 120
wisst 120
aktiv 120
ien 120
schla@@ 120
24 120
lieber 120
ell@@ 120
japan 120
klang 119
go@@ 119
wür@@ 119
eis@@ 119
mission 119
vorteil 119
wissenschaftlichen 119
augen@@ 119
legt 119
sozial@@ 119
har@@ 119
vögel 119
aids 119
y 119
hü@@ 119
anderem 119
ol@@ 119
werbung 119
cht@@ 119
zeitalter 119
überzeugen 118
passen 118
zeichnen 118
tue 118
kern@@ 118
hintergrund 118
raus@@ 118
klein@@ 118
kontext 118
ähnliche 118
chen@@ 118
lebewesen 118
nieder@@ 118
babys 118
verlangen 118
praktisch 118
total 118
interessieren 117
gebiete 117
hä@@ 117
por@@ 117
standen 117
kalifornien 117
linien 117
relativ 117
arbeiteten 117
kürzlich 117
erstaunliche 117
bemerkt 117
digen 117
affen 117
per 117
gehabt 117
igen 117
führten 117
stellung 117
alität 117
bereiche 117
landwirtschaft 117
ären 116
uner@@ 116
existieren 116
hinweg 116
gl@@ 116
strei@@ 116
erkannte 116
rein@@ 116
13 116
markt@@ 116
stisch 116
rau@@ 116
sauerstoff 116
washington 116
ing@@ 116
brauchten 116
inneren 116
tre@@ 116
ton@@ 116
fiel 116
überzeugt 116
the@@ 115
leben@@ 115
5@@ 115
barkeit 115
lass 115
gehirne 115
fängt 115
ine 115
eure 115
pan@@ 115
nation 115
ul@@ 115
menschen@@ 115
and@@ 115
dar 115
moderne 115
tischer 115
geschickt 115
starke 115
irak 115
sub@@ 115
sei@@ 115
insel 115
weißen 115
schnitt 115
schi@@ 115
str@@ 115
überrascht 114
fuß@@ 114
bietet 114
tierte 114
schlag 114
bauern 114
galaxien 114
schaute 114
schönen 114
son 114
finanz@@ 114
mt 114
verschwinden 114
trägt 114
weile 114
kreis 114
ei 114
grün 114
drin 114
bild@@ 114
sal@@ 113
glaubt 113
stischen 113
v 113
seitdem 113
aten 113
weißt 113
ansicht 113
heben 113
10.000 113
wahl@@ 113
bal@@ 113
zt 113
scht 113
for@@ 113
flu@@ 113
ern@@ 113
erhält 113
los@@ 113
mal@@ 113
interagieren 113
älter 113
malen 113
genauer 113
normal 113
bauten 113
gestorben 113
rätsel 113
schmerz 112
komplexe 112
annehmen 112
bildungs@@ 112
gelesen 112
san 112
verwandeln 112
erfinden 112
gelöst 112
ches 112
starten 112
sowie 112
mindestens 112
drüben 112
bezahlt 112
händen 112
tu@@ 112
bedeuten 112
meiste 112
herausforderungen 112
.@@ 111
null 111
ßen 111
unterscheiden 111
operation 111
verbreiten 111
bekamen 111
35 111
gehören 111
institutionen 111
wahrnehmung 111
kulturen 111
musst 111
$ 111
bloß 111
leiten 111
blu@@ 111
chs 111
minute 111
les@@ 111
deinen 111
park 111
gefährlich 111
stra@@ 110
tion@@ 110
echten 110
heisst 110
garten 110
märkte 110
paul 110
dürfen 110
150 110
lö@@ 110
gezogen 110
erscheinen 110
anwenden 110
abhängig 110
kur@@ 110
ju@@ 110
aufnahmen 110
traditionellen 110
körpers 110
co2 110
ften 110
einheit 110
pp@@ 110
aler 110
gest@@ 110
stein@@ 109
19@@ 109
schlimmer 109
netzwerke 109
schlüssel 109
öffentliche 109
sin@@ 109
erkenntnis 109
versorgung 109
bürger@@ 109
ß 109
eingesetzt 109
emotionen 109
einsetzen 109
mittleren 109
krank 109
hängen 109
p 109
richten 108
mach 108
details 108
stri@@ 108
fantastisch 108
landschaft 108
dr@@ 108
rief 108
gefahren 108
bieten 108
bank 108
fisch@@ 108
grundlegende 108
bedarf 108
bares 108
dach 108
fin@@ 108
wunder 108
entdeckung 108
einiger 108
regionen 108
elten 108
teilchen 108
patient 108
rahmen 108
las 108
professor 107
ation 107
schuhe 107
angenommen 107
gegenteil 107
schw@@ 107
ze@@ 107
westlichen 107
99 107
boot 107
kurzen 107
spielte 107
schlechten 107
wald 107
prä@@ 107
bat 107
strategie 107
wichtigen 107
sam@@ 107
wenigen 107
eindruck 106
bereichen 106
tions@@ 106
6@@ 106
häufig 106
anti@@ 106
kt@@ 106
nachbarn 106
polizei 106
ft@@ 106
holz 106
notwendig 106
rote 106
gelegt 106
mengen 106
maus 106
ige 106
blau 106
identität 106
sprach@@ 106
hi@@ 106
besondere 106
selten 106
kin@@ 106
ker@@ 106
gegensatz 106
öffentlichkeit 106
ess@@ 106
september 106
schü@@ 105
gsten 105
gegend 105
verhältnis 105
charles 105
lehren 105
national 105
pe@@ 105
lä@@ 105
zerstören 105
mund 105
fernseh@@ 105
k-@@ 105
ds 105
bienen 105
nationen 105
chtet 105
soviel 105
bill 105
gewisse 105
bestimmen 105
handy 105
it 105
kurs 105
zeitung 105
sch 105
natürlichen 105
hoffen 105
ph@@ 104
no@@ 104
lieblings@@ 104
gespielt 104
früh 104
beantworten 104
solch 104
studieren 104
schien 104
fahrer 104
erklärung 104
schwarzen 104
erter 104
planet 104
einzel@@ 104
lager 104
küste 104
individuen 104
dinosaurier 104
stammt 104
programme 104
charakter 104
ani@@ 104
teilt 104
teuer 104
ach@@ 104
aspekt 104
hr@@ 104
höher 104
atom@@ 104
nutzt 104
wor@@ 104
abschluss 104
schau@@ 103
halt 103
erscheint 103
enten 103
entspricht 103
kerl 103
denk@@ 103
verfügbar 103
times 103
grünen 103
durchschnittliche 103
sand 103
entstanden 103
verbrachte 103
unterricht 103
vorfahren 103
schei@@ 103
grundsätzlich 103
augenblick 103
rufen 103
signale 103
website 103
zerstört 102
regen@@ 102
baut 102
angesehen 102
genom 102
fabrik 102
rot 102
nah 102
beweise 102
generationen 102
quasi 102
hallo 102
berührt 102
träume 102
il@@ 102
hel@@ 102
inspiriert 102
bestand 102
haltung 102
form@@ 102
blatt 102
england 102
werten 102
usw. 102
folie 101
müsste 101
entworfen 101
fu@@ 101
college 101
unge@@ 101
hinsicht 101
entwicklungs@@ 101
1@@ 101
halbe 101
beschlossen 101
fall@@ 101
diagramm 101
konflikt 101
elte 101
17 101
gefallen 101
komplex 101
geändert 101
architekten 101
schicht 101
cher@@ 100
fährt 100
lan@@ 100
aufbauen 100
dran 100
ales 100
gäbe 100
aufregend 100
gebeten 100
bra@@ 100
norden 100
gefällt 100
raten 100
quellen 100
wind@@ 100
definieren 100
afrikanischen 100
forschungs@@ 100
solar@@ 100
elektrizität 100
lichsten 100
600 100
gelassen 100
weiße 100
stuhl 100
sinn@@ 99
sand@@ 99
cke 99
trag@@ 99
wirtschaftlichen 99
show 99
des@@ 99
tausenden 99
richtungen 99
phase 99
geo@@ 99
beobachtet 99
or 99
falten 99
stell@@ 99
unterrichten 99
son@@ 99
ob@@ 99
george 99
blieb 99
verbindet 99
drücken 99
treiben 99
verbessert 99
inhalt 99
faktor 99
web 99
müll 99
wert@@ 99
definition 99
ment@@ 98
kindheit 98
kochen 98
mü@@ 98
schaden 98
aufgebaut 98
fü@@ 98
verfahren 98
erin 98
erlebt 98
viertel 98
herren 98
gespräch 98
gkeit 98
verteilt 98
mehr@@ 98
reduzieren 98
potential 98
statistiken 98
glas 98
vermitteln 98
atmen 98
g-@@ 98
motor 98
strom@@ 98
ma 98
tä@@ 97
ernährung 97
cker 97
asien 97
langer 97
lektion 97
dig 97
car@@ 97
kampagne 97
blauen 97
unternehmer 97
wand@@ 97
bruder 97
digitalen 97
tests 97
lagen 97
5.000 97
schwer@@ 97
theater 97
wirken 97
level 96
berei@@ 96
mexiko 96
y-@@ 96
lustig 96
seltsam 96
führer 96
wobei 96
erd@@ 96
facebook 96
junger 96
druck@@ 96
medizinische 96
tot 96
derzeit 96
school 96
wesentlich 96
dra@@ 96
o-@@ 96
grosse 96
gemeinden 96
politiker 96
persönlich 96
berichten 96
nützlich 96
he 96
entdeckte 96
online-@@ 95
helden 95
folgt 95
korruption 95
beinahe 95
ks 95
achten 95
sor@@ 95
dunkle 95
früh@@ 95
nord@@ 95
damen 95
lauf@@ 95
sieren 95
baute 95
medikament 95
oren 95
erfindung 95
zweck 95
stoßen 95
beweisen 95
ag@@ 95
herunter@@ 95
gew@@ 95
ehe@@ 95
ren 95
mis@@ 95
kompliziert 95
feststellen 95
verlust 95
einrichtungen 95
sätze 95
erwähnt 95
dis@@ 94
bil@@ 94
bein 94
lediglich 94
momente 94
vorstellungen 94
plan@@ 94
unbe@@ 94
ka 94
krebs@@ 94
ente 94
wüste 94
45 94
kriege 94
michael 94
persönlichen 94
hl@@ 94
heißen 94
james 94
erstellt 94
persönliche 94
nutzung 94
mitarbeiter 94
schlafen 94
gesundheitswesen 94
unterstützt 94
klima@@ 94
rechts@@ 94
lied 94
dro@@ 93
stan@@ 93
digitale 93
bedürfnisse 93
kriegs@@ 93
ersetzen 93
nötig 93
ac@@ 93
wunder@@ 93
arbeit@@ 93
metapher 93
nachts 93
anteil 93
tur@@ 93
präsentation 93
enorme 93
grüne 93
spiegel 93
springen 93
sowas 93
selbstverständlich 93
rollen 93
überlegen 93
maßstab 93
2008 93
löcher 93
bekannten 93
vorne 93
großmutter 93
geld@@ 93
unabhängig 93
schrecklich 93
deten 93
fte 93
galaxie 93
wenden 92
außen 92
wen 92
webseite 92
übrig 92
iran 92
wettbewerb 92
menschlicher 92
gar@@ 92
nen@@ 92
em@@ 92
geheimnis 92
mitglieder 92
moralische 92
beweis 92
molekül 92
streben 92
effektiv 92
wofür 92
büchern 92
afrikas 92
1,@@ 92
seht 92
innere 92
zauber@@ 92
kaffee 92
brücke 92
inen 92
besuchen 92
freundin 92
tiges 92
lang@@ 91
teste 91
ball 91
schimpansen 91
grafik 91
7@@ 91
ht 91
gebraucht 91
wechseln 91
stärker 91
beschloss 91
ser 91
zuhören 91
gramm 91
rat 91
einstein 91
lokalen 91
beinhaltet 91
mach@@ 91
gei@@ 91
kra@@ 91
kopf@@ 91
australien 91
situationen 91
mel@@ 91
ologie 91
nor@@ 91
fer 91
witz 91
jedenfalls 91
singen 91
kü@@ 91
ters 91
irgendjemand 90
ha 90
wirkliche 90
nden 90
sektor 90
lichem 90
tro@@ 90
wieviel 90
hinten 90
gas 90
verteilung 90
ruf 90
gras 90
versteht 90
proben 90
bus 90
ing-@@ 90
gesichter 90
erwachsene 90
gesund 90
erkennt 90
gem 90
folgende 90
sitz 90
stärke 90
malaria 90
nigeria 90
internet@@ 90
telefon 90
kreieren 89
text 89
stoff@@ 89
my@@ 89
brach 89
hörten 89
barer 89
hau@@ 89
pla@@ 89
chemikalien 89
süden 89
schwierigkeiten 89
züge 89
1.@@ 89
anwendung 89
w 89
21. 89
ausmaß 88
vollen 88
prinzipien 88
analyse 88
ga@@ 88
hn@@ 88
zen@@ 88
ie@@ 88
grossen 88
multi@@ 88
meist 88
internationalen 88
schlechter 88
bekomme 88
höre 88
schritte 88
zitat 88
mm@@ 88
geräusch 88
überraschend 88
elektro@@ 88
anhand 88
beispielsweise 88
allgemeinen 88
far@@ 88
erungen 88
freien 88
aufzubauen 88
unterhaltung 88
rennen 88
entstand 88
recht@@ 88
gefähr@@ 88
kannte 88
einiges 88
ierte 88
kam@@ 88
diskussion 88
mil@@ 88
telefon@@ 87
rechnen 87
süd@@ 87
innen@@ 87
jährige 87
ach 87
untersuchung 87
seh@@ 87
gebieten 87
voraus@@ 87
dauerte 87
solange 87
9@@ 87
speziellen 87
gekauft 87
chemie 87
füllen 87
vorhersagen 87
wirkt 87
setzten 87
ohren 87
schuld 87
willst 87
schauten 87
wirk@@ 87
versagen 87
geln 87
gegründet 87
hielten 87
kenia 87
element 87
interessantes 86
ppe 86
ren@@ 86
pr@@ 86
sam 86
serie 86
anfing 86
blase 86
vertraut 86
zähne 86
verbreitung 86
bedenken 86
fördern 86
untersucht 86
pfund 86
schrift 86
vorzustellen 86
israel 86
saal 86
sicherheits@@ 86
flug 86
trinken 86
tasche 86
positive 86
hnen 86
unglaublichen 86
kurve 86
sse 86
video@@ 86
zivilisation 86
mut 86
anstelle 86
ran@@ 86
gegenwart 86
ozeane 86
kapital 85
siert 85
vorhanden 85
genetische 85
ner@@ 85
20@@ 85
75 85
unterschiedlich 85
woran 85
stammzellen 85
heran@@ 85
verstehe 85
südafrika 85
bemerken 85
geräusche 85
tel@@ 85
nä@@ 85
deutschland 85
gelebt 85
fern@@ 85
solcher 85
grundlage 85
erwachsenen 85
els 85
holz@@ 85
kirche 85
stehe 85
tö@@ 85
äußerst 85
wikipedia 85
bezüglich 85
studio 85
gemeinsame 85
weltweiten 85
gs 85
heim@@ 85
kombination 85
not@@ 85
toten 85
nicht@@ 84
flasche 84
sau@@ 84
sä@@ 84
darwin 84
gemeinschaften 84
ons 84
wein@@ 84
2007 84
glas@@ 84
kapitel 84
fra@@ 84
vieles 84
willen 84
hrt 84
center 84
resultat 84
beschäftigen 84
absicht 84
bri@@ 84
fl@@ 84
entfernen 84
ausstellung 84
wirtschaftliche 84
kanada 84
geschenk 84
schreibt 84
stoffe 84
entwicklungsländern 84
meinte 84
freie 84
momentan 84
müssten 84
fli@@ 84
sto@@ 84
tal@@ 84
hierher 84
ss 84
tonnen 84
aufnehmen 84
aufs 83
nt 83
theit 83
tin 83
beibringen 83
änderungen 83
risiken 83
mitglied 83
ent 83
spüren 83
tanzen 83
proteine 83
hän@@ 83
inzwischen 83
einfaches 83
religionen 83
19. 83
zus@@ 83
welchem 83
dan 83
nase 83
brust 83
tumor 83
fal@@ 83
jo@@ 83
menschliches 83
ys 83
tiv 83
bur@@ 83
konzentriert 83
werke 83
felder 83
zucker 83
geschäfts@@ 83
nasa 83
seid 83
regen 83
plastik 83
dienst 83
lebe 83
male 83
wen@@ 83
wovon 83
8@@ 83
gegenseitig 83
fingen 83
akzeptieren 83
tungs@@ 83
liefern 83
steve 83
schlüssel@@ 83
zugänglich 83
kleidung 83
glaubte 83
hö@@ 83
ität 82
indi@@ 82
pal@@ 82
big 82
instrument 82
erende 82
psychologie 82
schwieriger 82
weiterer 82
fach 82
merken 82
brasilien 82
hinzu 82
vermeiden 82
erweitern 82
soweit 82
status 82
sel 82
twitter 82
besessen 82
automatisch 82
fasziniert 82
erhöhen 82
geholfen 82
teams 82
pinguine 82
thomas 82
signal 82
neuro@@ 82
trat 82
schiff 82
bende 82
physiker 82
tanz 82
dichte 82
stes 82
ausgeben 82
ppen 81
che@@ 81
glücklicherweise 81
annahme 81
ße 81
manchen 81
zierte 81
flü@@ 81
lehre 81
autor 81
mess@@ 81
lebensmittel 81
insbesondere 81
übernehmen 81
gas@@ 81
chinesische 81
durchführen 81
schmerzen 81
zier@@ 81
hör@@ 81
schneiden 81
schatten 81
froh 81
sorge 81
wünschte 81
schl@@ 81
besitzt 81
faszinierend 81
tze 81
spr@@ 81
dieselben 81
darunter 81
fakten 81
golf 81
mittels 81
zierten 81
darstellen 81
verlauf 81
realen 81
ras@@ 80
marke 80
durchschnitt 80
fehlt 80
betrieben 80
100.000 80
debatte 80
tradition 80
aller@@ 80
existenz 80
nett 80
internationale 80
dischen 80
elektrische 80
irgendeine 80
schließt 80
ig 80
kontrolliert 80
eng@@ 80
tritt 80
tungen 80
effizienz 80
ernsthaft 80
laptop 80
glücklicher 80
kontinent 80
algorithmen 80
eu@@ 80
zweimal 80
haften 80
regierungs@@ 80
blicken 80
station 80
zurückzu@@ 80
fürs 79
noten 79
zte 79
bericht 79
berg@@ 79
verwandelt 79
kabel 79
star@@ 79
mittlerweile 79
welten 79
besseres 79
literatur 79
konsequenzen 79
rat@@ 79
aussage 79
neten 79
fern 79
nis@@ 79
dan@@ 79
mehrheit 79
außen@@ 79
1.000 79
fortschritte 79
überwinden 79
leiter 79
enz 79
spektrum 79
perfekte 79
tiven 79
erlebnis 79
gebäuden 79
wohlstand 79
gefangen 79
interaktion 79
folgenden 79
high 79
student 79
stieg 79
therapie 79
organisieren 79
dimensionen 79
gens 79
komm 79
dete 79
veränderte 79
lasse 78
kaufte 78
verbrechen 78
gewinn 78
schau 78
beenden 78
restaurant 78
worauf 78
musik@@ 78
faktoren 78
ergibt 78
enthält 78
aufgewachsen 78
hunde 78
lächeln 78
ausgaben 78
unteren 78
ant@@ 78
liebte 78
test@@ 78
seltsame 78
je@@ 78
besagt 78
graben 78
zä@@ 78
armee 78
hervor 78
gh@@ 78
medi@@ 78
ingenieure 78
heiten 78
wel@@ 78
voraus 78
ursprünglich 78
gebrochen 78
nis 78
bildet 78
straßen@@ 78
herr@@ 78
tiefen 78
blaue 78
moral 78
motor@@ 78
sichtbar 78
großartigen 78
fischen 78
ide@@ 78
fantastische 78
11. 78
nahrungs@@ 78
han@@ 77
lügen 77
bogen 77
wellen 77
vorbei@@ 77
worum 77
organe 77
ertes 77
wir@@ 77
hy@@ 77
nar@@ 77
medizinischen 77
wä@@ 77
musiker 77
enorm 77
lebenden 77
lau@@ 77
pakistan 77
zusätzlich 77
jener 77
fri@@ 77
graphie 77
geschäfte 77
volk 77
gr@@ 77
gespräche 77
jung 77
behaupten 77
wechsel@@ 77
tja 77
verkehr 77
gemeinsamen 77
starben 77
len@@ 77
entfernung 77
ologen 77
epidemie 77
hinzu@@ 77
spät 77
tü@@ 76
ähnlichen 76
halb 76
auseinander 76
tt 76
funktionierte 76
gewisser 76
betreiben 76
mutter@@ 76
jährigen 76
macht@@ 76
farb@@ 76
dauern 76
university 76
nachgedacht 76
ffen 76
vogel 76
zahn@@ 76
waffe 76
gottes 76
samen 76
schalten 76
wahrnehmen 76
chancen 76
west@@ 76
zü@@ 76
ss@@ 76
kö@@ 76
dor@@ 76
ley 76
afrikaner 76
tauchen 76
magie 76
fokus 76
darstellung 76
chaos 76
fr@@ 76
böse 76
maß@@ 76
nde 76
vorzu@@ 76
flo@@ 76
zo@@ 76
unver@@ 76
vierte 76
robert 75
forsch@@ 75
hunger 75
räumen 75
enthalten 75
gedicht 75
kul@@ 75
gewählt 75
strahlung 75
min@@ 75
medium 75
anschaut 75
zit@@ 75
sche@@ 75
pferd 75
zeigten 75
tzt 75
staat@@ 75
nutz@@ 75
ungsk@@ 75
vorher@@ 75
änderung 75
besorgt 75
leistungs@@ 75
offen@@ 75
einstellung 75
genetischen 75
designs 75
weshalb 75
gesamt@@ 75
krieges 75
national@@ 75
zes 75
chti@@ 75
schen@@ 75
systemen 75
mau@@ 75
küche 75
branche 75
bibel 75
mikroben 75
grün@@ 75
büro@@ 75
tsch@@ 75
alternative 75
diert 75
buchstaben 75
bl@@ 75
stu@@ 74
derer 74
chern 74
aktion 74
ökosystem 74
mathematiker 74
wenigstens 74
kameras 74
spar@@ 74
wissenschaften 74
feiern 74
tau@@ 74
mischen 74
ansieht 74
preise 74
nachzu@@ 74
herstellung 74
spezi@@ 74
world 74
ris@@ 74
träumen 74
gro@@ 74
nahen 74
angeht 74
iger 74
kostenlos 74
gs@@ 74
steine 74
vielmehr 74
programmieren 74
eingeladen 74
kop@@ 74
lokale 74
rand 74
francisco 74
hen@@ 74
kümmert 74
rie@@ 74
stoffen 74
alisiert 74
starken 74
wurzeln 74
gerechtigkeit 74
etc. 74
innovationen 74
aufgeregt 74
gemälde 74
ehe 74
höhere 74
chinesen 74
anische 74
lebende 74
indischen 74
milch 74
inspiration 74
landen 74
stil 74
gan@@ 74
tisches 73
potenzial 73
verhaltens@@ 73
greifen 73
legte 73
bank@@ 73
spuren 73
aktivitäten 73
demo@@ 73
inseln 73
bibliothek 73
unfall 73
sten@@ 73
verglichen 73
blumen 73
youtube 73
reduziert 73
vorteile 73
männchen 73
katastrophe 73
verschwunden 73
ischem 73
ll@@ 73
sicht@@ 73
ägypten 73
seele 73
ereignis 73
weisheit 73
wechsel 73
b. 73
bas@@ 73
sport 73
ereignisse 73
seln 73
miss@@ 73
umge@@ 73
tex@@ 73
viel@@ 73
computern 73
decken 73
teren 73
beschrieben 73
blut@@ 73
är 73
fein@@ 73
entdeckungen 73
zerstörung 73
2010 73
letzter 73
älteren 73
cm 73
sonder@@ 73
bemerkte 73
schwarz 73
vorbereitet 73
hinzufügen 72
bedrohung 72
on-@@ 72
brust@@ 72
dargestellt 72
resultate 72
kulturelle 72
eindeutig 72
harvard 72
teufel 72
könig 72
verliert 72
hinterlassen 72
womit 72
tag@@ 72
voneinander 72
10@@ 72
gie 72
wichtiges 72
bahn 72
langsamer 72
mitnehmen 72
bis@@ 72
boston 72
erkannt 72
winter 72
sport@@ 72
del@@ 72
lebendig 72
tzen 72
schlägt 72
beachten 72
vermögen 72
metern 72
2005 72
müll@@ 72
todes@@ 72
scheinbar 72
arabischen 72
feuer@@ 72
pen 72
für@@ 72
kle@@ 72
schwierige 72
ant 72
eli@@ 72
neben@@ 72
niveau 72
gesammelt 72
trafen 72
geschlagen 72
schlug 72
haie 72
jahrzehnt 72
genügend 72
wär@@ 72
verursachen 71
art. 71
nebenbei 71
suchte 71
mächtig 71
spiegel@@ 71
stin 71
digt 71
probe 71
achse 71
kre@@ 71
wem 71
funktionen 71
medizin@@ 71
wärme 71
gleichung 71
darstellt 71
verfolgt 71
ven@@ 71
interessanter 71
umfeld 71
island 71
ähnliches 71
schweden 71
mangel 71
las@@ 71
grundlegenden 71
ca 71
gemein@@ 71
aspekte 71
schild 71
islam 71
nte 71
eingeführt 71
schichten 71
jahrzehnten 71
0ern 71
erinnerung 71
militär@@ 71
gener@@ 71
basierend 71
acht@@ 71
lichste 71
paris 71
schrieben 71
erhielt 71
drogen 71
mama 71
informations@@ 71
investitionen 71
instrumente 71
ssen 70
dün@@ 70
hren 70
pat@@ 70
zufrieden 70
techniken 70
respekt 70
stift 70
gien 70
live 70
trau@@ 70
winzig 70
dynamik 70
täuschung 70
bewohner 70
funk@@ 70
17@@ 70
bricht 70
erforscht 70
doppelt 70
zufall 70
anscheinend 70
kun@@ 70
beschreibt 70
komponenten 70
anstieg 70
planen 70
ologe 70
liefert 70
gän@@ 70
co 70
fliege 70
dh 70
ältere 70
fliegt 70
nah@@ 70
don@@ 70
wolken 70
teilweise 70
dat@@ 70
ford 70
fol@@ 70
anwendungen 70
bes@@ 70
teure 70
jahr@@ 70
biologische 70
ed@@ 70
bru@@ 70
berechnen 70
drittens 70
begrenzt 70
ca@@ 70
ausrüstung 70
flächen 70
ppt 69
halb@@ 69
presse 69
geteilt 69
gericht 69
haup@@ 69
operationen 69
tru@@ 69
erkrankungen 69
berühren 69
überraschung 69
derselben 69
militär 69
bü@@ 69
echtzeit 69
stadt@@ 69
geburtstag 69
ziel@@ 69
flügel 69
eigenschaft 69
schicksal 69
privat@@ 69
neuigkeiten 69
wände 69
visuelle 69
anzusehen 69
kohle 69
kti@@ 69
machst 69
sel@@ 69
antwortete 69
plattform 69
vorgang 69
betroffen 69
stet 69
wu@@ 69
bedeutete 69
benden 69
gesundheit@@ 69
fahrzeuge 69
umständen 69
tiefer 69
batterie 69
zusammenarbeiten 69
erhöht 69
welle 69
fehlen 69
bor@@ 69
isieren 69
spro@@ 69
alismus 69
schönes 69
geleitet 69
auswahl 69
hotel 69
sonnenlicht 69
kat@@ 69
speziell 69
ette 69
einfachheit 69
population 69
definiert 69
deiner 69
berge 69
trick 68
kung 68
heu@@ 68
depression 68
hieß 68
artigen 68
ps 68
lenken 68
niemanden 68
leb@@ 68
tor@@ 68
nationale 68
pfen 68
weite 68
ergeben 68
ernähren 68
mes 68
brief 68
begegnen 68
ori@@ 68
besucht 68
rad 68
umgeben 68
moralischen 68
komplexen 68
ve@@ 68
nachbarschaft 68
stiftung 68
ära 68
zentrale 68
lung 68
box 68
gste 68
hne 68
billionen 68
stei@@ 68
plastik@@ 68
blin@@ 68
anlagen 68
weltraum 68
besonderen 68
offenen 68
trug 68
chicago 68
decke 68
wan@@ 68
schte 68
dame 68
pläne 68
dna-@@ 68
vorstellungskraft 68
tom 67
bf 67
positiv 67
traurig 67
rü@@ 67
tiver 67
eier 67
mehreren 67
industri@@ 67
lebenserwartung 67
inspirieren 67
netz@@ 67
dunkel 67
sches 67
gabe 67
mä@@ 67
gleichgewicht 67
philosophie 67
anten 67
kreativen 67
riesen@@ 67
abgesehen 67
köpfe 67
übersetzen 67
vorge@@ 67
wunderbaren 67
schwere 67
21 67
klassenzimmer 67
drehte 67
lige 67
klinik 67
kurz@@ 67
schn@@ 67
leichter 67
zufriedenheit 67
budget 67
treibt 67
dunkelheit 67
infiziert 67
bemerkenswert 67
einst 67
sicher@@ 67
lieren 67
stoppen 67
maß 67
bezeichnen 67
anpassen 66
mö@@ 66
späten 66
problems 66
aren 66
ländlichen 66
ursprung 66
bezeichnet 66
heim 66
nannten 66
scheitern 66
ökonomen 66
geruch 66
gab@@ 66
gender 66
eri@@ 66
vorhin 66
ruhe 66
knapp 66
veröffentlichen 66
ff 66
präsidenten 66
dige 66
pflanze 66
meer@@ 66
blei@@ 66
still 66
bre@@ 66
teilnehmer 66
cent 66
elektrischen 66
drauf 66
beteiligt 66
schlussendlich 66
dahinter 66
erneut 66
sech@@ 66
vergangenen 66
irgendwelche 66
schaue 66
altern 66
studium 66
obama 66
din@@ 66
risiko@@ 65
zuschauer 65
ler@@ 65
erinnerungen 65
ele@@ 65
geistes@@ 65
störungen 65
steuer@@ 65
binden 65
dienen 65
akt 65
arm@@ 65
werbe@@ 65
genießen 65
golf@@ 65
öffnet 65
flüssigkeit 65
technischen 65
stand@@ 65
j 65
gebrauch 65
stamm 65
dliche 65
zy@@ 65
iges 65
weltkrieg 65
organismus 65
unterwegs 65
bene 65
ierten 65
erer 65
sper@@ 65
frucht@@ 65
anlage 65
handys 65
hier@@ 65
riesiges 65
radi@@ 65
drucken 65
falschen 65
medien@@ 65
kei@@ 65
verdient 65
symbol 65
eres 65
global 65
0,@@ 65
ank@@ 65
wolke 65
stock 65
griff 65
katze 65
flugzeuge 65
biologischen 65
besuchte 65
hyper@@ 65
wahlen 65
wünsche 65
zuzu@@ 65
biologen 65
haiti 65
organisiert 65
za@@ 65
spezielle 65
länge 64
fen@@ 64
aufbau 64
19 64
chinesischen 64
anführer 64
lig 64
vorschlag 64
oberen 64
wander@@ 64
teilte 64
dische 64
beruf 64
circa 64
neulich 64
kugel 64
trennen 64
auff@@ 64
schlag@@ 64
bewahren 64
heiß 64
fließt 64
tenden 64
bekämpfen 64
dene 64
selbe 64
geworfen 64
konfrontiert 64
wirft 64
verkehrs@@ 64
mitteln 64
kosten@@ 64
un 64
verb@@ 64
gewöhnt 64
herunter 64
belohnung 64
party 64
ehr@@ 64
tlich 64
ehre 64
ur 64
funktion@@ 64
nete 64
wozu 64
teilung 64
training 64
beigebracht 64
fan@@ 64
interessanten 64
uren 64
musi@@ 64
reg@@ 64
digung 64
dunklen 64
samkeit 64
fahrt 64
ver 64
jahrzehnte 64
verwendung 64
bung 64
ang@@ 64
see@@ 64
umzugehen 64
schlu@@ 64
zunehmend 64
insgesamt 63
symmetrie 63
stärken 63
dri@@ 63
kette 63
zählt 63
dinger 63
sender 63
versorgen 63
schäd@@ 63
physische 63
magazin 63
begreifen 63
irgendeinem 63
2009 63
ther@@ 63
ßt 63
frankreich 63
kontroll@@ 63
chi@@ 63
ed 63
ckte 63
bewirken 63
meister 63
lichkeiten 63
schlechtes 63
alter@@ 63
gold 63
angriff 63
blind 63
ausgesetzt 63
blätter 63
beides 63
chtes 63
wissenschaftlern 63
letztlich 63
chemische 63
gemüse 63
altes 63
empfinden 63
kommen@@ 63
wunderschöne 63
physi@@ 63
tives 63
kindes 63
gegenden 63
half 63
bro@@ 63
gefüllt 63
käfer 62
stille 62
fahrzeug 62
blasen 62
tigkeit 62
sm@@ 62
könne 62
gendes 62
üben 62
del 62
street 62
identifizieren 62
angeles 62
kasten 62
zeitraum 62
leuchten 62
fünf@@ 62
14@@ 62
katastrophen 62
sil@@ 62
ausmachen 62
ap@@ 62
lebensmittel@@ 62
maße 62
0.000 62
glich 62
zugeben 62
kri@@ 62
afrikanische 62
abhängigkeit 62
reaktionen 62
sol@@ 62
2006 62
zentral@@ 62
außergewöhnlich 62
la 62
pollen 62
sü@@ 62
winkel 62
ali@@ 62
mc@@ 62
klima 62
plätze 62
studiert 62
wü@@ 62
1000 62
neigen 62
offene 62
kap@@ 62
drückt 62
versteckt 62
bevölkerungs@@ 62
packen 62
gerung 62
kalt 62
brü@@ 62
langweilig 62
verschieden 61
teenager 61
erwärmung 61
2004 61
fett 61
sozi@@ 61
wale 61
muskeln 61
kreative 61
positiven 61
nu@@ 61
gelt 61
tab@@ 61
ander@@ 61
mat@@ 61
zweifel 61
hil@@ 61
irgend@@ 61
schli@@ 61
getrennt 61
sichtweise 61
füße 61
al-@@ 61
fun@@ 61
liefer@@ 61
27 61
lt 61
trage 61
igkeit 61
peter 61
person@@ 61
aktuelle 61
berechnungen 61
erwähnen 61
üb@@ 61
schä@@ 61
x-@@ 61
papier@@ 61
diger 61
gri@@ 61
spenden 61
spur 61
pas@@ 61
vorträge 61
physischen 61
auftrag 61
plat@@ 61
zie@@ 61
cks 61
mag@@ 61
zehn@@ 61
vorsichtig 61
ür@@ 61
visuellen 61
spe@@ 61
videospiele 60
gestartet 60
höchsten 60
erklärte 60
ven 60
kreb@@ 60
schu@@ 60
bs 60
in-@@ 60
zahl@@ 60
irgendwas 60
app@@ 60
grippe 60
geschmack 60
winzigen 60
prozesse 60
wirklichen 60
dichter 60
figur 60
gewann 60
brei@@ 60
ci@@ 60
zentren 60
magne@@ 60
fä@@ 60
verschwindet 60
rech@@ 60
seide 60
projekten 60
stamm@@ 60
kb 60
nten 60
saßen 60
entstehung 60
fre@@ 60
institut 60
fotografiert 60
punkten 60
chter 60
traditionelle 60
bösen 60
adam 60
zone 60
hinblick 60
verschiedener 60
frequenz 60
währ@@ 60
hoben 60
stirbt 60
interessen 60
el-@@ 60
wälder 60
handlung 60
jenseits 60
zig 60
verrückte 60
ktionen 60
höhepunkt 60
maßnahmen 60
mechanismus 60
ghana 60
sions@@ 60
tter 60
selb@@ 60
flog 60
sogenannte 60
beitrag 59
llen 59
sie@@ 59
zukünftigen 59
bekannte 59
jeweils 59
willkommen 59
eigentliche 59
erfüllen 59
denselben 59
zeich@@ 59
eg@@ 59
.000 59
reiche 59
zwischen@@ 59
denkweise 59
rö@@ 59
ausgegeben 59
benutze 59
umzu@@ 59
haare 59
dungs@@ 59
stufen 59
weltbevölkerung 59
kanal 59
spannung 59
gedächtnis 59
andererseits 59
erenden 59
heilen 59
anischen 59
zurückgehen 59
wein 59
general 59
tende 59
symptome 59
investiert 59
fel@@ 59
hoher 59
impf@@ 59
sende 59
übung 59
teleskop 59
ausdrücken 59
inklusive 59
texas 59
gal@@ 59
stämme 59
block 59
macher 59
diabetes 59
i-@@ 59
tel 59
zukommen 59
schickte 59
britischen 59
auen 59
einheiten 59
bot@@ 59
gebildet 59
wartet 59
tierten 59
emotionale 59
hassen 59
amp 59
oxford 59
weibliche 59
polio 59
fassen 59
fro@@ 59
kohlenstoff 59
exakt 59
tik 59
echtes 59
kuchen 59
tee 59
umso 59
tz 58
pol@@ 58
50.000 58
berichtet 58
hinunter 58
erfassen 58
pause 58
feind 58
sprung 58
design@@ 58
kapitalismus 58
zeitungen 58
sechs@@ 58
nervös 58
gewöhnlich 58
chip 58
lehrern 58
wundervolle 58
poster 58
ik 58
schätzung 58
hitze 58
grundlegend 58
dä@@ 58
protein 58
ard 58
tere 58
geraten 58
gelb 58
schie@@ 58
gedanken@@ 58
ator 58
gründete 58
et 58
rum@@ 58
ignorieren 58
gerettet 58
globalisierung 58
schwerer 58
sms 58
repräsentiert 58
verletzungen 58
benutzte 58
ingenieur 58
sammlung 58
kultur@@ 58
alisieren 58
filmen 58
schaften 58
blau@@ 58
babies 58
atoren 58
pflege 58
tion 58
bewegungs@@ 58
wetter 58
wieviele 58
endet 58
wahr@@ 58
real 58
eien 58
kongo 58
komplizierte 58
fügen 58
kranken@@ 58
logik 58
wiederholt 58
hl 58
verk@@ 58
verbrauch 58
ener 58
zeichnungen 57
schießen 57
mus@@ 57
vergnügen 57
dient 57
köpfen 57
miert 57
hang 57
entscheidend 57
lernten 57
här@@ 57
22 57
kreislauf 57
summe 57
wil@@ 57
emp@@ 57
sequenz 57
oni@@ 57
detail 57
motivation 57
billig 57
sogenannten 57
leg@@ 57
anbieten 57
emissionen 57
ten-@@ 57
kaputt 57
frank 57
stab@@ 57
.com 57
brand@@ 57
messer 57
knopf 57
mieren 57
benutzten 57
glichen 57
1. 57
ausnahme 57
dazwischen 57
fo@@ 57
profitieren 57
universitäten 57
diesmal 57
ta 57
star 57
versprechen 57
umgang 57
gst 57
staats@@ 57
theorien 57
interessanterweise 57
erfinder 57
bit@@ 57
falle 57
nachrichten@@ 57
aufstieg 57
weltall 57
effizient 57
schwanz 57
kommunikations@@ 57
ari@@ 57
aner 57
geh@@ 57
lichter 57
gesunde 57
spä@@ 57
entscheidende 57
keln 57
persönlichkeit 57
blickwinkel 57
sprecher 57
strecken 57
konta@@ 57
gib 57
argument 57
zer 57
effekte 57
blog 57
uni 57
streit 57
regel@@ 57
eng 57
schwe@@ 57
doppel@@ 56
tolles 56
hafte 56
statistik 56
sieb@@ 56
überzeu@@ 56
dieren 56
sag 56
3d-@@ 56
nachhaltige 56
harte 56
nahme 56
gol@@ 56
wahren 56
sternen 56
dlich 56
intuition 56
hlen 56
schöner 56
ruhig 56
mas@@ 56
besitz 56
sat@@ 56
geber 56
fache 56
nachdenkt 56
fung 56
uganda 56
plus 56
umstände 56
ou@@ 56
tricks 56
doktor 56
säu@@ 56
konflikte 56
höchste 56
technische 56
szene 56
kulturellen 56
mern 56
ate 56
schnelle 56
güte 56
frem@@ 56
mensch@@ 56
bekann@@ 56
arbei@@ 56
anti-@@ 56
geheim@@ 56
lieder 56
sc@@ 56
fabriken 56
strecke 56
2003 56
schlimm 56
gewe@@ 56
glaubten 56
strategien 56
kiste 56
dü@@ 56
elefanten 56
ausschließlich 56
glück@@ 56
z. 56
bein@@ 56
radio 56
iphone 56
gross@@ 56
tlichen 56
2001 56
höheren 56
stro@@ 56
güter 56
-jährige 56
drogen@@ 56
hinauf 56
folgte 56
zugleich 56
nas@@ 55
brustkrebs 55
schrei@@ 55
streiten 55
jugend 55
ttert 55
jenen 55
west 55
fas@@ 55
ausmacht 55
erwartungen 55
20.000 55
schein@@ 55
such@@ 55
entwicklungsländer 55
mus 55
250 55
vertrau@@ 55
werdet 55
angetrieben 55
do 55
derek 55
väter 55
leistungen 55
berühmt 55
dlichen 55
dumm 55
klo@@ 55
korallen 55
strand 55
co2-@@ 55
konsum 55
dert 55
begriffen 55
schlimmsten 55
erdbeben 55
keinem 55
sozialer 55
beschä@@ 55
tat@@ 55
gegessen 55
rechner 55
matischen 55
zurückkehren 55
allgemein 55
klassen@@ 55
januar 55
motoren 55
künstliche 55
95 55
früheren 55
weitermachen 55
&amp; 55
kolonie 55
fasern 55
pfer@@ 55
fei@@ 55
e-mail 55
angesichts 55
gewi@@ 55
analysieren 55
transparenz 55
schulter 55
anruf 55
reichtum 55
pflanzen@@ 55
stahl 55
reicher 55
liest 55
wiederholen 54
flaschen 54
handlungen 54
valley 54
mmen 54
alisierten 54
z-@@ 54
anzeige 54
aufrecht 54
dienstleistungen 54
störung 54
uni@@ 54
waschen 54
hi 54
eröffnet 54
vogel@@ 54
gipfel 54
wundervoll 54
verließ 54
diskutieren 54
autismus 54
m-@@ 54
erlangen 54
preis@@ 54
microsoft 54
dollar-@@ 54
entschuldigung 54
würdest 54
hnt 54
rum 54
verbesserung 54
probieren 54
angebot 54
hirn 54
neugierig 54
halben 54
prakti@@ 54
lin 54
ältesten 54
nerven 54
gerü@@ 54
ursache 54
figuren 54
trend 54
has@@ 54
meister@@ 54
gezwungen 54
linke 54
intelligente 54
dick 54
architekt 54
fahrrad 54
log@@ 54
gefä@@ 54
bewegte 54
geh 54
übertragung 54
reparieren 54
russland 54
start 54
verliebt 54
schreib@@ 54
minister 54
cor@@ 54
empfin@@ 54
gegenstand 54
bescheid 54
hab@@ 54
0-@@ 54
kreiert 53
sicherer 53
englischen 53
optimismus 53
gesunden 53
trieb 53
jährlich 53
durchzuführen 53
… 53
zug@@ 53
heiraten 53
schafts@@ 53
chirurg 53
schreibe 53
kation 53
zin@@ 53
dienste 53
christ@@ 53
alisierung 53
deckt 53
fil@@ 53
abendessen 53
pres@@ 53
ktes 53
nachhaltigkeit 53
speicher 53
bahn@@ 53
materi@@ 53
stad@@ 53
roman@@ 53
val@@ 53
tigt 53
stammen 53
ebenen 53
dauer 53
zusammenzu@@ 53
kauft 53
poli@@ 53
freund@@ 53
wandern 53
europäischen 53
ktiv 53
jagen 53
jung@@ 53
aufre@@ 53
deinem 53
super 53
landete 53
nerven@@ 53
überprüfen 53
open 53
tote 53
westliche 53
23 53
hinsichtlich 53
moral@@ 53
wohnen 53
zeichnung 53
chirurgen 53
ling 53
kas@@ 53
entwurf 53
mikroskop 53
privaten 53
standpunkt 53
bip 53
einziges 53
kalten 53
verbrauchen 53
isi@@ 53
nahezu 53
bergen 53
ratten 53
psycho@@ 53
gert 53
120 53
festgestellt 53
den-@@ 53
ge-@@ 53
becken 53
prototypen 52
kn@@ 52
sach@@ 52
2.000 52
führ@@ 52
unterhalb 52
gefängnis@@ 52
allgemeine 52
zunehmen 52
rechnung 52
enormen 52
hiv-@@ 52
bord 52
kühl@@ 52
schlau 52
bären 52
sitz@@ 52
kleinere 52
dialog 52
aber@@ 52
ministerium 52
konsumenten 52
defini@@ 52
nimm 52
knie 52
befreien 52
politisch 52
angehen 52
fremden 52
lebensqualität 52
ängste 52
betrieb 52
reagiert 52
durfte 52
dutzend 52
quer@@ 52
bedienen 52
mochte 52
behörde 52
antrieb 52
zucker@@ 52
zeichnet 52
redu@@ 52
beinen 52
glückliche 52
zurückkommen 52
marketing 52
isten 52
übersetzt 52
benen 52
einzigartig 52
kongress 52
195@@ 52
trans@@ 52
ballon 52
vieler 52
mini@@ 52
gestaltung 52
geblieben 52
design-@@ 52
raub@@ 52
praxis 52
schwarzes 52
rio 52
te-@@ 52
verbraucht 52
lungen 52
abends 52
sierung 52
800 52
bedeckt 52
kehrt 52
fressen 52
seil 52
organ 52
vorn 52
unterhalten 52
chung 52
fließen 52
brüder 52
fotografie 52
indiens 52
beln 52
apple 52
deu@@ 52
geöffnet 51
hinweise 51
eingehen 51
.. 51
aufregende 51
danken 51
wur@@ 51
gebäudes 51
bewe@@ 51
erledigt 51
2. 51
chef 51
post@@ 51
außergewöhnliche 51
stag 51
euer 51
bel 51
grafie 51
wut 51
sprü@@ 51
trä@@ 51
ier@@ 51
tisch@@ 51
auswirkung 51
26 51
isierung 51
dreimal 51
ante 51
impfstoff 51
700 51
verlangt 51
oktober 51
kohle@@ 51
tony 51
mittelpunkt 51
legten 51
änderte 51
fordern 51
bus@@ 51
katzen 51
unterscheidet 51
ausgebildet 51
65 51
ansichten 51
bandbreite 51
kapit@@ 51
errichten 51
onkel 51
fordert 51
dramatisch 51
ball@@ 51
krab@@ 51
dringen 51
klingen 51
wach@@ 51
wünschen 51
röntgen@@ 51
bemerkenswerte 51
dose 51
ce@@ 51
hung 51
schle@@ 51
nachfrage 51
schreckliche 51
martin 51
grä@@ 51
est@@ 51
institute 51
lli@@ 51
einrichtung 51
zusätzliche 51
selektion 51
hingehen 51
hre 51
lehrerin 51
losigkeit 51
go 51
wohlbefinden 51
ersetzt 51
anz 51
anfängt 51
poly@@ 51
atome 51
af@@ 51
zweites 51
schwestern 51
sir 51
lat@@ 51
stress 51
gewinnt 50
investition 50
blick@@ 50
sum@@ 50
schaffte 50
wirtschaft@@ 50
furcht@@ 50
komisch 50
volles 50
nochmals 50
taschen 50
weltweite 50
religiöse 50
sar@@ 50
king 50
fasst 50
schlimmste 50
korea 50
teilten 50
hersteller 50
angel@@ 50
nationalen 50
durchmesser 50
spielten 50
gemessen 50
bedürfnis 50
kg 50
amerikas 50
geräten 50
res@@ 50
erinnerte 50
vorgestellt 50
hof 50
hum@@ 50
streifen 50
bier 50
auszudrücken 50
berechnung 50
zentimeter 50
dienst@@ 50
ologische 50
dimension 50
pe 50
tot@@ 50
private 50
autor@@ 50
löst 50
diges 50
anstellen 50
hinweis 50
mung 50
aktuellen 50
roll@@ 50
fis@@ 50
schlange 50
beginne 50
ausgehen 50
wunderschönen 50
atem 50
illusion 50
song 50
wunderschön 50
anreize 50
inner@@ 50
trainieren 50
beitragen 50
manager 50
stau@@ 50
heran 50
deuten 50
besonderes 50
großartiger 50
mark 50
st-@@ 50
beschreibung 50
schnell@@ 50
mati@@ 50
getestet 50
skulptur 50
öffnete 50
gerufen 50
bahnen 50
hauses 50
joe 50
gewalt@@ 50
schienen 50
kombinieren 50
watt 50
sur@@ 50
entdeckten 50
chteten 50
schafften 50
ligen 50
gold@@ 50
mannes 50
tele@@ 50
mark@@ 50
ausgabe 50
füßen 49
tte 49
merkmale 49
negativ 49
ack@@ 49
trends 49
wollt 49
ttern 49
definitiv 49
weiten 49
inhalte 49
alisi@@ 49
ring 49
chter@@ 49
packt 49
3.000 49
brenn@@ 49
kopieren 49
tanz@@ 49
gat@@ 49
ungewöhnlich 49
stä@@ 49
frie@@ 49
finanziert 49
tode 49
leit@@ 49
hör 49
ursprüngliche 49
artige 49
mobil@@ 49
erfüllt 49
weibchen 49
mier@@ 49
suchten 49
sensoren 49
kit@@ 49
vierten 49
kindersterblichkeit 49
wissens 49
post 49
mische 49
mischung 49
überlebt 49
prozesses 49
au 49
abenteuer 49
sex@@ 49
erfindungen 49
-jährigen 49
niedri@@ 49
voran@@ 49
geschü@@ 49
schnee 49
asse 49
großartiges 49
senken 49
orchester 49
aktu@@ 49
häusern 49
meere 49
führenden 49
unendlich 49
char@@ 49
saturn 49
verbrennen 49
blogs 49
tages@@ 49
kuh 49
pl@@ 49
äuß@@ 49
finger@@ 49
anhänger 49
2,@@ 49
verdammt 49
veränder@@ 49
vorwärts 49
zierung 49
förder@@ 49
tim 49
gore 49
opti@@ 49
bli@@ 49
ationen 49
psychologen 49
hilfsmittel 49
verein@@ 49
verarbeitung 49
ungeheuer 49
sprech@@ 49
krei@@ 49
stets 49
stahl@@ 49
cambridge 49
gefolgt 49
hebt 49
hut 49
konzepte 49
schnitt@@ 49
allgemein@@ 49
pp 49
terrorismus 49
herein 49
bereiten 48
angepasst 48
dur@@ 48
prote@@ 48
gerüst 48
körpern 48
erschien 48
dy 48
pac@@ 48
les 48
bedauern 48
ruanda 48
sieben@@ 48
entgegen@@ 48
belast@@ 48
stanford 48
listen 48
allzu 48
gewöhnliche 48
verschmutzung 48
verfügen 48
laptops 48
inmitten 48
hle 48
rad@@ 48
futter 48
geschützt 48
großvater 48
kolle@@ 48
wild@@ 48
abteilung 48
ina 48
vermute 48
verteilen 48
tigung 48
verarbeiten 48
beträgt 48
analy@@ 48
gelaufen 48
last 48
erfuhr 48
autoren 48
explosion 48
toilette 48
echter 48
sauerstoff@@ 48
befür@@ 48
tar@@ 48
ders 48
industrie@@ 48
besitzer 48
relevant 48
liebt 48
ärmsten 48
standard@@ 48
schülern 48
märkten 48
kapazität 48
bäumen 48
erfordert 48
erstaunlichen 48
handelte 48
held 48
yorker 48
humor 48
van 48
zusammenge@@ 48
pra@@ 48
regelmäßig 48
involviert 48
dungen 48
n-@@ 48
terin 48
öfter 48
chemischen 48
chtung 48
ktion@@ 48
kopie 48
spü@@ 48
feld@@ 48
ohr 48
om 48
tät 48
lärm 48
spa@@ 48
ted@@ 48
ra 48
tetes 48
optimistisch 48
va 48
radio@@ 48
kni@@ 48
gleichheit 48
fantastischen 48
schädel 48
wütend 48
32 48
bedeutend 48
spiels 48
februar 48
neun@@ 48
irgendeiner 48
tragödie 48
blö@@ 48
quadrat 48
indische 48
wodurch 48
übergang 48
gelände 48
ek@@ 48
produkten 48
abstra@@ 48
besie@@ 48
heil@@ 48
fet@@ 47
kohlenstoff@@ 47
papa 47
anhalten 47
nisse 47
schwei@@ 47
anzuschauen 47
ungleichheit 47
ase 47
platte 47
misst 47
ko 47
schieben 47
sha@@ 47
spitzen 47
ns 47
verwand@@ 47
ve 47
zel@@ 47
schläge 47
enes 47
internets 47
mitzu@@ 47
kreativ 47
überqueren 47
vereinten 47
hte 47
isst 47
ens@@ 47
energi@@ 47
emotionalen 47
gerissen 47
währung 47
beglei@@ 47
auftreten 47
scham 47
optimi@@ 47
geschlossen 47
runter@@ 47
hai 47
bon@@ 47
erb@@ 47
wüssten 47
bomben 47
brett 47
grenz@@ 47
moralisch 47
verwandten 47
draussen 47
glamour 47
menschlichkeit 47
richter 47
massen 47
gegenstände 47
ute 47
verkauf 47
vielzahl 47
lücke 47
tafel 47
beziehen 47
partei 47
kreise 47
scheibe 47
ors 47
front 47
zuletzt 47
erledigen 47
zur@@ 47
klassische 47
mächtige 47
gerei@@ 47
ausgewählt 47
gewissermaßen 47
esen 47
wundervollen 47
ruft 47
chan@@ 47
offenheit 47
ameise 47
einstellen 47
mr. 47
ordnen 47
sendung 47
erkunden 47
dig@@ 47
international 47
hypothese 47
slo@@ 47
mittagessen 47
lese 47
poesie 47
kohlendioxid 47
nachhaltig 47
schmerz@@ 47
sorgt 47
formel 47
weinen 47
pul@@ 47
vielmals 47
basierte 47
königin 47
geno@@ 47
anders@@ 47
pyramide 47
pft 47
15@@ 47
voraussagen 47
annahmen 47
ans@@ 47
finanzieren 47
erfand 47
betr@@ 47
farm 47
tendenz 46
cken@@ 46
institution 46
behandlungen 46
sicherstellen 46
yp@@ 46
restaurants 46
asteroiden 46
aussterben 46
wissenschafts@@ 46
unrecht 46
stig 46
meln 46
klu@@ 46
matische 46
verlor 46
untersuchungen 46
16@@ 46
gestaltet 46
präsentiert 46
teilnehmen 46
ast 46
netzwerken 46
hol@@ 46
gras@@ 46
freuen 46
marken 46
perfekten 46
erziehung 46
täuschen 46
florida 46
ray 46
titel@@ 46
dns 46
aktiven 46
eröffnen 46
führungs@@ 46
umher@@ 46
nutzten 46
beschränkt 46
isiert 46
0@@ 46
reißen 46
jet@@ 46
dankbar 46
schriftsteller 46
howard 46
bern 46
tempo 46
verringern 46
wuchsen 46
widerspruch 46
bombe 46
liert 46
mes@@ 46
angeschaut 46
erzielen 46
städtischen 46
unsichtbar 46
programmiert 46
strafe 46
kolonien 46
d. 46
umgekehrt 46
beobachtung 46
festhalten 46
oberflächen 46
kenn@@ 46
gelehrt 46
une 46
option 46
soziales 46
zentr@@ 46
dre@@ 46
neugier 46
greif@@ 46
lagern 46
faszinierende 46
supermarkt 46
kannten 46
anzugehen 46
streit@@ 46
betreten 46
befassen 46
hindurch 46
disch 46
anpassung 46
bush 46
klettern 46
media 46
setze 46
rä@@ 45
frieden@@ 45
gesucht 45
projekts 45
platten 45
beeindruckend 45
industrielle 45
drinnen 45
komplexer 45
schokolade 45
buches 45
reichweite 45
balance 45
mün@@ 45
kamer@@ 45
schauspieler 45
angestellten 45
ständige 45
verbreitete 45
kategorien 45
einschließlich 45
sicheren 45
solarenergie 45
korrekt 45
gehalt 45
fuhren 45
unfälle 45
mond@@ 45
ktoren 45
ladung 45
strasse 45
zuge@@ 45
netze 45
bie@@ 45
hn 45
mangel@@ 45
getragen 45
ungsprozess 45
einzigartige 45
alters@@ 45
sierte 45
zelt 45
3. 45
dicht 45
ware 45
jim 45
rhythmus 45
kreaturen 45
simulation 45
nung 45
polar@@ 45
bruch 45
hm@@ 45
wa 45
winzige 45
bewer@@ 45
energien 45
stech@@ 45
verdoppelt 45
vortrags 45
strahlen 45
hoffnungs@@ 45
heimat 45
geri@@ 45
jenem 45
virtuellen 45
neur@@ 45
roman 45
zent@@ 45
bezieht 45
hs 45
individuum 45
verhält 45
oten 45
beliebt 45
doktor@@ 45
warf 45
schütteln 45
best@@ 45
bestes 45
foundation 45
verzweiflung 45
wes@@ 45
greift 45
warte 45
abfall 45
technisch 45
dezember 45
behörden 45
hlten 45
bürgermeister 45
initiative 45
reich@@ 45
stän@@ 45
algorithmus 45
fla@@ 45
sy@@ 45
irgend 45
gelangt 45
vermittelt 45
uten 45
hierbei 45
kandidaten 45
nest 45
erungs@@ 45
berühmte 45
gehör 45
mechanismen 45
vorkommen 45
dem@@ 45
taliban 45
inspiri@@ 45
leere 45
denkst 45
vieren 45
syste@@ 45
ungs-@@ 45
stel 45
kel@@ 45
ketten 45
spei@@ 45
hlte 45
science 45
trei@@ 45
ungsp@@ 45
brian 45
ero@@ 45
glei@@ 45
pet@@ 45
lächerlich 45
mur@@ 45
geredet 45
erst@@ 44
formt 44
mein@@ 44
drüber 44
vo@@ 44
italien 44
alzheimer 44
di 44
lege 44
skala 44
staatlichen 44
behaupte 44
erwähnte 44
gesundheitssystem 44
fischer 44
zeichnete 44
zwölf 44
ations@@ 44
entsprechend 44
fang 44
stö@@ 44
spezifische 44
hr 44
gam@@ 44
we 44
stimm@@ 44
kir@@ 44
wohnung 44
werken 44
essen@@ 44
beendet 44
komponente 44
tollen 44
objekten 44
auftauchen 44
wasch@@ 44
time 44
mende 44
gates 44
computer-@@ 44
vat@@ 44
weltbank 44
stattfinden 44
mei@@ 44
auseinander@@ 44
zweiter 44
bakterium 44
einkommens@@ 44
schätze 44
nie@@ 44
dustrie 44
schwierigen 44
betonen 44
straf@@ 44
direktor 44
treppe 44
strahl@@ 44
fair 44
nordamerika 44
interpretation 44
besuch 44
tropfen 44
ausschnitt 44
fehler@@ 44
discher 44
einwohner 44
kapital@@ 44
zwan@@ 44
behälter 44
talen 44
sozial 44
eric 44
waffen@@ 44
langwei@@ 44
unglücklicherweise 44
urknall 44
frühling 44
neuesten 44
th 44
ankommt 44
wette 44
beu@@ 44
gehend 44
fuer 44
transport@@ 44
verstän@@ 44
juni 44
aussah 44
gebunden 44
finanziellen 44
träger 44
knochen@@ 44
rb 44
schaf@@ 44
hit@@ 44
kurse 44
muskel@@ 44
pil@@ 44
stiegen 44
bewusstseins 44
pie@@ 44
weh 44
rezept 44
coole 44
verletzlichkeit 44
wachstums@@ 44
13@@ 44
austausch 44
wachstums 44
auswählen 44
digital 44
rt 44
aut 44
gründer 44
1960 44
angekommen 44
und@@ 44
same 44
metall@@ 44
ungspro@@ 44
gedreht 44
stop@@ 44
steigern 44
herkunft 43
umzusetzen 43
abgeschlossen 43
leeren 43
sinken 43
negative 43
produktivität 43
blü@@ 43
mm 43
industriellen 43
verrückten 43
einzusetzen 43
krie@@ 43
richtet 43
feedback 43
zielen 43
jedesmal 43
ungssystem 43
milli@@ 43
entropie 43
wertvoll 43
umsetzen 43
bienen@@ 43
6. 43
brille 43
entschlossen 43
energieverbrauch 43
bedroht 43
verurteilt 43
ly 43
yeah 43
schlaf@@ 43
reiste 43
intelligenten 43
liter 43
dreh@@ 43
zwanzig 43
ann 43
terroristen 43
demokratischen 43
herauszu@@ 43
filter 43
wirtschaftswachstum 43
tin@@ 43
zueinander 43
schlei@@ 43
con@@ 43
2050 43
smith 43
fernseher 43
haar 43
kram 43
sendet 43
ese 43
billiger 43
stete 43
gie@@ 43
zentralen 43
comics 43
individuelle 43
diagnostiziert 43
pocken 43
lieb@@ 43
obje@@ 43
schwarz@@ 43
stie@@ 43
zukünftige 43
sich@@ 43
gelbe 43
pm 43
bens 43
dere 43
service 43
selbst-@@ 43
gewachsen 43
teils 43
net 43
extra 43
brown 43
kommenden 43
redet 43
raff@@ 43
ham@@ 43
tränen 43
mithilfe 43
geometrie 43
manhattan 43
0er 43
aufzeichnungen 43
mitteilen 43
dam@@ 43
wirbel@@ 43
berühmten 43
lappen 43
heits@@ 43
erhielten 43
züchten 43
überlebens@@ 43
ef@@ 43
bot 43
koordin@@ 43
kauf@@ 43
reale 43
erforschung 43
elektronische 43
türkei 43
oel 43
jan@@ 42
skulpturen 42
gereist 42
stru@@ 42
mmer 42
homo 42
hügel 42
berechnet 42
krat@@ 42
maus@@ 42
geburts@@ 42
zir@@ 42
kel 42
gegenüber@@ 42
islam@@ 42
kreu@@ 42
bringe 42
kevin 42
stör@@ 42
sitze 42
raumes 42
tötet 42
nirgendwo 42
mauern 42
gerin 42
gener 42
änder 42
kla@@ 42
skelett 42
gru@@ 42
wissens@@ 42
antarktis 42
um-@@ 42
leber 42
fs 42
heutige 42
ini@@ 42
dien@@ 42
stattfindet 42
hall 42
web@@ 42
mustern 42
dens 42
läu@@ 42
unwahrscheinlich 42
gefährliche 42
roh@@ 42
ün@@ 42
information@@ 42
städ@@ 42
prüfen 42
net@@ 42
satelliten 42
gering@@ 42
schenken 42
80ern 42
technologische 42
balken 42
oran@@ 42
pumpen 42
komplette 42
se-@@ 42
meint 42
p-@@ 42
weist 42
fühlten 42
homosexu@@ 42
süß 42
up@@ 42
niedrig 42
schulden 42
präsentieren 42
spre@@ 42
abschließen 42
sw 42
einblick 42
isch@@ 42
einnahmen 42
repräsentieren 42
ehemann 42
ktor 42
henry 42
holte 42
hlt 42
infektionen 42
widmen 42
dien 42
zoomen 42
anwälte 42
hm 42
› 42
‹ 42
meile 42
mai 42
schwerkraft 42
öffentlich 42
mauer 42
schten 42
durchbruch 42
beschützen 42
untere 42
hunderten 42
kluft 42
landschaften 42
zweieinhalb 42
freiwilligen 42
freundlich 42
spen@@ 42
klappt 42
bob 42
goldene 42
vermis@@ 42
chtete 42
frag@@ 42
1990 42
polizei@@ 42
enz@@ 42
pel 42
erbe 42
sphäre 42
analogie 42
anzeichen 42
deck@@ 42
schmutz@@ 42
büros 42
aufgeben 42
vergleich@@ 42
transport 42
motivieren 42
tätigkeit 42
erei 42
talent 42
lincoln 42
studien@@ 42
metall 42
treib@@ 42
zehen 42
staub 42
kombiniert 42
identi@@ 42
kühe 42
hölle 42
graphen 42
angeboten 42
aufwand 42
bewerten 42
gelegenheiten 42
aufeinander 42
beizu@@ 42
bio-@@ 42
marken@@ 42
ang 42
symbole 42
sexuelle 42
zusehen 41
begleitet 41
schreibtisch 41
diagnose 41
unterstütz@@ 41
loser 41
künstlerin 41
unabhängige 41
lle 41
landes@@ 41
chinas 41
wettbewer@@ 41
spielzeug 41
zwingen 41
sammelt 41
tert 41
schätzt 41
pun@@ 41
zurzeit 41
scho@@ 41
gewaltige 41
gewöhnlichen 41
ger-@@ 41
finanzierung 41
genie 41
klar@@ 41
endste 41
aktiviert 41
anliegen 41
prü@@ 41
ki 41
journalist 41
chtern 41
einziger 41
biosphäre 41
entgegen 41
vielerlei 41
stär@@ 41
herein@@ 41
17. 41
kooperation 41
religiösen 41
techniker 41
leidet 41
scha@@ 41
langes 41
lam@@ 41
auffassung 41
flut 41
park@@ 41
britische 41
stabilität 41
alt@@ 41
28 41
atur 41
stadium 41
fokussieren 41
inn@@ 41
schein 41
kilo 41
rauch 41
h-@@ 41
ville 41
sa 41
anerkennung 41
fremde 41
gä@@ 41
halluzinationen 41
flächen@@ 41
ly@@ 41
mäßig 41
programmier@@ 41
eingeschlossen 41
schuss 41
gieren 41
erreichte 41
loses 41
begab@@ 41
gesteuert 41
räder 41
stigen 41
dilemma 41
aufmerksam 41
empathie 41
einführung 41
hinweisen 41
zung 41
verbraucher 41
zukunfts@@ 41
herrscht 41
feu@@ 41
rüber 41
konzentration 41
mel 41
maßen 41
ernähr@@ 41
erre@@ 41
werkzeugen 41
erfasst 41
logisch 41
natürlicher 41
intelligent 41
bindung 41
irgendein 41
kante 41
hai@@ 41
wunderbares 41
antibiotika 41
blo@@ 41
breite 41
konsumieren 41
gemäß 41
liebsten 41
blieben 41
hilfreich 41
freiwillige 41
panik 41
notwendigkeit 41
flogen 41
würdig 41
angesicht 41
geflogen 41
il 41
beweg@@ 41
gelang 41
widerstand 41
eten 41
va@@ 41
griffen 41
stück@@ 41
mmer@@ 41
stam@@ 41
gerä@@ 41
muskel 41
prozent@@ 41
for 41
gänge 41
synchron@@ 40
cker@@ 40
boote 40
aku@@ 40
apo@@ 40
tation 40
ologischen 40
drän@@ 40
esse 40
mio. 40
fotografieren 40
ah@@ 40
ordnet 40
b-@@ 40
programmierer 40
unterrichtet 40
berufs@@ 40
flughafen 40
wasserstoff 40
human@@ 40
englische 40
kts 40
hektar 40
letz@@ 40
haar@@ 40
muslime 40
veranstaltung 40
jähriger 40
riecht 40
eben@@ 40
verbin@@ 40
linge 40
menschlich 40
atomenergie 40
einfluss@@ 40
stands 40
q@@ 40
kletter@@ 40
vaters 40
töchter 40
versorgt 40
genetisch 40
experiment@@ 40
ure 40
löwen 40
verboten 40
erlaubnis 40
offenbar 40
früchte 40
long 40
bewirkt 40
subje@@ 40
ech@@ 40
tor 40
gucken 40
nervenzellen 40
licherweise 40
meinungen 40
ernten 40
häu@@ 40
forschungen 40
gele@@ 40
gelähmt 40
ter-@@ 40
tliche 40
sinnes@@ 40
schickten 40
zustimmen 40
spannend 40
fle@@ 40
schreien 40
zulassen 40
kro@@ 40
wissenschaftlich 40
gewinn@@ 40
hinaus@@ 40
ökonomie 40
vergrößern 40
händler 40
vari@@ 40
196@@ 40
beschäftigte 40
85 40
fettleibigkeit 40
gelingt 40
gestiegen 40
höchst 40
aktive 40
kleineren 40
durcheinander 40
brau@@ 40
deutet 40
age 40
wörterbuch 40
euro 40
vertrag 40
stab 40
stischer 40
shanghai 40
entfernten 40
mo 40
pre@@ 40
kurzer 40
nahrungsmittel 40
positionen 40
individu@@ 40
verknüpft 40
volks@@ 40
ele 40
verletzt 40
wachte 40
anzug 40
steuert 40
blume 40
nern 40
reis 40
anweisungen 40
management 40
tiker 40
elektroden 40
disziplin 40
alternativen 40
freu@@ 40
bett@@ 40
fäden 40
ate@@ 40
riesiger 40
höhle 40
großeltern 40
wörtlich 40
ärzten 40
produ@@ 40
jenes 40
säule 40
ehren 40
taschen@@ 40
tend 40
schuldig 40
erend 40
ama@@ 40
feldern 40
runden 40
planet@@ 40
viertel@@ 40
kund@@ 40
exponenti@@ 40
beschleunigen 40
trü@@ 40
aufstehen 40
dringend 40
rut@@ 39
2002 39
löschen 39
journalisten 39
typische 39
belieb@@ 39
versetzen 39
ausführen 39
effizienter 39
integriert 39
fleisch@@ 39
band@@ 39
berichte 39
glob@@ 39
ment 39
f-@@ 39
denden 39
skraft 39
geeignet 39
larry 39
käme 39
stün@@ 39
darm 39
rund@@ 39
pati@@ 39
gerecht 39
,@@ 39
geheimnisse 39
sonnensystem 39
stati@@ 39
darzustellen 39
schlacht 39
erzählten 39
ziehe 39
detektor 39
abstand 39
nahe@@ 39
frauen@@ 39
grafische 39
amen 39
tauschen 39
ls 39
liegenden 39
matik 39
eth@@ 39
omen 39
interviews 39
herstellt 39
club 39
ma-@@ 39
konstruktion 39
ausgedrückt 39
rückseite 39
schweine 39
uns@@ 39
bestandteil 39
freue 39
beeindruckt 39
zuzuhören 39
grab@@ 39
sign@@ 39
fau@@ 39
durchschnittlich 39
krähen 39
investoren 39
monat@@ 39
1,5 39
seins 39
gangen 39
keines 39
überlassen 39
ignoriert 39
verstecken 39
bestäu@@ 39
geschäft@@ 39
gle@@ 39
süß@@ 39
diskussionen 39
gere@@ 39
fotograf 39
12@@ 39
treibstoff 39
verkaufte 39
unklar 39
holt 39
ursprünglichen 39
unmittelbar 39
produktions@@ 39
rakete 39
mais 39
größenordnung 39
bat@@ 39
col@@ 39
täglichen 39
55 39
geschnitten 39
kalorien 39
erneu@@ 39
geschlecht 39
schlaf 39
kreis@@ 39
liefen 39
charaktere 39
verdi@@ 39
belastung 39
wild 39
komm@@ 39
elektronik 39
fertig@@ 39
wellen@@ 39
kreisen 39
merkmal 39
gefü@@ 39
autorität 39
zten 39
° 39
haut@@ 39
radikal 39
versehen 39
sinkt 39
relev@@ 39
republikaner 39
reihenfolge 39
texte 39
normales 39
ecken 39
raketen 39
mitt@@ 39
gelder 39
äthiopien 39
hindernisse 39
pazifik 39
dschihad 39
mitgebracht 39
samer 39
pflanzt 39
genaue 39
bell 39
umfang 39
kreuz@@ 39
herrschaft 39
vulkan@@ 39
planung 39
beispielen 39
alisierte 39
newton 39
origami 39
startete 39
werk@@ 39
gers 39
trock@@ 39
natürliches 39
verletzung 39
gere 39
billi@@ 39
eisen@@ 39
lehrt 39
schlage 39
flucht 38
wachsende 38
briefe 38
brücken 38
organis@@ 38
est 38
stir@@ 38
fließ@@ 38
din 38
tis 38
id 38
unabhängigkeit 38
wetter@@ 38
rechen@@ 38
litt 38
kabel@@ 38
ständen 38
nei@@ 38
umgebungen 38
horizont 38
komplizierter 38
origin@@ 38
speichern 38
april 38
investi@@ 38
handels@@ 38
beantwortet 38
ausser@@ 38
schätz@@ 38
ungser@@ 38
itäten 38
beruf@@ 38
durchlaufen 38
rande 38
schrecklichen 38
angelegenheit 38
erzählung 38
wörtern 38
verwandt 38
bewältigen 38
rettung 38
verwendeten 38
intensiv 38
verletz@@ 38
gemü@@ 38
wohnungen 38
ausprobieren 38
heiligen 38
beschleunigt 38
schreck@@ 38
stimmte 38
sele@@ 38
merkt 38
zutaten 38
implan@@ 38
herausstellt 38
gene@@ 38
primi@@ 38
text@@ 38
heilige 38
anfingen 38
gesichts@@ 38
fantasie 38
erstaunt 38
genetik 38
ats 38
halbes 38
ozeans 38
foie 38
mul@@ 38
suppe 38
lg 38
chirurgie 38
pandemie 38
audi@@ 38
felsen 38
hütte 38
verheiratet 38
oma 38
koch@@ 38
örtlichen 38
beten 38
zivilisationen 38
assen 38
wahrschein@@ 38
knoten 38
auftritt 38
bedeutende 38
blinde 38
umfrage 38
sturm 38
geträn@@ 38
standards 38
uss 38
benjamin 38
tran@@ 38
ausreichend 38
mode 38
diplo@@ 38
ein-@@ 38
unterbrochen 38
opfern 38
staatliche 38
taus@@ 38
wänden 38
verständlich 38
kogni@@ 38
müsst 38
versicherung 38
größeres 38
präzise 38
para@@ 38
biologisch 38
gesellschaftlichen 38
süchtig 38
töne 38
nadel 38
ak 38
krea@@ 38
leinwand 38
quanten@@ 38
extra@@ 38
wortes 38
xi@@ 38
ozean@@ 38
parks 38
trainiert 38
methan 38
dies@@ 38
anzunehmen 38
nelson 38
alltag 38
can@@ 38
zugehen 38
mist 38
50@@ 38
atem@@ 38
wäsche 38
hor@@ 38
pass 38
schief 38
ppen@@ 38
anreiz 38
fett@@ 38
banken 38
krä@@ 38
48 38
verdoppeln 38
überzeugung 38
hypothe@@ 38
herausgestellt 38
elf 38
mathematische 38
experimentieren 38
gift 37
titan 37
woanders 37
60ern 37
sters 37
aufweisen 37
e-mails 37
steven 37
personal 37
leitung 37
klinische 37
verhindert 37
schafe 37
schuf 37
genome 37
tour 37
cyber@@ 37
studierenden 37
earth 37
virginia 37
popul@@ 37
schmerzhaft 37
unsicherheit 37
turm 37
filtern 37
satelliten@@ 37
6.000 37
ep@@ 37
anspruchs@@ 37
stock@@ 37
jederzeit 37
verschwendung 37
überwachen 37
ur-@@ 37
schritten 37
gkeiten 37
gestal@@ 37
keits@@ 37
cam@@ 37
33 37
wahrscheinlicher 37
gelben 37
inder 37
mente 37
ladungen 37
abschnitt 37
4.000 37
nette 37
leer 37
philosophen 37
daniel 37
seiden@@ 37
meme 37
extreme 37
illu@@ 37
verste@@ 37
würmer 37
rollstuhl 37
spezialisten 37
ökonomischen 37
hierfür 37
klug 37
marki@@ 37
unsichtbare 37
pin@@ 37
bam@@ 37
pilze 37
ingen 37
erkrankung 37
zudem 37
bert 37
heiße 37
gewal@@ 37
de-@@ 37
pfei@@ 37
ill@@ 37
lü@@ 37
zwecke 37
stephen 37
tatsächliche 37
clip 37
brief@@ 37
30.000 37
neh@@ 37
tom@@ 37
häufiger 37
gewä@@ 37
lichts 37
business 37
mythos 37
studi@@ 37
stor@@ 37
pflege@@ 37
spieler@@ 37
ket@@ 37
beutel@@ 37
einzigartigen 37
mysteri@@ 37
wie@@ 37
sahara 37
kognitive 37
kliniken 37
bigen 37
quer 37
aufgestellt 37
gleichungen 37
interview 37
archie 37
feinde 37
medikamenten 37
zugän@@ 37
unend@@ 37
bige 37
kunde 37
spanien 37
schloss 37
ame 37
aufzunehmen 37
parteien 37
linsen 37
20-@@ 37
globaler 37
graph 37
tempor@@ 37
durchschnitt@@ 37
dankeschön 37
eigentum 37
versagt 37
finanzi@@ 37
3-@@ 37
johnson 37
kolum@@ 37
einig 37
lebensraum 37
sowjetunion 37
glaub@@ 37
erzeu@@ 37
sicherzustellen 37
drucker 37
fügt 37
spruch 37
regi@@ 37
islamischen 37
fortschritt@@ 37
erweitert 37
ganz@@ 37
kontra@@ 37
hundert@@ 37
klassi@@ 37
pf 37
steh@@ 37
tens 37
yo@@ 37
jack 37
amerikan@@ 37
atz 37
ör@@ 37
zieh@@ 37
räum@@ 37
stig@@ 37
garage 37
klei@@ 37
fachen 37
täten 37
skali@@ 37
bewiesen 37
dörfer 37
lohnt 37
erkenntnisse 37
isierte 37
beleuchtung 36
verraten 36
span@@ 36
theore@@ 36
schwan@@ 36
bildschir@@ 36
kum@@ 36
motto 36
gerte 36
gehst 36
engagement 36
hom@@ 36
gelen@@ 36
privileg 36
mie@@ 36
beizubringen 36
ktiven 36
tu 36
stern@@ 36
frühe 36
grundlagen 36
markieren 36
geographic 36
röhren 36
schrecken 36
typischen 36
auszusehen 36
note 36
kenntnis 36
beseitigen 36
lokal 36
heilung 36
ents 36
amy 36
übliche 36
deln 36
kollab@@ 36
sische 36
gewohnheiten 36
flossen 36
auslö@@ 36
dosis 36
existierte 36
william 36
müde 36
unbekannte 36
verwirklichen 36
eit 36
siehst 36
stehlen 36
graus@@ 36
schnei@@ 36
sauber 36
unternehmer@@ 36
algen 36
gletscher 36
lern 36
schock 36
wiegt 36
alters 36
vers 36
betrug 36
förderung 36
klatschen 36
interpretieren 36
elektronen 36
eisen 36
lager@@ 36
prioritäten 36
einführen 36
grippe@@ 36
tan 36
anwalt 36
gps-@@ 36
silicon 36
transparent 36
programmen 36
charlie 36
1-@@ 36
slums 36
einzig 36
teuren 36
jones 36
bauch 36
standard 36
fossilen 36
kanäle 36
italien@@ 36
gewinner 36
interface 36
ny 36
nachmittag 36
kriegt 36
koran 36
alisten 36
rauchen 36
studierte 36
schlagzeilen 36
wett@@ 36
70ern 36
akte 36
feier 36
toleranz 36
säulen 36
locken 36
riechen 36
durchs 36
flach 36
abel 36
einzelnes 36
daneben 36
ener@@ 36
erschafft 36
lungen@@ 36
niemandem 36
schwä@@ 36
ökologie 36
führe 36
stationen 36
freiwillig 36
18. 36
gemeinschaft@@ 36
krankheits@@ 36
agieren 36
eingebaut 36
computers 36
2-@@ 36
olympischen 36
toller 36
fakt 36
bele@@ 36
schweren 36
truppen 36
benötigte 36
befand 36
ssi@@ 36
immunsystem 36
metaphern 36
nebeneinander 36
verläuft 36
blä@@ 36
treu 36
erfahr@@ 36
zutiefst 36
zehntausende 36
schäden 36
radikale 36
überraschende 36
zustände 36
expedition 36
geschossen 36
ey 36
israeli@@ 36
gestalt 36
u-bahn 36
unglaubliches 36
revolution@@ 36
attra@@ 36
c-@@ 36
profession@@ 36
anzufangen 36
wüsten@@ 36
bo 36
leitet 36
cen 36
nd 36
gewohnt 36
litten 36
aden 36
ktive 36
politischer 36
traditionen 36
endsten 36
proje@@ 36
wüsste 36
verblüffend 36
oxytocin 36
leihen 36
phy@@ 36
fielen 36
eventuell 36
bereitet 36
obere 36
unterwasser@@ 36
arti@@ 36
einnehmen 36
akzeptiert 36
der-@@ 36
hilfs@@ 36
berücksichtigt 36
wärmer 36
betäu@@ 36
symboli@@ 36
lar@@ 36
dlicher 36
mitleid 36
kru@@ 36
hans 36
erzählungen 36
ilen 36
reformen 36
domin@@ 36
draht 36
vermuten 36
restlichen 36
rie 36
vollständige 35
berühr@@ 35
vorlesen 35
gewalttä@@ 35
wahnsinnig 35
bst 35
aktivieren 35
wirtschaftlich 35
zö@@ 35
ingenieur@@ 35
eingestellt 35
gesetz@@ 35
digte 35
vertrauens@@ 35
pilot 35
van@@ 35
angestellte 35
glücklichen 35
stoß@@ 35
eingeschränkt 35
nährstoffe 35
ade 35
kurzes 35
rückwärts 35
kehren 35
kräf@@ 35
runde 35
bewaff@@ 35
stü@@ 35
tauch@@ 35
mikroskop@@ 35
schufen 35
zettel 35
blicke 35
teppich 35
substanz 35
kritische 35
lektionen 35
einfachste 35
may@@ 35
liber@@ 35
massive 35
2.@@ 35
spezifischen 35
original 35
pizza 35
herbst 35
interessan@@ 35
könntest 35
abraham 35
auflösung 35
project 35
lampe 35
konstruieren 35
transportiert 35
sklaverei 35
basieren 35
breiten 35
grösse 35
experte 35
schal@@ 35
übt 35
gerichtet 35
stammes@@ 35
gewinne 35
kab@@ 35
jeff 35
klassischen 35
hollywood 35
verbesserungen 35
männ@@ 35
jugendlichen 35
elegan@@ 35
tatsächlichen 35
zunge 35
zun@@ 35
sehn@@ 35
schalter 35
bac@@ 35
ars 35
dosen 35
genheit 35
kes 35
county 35
august 35
jesus 35
gelegentlich 35
genannten 35
ana 35
systematisch 35
graphi@@ 35
erlaubte 35
redner 35
taucht 35
chor 35
geplant 35
breit 35
börse 35
c. 35
ankommen 35
komplexes 35
prüfung 35
reiß@@ 35
zeugen 35
wartete 35
grau@@ 35
verschwand 35
vertre@@ 35
hell@@ 35
erstmals 35
oll@@ 35
erneuerbare 35
schwanger 35
übersetzung 35
nien 35
typisch 35
verwaltung 35
bislang 35
erlernen 35
ermutigen 35
5. 35
gesetzen 35
afgh@@ 35
profil 35
schließ@@ 35
minim@@ 35
schön@@ 35
ressource 35
tations@@ 35
bildungssystem 35
förmige 35
mme 35
weltraum@@ 35
t. 35
feuern 35
alkohol 35
ergebnissen 35
anzeigen 35
virtuelle 35
primaten 35
schall@@ 35
bundes@@ 35
finanzielle 35
dür@@ 35
wichtigkeit 35
lee 35
gegner 35
gross 35
eineinhalb 35
aßen 35
1950 35
hmen 35
konstru@@ 35
verzweifelt 35
million@@ 35
nungs@@ 35
schöpf@@ 35
installation 35
anderswo 35
zyklus 35
getrieben 35
krankenhäuser 35
prototyp 35
schiff@@ 35
aufwuchs 35
fär@@ 35
gemeint 35
st. 35
boden@@ 35
lab 35
sichti@@ 35
dn@@ 35
spinnen 35
schwein@@ 35
immun@@ 35
bezirk 35
geschaut 35
my 35
everest 35
ves 35
tausend@@ 35
schwimmt 35
europäische 35
chert 35
wesentliche 35
mike 35
kino 35
ethik 35
erkenn@@ 35
kopiert 35
dende 35
vereinfa@@ 35
jegliche 35
blinden 35
symmetr@@ 35
kan 35
vergrößert 35
großem 35
respekt@@ 34
gigen 34
tinte 34
arbeitsplätze 34
es-@@ 34
schnellen 34
kilometern 34
connectome 34
stücken 34
gen-@@ 34
schwamm 34
perfe@@ 34
versetzt 34
lauter 34
renn@@ 34
gli@@ 34
hals 34
kapu@@ 34
individuellen 34
kers 34
campus 34
stände 34
anwesenheit 34
leise 34
ökonomische 34
w-@@ 34
model 34
größen 34
gesam@@ 34
spu@@ 34
probiert 34
kleinste 34
pir@@ 34
vögeln 34
36 34
schni@@ 34
vietnam@@ 34
verteidigung 34
kommentar 34
tur 34
repar@@ 34
tuch 34
chts 34
konstruiert 34
diskutiert 34
künstlern 34
redete 34
synthese 34
beeindruckende 34
offensichtliche 34
nuklear@@ 34
hir@@ 34
automobil@@ 34
att@@ 34
demon@@ 34
schale 34
gur@@ 34
vis@@ 34
becher 34
betra@@ 34
menten 34
lewis 34
nähr@@ 34
bedeutungs@@ 34
klassifi@@ 34
eigentlichen 34
beschaff@@ 34
batterien 34
brennstoffe 34
galerie 34
entwicklungshilfe 34
seri@@ 34
ol 34
hungrig 34
tal 34
dunkler 34
flüssi@@ 34
kredit@@ 34
terte 34
woraus 34
unendliche 34
umfasst 34
verkehr@@ 34
füllt 34
ffel 34
bausteine 34
profit 34
unglücklich 34
abdruck 34
steten 34
öff@@ 34
nungen 34
ablauf 34
klare 34
bungen 34
problem@@ 34
endete 34
leser 34
einerseits 34
maler 34
teri@@ 34
zusammenbruch 34
historische 34
riesig 34
stum@@ 34
herzlichen 34
kationen 34
cin@@ 34
säugetiere 34
llt 34
sterblichkeit 34
ewig 34
tür@@ 34
ag 34
reifen 34
synthe@@ 34
matrix 34
klang@@ 34
lehnen 34
evolution@@ 34
treffe 34
unsichtbaren 34
stisches 34
üblicherweise 34
rohstoffe 34
generell 34
experimenten 34
sinnvoll 34
sowieso 34
mühe 34
mutig 34
springt 34
transformation 34
turen 34
verbrei@@ 34
nahr@@ 34
block@@ 34
spezial@@ 34
quadrat@@ 34
defi@@ 34
ungewöhnliche 34
sonde 34
landet 34
anzuwenden 34
chips 34
mandela 34
generieren 34
kortex 34
markiert 34
kehrte 34
außergewöhnlichen 34
eurer 34
einstellungen 34
baue 34
republik 34
gang@@ 34
fahre 34
angebracht 34
ökosysteme 34
analysiert 34
erwä@@ 34
distanz 34
pharma@@ 34
toiletten 34
premierminister 34
gestohlen 34
steinen 34
nähern 34
militärische 34
konzentrierte 34
wildnis 34
zz@@ 34
weit@@ 34
link 34
kong 34
linse 34
stige 34
regenwald 34
geformt 34
eurem 34
mathematischen 34
hob 34
dacht 34
teu@@ 34
berührung 34
ursachen 34
mmt 34
ration@@ 34
anhören 34
harten 34
kommentare 34
forschen 34
immerhin 34
kontrolli@@ 34
besserer 34
carolina 34
öse 33
produkt@@ 33
kostenlose 33
beteiligen 33
chens 33
herkommen 33
auslösen 33
zurecht@@ 33
trennung 33
-jähriger 33
aids-@@ 33
genau@@ 33
ierung 33
haushalt 33
möchtest 33
transplan@@ 33
gut@@ 33
schachtel 33
dritt@@ 33
ände 33
tägliche 33
festzustellen 33
tik@@ 33
jon@@ 33
minen 33
vorbild 33
einhalb 33
anrufen 33
asi@@ 33
baten 33
geistes 33
überein@@ 33
archi@@ 33
staates 33
angiogenese 33
flüsse 33
stürzen 33
gründeten 33
wahrheiten 33
tent@@ 33
ulen 33
wonach 33
klaren 33
stärksten 33
weitaus 33
hingegen 33
wurzel@@ 33
geschla@@ 33
woll@@ 33
struktur@@ 33
cy@@ 33
entwickler 33
rela@@ 33
200.000 33
stapel 33
ücken 33
arbeitsplatz 33
übernommen 33
trinkwasser 33
hunderttausende 33
brüche 33
festen 33
isoliert 33
angewiesen 33
gezeichnet 33
venti@@ 33
lasen 33
ungskraft 33
gruppen@@ 33
erfolgreiche 33
denker 33
vermu@@ 33
lkw 33
vorschlagen 33
40@@ 33
klimawandels 33
bewunder@@ 33
steuer 33
erzähl@@ 33
körperliche 33
bestimmtes 33
1999 33
maschin@@ 33
patent@@ 33
durchschnittlichen 33
60er 33
scan 33
datenbank 33
transportieren 33
höhen 33
lebensunterhalt 33
richtlinien 33
schiffe 33
agenda 33
u-@@ 33
teurer 33
veröffentlichte 33
kleinsten 33
bzw. 33
königreich 33
stieß 33
stätte 33
mäuse 33
chinesisch 33
delfine 33
joseph 33
harmonie 33
git@@ 33
enge 33
identifiziert 33
orbit 33
platzieren 33
verwal@@ 33
demokratische 33
sichere 33
enkel 33
ausprobiert 33
wat@@ 33
beobachtungen 33
wählten 33
pä@@ 33
andrew 33
erstmal 33
atlantik 33
pau@@ 33
fasste 33
kollektiven 33
gebrauchen 33
monster 33
experimenti@@ 33
herde 33
effektiver 33
erscheinung 33
übers 33
höhlen 33
vers@@ 33
orientiert 33
lust 33
physikalischen 33
verab@@ 33
pc 33
küsten@@ 33
ziger 33
künstler@@ 33
oli@@ 33
genossen 33
demonstrieren 33
bedro@@ 33
künstlich 33
anspruch 33
variationen 33
10. 33
pille 33
gescho@@ 33
ät 33
path@@ 33
hot@@ 33
ing 33
hülle 33
bauer 33
gewaltig 33
betreffen 33
polizisten 33
berater 33
koloni@@ 33
saubere 33
kunststoff 33
flüge 33
ansonsten 33
hem@@ 33
ore 33
merkwürdig 33
gött@@ 33
sauce 33
mie 33
pioni@@ 33
isch-@@ 33
schweizer 33
ski 33
gespeichert 33
zeugs 33
keinerlei 33
3d 33
ce 33
atz@@ 33
konver@@ 33
steckte 33
é@@ 33
dy@@ 33
hong 33
vereinen 33
manipulieren 33
geringer 33
top@@ 33
kluge 33
schrift@@ 33
einbeziehen 33
ao 33
männliche 33
lingen 33
bohr@@ 33
klinischen 33
glo@@ 33
nam@@ 33
versionen 33
stin@@ 33
tippen 33
innenstadt 33
kter 33
jugend@@ 33
krankenhäusern 33
abed 33
90ern 33
north 33
1998 33
geglaubt 32
zeitspanne 32
leucht@@ 32
glamourös 32
süd-@@ 32
robo@@ 32
schwi@@ 32
schaffung 32
anwen@@ 32
direkte 32
bach 32
dun@@ 32
wunden 32
zusammenfassen 32
tsunami 32
zugrunde 32
strang 32
bien 32
messungen 32
einfallen 32
amt 32
pilz 32
thei@@ 32
sher@@ 32
nik 32
denkens 32
bestandteile 32
scanner 32
schwellen@@ 32
nick 32
liegende 32
verwei@@ 32
vagina 32
füttern 32
vergewaltigt 32
ch-@@ 32
sprang 32
bedeuts@@ 32
lunge 32
vertreter 32
29 32
nütz@@ 32
anschließend 32
½ 32
7. 32
übertrag@@ 32
digungen 32
2,5 32
halten@@ 32
flei@@ 32
scher@@ 32
40.000 32
kau@@ 32
schweigen 32
vern@@ 32
spannen@@ 32
3,@@ 32
visualisierung 32
muslimischen 32
en. 32
vertei@@ 32
tiv@@ 32
diagno@@ 32
massiven 32
dauernd 32
bemühen 32
physisch 32
melodie 32
beschul@@ 32
intellektuelle 32
gesunken 32
tendieren 32
geprägt 32
wohnzimmer 32
untereinander 32
brauch@@ 32
schwachen 32
v. 32
tumore 32
able@@ 32
kerin 32
auszuprobieren 32
klicken 32
schad@@ 32
geschätzt 32
belie@@ 32
steck@@ 32
sammler 32
ok@@ 32
gewaltigen 32
sendungen 32
klänge 32
jun@@ 32
feynman 32
mand@@ 32
biomasse 32
exponentiell 32
skosten 32
mol@@ 32
autobahn 32
komische 32
angewandt 32
tive 32
partnerschaft 32
raums 32
angewendet 32
szenario 32
schlicht 32
lation 32
chem 32
adi@@ 32
kandi@@ 32
daraufhin 32
muster@@ 32
grei@@ 32
wör@@ 32
ösen 32
einzelner 32
fürchten 32
vereint 32
vergleicht 32
bildes 32
ie-@@ 32
minus 32
bronx 32
ausdrucks@@ 32
u.s. 32
trugen 32
lichere 32
flügel@@ 32
japanischen 32
flam@@ 32
jüngere 32
celsius 32
wort@@ 32
konkurrenz 32
beschei@@ 32
hühnchen 32
plattformen 32
sym@@ 32
bir@@ 32
traurige 32
polen 32
steuerung 32
sammelten 32
fels 32
amerikanischer 32
historischen 32
evolutions@@ 32
hacker 32
bereitschaft 32
schriften 32
erinn@@ 32
beton 32
union 32
+ 32
gor@@ 32
tv-@@ 32
ates 32
zimmer@@ 32
codes 32
spiritu@@ 32
klin@@ 32
ingenieuren 32
16. 32
mend 32
populationen 32
malte 32
cs 32
stür@@ 32
durften 32
behinderung 32
sig@@ 32
götter 32
negativen 32
frage@@ 32
elli@@ 32
beurteilen 32
herangehensweise 32
kleben 32
ckten 32
inierte 32
un-@@ 32
tv 32
entschuldigen 32
ellem 32
öffentlicher 32
getreide 32
schaff@@ 32
weiß@@ 32
ausgeht 32
squ@@ 32
deutschen 32
wiegen 32
abgele@@ 32
chse 32
biegen 32
pt 32
behinderungen 32
erklärungen 32
com@@ 32
enter 32
märz 32
tänzer 32
nordpol 32
schaltet 32
entwicklungen 32
tes@@ 32
zugriff 32
spinn@@ 32
tzte 32
dörfern 32
demü@@ 32
bedingung 32
bemühungen 32
theoretisch 32
effiziente 32
konversation 32
teller 32
begeisterung 32
schot@@ 32
karto@@ 32
schil@@ 32
nacht@@ 32
nutzer 31
ernte 31
still@@ 31
kriti@@ 31
verdäch@@ 31
umgesetzt 31
rou@@ 31
hef@@ 31
schaft@@ 31
pfte 31
flie@@ 31
verstärkt 31
24@@ 31
veränderten 31
schlüsse 31
verzwei@@ 31
pfeifen 31
bezogen 31
konzep@@ 31
passte 31
erfüllung 31
98 31
potenzi@@ 31
oper 31
zustellen 31
hardware 31
apfel 31
lud 31
interessierte 31
ball-@@ 31
interaktionen 31
kollege 31
wal 31
einbringen 31
effe@@ 31
kommst 31
kräften 31
anre@@ 31
starren 31
demokra@@ 31
übersehen 31
kondome 31
periode 31
solches 31
zulegen 31
persönlicher 31
fundament 31
phosphor 31
3.@@ 31
argumentieren 31
schub@@ 31
unterschiedlicher 31
wohnt 31
á@@ 31
respektieren 31
visuell 31
ll 31
eltern@@ 31
verleihen 31
mumbai 31
air 31
produzenten 31
äng@@ 31
spo@@ 31
ian 31
brech@@ 31
durchschnitts@@ 31
nan@@ 31
halfen 31
spart 31
cricket 31
starkes 31
schwung 31
abschließend 31
herstell@@ 31
umher 31
beeinflus@@ 31
sorgfältig 31
friedens@@ 31
ück@@ 31
aufhalten 31
ck-@@ 31
jagd 31
ansprechen 31
cola 31
langzeit@@ 31
dutzende 31
überqu@@ 31
zeug@@ 31
zero 31
route 31
demokraten 31
takti@@ 31
sammelte 31
koennen 31
gehirnen 31
sun@@ 31
gesundheitsversorgung 31
abhängt 31
dünne 31
stätten 31
ausgezeichnet 31
physikalische 31
leder 31
sprin@@ 31
34 31
ran 31
schrän@@ 31
ös 31
l-@@ 31
kognitiven 31
l.a. 31
mahlzeiten 31
paradigma 31
alls 31
stoß 31
tödliche 31
november 31
internet-@@ 31
stands@@ 31
stung 31
magazine 31
scott 31
musli@@ 31
artig 31
jahres@@ 31
fledermäuse 31
wahrhaftig 31
grundschule 31
2011 31
affen@@ 31
anony@@ 31
gramme 31
geschaltet 31
story 31
veröffentlichten 31
verwen@@ 31
43 31
blickt 31
aristoteles 31
pur@@ 31
irr@@ 31
schritt@@ 31
verschaffen 31
keller 31
heimatstadt 31
u-boot 31
mens 31
expor@@ 31
tän@@ 31
talenti@@ 31
seti 31
ky@@ 31
gandhi 31
eti@@ 31
kriminalität 31
will@@ 31
deli@@ 31
würfel 31
alex 31
aum 31
verschieben 31
fähigen 31
goo@@ 31
häl@@ 31
entkommen 31
chemotherapie 31
tam@@ 31
blättern 31
furchtbar 31
jay 31
absichten 31
schaffe 31
joshua 31
neigung 31
dringt 31
warte@@ 31
foto@@ 31
herbei@@ 31
ik@@ 31
bürgerkrieg 31
arthur 31
met@@ 31
verhaltensweisen 31
sing@@ 31
gelandet 31
ströme 31
prozentsatz 31
wid@@ 31
meeting 31
deut@@ 31
durchzu@@ 31
schöpfung 31
spunkte 31
benzin 31
gent@@ 31
polizist 31
frustri@@ 31
durchgehen 31
193@@ 31
nutze 31
dest 31
wachsenden 31
baby@@ 31
spinnen@@ 31
stiges 31
reali@@ 31
brem@@ 31
bearbeiten 31
abhängi@@ 31
elektronischen 31
begriffe 31
1900 31
wacht 31
mr@@ 31
teilzunehmen 31
belei@@ 31
sichern 31
dicke 31
sorte 31
ozeanen 31
bol@@ 31
klappen 31
artenvielfalt 31
ttet 31
singapur 31
ärer 31
olo@@ 31
gedichte 31
verhalten@@ 30
niedriger 30
schließe 30
lische 30
obdach@@ 30
demonstration 30
verpflichtet 30
gläu@@ 30
ehren@@ 30
klavier 30
liter@@ 30
stränge 30
wenigsten 30
baum@@ 30
trauri@@ 30
wall 30
wet@@ 30
rettet 30
umsonst 30
optionen 30
tötete 30
burg 30
initi@@ 30
ble@@ 30
stat@@ 30
therapien 30
higgs-@@ 30
schnittstelle 30
mine 30
schnitte 30
rente 30
drängt 30
angri@@ 30
rational 30
tig@@ 30
unan@@ 30
chem@@ 30
völker 30
rett@@ 30
rufe 30
leitungen 30
neutr@@ 30
krankungen 30
dollars 30
ansteck@@ 30
asth@@ 30
dinosauri@@ 30
huhn 30
merkte 30
inji@@ 30
geradezu 30
buchstab@@ 30
intellektuellen 30
jh 30
roboter@@ 30
überfluss 30
flugzeug@@ 30
fähi@@ 30
ausgelöst 30
erschienen 30
spontan 30
ironie 30
rückgang 30
praktische 30
freundschaft 30
angeschlossen 30
delhi 30
liebling@@ 30
jedermann 30
bruchteil 30
kant 30
food 30
scheiße 30
wurzel 30
poten@@ 30
molekular@@ 30
hmm 30
gering 30
tigem 30
verwirrt 30
exo@@ 30
zähnen 30
flagge 30
strahlt 30
teilneh@@ 30
publi@@ 30
ast@@ 30
betrachteten 30
lizen@@ 30
inge 30
fotografen 30
schliessen 30
aktivisten 30
möbel 30
erfüll@@ 30
indonesien 30
gänger 30
durchaus 30
gungen 30
cou@@ 30
tzten 30
bart 30
forschern 30
aufgezeichnet 30
benannt 30
inne@@ 30
schre@@ 30
frosch 30
bücher@@ 30
gesünder 30
kol@@ 30
läch@@ 30
melden 30
konser@@ 30
steigerung 30
rauschen 30
bemerkenswer@@ 30
paaren 30
bay 30
schwelle 30
frühstück 30
fried@@ 30
kühlt 30
studierende 30
schlägen 30
weiterentwickelt 30
kauften 30
stoffwechsel 30
life 30
fantastisches 30
temperatur@@ 30
hüfte 30
fleck 30
anges@@ 30
nü@@ 30
cia 30
mot@@ 30
logo 30
verzö@@ 30
fan 30
fran@@ 30
stabil 30
teres 30
hiermit 30
begeben 30
kas 30
sigkeit 30
erle@@ 30
milo 30
älterwerden 30
köni@@ 30
absichtlich 30
gespräch@@ 30
kritiker 30
rab@@ 30
kategorie 30
tedtalks 30
hinterher 30
urteil 30
zurecht 30
entwur@@ 30
überdenken 30
dunkel@@ 30
ausland 30
beunruhigt 30
röhre 30
teig 30
besit@@ 30
eintreten 30
dia 30
aussagen 30
diagramme 30
stört 30
gravitation 30
parlament 30
ratte 30
erie 30
neurowissenschaft 30
zahlt 30
chron@@ 30
informa@@ 30
agrar@@ 30
eck@@ 30
romantische 30
brennstoff 30
sts 30
vermei@@ 30
gedul@@ 30
versichern 30
voraussetzungen 30
verletzen 30
partikel 30
demselben 30
ankam 30
lea@@ 30
jahrelang 30
ruhe@@ 30
rechner@@ 30
rand@@ 30
beschaffen 30
berat@@ 30
oftmals 30
ya 30
spinne 30
gangs@@ 30
gründung 30
krü@@ 30
jugendliche 30
spi@@ 30
ga 30
dire@@ 30
kühlen 30
fün@@ 30
erdgas 30
angelegenheiten 30
aufgehört 30
130 30
astronomen 30
erwachsen 30
mäusen 30
tinten@@ 30
historisch 29
läden 29
verlaufen 29
zerstör@@ 29
mutationen 29
ausgelöscht 29
treibhausgase 29
jahrhunderte 29
klassen 29
these 29
ett 29
trocken@@ 29
repräsent@@ 29
drei-@@ 29
dokumente 29
türen 29
vorkommt 29
le-@@ 29
bestätigt 29
urlaub 29
angeblich 29
untersuchten 29
gesten 29
fundamentale 29
iss 29
tie@@ 29
schlangen 29
durchfall 29
juli 29
rick 29
versuchs@@ 29
identifi@@ 29
speku@@ 29
betrachte 29
fischerei 29
regal 29
menschenrechte 29
erstaunliches 29
geladen 29
identisch 29
meeresspiegel 29
schnitten 29
schneidet 29
schlä@@ 29
gü@@ 29
draht@@ 29
und-@@ 29
prothese 29
müttern 29
flugzeugen 29
app 29
gigan@@ 29
grafiken 29
hawaii 29
freizeit 29
000-@@ 29
sl@@ 29
weiblichen 29
aktivi@@ 29
räu@@ 29
beobachtete 29
wilde 29
verur@@ 29
unmögliche 29
got@@ 29
handlungs@@ 29
wald@@ 29
benutzer 29
wasserstoff@@ 29
jerusalem 29
simulieren 29
hofft 29
stattfand 29
attac@@ 29
alpha 29
zusammengefasst 29
betracht 29
benennen 29
diktat@@ 29
sab@@ 29
gefühlen 29
riff 29
niedrigen 29
tas@@ 29
schätzungen 29
anfühlt 29
00@@ 29
robotik 29
sang 29
impfstoffe 29
ick 29
erdoberfläche 29
start@@ 29
rom 29
konfron@@ 29
klick 29
diät 29
illegal 29
1997 29
unternehmens@@ 29
philosoph 29
sensi@@ 29
wk 29
johnny 29
jäger 29
modifi@@ 29
bö@@ 29
craig 29
aussuchen 29
spass 29
software-@@ 29
argumente 29
ereig@@ 29
strukturi@@ 29
fän@@ 29
grösser 29
zylinder 29
regime 29
verwendete 29
versteckten 29
wählt 29
zeuge 29
applaus 29
kolli@@ 29
nation@@ 29
72 29
sexu@@ 29
blitz 29
erwischt 29
leonardo 29
schuhen 29
nutzte 29
verlässt 29
zeu@@ 29
verfügt 29
master 29
juden 29
bela@@ 29
nachbar@@ 29
nano@@ 29
telefone 29
dsch@@ 29
überein 29
schaltkreise 29
lande 29
extremen 29
umgebracht 29
salz 29
bangladesch 29
schö@@ 29
nebel 29
rücken@@ 29
verkauften 29
virtu@@ 29
parameter 29
vorhersage 29
jüngeren 29
nervensystem 29
herumzu@@ 29
betrachtung 29
walmart 29
passend 29
fiktion 29
stewart 29
robotern 29
ise 29
lim@@ 29
hybri@@ 29
unbekannten 29
brand 29
kontin@@ 29
elektr@@ 29
verbün@@ 29
by 29
libellen 29
baseball 29
grafi@@ 29
weiterzu@@ 29
stirn 29
erläu@@ 29
set 29
korb 29
ausgehend 29
1994 29
empfangen 29
verantwortungs@@ 29
verpasst 29
seltsamen 29
verwü@@ 29
scheu@@ 29
kali@@ 29
loswerden 29
rock 29
hefe 29
chst 29
ty@@ 29
angriffe 29
intuitiv 29
filmemacher 29
dbar 29
explo@@ 29
nac@@ 29
erschaffung 29
ba 29
karti@@ 29
passi@@ 29
enttäuscht 29
sätzen 29
ökologischen 29
blas@@ 29
tastatur 29
repli@@ 29
zertifi@@ 29
perspektiven 29
kriminelle 29
weihnachts@@ 29
milch@@ 29
aufstellen 29
15. 29
posi@@ 29
integrieren 29
tale 29
ausgestattet 29
angen 29
setzung 29
vernachlässi@@ 29
krebszellen 29
rover 29
wähl@@ 29
füll@@ 29
palästinen@@ 29
ähnlicher 29
krist@@ 29
erwecken 28
langfristige 28
geholt 28
kilo@@ 28
wahn@@ 28
entsprechen 28
ansätze 28
genie@@ 28
seattle 28
französischen 28
sungen 28
bun@@ 28
kommuni@@ 28
koralle 28
schalt@@ 28
paare 28
well 28
atomen 28
air@@ 28
bag@@ 28
mitmachen 28
globales 28
gemerkt 28
gesellschaft@@ 28
tesla 28
voran 28
v-@@ 28
betrag 28
stert 28
überblick 28
korn 28
spunkt 28
don 28
beinhalten 28
niedrige 28
bergsteiger 28
setz@@ 28
hervorragend 28
bab@@ 28
wahrgenommen 28
einsatz@@ 28
organische 28
pfer 28
wertvolle 28
sklaven 28
blue 28
schizophrenie 28
fingern 28
erfol@@ 28
drücke 28
38 28
kämpfe 28
absolute 28
mam@@ 28
chin@@ 28
erkannten 28
hungern 28
witze 28
parti@@ 28
verfassung 28
beliebigen 28
hasse 28
garten@@ 28
übrigen 28
37 28
ängen 28
annähernd 28
sionen 28
höchst@@ 28
ärm@@ 28
hausaufgaben 28
erweiterung 28
magnet@@ 28
top-@@ 28
künste 28
reporter 28
vorgehensweise 28
winter@@ 28
comedy 28
verringert 28
ausbreiten 28
normal@@ 28
landkarte 28
bewerkstelligen 28
send 28
10-@@ 28
kels 28
errichtet 28
rezession 28
aß 28
grosser 28
relation 28
dekor@@ 28
vorbereitung 28
streu@@ 28
auswei@@ 28
2020 28
hervorbringen 28
herausra@@ 28
wirtschaftlicher 28
ernste 28
reihen 28
bauch@@ 28
reduktion 28
panzer 28
cloud 28
ski@@ 28
0 28
kanischen 28
ora 28
organisierte 28
parkplatz 28
entscheidenden 28
wies 28
südlich 28
ktiver 28
bran@@ 28
ack 28
dr 28
paar@@ 28
wiederaufbau 28
dick@@ 28
wol@@ 28
fäch@@ 28
wick@@ 28
dreidimensionale 28
zweig 28
lokal@@ 28
molekulare 28
behand@@ 28
hell 28
spiegelt 28
diplomatie 28
frustriert 28
labor@@ 28
patientin 28
194@@ 28
wiesen 28
französische 28
brennen 28
isation 28
ermöglichte 28
schirm 28
absoluten 28
geräusch@@ 28
schatz 28
brilli@@ 28
wachsen@@ 28
leu@@ 28
30-@@ 28
abspielen 28
verwunder@@ 28
motiviert 28
banker 28
d.h. 28
krater 28
bevorzugen 28
beunruhi@@ 28
meinten 28
kä@@ 28
halle 28
itäts@@ 28
besorg@@ 28
hack@@ 28
befreit 28
fange 28
ueber 28
krümm@@ 28
beherrschen 28
kus 28
ärger 28
sylvia 28
beschrieb 28
mäd@@ 28
flecken 28
kohlen@@ 28
gegenwärtigen 28
kammer 28
impuls 28
verfü@@ 28
laut@@ 28
begehen 28
rock@@ 28
knac@@ 28
essenz 28
geste 28
imm@@ 28
gliche 28
gegensei@@ 28
musikalische 28
4,@@ 28
tansania 28
alb@@ 28
phasen 28
haf@@ 28
schwach 28
gö@@ 28
vin 28
schweiz 28
american 28
jamie 28
fluss@@ 28
nadeln 28
hren@@ 28
5000 28
trop@@ 28
paradox 28
hauptstadt 28
stens 28
architektonische 28
gestoßen 28
farmer 28
quote 28
beamten 28
verwende 28
kriegs 28
olog@@ 28
stol@@ 28
gespannt 28
beruhi@@ 28
dazu@@ 28
zern 28
betreu@@ 28
beeindruck@@ 28
health 28
zu-@@ 28
beschäftigung 28
einfach@@ 28
bb@@ 28
wissenschaftlerin 28
ausrottung 28
verblüff@@ 28
sternen@@ 28
menden 28
ohr@@ 28
kehr@@ 28
führer@@ 28
größtenteils 28
sonn@@ 28
tatsachen 28
gig 28
behauptet 28
äch@@ 28
kore@@ 28
gelungen 28
essens@@ 28
han 28
arbeiter@@ 28
hoffnungen 28
square 28
2030 28
konflikten 28
fördert 28
hosen 28
sexy 28
sequenzen 28
entwickel@@ 28
einschränkungen 28
bewahr@@ 28
gesicht@@ 28
krankenschwestern 28
horizon@@ 28
bewahrt 28
netten 28
lücken 28
mutation 28
designern 27
gitter 27
ablen@@ 27
sion@@ 27
leuchtet 27
verfol@@ 27
liebten 27
quar@@ 27
anerkennen 27
boot@@ 27
larven 27
überwachung 27
inspirierend 27
künstlichen 27
rannte 27
gelan@@ 27
widerstands@@ 27
prof@@ 27
ille 27
plä@@ 27
yer 27
austauschen 27
einzugehen 27
platziert 27
übergehen 27
barmherzigkeit 27
entschloss 27
zwischenzeit 27
verpflichtung 27
femini@@ 27
messung 27
stehende 27
überlegt 27
orienti@@ 27
thunfisch 27
windenergie 27
kauf 27
kelly 27
umwandeln 27
griechen 27
archiv 27
alli@@ 27
herab@@ 27
abo@@ 27
verhältnisse 27
erlebte 27
bren@@ 27
jä@@ 27
eingenommen 27
bekannter 27
teilungen 27
350 27
pfi@@ 27
freier 27
empfänger 27
erkläre 27
helium 27
sichtbaren 27
bürgern 27
salz@@ 27
grau 27
konsequenz 27
hh 27
nder 27
mut@@ 27
schmeckt 27
latein@@ 27
quadratmeter 27
käse 27
vakuum 27
lands 27
jüngste 27
körperlichen 27
improvisi@@ 27
gebau@@ 27
hnte 27
thailand 27
stimmung 27
mörder 27
zw@@ 27
ehen 27
landung 27
koffer 27
transformieren 27
one-@@ 27
derselbe 27
erfolgs@@ 27
dopamin 27
kürz@@ 27
schar@@ 27
gelo@@ 27
sky 27
webseiten 27
phil@@ 27
freitag 27
angezogen 27
engagi@@ 27
space 27
hafter 27
benzin@@ 27
verluste 27
äne 27
schreiten 27
verschieden@@ 27
tiefsten 27
verschlüssel@@ 27
jane 27
sinni@@ 27
twi@@ 27
gebir@@ 27
talente 27
fusion 27
mrt 27
einfühlungsvermögen 27
h. 27
persönliches 27
gay 27
stürzt 27
itä@@ 27
tätig 27
tradition@@ 27
schläft 27
winde 27
bezahlung 27
kün@@ 27
christen 27
zwang 27
gangs 27
comic@@ 27
alem 27
adresse 27
kraftwerk 27
kamel 27
sarah 27
gegenwärtige 27
ultimative 27
aufgefallen 27
partnern 27
unterschied@@ 27
befolgen 27
stärk@@ 27
fälsch@@ 27
äres 27
wohlergehen 27
feuchtigkeit 27
kreuz 27
index 27
sierten 27
getreten 27
schuh 27
betrügen 27
vertreten 27
ings 27
rigi@@ 27
moskitos 27
rückkehr 27
child 27
wählte 27
peinlich 27
gießen 27
spürt 27
stillstand 27
clever@@ 27
medikam@@ 27
probanden 27
rasch 27
allmählich 27
richtete 27
erwartete 27
informiert 27
charakter@@ 27
einfa@@ 27
wiederhol@@ 27
intensität 27
beweist 27
tempel 27
rigen 27
gemis@@ 27
ausgestellt 27
warst 27
4-@@ 27
ständigen 27
irland 27
besuche 27
pumpe 27
weib@@ 27
bestätigen 27
glie@@ 27
äußeren 27
schwein 27
feuert 27
plötz@@ 27
projektes 27
kosmos 27
cal@@ 27
31 27
ausnahmen 27
ufer 27
up 27
kende 27
verkäufer 27
astro@@ 27
sion 27
mächtigen 27
älteste 27
wochen@@ 27
hindern 27
ausrichten 27
vorzubereiten 27
bearbeitet 27
lautete 27
kil@@ 27
apparat 27
pop@@ 27
schliesslich 27
ostküste 27
ermutigt 27
tismus 27
junges 27
modern 27
25@@ 27
abkommen 27
mono@@ 27
handel@@ 27
ses@@ 27
box@@ 27
arktischen 27
ffer 27
taucher 27
onik 27
verhandlungen 27
sierra 27
mammographie 27
stimulation 27
verpassen 27
erhe@@ 27
schultern 27
bote 27
beraten 27
organ@@ 27
47 27
real@@ 27
ästhetik 27
sün@@ 27
verhaltens 27
zusammenkommen 27
alice 27
teilhaben 27
einladen 27
katalo@@ 27
großarti@@ 27
mikro-@@ 27
bucht 27
non@@ 27
verstärken 27
4. 27
neuem 27
pillen 27
kat 27
standort 27
üblichen 27
ty 27
einkaufen 27
kanten 27
willi@@ 27
schlimme 27
nachher 27
weizen 27
küchen@@ 27
irgendeinen 27
einladung 27
zweit@@ 27
gebilde 27
verknüpfen 27
hohem 27
erzähl 27
normaler 27
rechnet 27
inger 27
helden@@ 27
teena@@ 27
ultraschall 27
verwund@@ 27
punk@@ 27
² 27
vol@@ 27
gewiesen 27
tunnel 27
visionen 27
mammo@@ 27
konto 27
vollem 27
schluss@@ 27
schall 27
ye@@ 27
gefilmt 27
mahlzeit 27
rob 27
klär@@ 27
mode@@ 27
überzeugungen 27
fahrten 27
kocht 27
beach 27
bevorzu@@ 27
priester 27
zwei-@@ 27
erender 27
42 27
redeten 27
erheblich 27
temperaturen 27
ath@@ 27
refle@@ 27
reservat 27
social 27
vollstän@@ 27
hat@@ 27
simu@@ 27
belohnt 27
zerbrech@@ 27
verla@@ 27
reaktor 27
kopenhagen 27
beratung 27
chile 27
pert 27
anderson 27
wochenende 27
ai 27
south 27
kontinenten 26
spri@@ 26
astronom@@ 26
gige 26
tags 26
männlichen 26
doppelte 26
vornehmen 26
professionelle 26
schnellsten 26
rollt 26
nervenzelle 26
vorder@@ 26
wolle 26
brauch 26
mall 26
beschädigt 26
besonder@@ 26
lustige 26
alltäglichen 26
außerordentlich 26
alan 26
geren 26
syn@@ 26
befestigt 26
rosa 26
chel 26
lächer@@ 26
hydro@@ 26
verlangsamen 26
optische 26
stich@@ 26
jungfrau 26
anz@@ 26
ami 26
patente 26
verrichten 26
verun@@ 26
-syndrom 26
ungsweise 26
molekülen 26
fundamentalen 26
bänder 26
verschmu@@ 26
charakteri@@ 26
kenntnisse 26
klat@@ 26
dean 26
abschneiden 26
assozi@@ 26
weisst 26
zufälligen 26
begegnung 26
shi@@ 26
langfristig 26
lego 26
behandlungs@@ 26
50-@@ 26
meldet 26
verwirr@@ 26
energies@@ 26
kaffee@@ 26
albert 26
beugen 26
issen 26
jagt 26
zwie@@ 26
imitieren 26
kontrollierte 26
neuseeland 26
ehemalige 26
affe 26
it-@@ 26
erweise 26
interessiere 26
kungen 26
ückt 26
korre@@ 26
taube 26
gewissem 26
molekularen 26
führende 26
besucher 26
freut 26
mem 26
entscheidet 26
kleider 26
erfolgreicher 26
anziehen 26
gift@@ 26
aufen 26
beacht@@ 26
verschmelzen 26
waschmaschine 26
7.@@ 26
leitete 26
1995 26
befanden 26
null@@ 26
aufhört 26
zeitschrift 26
zuständig 26
beruht 26
zenz 26
robu@@ 26
entsetz@@ 26
erwachsener 26
lebenszeit 26
ire 26
wortwörtlich 26
lädt 26
gelten 26
notizen 26
angefertigt 26
zwin@@ 26
angemessen 26
marschi@@ 26
histor@@ 26
psychiat@@ 26
maschinen@@ 26
bedeuten@@ 26
zonen 26
bedecken 26
haken 26
pon@@ 26
anstrengungen 26
brasili@@ 26
team@@ 26
zeile 26
drang 26
gran@@ 26
volumen 26
millimeter 26
merk@@ 26
umgewandelt 26
univers@@ 26
anatomie 26
beschrei@@ 26
server 26
biop@@ 26
entnehmen 26
seltener 26
clinton 26
mädchens 26
phänomene 26
halt@@ 26
jekt 26
psychische 26
sprich@@ 26
oliver 26
geor@@ 26
bilanz 26
legung 26
dreck@@ 26
mentale 26
leder@@ 26
rinde 26
dop@@ 26
äußere 26
anbauen 26
glühbirne 26
chromosomen 26
qual@@ 26
gefühlt 26
som@@ 26
professoren 26
netzwerks 26
glücks 26
edi@@ 26
3000 26
simple 26
kambodscha 26
brillan@@ 26
eingesch@@ 26
zigar@@ 26
erstaun@@ 26
schaltkreis 26
konsum@@ 26
konzer@@ 26
ideale 26
erweiter@@ 26
nö@@ 26
lähmung 26
12. 26
lande@@ 26
ater 26
research 26
kreuzen 26
dos 26
scannen 26
sichts@@ 26
dd@@ 26
mathemati@@ 26
üblich 26
selbstmord 26
drittes 26
zit 26
thunfische 26
realisieren 26
inieren 26
starteten 26
überholt 26
60.000 26
haftes 26
schleife 26
kompet@@ 26
bezeich@@ 26
körner 26
öhn@@ 26
wandert 26
manns 26
außerordent@@ 26
wußte 26
--- 26
gela@@ 26
unternommen 26
lichkeits@@ 26
auszugeben 26
spritzen 26
informieren 26
hilf@@ 26
stau 26
solle 26
bedrohungen 26
chemiker 26
bedient 26
abstrakte 26
ungs 26
leidenschaften 26
fahrts@@ 26
idealen 26
var@@ 26
artiges 26
mobiltelefone 26
sexuell 26
ore@@ 26
erholen 26
wright 26
übernimmt 26
folien 26
portrait 26
hierarchie 26
gefährdet 26
entlich 26
anderthalb 26
dlichkeit 26
materielle 26
standes 26
reiz@@ 26
abgeord@@ 26
grossartige 26
sperr@@ 26
beri@@ 26
unabhängi@@ 26
70er 26
lampen 26
krankenhaus@@ 26
schwache 26
universen 26
cham@@ 26
herausfanden 26
einschränkung 26
motivi@@ 26
schri@@ 26
berühm@@ 26
archä@@ 26
entlassen 26
vorhaben 26
mochten 26
buddhi@@ 26
tanzt 26
zeitschriften 26
zwangsläufig 26
zivili@@ 26
misch 26
arbeitern 26
verblüffende 26
weitergegeben 26
allen@@ 26
heimat@@ 26
wissenschaftlicher 26
nachhal@@ 26
schwimm@@ 26
verschlei@@ 26
engl@@ 26
wende 26
mitgefühls 26
gler 26
erfassung 26
gebung 26
vergleichbar 26
bilder@@ 26
animation 26
live-@@ 26
gon@@ 26
materials 26
rem 26
streckt 26
julia 26
dynamisch 26
beding@@ 26
yor@@ 26
existierenden 26
state 26
privatsphäre 26
brunnen 26
erfolgreichen 26
agen@@ 25
an-@@ 25
ausüben 25
detailli@@ 25
genom@@ 25
unsinn 25
nissen 25
volkes 25
visu@@ 25
ordentlich 25
nat@@ 25
sudan 25
facebook-@@ 25
geniale 25
engagieren 25
klappe 25
organisi@@ 25
geschichtenerzähl@@ 25
zweier 25
verteidigungs@@ 25
umfassende 25
lierte 25
hochzeit 25
190@@ 25
rasse 25
kyros 25
gewässer 25
fabri@@ 25
bedeutsam 25
vorhersehbar 25
massa@@ 25
schlan@@ 25
down@@ 25
befehl 25
leichten 25
bälle 25
euren 25
vorberei@@ 25
umbringen 25
amazon 25
elektron@@ 25
scans 25
gravi@@ 25
op 25
top 25
stöck@@ 25
bet@@ 25
grob 25
patienten@@ 25
erfolge 25
wohingegen 25
einfachsten 25
zeitig 25
festival 25
herauskommen 25
ägypter 25
horn 25
ankün@@ 25
weitergeben 25
mäß@@ 25
erzogen 25
dynamische 25
gröss@@ 25
entscheidungs@@ 25
80er 25
leidenschaft@@ 25
liebe@@ 25
folgten 25
80@@ 25
mien 25
verg@@ 25
symmetrien 25
ansah 25
atheisten 25
ungsa@@ 25
erden 25
wundern 25
fähige 25
genu@@ 25
ausgangspunkt 25
tiefsee 25
eingebettet 25
sagst 25
pakistan@@ 25
frustration 25
beton@@ 25
keni@@ 25
journalismus 25
bruch@@ 25
wechselt 25
dreidimensionalen 25
ome 25
graphische 25
element@@ 25
gram@@ 25
herausfand 25
ali 25
re-@@ 25
fahrt@@ 25
politikern 25
julian 25
wäl@@ 25
geringsten 25
fortzu@@ 25
atlanta 25
gewün@@ 25
gemeinsames 25
enheit 25
trennt 25
wendepunkt 25
gre@@ 25
rot@@ 25
fortgeschritt@@ 25
harry 25
anda 25
besorgen 25
pädago@@ 25
überwältigt 25
eigung 25
hlen@@ 25
eingriff 25
fit@@ 25
umsetzung 25
berech@@ 25
übungen 25
beur@@ 25
schütz@@ 25
frisch 25
gericht@@ 25
wolfram 25
posten 25
kennedy 25
verklein@@ 25
faser 25
südlichen 25
vermächtnis 25
schickt 25
sey 25
ähnelt 25
high@@ 25
befasst 25
verlän@@ 25
gerten 25
mischer 25
kanische 25
basierten 25
grundle@@ 25
zuhalten 25
beute 25
ausgerichtet 25
ganzer 25
geleistet 25
haft@@ 25
samm@@ 25
braun 25
ankunft 25
berücksichtigen 25
präsenz 25
ähn@@ 25
mikrobi@@ 25
hinzugefügt 25
statt@@ 25
gattung 25
reichte 25
perfektion@@ 25
intui@@ 25
sommer@@ 25
zusammenbringen 25
generiert 25
stimmten 25
unglaub@@ 25
klettert 25
café 25
propaganda 25
material@@ 25
dichten 25
ler-@@ 25
satz@@ 25
tauchte 25
kurven 25
vitamin 25
barrel 25
hender 25
entdeck@@ 25
lateinamerika 25
sli@@ 25
konstruk@@ 25
anstrengung 25
mobilität 25
up-@@ 25
cap@@ 25
pingu@@ 25
alistischen 25
minder@@ 25
ausbruch 25
libanon 25
kalku@@ 25
cre@@ 25
rop@@ 25
zimmern 25
wiederherzustellen 25
tät@@ 25
drin@@ 25
ds@@ 25
glühbirnen 25
pittsburgh 25
botschaften 25
lade 25
weitgehend 25
verhaftet 25
kritik 25
neuron 25
wilden 25
ausgangs@@ 25
mord 25
onen@@ 25
riesenha@@ 25
uhr@@ 25
zusammengestellt 25
erspar@@ 25
fischerei@@ 25
jonathan 25
ffe 25
zusätzlichen 25
meerwasser 25
stühle 25
mathe 25
stigt 25
momenten 25
unheimlich 25
säure 25
erhöhten 25
sitzung 25
raster 25
seither 25
stan 25
demonstriert 25
wahnsinn 25
dauer@@ 25
starker 25
insekt 25
ativ 25
älterer 25
gemein 25
gedauert 25
sauber@@ 25
strahl 25
gewinnung 25
geheimnis@@ 25
patenti@@ 25
verlangsamt 25
cortex 25
blog@@ 25
das@@ 25
keit 25
ansammlung 25
feier@@ 25
beispiel@@ 25
gesang 25
überprü@@ 25
dorf@@ 25
boom@@ 25
klarheit 25
ringe 25
folter 25
onnen 25
aufwachen 25
weis@@ 25
geringen 25
irren 25
söhne 25
positives 25
chemi@@ 25
warnung 25
myzel 25
schönsten 25
arabische 25
satzes 25
waisen@@ 25
vollste 25
orange 25
harm@@ 25
infektion 25
green 25
verdun@@ 25
materiellen 25
1970 25
varianten 25
soldat 25
leber@@ 25
bestanden 25
geschäftsmodell 25
jupiter 25
abend@@ 25
intellektu@@ 25
schiffen 25
örtliche 25
grösste 25
anfangs 25
fülle 25
schweben 25
jefferson 25
line 25
ignor@@ 25
bunker 25
tätigkeiten 25
adop@@ 25
führungen 25
ane 25
berkeley 25
ibm 25
gesto@@ 25
chten@@ 25
tags@@ 25
intensive 25
begraben 25
verstär@@ 25
wirtschaften 25
nummern 25
sinnen 25
endeffekt 25
stellige 25
dauerhaft 25
psycholog@@ 25
ator@@ 25
fokussiert 25
greifend 25
möglichst 25
konferenzen 25
gewissheit 25
schwim@@ 25
reflektieren 25
ßig 25
inta@@ 25
größ@@ 25
schick@@ 24
90er 24
zyklen 24
verkür@@ 24
lehrte 24
ad 24
wach 24
bewusste 24
ings@@ 24
hten 24
sehvermögen 24
gehei@@ 24
spontan@@ 24
kampf@@ 24
tödlich 24
aero@@ 24
umfas@@ 24
auftauchte 24
dank@@ 24
parasiten 24
esten 24
südpol 24
werf@@ 24
trag 24
busch 24
wohlhab@@ 24
feind@@ 24
kindergarten 24
temp@@ 24
lierung 24
blumen@@ 24
signatur 24
lon@@ 24
pinguin 24
kiefer 24
rose 24
ritu@@ 24
engen 24
hass 24
hirns 24
michigan 24
ineinander 24
verschiebung 24
karten@@ 24
hinterkopf 24
bieren 24
effizi@@ 24
brennstoff@@ 24
versteckte 24
sem 24
rump@@ 24
verschle@@ 24
unterir@@ 24
stolper@@ 24
meta@@ 24
einsicht 24
berufe 24
kosovo 24
schmelzen 24
kais@@ 24
strömen 24
manipuliert 24
sprä@@ 24
pflicht 24
impor@@ 24
zap@@ 24
stest 24
marktes 24
entzün@@ 24
verges@@ 24
anzupassen 24
banjo 24
heili@@ 24
board 24
ernährungs@@ 24
antikörper 24
längere 24
kultivi@@ 24
mcdonald 24
ferne 24
ungleich@@ 24
hindernis 24
formul@@ 24
interviewer 24
eröff@@ 24
carl 24
worfen 24
hiervon 24
nischen 24
künstlerische 24
terror@@ 24
wegzu@@ 24
raketen@@ 24
gh 24
pflanz@@ 24
grafik@@ 24
alexander 24
auti@@ 24
kostete 24
vernünftige 24
womöglich 24
tomo@@ 24
bewusster 24
leichte 24
grupp@@ 24
elend 24
way 24
anpassungs@@ 24
unternehmens 24
visueller 24
nehmt 24
flüchti@@ 24
ebay 24
abfall@@ 24
funktions@@ 24
rischen 24
speisen 24
lachten 24
berlin 24
designt 24
modellen 24
weichen 24
knei@@ 24
betrü@@ 24
diversität 24
kleber 24
deines 24
baus 24
marathon 24
shei@@ 24
berechti@@ 24
globus 24
anrei@@ 24
afrikan@@ 24
psychologische 24
biologischer 24
genoms 24
gast@@ 24
säuge@@ 24
lizenz 24
forma@@ 24
kus@@ 24
shakespeare 24
zusammengesetzt 24
bewus@@ 24
trieb@@ 24
ökologische 24
drachen 24
tageslicht 24
eintausend 24
isierten 24
handgelenk 24
dächer 24
meeresboden 24
osteuropa 24
angenehme 24
viert 24
drahtlose 24
laser 24
modus 24
halter 24
zahlreiche 24
news 24
orium 24
depressionen 24
gau@@ 24
sj 24
schlossen 24
fel 24
gps 24
magische 24
baumwolle 24
ginge 24
besaß 24
mals 24
nötige 24
geschrie@@ 24
2012 24
mineralien 24
gemeinnützige 24
bedürf@@ 24
moderner 24
parallel 24
streichen 24
schockiert 24
amm@@ 24
zigern 24
instin@@ 24
animationen 24
ai@@ 24
mythen 24
behinder@@ 24
klären 24
moore 24
impfung 24
sterblichkeitsrate 24
beängstigend 24
deutsche 24
äufe 24
beiseite 24
50er 24
ffer@@ 24
überaus 24
pfad 24
atom 24
merkwür@@ 24
shar@@ 24
francis 24
riss 24
hemd 24
träge 24
kanad@@ 24
pennsylvania 24
vogelgrippe 24
ausgerottet 24
wäldern 24
gefangenen 24
96 24
hässlich 24
antworteten 24
wegs 24
reichlich 24
diplomat 24
ewi@@ 24
vernetzung 24
bad 24
evolutionäre 24
ärztin 24
vermö@@ 24
gewebe@@ 24
kopien 24
orien 24
tust 24
dünn 24
bou@@ 24
schlauch 24
schießt 24
aktionen 24
qualifi@@ 24
designen 24
bedien@@ 24
jemen 24
schock@@ 24
wahrzunehmen 24
wille 24
dominiert 24
kaninchen 24
smus 24
szenen 24
.org 24
smo@@ 24
normen 24
emotional 24
gebühren 24
eingebau@@ 24
nigen 24
haushalte 24
bestimmung 24
format 24
spir@@ 24
hormone 24
inhalts@@ 24
bewege 24
vermischt 24
entwarf 24
gil@@ 24
elefant 24
konzerne 24
mitbringen 24
ent-@@ 24
unterschieden 24
auslöst 24
stich 24
anlegen 24
antreiben 24
tons 24
dramati@@ 24
jünger 24
glaubens@@ 24
aro@@ 24
stundenlang 24
grünes 24
wun@@ 24
hühner 24
himmels 24
differen@@ 24
wissen@@ 24
erendes 24
komponi@@ 24
jazz 24
innern 24
scan@@ 24
nebenwirkungen 24
geduld 24
einsparungen 24
drastisch 24
demokrati@@ 24
marsch 24
ernährt 24
vorgänge 24
gebe@@ 24
warm 24
dokumentiert 24
unangenehm 24
vergeben 24
katastrophal@@ 24
hebel 24
atemberau@@ 24
gesprächen 24
krimin@@ 24
fallschirm 24
nathan 24
aufgegeben 24
praktischen 24
disziplinen 24
rekru@@ 24
ähnlichkeit 24
ernsthafte 24
rechenschaft 24
wohltätigkeit 24
zellul@@ 24
gend@@ 24
dramatische 24
weckt 24
begrenzten 24
dau@@ 24
lauten 24
selbster@@ 24
sier@@ 24
pfleger 24
spür@@ 24
genauigkeit 24
ron 24
bremsen 24
kriterien 24
analysis 24
gefügt 24
lichung 24
zucht 24
journal 24
enti@@ 24
hunderttausend 24
clever 24
ägyp@@ 24
scharf 24
dokumentieren 24
programms 24
kopier@@ 24
klagen 24
psychiater 24
ausserhalb 24
liehen 24
innovativ 24
aufruf 24
sons 24
zerstörer@@ 24
dom@@ 24
grauen 24
lebensstil 24
krankenschwester 24
daumen 24
intro@@ 24
trinkt 24
tren@@ 24
ähneln 24
haushalts@@ 23
fehlern 23
skeptisch 23
kno@@ 23
fremd@@ 23
nachahmen 23
geheime 23
ation@@ 23
treff@@ 23
mitgliedern 23
elternteil 23
retro@@ 23
ax@@ 23
out@@ 23
rädern 23
ttelt 23
werben 23
zugelassen 23
blockiert 23
erdöl 23
hop@@ 23
schrei 23
verursachte 23
spli@@ 23
bär 23
kritischen 23
begrenzung 23
leuchten@@ 23
ausschau 23
aufgeteilt 23
einbauen 23
more 23
westküste 23
weitem 23
weiser 23
fie@@ 23
konservativen 23
schach@@ 23
wün@@ 23
teln 23
knö@@ 23
bereit@@ 23
100-@@ 23
amerikanern 23
kulturell 23
tödlichen 23
grade 23
erschreck@@ 23
konzentri@@ 23
talk 23
dumm@@ 23
handwerk@@ 23
cu@@ 23
neurowissenschaftler 23
erwachsenen@@ 23
enzen 23
bildete 23
analo@@ 23
wirksam 23
schlau@@ 23
herauskommt 23
gebenen 23
ethnische 23
ess 23
tibet 23
erdbe@@ 23
kalifor@@ 23
malari@@ 23
umgeht 23
ansteckend 23
griech@@ 23
dreieinhalb 23
wirkungs@@ 23
variante 23
orchest@@ 23
anleitung 23
fossilien 23
beigetragen 23
zaun 23
stal@@ 23
wesent@@ 23
vertierte 23
sebastian 23
unerwartete 23
gefährlichen 23
1991 23
zügen 23
dergleichen 23
automaten 23
ass 23
abwesenheit 23
sensor 23
offiziell 23
to-@@ 23
natasha 23
todesfälle 23
tee@@ 23
dol@@ 23
medizinischer 23
warfen 23
pos@@ 23
verantwor@@ 23
fund@@ 23
heli@@ 23
magen 23
paket 23
jähriges 23
beschrän@@ 23
linear 23
schauspiel@@ 23
regulierung 23
nachhaltigen 23
gänzlich 23
obersten 23
pool 23
autorit@@ 23
kommerzielle 23
herzkrankheiten 23
mobile 23
reist 23
stipendium 23
drängen 23
od@@ 23
wirbel 23
belohnungen 23
begrenz@@ 23
verschie@@ 23
lupe 23
verbrau@@ 23
reaktoren 23
fresser 23
verfügbaren 23
trainer 23
fö@@ 23
pt@@ 23
auswahlmöglichkeiten 23
ox@@ 23
verhe@@ 23
universitäts@@ 23
rechtzeitig 23
fröh@@ 23
uh 23
integration 23
pfa@@ 23
porno@@ 23
trick@@ 23
fehlende 23
kreatur 23
veranstal@@ 23
mikr@@ 23
beza@@ 23
verbesser@@ 23
angst@@ 23
näher@@ 23
totale 23
50ern 23
versicherungs@@ 23
beset@@ 23
‟ 23
fundament@@ 23
historiker 23
günstig 23
protesti@@ 23
spannende 23
kibera 23
eig@@ 23
hübsch 23
schüchtern 23
befestigen 23
herrn 23
wehr 23
quallen 23
rachel 23
offener 23
sno@@ 23
beruhigen 23
gendsten 23
brokkoli 23
effektive 23
geschlecht@@ 23
nike 23
neurolo@@ 23
abläuft 23
gewiss 23
are@@ 23
solarzellen 23
lot@@ 23
sandwich 23
einmali@@ 23
jackson 23
stattgefunden 23
warn@@ 23
hervorra@@ 23
gipf@@ 23
finanzkrise 23
moment@@ 23
pig@@ 23
belegen 23
egoi@@ 23
part@@ 23
patent 23
museen 23
vorgehen 23
wahrnehm@@ 23
forum 23
geg@@ 23
flus@@ 23
neter 23
geschä@@ 23
gelö@@ 23
synthetische 23
unabhängigen 23
nahrungsmittel@@ 23
assi@@ 23
höl@@ 23
beer@@ 23
barry 23
geist@@ 23
basis@@ 23
fg 23
wettbewerbs@@ 23
fisches 23
ologisch 23
schwangerschaft 23
geben@@ 23
aufzeigen 23
korrigieren 23
gesichtern 23
tun@@ 23
komplizierten 23
riefen 23
rechtfertigen 23
geborenen 23
datum 23
spartner 23
künstliches 23
slum 23
ausgesprochen 23
behauptung 23
hervorrufen 23
nachbar 23
mix@@ 23
sank 23
bits 23
2015 23
erleuchtung 23
tsch 23
überraschen 23
beweis@@ 23
scheiben 23
absol@@ 23
rechnungen 23
ares 23
vorgeschlagen 23
regnet 23
dring@@ 23
pol 23
hunger@@ 23
folglich 23
verbrachten 23
kompetenz 23
abhängen 23
gewidmet 23
verwandelte 23
täuscht 23
wöch@@ 23
mechanisch 23
abweichung 23
namibia 23
erforsch@@ 23
zurückzukehren 23
kisten 23
stellungen 23
palästina 23
wissenschaft@@ 23
äthiop@@ 23
kreativer 23
unterbrechen 23
gemeinsamkeiten 23
fehlte 23
= 23
dampf@@ 23
arznei@@ 23
schützer 23
zukünf@@ 23
1984 23
portraits 23
vielver@@ 23
schoss 23
stadien 23
reine 23
refer@@ 23
ktiv@@ 23
ordent@@ 23
überwältigend 23
betroffenen 23
geringe 23
flexibel 23
belegt 23
hinsehen 23
mittlere 23
pferde 23
software@@ 23
ersatz@@ 23
ay 23
weihnachten 23
operieren 23
terror 23
arz@@ 23
budgets 23
beliebige 23
elen 23
stimuliert 23
zittern 23
ström@@ 23
briten 23
biologe 23
enthüll@@ 23
titelseite 23
konserva@@ 23
worin 23
kartoffeln 23
zün@@ 23
rosling 23
oll 23
ffs 23
abnehmen 23
operations@@ 23
stapeln 23
massi@@ 23
fda 23
instinktiv 23
langle@@ 23
geistige 23
verarbeitet 23
aufgeb@@ 23
pel@@ 23
schleu@@ 23
dad 23
cousins 23
wehren 23
stringtheorie 23
piloten 23
techni@@ 23
missbrauch 23
abfolge 23
organisierten 23
gheit 23
syrien 23
aufregung 23
60@@ 23
aussicht 23
syndrom 23
kür@@ 23
bestra@@ 23
wache 23
sexuellen 23
enzyklopädie 23
urbane 23
bakterien@@ 23
tromm@@ 23
hetero@@ 23
verschwanden 23
erbar 23
kör@@ 23
stämmen 23
nobelpreis 23
force 23
währenddessen 23
saurier 23
philanthropie 23
befehle 23
moder@@ 23
blüte 23
absor@@ 23
1980 23
coca-cola 23
onale 23
spektrums 23
glamour@@ 22
typischerweise 22
funde 22
schwierigsten 22
fahrrad@@ 22
flusses 22
liebes@@ 22
korrek@@ 22
darwin@@ 22
serviert 22
gefeiert 22
misch@@ 22
folgendermaßen 22
ausde@@ 22
bezir@@ 22
gebt 22
erlebnisse 22
alphabet 22
vas@@ 22
schlauer 22
1980ern 22
milliar@@ 22
ameisen@@ 22
bevölk@@ 22
geheim 22
ative 22
meditation 22
löste 22
maske 22
verzi@@ 22
intrin@@ 22
ny@@ 22
herkommt 22
ktur 22
luden 22
pflegen 22
sigen 22
selbsthilfe@@ 22
oben@@ 22
peri@@ 22
gehende 22
organen 22
sth@@ 22
anzubieten 22
einkommens 22
günstiger 22
sorg@@ 22
kilogramm 22
widersprüch@@ 22
bezo@@ 22
berü@@ 22
0.@@ 22
stützen 22
misser@@ 22
zugehörigkeit 22
komplizier@@ 22
besor@@ 22
verbringt 22
fliegenden 22
lebensweise 22
zusammenspiel 22
zigen 22
geschle@@ 22
fürchter@@ 22
assoziiert 22
bruce 22
umfragen 22
hacken 22
laser@@ 22
drück@@ 22
zurufen 22
enor@@ 22
zuhörer 22
netter 22
engli@@ 22
brä@@ 22
insulin 22
alaska 22
entinnen 22
konstant 22
ausbreitung 22
kenden 22
konkurri@@ 22
angeben 22
esses 22
umzuwandeln 22
zehnmal 22
ftet 22
höhen@@ 22
british 22
bangalore 22
guta@@ 22
unzählige 22
wecken 22
rich@@ 22
jüdischen 22
sonntag 22
inspirierte 22
geschicht@@ 22
mäßigen 22
booten 22
einverstanden 22
zusamment@@ 22
chtert 22
97 22
direkten 22
tsam 22
unschul@@ 22
hüb@@ 22
erreichten 22
energiequ@@ 22
unfähig 22
strateg@@ 22
glüh@@ 22
abgeben 22
untergang 22
qui@@ 22
organischen 22
teilnahme 22
leistet 22
ahmen 22
dynamischen 22
sung 22
abe 22
ausschalten 22
frequenzen 22
empfehlen 22
herunterladen 22
tions-@@ 22
karikatur 22
teleskope 22
produktiv 22
stlich 22
regulieren 22
führern 22
e. 22
community 22
stone 22
traum@@ 22
installiert 22
modell@@ 22
mar 22
läufer 22
grenzen@@ 22
spielern 22
män@@ 22
trauer 22
rauszu@@ 22
impulse 22
bewertet 22
mittag 22
unsicht@@ 22
witzig 22
witz@@ 22
8.000 22
bemerkten 22
vergewaltigung 22
simpel 22
kompliziertes 22
dreieck 22
d.c. 22
spezifisch 22
mör@@ 22
trin@@ 22
empfindlich 22
enger 22
zunahme 22
schwäch@@ 22
kürzer 22
herausge@@ 22
ausbilden 22
gase 22
off@@ 22
super-@@ 22
kurzfri@@ 22
training@@ 22
unterhaltungs@@ 22
orientierung 22
trö@@ 22
mechan@@ 22
körperlich 22
sequenzierung 22
dunkeln 22
apps 22
source 22
spor@@ 22
tamiflu 22
genehmi@@ 22
überprüft 22
musikstück 22
va-@@ 22
bewerben 22
vereinbarung 22
karikaturen 22
integri@@ 22
üs@@ 22
betriebs@@ 22
no 22
bündel 22
gebnisse 22
spanne 22
beruflich 22
under 22
aufzeichnen 22
zuviel 22
politi@@ 22
nem 22
inier@@ 22
monterey 22
stange 22
unterhal@@ 22
meeren 22
bedeutenden 22
kooperieren 22
gesamtheit 22
begegnet 22
ernsthaf@@ 22
nachah@@ 22
ston 22
hineinzu@@ 22
sieg 22
letzt 22
sischen 22
statistisch 22
ofen 22
toronto 22
geschlossenen 22
verlor@@ 22
abstimmung 22
anfällig 22
angegriffen 22
zeichen@@ 22
gestri@@ 22
notiz@@ 22
wiederbele@@ 22
vorbereiten 22
besaßen 22
52 22
orientierten 22
tivi@@ 22
zusammenzubringen 22
schrump@@ 22
engineering 22
terie 22
mität 22
fäll@@ 22
reinig@@ 22
kleider@@ 22
saison 22
ertem 22
facht 22
keith 22
zellen@@ 22
transplantation 22
feder 22
sputnik 22
lady 22
terr@@ 22
einsichten 22
repor@@ 22
armuts@@ 22
wanderte 22
dimensionalen 22
stopp@@ 22
einhundert 22
notaufnahme 22
fes@@ 22
russischen 22
seg@@ 22
kämpft 22
grab 22
ultra@@ 22
new@@ 22
lungs@@ 22
astronomie 22
reflektiert 22
vereinigung 22
weggehen 22
unterscheidung 22
segel@@ 22
verband 22
optimieren 22
belohnen 22
wurf 22
benötigten 22
verwalten 22
terweise 22
gründet 22
luxus 22
digit@@ 22
matt 22
tate 22
greifbar 22
ruhen 22
checkliste 22
herzens 22
variation 22
them@@ 22
schlü@@ 22
packte 22
fres@@ 22
untersuchte 22
wärts@@ 22
erschließen 22
gebor@@ 22
schreckliches 22
ikon@@ 22
gegenseitige 22
rauf 22
tech@@ 22
gewandt 22
konfli@@ 22
table@@ 22
region@@ 22
kunden@@ 22
komment@@ 22
vir@@ 22
sig 22
gün@@ 22
cluster 22
erderwärmung 22
gleichermaßen 22
hon@@ 22
antreibt 22
seen 22
port@@ 22
schuh@@ 22
hing 22
jo 22
wider 22
lama 22
willkür@@ 22
quantenmechanik 22
prozessor 22
singt 22
magischen 22
sprung@@ 22
ruiniert 22
silber@@ 22
river 22
hotels 22
kon 22
unfair 22
schulbildung 22
chr. 22
damali@@ 22
unglaublicher 22
schär@@ 22
stabili@@ 22
ups 22
statten 22
mmern 22
lautsprecher 22
instab@@ 22
ash@@ 22
erwarteten 22
spreng@@ 22
man-@@ 22
lliger 22
keiten 22
marketing@@ 22
2.0 22
fs@@ 22
sonderlich 22
gesi@@ 22
blockieren 22
seil@@ 22
erkenne 22
dp 22
akzeptanz 22
betrachter 22
hinterfragen 22
sauer 22
ffekt 22
zahlen@@ 22
notfall@@ 22
kind@@ 22
gesinn@@ 22
nachkommen 22
prothesen 22
hormon 22
einheit@@ 22
sn@@ 22
fair@@ 22
verschwendet 22
brecher 22
vorgeht 22
inne 22
met 22
blindheit 22
epidemi@@ 22
nahrungskette 22
akademischen 22
ambi@@ 22
ji@@ 22
triebenen 22
dalai 22
sturz 22
bewertung 22
wag@@ 22
laufenden 22
ii 22
bildeten 22
notwendigerweise 22
nützliches 22
erzielt 22
wassers 22
südamerika 22
tums 22
traten 22
angenehm 22
blöcke 22
saft 22
aufklärung 22
que@@ 22
ermordet 22
ethanol 22
wunderbarer 22
ima@@ 22
brut@@ 22
höherer 22
ungsprogramm 22
halte@@ 22
epo@@ 22
versammeln 22
data 22
pfeiler 22
stem@@ 22
anfä@@ 22
sweise 21
verteidigen 21
authentizität 21
elektron 21
agen 21
tour@@ 21
ostafrika 21
cho@@ 21
richtiger 21
stammbaum 21
bevor@@ 21
stehenden 21
ry 21
einbezogen 21
produzier@@ 21
ziegen 21
frisst 21
speicher@@ 21
barem 21
qualle 21
blutgefäße 21
wars 21
apollo 21
verrückter 21
kate 21
ro 21
blogger 21
leicht@@ 21
einzufangen 21
völkermord 21
1989 21
wood 21
geliebt 21
undeutlich 21
vordergrund 21
geschäftsführer 21
kämen 21
khan 21
unbeabsichti@@ 21
hal 21
trainings@@ 21
galerien 21
linksliber@@ 21
wanderung 21
präsen@@ 21
rituale 21
esch@@ 21
aufpassen 21
misstr@@ 21
addi@@ 21
yu@@ 21
französisch 21
bestimmter 21
ause 21
lebensmitteln 21
produzent 21
protozelle 21
basier@@ 21
geschenkt 21
minü@@ 21
bade@@ 21
akzent 21
bananen 21
engel 21
bewegten 21
truppe 21
76 21
arktis 21
farmen 21
zunimmt 21
portugal 21
dänemark 21
verlegen 21
begründet 21
evan 21
alar@@ 21
schema 21
weswegen 21
otte 21
beheben 21
brüdern 21
möbel@@ 21
molekü@@ 21
fris@@ 21
deprimiert 21
et-@@ 21
ehrgei@@ 21
anschließen 21
spektro@@ 21
erleiden 21
bast@@ 21
ingenieurs@@ 21
schlafzimmer 21
zapfen 21
träum@@ 21
treibung 21
hunder@@ 21
imp@@ 21
disney 21
bes 21
verb 21
schützt 21
fußball 21
abhandlung 21
who 21
gebär@@ 21
stickstoff@@ 21
heiß@@ 21
erhit@@ 21
konzert 21
fassten 21
tank 21
ereignissen 21
technologischen 21
beschränkungen 21
topo@@ 21
erneuerbaren 21
eilen 21
graham 21
äf@@ 21
nst 21
meistern 21
ngos 21
sätz@@ 21
komman@@ 21
genial 21
fischer@@ 21
krieg@@ 21
under@@ 21
schwam@@ 21
überlebenden 21
seltsames 21
pfle@@ 21
dynam@@ 21
hin- 21
renaissance 21
giftigen 21
meinungs@@ 21
werkzeug@@ 21
annt 21
dankbarkeit 21
ivan 21
vor-@@ 21
funktionsweise 21
verlierer 21
pathie 21
gewebes 21
schne@@ 21
fels@@ 21
kollektive 21
voranzu@@ 21
skop 21
ir 21
tedtalk 21
antike 21
antwor@@ 21
fuss@@ 21
umgibt 21
kühlung 21
watson 21
innovative 21
arabisch 21
carnegie 21
kompli@@ 21
revolutionen 21
flow 21
vorträgen 21
grundstück 21
studentin 21
zehntel 21
ost@@ 21
1,3 21
bekämpfung 21
digten 21
koch 21
ham 21
aqu@@ 21
entscheidung@@ 21
gefiel 21
behindert 21
geheimen 21
freigesetzt 21
kuli@@ 21
albern 21
wahlmöglichkeiten 21
geschichtenerzähler 21
rus@@ 21
digkeit 21
positiver 21
ktivität 21
betrachtete 21
achtet 21
hübsche 21
ipod 21
inhal@@ 21
dirigenten 21
interaktiv 21
höhlen@@ 21
japan@@ 21
abschied 21
öster@@ 21
religiös 21
sammlungen 21
zentri@@ 21
universelle 21
gärten 21
besprechen 21
cha@@ 21
teter 21
bte 21
reichhal@@ 21
bten 21
gehenden 21
stag@@ 21
zubringen 21
oktopus 21
öffnung 21
ventionen 21
begrüßen 21
28@@ 21
wac@@ 21
freundes 21
vorlieben 21
vorstell@@ 21
münze 21
frisch@@ 21
50. 21
verantwort@@ 21
ures 21
generi@@ 21
kleid 21
automati@@ 21
mass@@ 21
santa 21
fans 21
nähert 21
lehrplan 21
synästhesie 21
verabschieden 21
klam@@ 21
rechenleistung 21
offizielle 21
ökonom 21
verträge 21
unterdrücken 21
unsicher 21
kunstwerk 21
energiever@@ 21
boom 21
erlei@@ 21
gehörte 21
schwar@@ 21
älen 21
irak@@ 21
peng 21
magneten 21
drückte 21
lett 21
seltene 21
charak@@ 21
zeremonie 21
kerle 21
vermehren 21
machbar 21
veteranen 21
norm 21
mechanische 21
beijing 21
zivil@@ 21
spitz@@ 21
hawking 21
bali 21
unausweich@@ 21
leugnen 21
franzö@@ 21
klebeband 21
arischen 21
erwarte 21
kamele 21
reputation 21
stür 21
tts 21
cas@@ 21
hinab 21
denjenigen 21
staunen 21
tscher@@ 21
gekostet 21
umsatz 21
nes 21
vieh 21
verblei@@ 21
oberfläch@@ 21
splan@@ 21
sky@@ 21
nieren 21
fessel@@ 21
wiederauf@@ 21
knöpfe 21
out 21
angerufen 21
errei@@ 21
unterschätzen 21
auton@@ 21
zeitungs@@ 21
externe 21
datensatz 21
katastrophen@@ 21
bestechung 21
umdrehen 21
reak@@ 21
zufällige 21
keram@@ 21
400.000 21
hür@@ 21
fertigkeiten 21
mck@@ 21
bemüht 21
zufolge 21
leone 21
winziger 21
betritt 21
vermischen 21
minderheit 21
rasen 21
zurückge@@ 21
act 21
fußball@@ 21
konkurrieren 21
brooklyn 21
klüger 21
armstrong 21
schüsse 21
verstop@@ 21
lock@@ 21
ingt 21
eingebracht 21
qualitäten 21
billion 21
refor@@ 21
überleben@@ 21
louis 21
häuft 21
bittet 21
löchern 21
pro-@@ 21
seitige 21
beteiligung 21
voraussetzung 21
versuch@@ 21
operiert 21
dokument 21
kumu@@ 21
alp@@ 21
ushahidi 21
vorschriften 21
einfalls@@ 21
töteten 21
hydr@@ 21
do-@@ 21
netzhaut 21
bauern@@ 21
beschleunigung 21
präsent 21
dio@@ 21
not 21
gesteckt 21
läufe 21
stunts 21
iniert 21
fuss 21
öls 21
m. 21
verzerr@@ 21
bosnien 21
papiere 21
persönlichkeiten 21
riskieren 21
psychischen 21
sebene 21
grand 21
garantiert 21
vermark@@ 21
insel@@ 21
kak@@ 21
verläss@@ 21
schwa@@ 21
schum@@ 21
zuallererst 21
you 21
dumme 21
jahrhunder@@ 21
versammlung 21
welch 21
brillante 21
statue 21
realisierte 21
drungen 21
neil 21
farben@@ 21
stechen 21
vernunft 21
tei@@ 21
anern 21
susan 21
wandeln 21
stacheln 21
derart 21
geres 21
blutdruck 21
hellen 21
hingabe 21
bär@@ 21
preisen 21
goldenen 21
spanisch 21
schlepp@@ 21
werkstatt 21
geschwister 21
schnellste 21
vorräte 21
14. 21
regenerieren 21
reichsten 21
mas 21
bischen 21
gänz@@ 21
ala 21
erhöhte 21
isoli@@ 21
schub 21
fahrzeugen 21
blätter@@ 21
herausstellte 21
chao@@ 21
let 21
stuhl@@ 21
fund 21
ender@@ 21
kosmischen 21
befru@@ 21
korrup@@ 21
tchen 21
vergleiche 21
zweifellos 21
verschreiben 21
verpackung 21
konkre@@ 21
wis@@ 21
landwirtschaftlichen 21
installieren 21
trost 21
verspreche 21
kommerzi@@ 21
ueber@@ 21
festgehalten 21
agno@@ 21
fünfte 21
eigentums@@ 21
luther 21
flexi@@ 21
gedeihen 21
helm 21
fünfzig 21
partei@@ 20
bewertungen 20
jahrhunderten 20
weitergehen 20
öko@@ 20
asteroid 20
unbekannt 20
antwortet 20
lik@@ 20
stückchen 20
wien 20
läufi@@ 20
klugen 20
potenti@@ 20
bedürfnissen 20
then 20
lebendige 20
richteten 20
ständigkeit 20
koopera@@ 20
angesprochen 20
formuliert 20
christus 20
elektri@@ 20
kontroverse 20
vorschläge 20
vel@@ 20
aquarium 20
aliens 20
tabelle 20
win 20
cnn 20
schmecken 20
aufbaut 20
siehe 20
cooper 20
tasten 20
faden 20
fluores@@ 20
realisiert 20
kaffe@@ 20
argumen@@ 20
vernetzen 20
verlieben 20
delta 20
skiz@@ 20
lers 20
vergröß@@ 20
sechst@@ 20
furcht 20
jahreszeiten 20
kalender 20
tempest 20
aims 20
schlagan@@ 20
russen 20
wähle 20
irration@@ 20
brad 20
derzeitige 20
erkennung 20
korallenriffe 20
aufzugeben 20
verlegt 20
acker@@ 20
illegale 20
spiele@@ 20
kiribati 20
überprüf@@ 20
provo@@ 20
poni@@ 20
süße 20
sektoren 20
kar 20
verbringe 20
ungeachtet 20
freundliche 20
kt-@@ 20
musikal@@ 20
verti@@ 20
vietnam 20
sexual@@ 20
strieren 20
färben 20
kompromiss 20
schme@@ 20
tierarten 20
genauen 20
sauberes 20
vt 20
gkeits@@ 20
eu 20
rep@@ 20
beharr@@ 20
kopfschmerzen 20
action@@ 20
be-@@ 20
columbia 20
ron@@ 20
digitales 20
kennengelernt 20
nordo@@ 20
höch@@ 20
stem 20
heimischen 20
red@@ 20
yp 20
zusammenzuarbeiten 20
geni@@ 20
eignen 20
verdeutlichen 20
klimaanlage 20
64 20
fossile 20
norman 20
ooh 20
gif@@ 20
beherr@@ 20
erträge 20
nasen@@ 20
frösche 20
beauftragt 20
äter 20
tumor@@ 20
drauf@@ 20
aufnimmt 20
iden 20
spaltung 20
angelegt 20
beobachter 20
durchge@@ 20
geru@@ 20
datei 20
verwirk@@ 20
eigentü@@ 20
wohnwagen 20
berichtete 20
dest@@ 20
angezeigt 20
starr@@ 20
wahres 20
iq 20
taste 20
förmig 20
bezieh@@ 20
orts@@ 20
edinburgh 20
heilmittel 20
mexi@@ 20
ks@@ 20
verbrannt 20
beobachteten 20
drehe 20
triebs@@ 20
neu-@@ 20
bevölkerungswachstum 20
zwecken 20
geschi@@ 20
kontam@@ 20
muse@@ 20
fili@@ 20
abwärts 20
ethnischen 20
ash 20
é 20
erectus 20
genannte 20
austral@@ 20
vergangen 20
einher@@ 20
titanic 20
steigende 20
vorhan@@ 20
konsi@@ 20
psych@@ 20
yves 20
berufen 20
ktor@@ 20
maten 20
platzt 20
griff@@ 20
verleger 20
mais@@ 20
dünger 20
chromosom 20
dallas 20
arch@@ 20
rissen 20
erfolgreich@@ 20
drucks 20
spin@@ 20
aha 20
menschlichem 20
verdanken 20
mari@@ 20
videospiel 20
hoffnungslos 20
verließen 20
hasst 20
änden 20
schöpfen 20
bä@@ 20
nördlichen 20
regelmäß@@ 20
substan@@ 20
schnecken 20
deter 20
grü@@ 20
beschäftige 20
irre 20
übereinstimmen 20
grundsätze 20
forderte 20
bühnen@@ 20
deutsch 20
alien 20
seu@@ 20
enten@@ 20
schmu@@ 20
verbundenen 20
mary 20
mad@@ 20
teur 20
900 20
bür@@ 20
warren 20
makro@@ 20
ssen@@ 20
billige 20
jar@@ 20
ha-@@ 20
vorherzusagen 20
redak@@ 20
knall@@ 20
prize 20
käfig 20
teppiche 20
me-@@ 20
fassung 20
180 20
barriere 20
bewundern 20
modern@@ 20
pst 20
barrieren 20
merkwürdige 20
lichtgeschwindigkeit 20
geehrt 20
szenarien 20
leiden@@ 20
analphab@@ 20
coch@@ 20
fertigkeit 20
betrogen 20
zugegeben 20
intelligenter 20
jonglieren 20
este 20
steigen@@ 20
echo@@ 20
dreck 20
strassen 20
browser 20
sorgte 20
cents 20
schwierig@@ 20
ereien 20
langlebigkeit 20
ira@@ 20
kari@@ 20
nord-@@ 20
esst 20
realistisch 20
yle 20
selbstvertrauen 20
gelagert 20
feste 20
1982 20
ands 20
provinz 20
gewöhnen 20
gebühr 20
feldes 20
gemalt 20
hauen 20
reform 20
adap@@ 20
geliefert 20
holly@@ 20
sehnen 20
kombin@@ 20
publikums 20
125 20
abgesch@@ 20
paradies 20
passten 20
leds 20
bräuchte 20
25.000 20
lassung 20
ursprünge 20
ethische 20
milchstraße 20
todes 20
sorten 20
imperi@@ 20
hochwer@@ 20
entwürfe 20
east 20
begangen 20
trocknet 20
überla@@ 20
gebete 20
doug 20
spitzen@@ 20
ws 20
unerwartet 20
ahnen 20
übel 20
ansteigen 20
jeans 20
präfron@@ 20
explosionen 20
eich@@ 20
malediven 20
zige 20
neugierde 20
herausforder@@ 20
jazz@@ 20
juri@@ 20
fakultät 20
verfein@@ 20
üpp@@ 20
ideologie 20
lippen 20
institution@@ 20
buckel@@ 20
zurückbringen 20
findung 20
cheryl 20
nord 20
zufrieden@@ 20
beleuchtet 20
bewässer@@ 20
zitieren 20
südafri@@ 20
lations@@ 20
kse 20
stimu@@ 20
lagos 20
yl@@ 20
mäßige 20
vorherigen 20
fixiert 20
gos 20
angreifen 20
lor@@ 20
beit 20
assistenten 20
tender 20
glichkeit 20
gründlich 20
ausgedacht 20
spielzeuge 20
modelli@@ 20
verschwenden 20
sprozess 20
resul@@ 20
sili@@ 20
netzwerk@@ 20
belü@@ 20
stetig 20
forscht 20
physiologie 20
zipcar 20
ruder 20
surfen 20
kredit 20
extra-dimensionen 20
lischen 20
andauernd 20
beam@@ 20
fötus 20
mount 20
kollaps 20
gelei@@ 20
ballons 20
hierhin 20
ethisch 20
massachusetts 20
tationen 20
häufigsten 20
beha@@ 20
zweifel@@ 20
begehren 20
transfor@@ 20
arbeitslosigkeit 20
vin@@ 20
glicher 20
akzep@@ 20
kugeln 20
futter@@ 20
boten 20
sauberer 20
hattest 20
auftaucht 20
früherkennung 20
1996 20
anonym 20
arkti@@ 20
eil 20
erheben 20
projektion 20
wichtig@@ 20
knete 20
sprobleme 20
lernens 20
ausgestorben 20
meen 20
1945 20
spirituellen 20
ama 20
quadrate 20
energie-@@ 20
kansas 20
artikeln 20
geistigen 20
kaulquapp@@ 20
erwi@@ 20
emotionales 20
recherche 20
250.000 20
chtig 20
klippe 20
hunde@@ 20
moeg@@ 20
variable 20
quantifi@@ 20
würdigkeit 20
tasman@@ 20
blich 20
8. 20
außerirdische 20
gehir@@ 20
kürze@@ 20
hie@@ 20
geschlafen 20
ph 20
demut 20
liberia 20
angehalten 20
plün@@ 20
elementen 20
dave 20
nigerianischen 20
verni@@ 20
trauen 20
tigkeiten 20
betreibt 20
gelenkt 20
schon@@ 20
eimer 20
verwirrend 20
orgasmus 20
agnes 20
disches 20
anne 20
erfolgsgeschichte 20
errungenschaften 20
klässler 20
entwicklung@@ 20
galt 20
belä@@ 20
falt@@ 20
wachen 20
einwohnern 20
dich@@ 20
gesendet 20
häuser@@ 20
gestürzt 20
za 20
lei 20
vergewal@@ 20
zuverlässig 20
aufzus@@ 20
festig@@ 20
zusagen 20
gehör@@ 20
frische 20
1,2 20
sicherheit@@ 20
bedingt 20
mlich 20
kokain 20
allein@@ 20
kontinente 20
amazonas 20
variablen 20
bloße 20
verbre@@ 19
katho@@ 19
zivi@@ 19
she@@ 19
zivilgesellschaft 19
areal 19
verknüpf@@ 19
highschool 19
atmosp@@ 19
autonomie 19
taiwan 19
henden 19
album 19
5.@@ 19
uss@@ 19
omie 19
altmo@@ 19
diskre@@ 19
stößt 19
erschwing@@ 19
schmer@@ 19
uno 19
atur@@ 19
moma 19
küssen 19
gehoben 19
reser@@ 19
distan@@ 19
kennenlernen 19
umstri@@ 19
knü@@ 19
ungleichgewicht 19
aufgaben@@ 19
hineinge@@ 19
bearbeitung 19
touri@@ 19
heiratete 19
flö@@ 19
ausser 19
lakota 19
enthusiasmus 19
aufspüren 19
baumwoll@@ 19
zusammenfassung 19
gott@@ 19
typisches 19
ironischerweise 19
clay 19
eingreifen 19
min 19
elektromagne@@ 19
tern@@ 19
sim@@ 19
diejenige 19
genommen@@ 19
vernetzt 19
jeweiligen 19
schreit 19
mathematisches 19
montag 19
kling@@ 19
entfernungen 19
verlu@@ 19
bern@@ 19
mte 19
image 19
auffälli@@ 19
südasien 19
rest@@ 19
mili@@ 19
käufer 19
gutem 19
sus@@ 19
zauber 19
phantom-@@ 19
bakteri@@ 19
raumschiff 19
leug@@ 19
but 19
öffneten 19
weis 19
pfeil 19
arab@@ 19
klavier@@ 19
billigen 19
sch-@@ 19
verstümm@@ 19
massiv 19
blutgefässe 19
geschie@@ 19
winziges 19
beste@@ 19
names 19
fähiger 19
86 19
mikrofon 19
müsse 19
üsse 19
lichtjahre 19
primzahl 19
kran@@ 19
gesegnet 19
widerstehen 19
zität 19
einschalten 19
meilen@@ 19
ata 19
photo@@ 19
elite 19
spann@@ 19
williams 19
ums@@ 19
vernetzten 19
phänomen@@ 19
herz-@@ 19
intensiv@@ 19
tasse 19
generator 19
anwes@@ 19
eindrucks@@ 19
gesundes 19
angelangt 19
schimpanse 19
glau@@ 19
nes@@ 19
begeg@@ 19
betä@@ 19
ia 19
theater@@ 19
empfindet 19
dezentr@@ 19
bombar@@ 19
bertie 19
auseinandersetzung 19
kultureller 19
verkauf@@ 19
demokratien 19
zac@@ 19
auflösen 19
geschäftswelt 19
py@@ 19
bmw 19
steller 19
versprochen 19
individuell 19
ins@@ 19
heimlich 19
kennenzulernen 19
technologie@@ 19
extrem@@ 19
erklärten 19
vermittler 19
140 19
green@@ 19
gesamtes 19
gerlich 19
beseitigt 19
sträger 19
lebensdauer 19
rennt 19
proji@@ 19
boss 19
kriminellen 19
außergewöhnliches 19
ries@@ 19
schro@@ 19
plänen 19
kongress@@ 19
smar@@ 19
mitfühlend 19
unterdrück@@ 19
atmet 19
1986 19
notwendigen 19
risse 19
intelligentes 19
gescheitert 19
handvoll 19
1993 19
fortfahren 19
wiki@@ 19
mani@@ 19
nordkorea 19
sump@@ 19
mehrmals 19
iten 19
anischer 19
entwickl@@ 19
pflegt 19
dsten 19
resistent 19
hohes 19
jährlichen 19
iere 19
formation 19
bör@@ 19
äl@@ 19
kerne 19
immen@@ 19
teszler 19
rezeptor 19
zeichneten 19
hing@@ 19
liebend 19
anrufe 19
schlussfolgerung 19
eigert 19
ausgeführt 19
körpersprache 19
netzen 19
metalle 19
erfuhren 19
reinigen 19
zeilen 19
college-@@ 19
unterneh@@ 19
journali@@ 19
zenten 19
vent@@ 19
intimität 19
ziere 19
graphischen 19
gefror@@ 19
bräuchten 19
ramp@@ 19
laufende 19
rey 19
sony 19
schadstoffe 19
schlachten 19
miss 19
krank@@ 19
killer 19
japanische 19
koperni@@ 19
murray 19
ory 19
pfe@@ 19
tante 19
maxim@@ 19
spra@@ 19
asiens 19
sprichwort 19
ruhi@@ 19
drehten 19
überlegte 19
eintritt 19
zauberer 19
mächtiges 19
mechanischen 19
schwieriges 19
paradig@@ 19
enha@@ 19
kühlschrank 19
häss@@ 19
dylan 19
unterhalts@@ 19
ungemein 19
chen-@@ 19
aktiver 19
powerpoint 19
itali@@ 19
ground 19
kost@@ 19
erleb@@ 19
isolation 19
fotogra@@ 19
desaster 19
lebensspanne 19
dent@@ 19
meetings 19
schatten@@ 19
ring@@ 19
aufenth@@ 19
entschlüsseln 19
gefäl@@ 19
moo@@ 19
inse@@ 19
versuchung 19
neocortex 19
rätsel@@ 19
naturwissenschaften 19
erschaff@@ 19
pete 19
akademie 19
weinte 19
besiegen 19
akteur 19
proportional 19
geschw@@ 19
sequ@@ 19
indus-schrift 19
stars 19
gall@@ 19
angemessen@@ 19
gesün@@ 19
spürte 19
blocks 19
hervorragende 19
gül@@ 19
entscheiden@@ 19
favelas 19
profit@@ 19
tugend 19
zack 19
company 19
roboters 19
aggressiv 19
dj 19
fonds 19
-system 19
tul@@ 19
flüssig 19
biolumineszenz 19
supraleiter 19
5-@@ 19
jason 19
offensicht@@ 19
lese@@ 19
krebse 19
explodierte 19
hörer 19
stöcke 19
schwach@@ 19
law 19
schoß 19
psychopath@@ 19
lässig 19
wissenschaftliches 19
oi@@ 19
lette 19
kompletten 19
großbritanniens 19
ti-@@ 19
endem 19
kopf-zahl-@@ 19
ue 19
enzy@@ 19
steckten 19
schauspielerin 19
virus@@ 19
tter@@ 19
blauflossen@@ 19
gliches 19
die@@ 19
sser 19
islamische 19
geldes 19
anfänger 19
falken 19
präzision 19
nchen 19
navi@@ 19
nullen 19
abgestimmt 19
schwächen 19
perio@@ 19
150.000 19
kathedrale 19
ego 19
professionellen 19
längst 19
gewusst 19
allgegenwärtig 19
anblick 19
angeb@@ 19
unbewusst 19
prophe@@ 19
kameraden 19
atrazin 19
politik@@ 19
evolutionären 19
sprechend 19
mensch-@@ 19
lebenser@@ 19
prozessen 19
a. 19
bedenkt 19
allerersten 19
täts@@ 19
phot@@ 19
micro@@ 19
bindet 19
tivem 19
subsahar@@ 19
gratis 19
unschuldig 19
verständnis@@ 19
nordameri@@ 19
geborene 19
gespendet 19
erwar@@ 19
sb 19
dok@@ 19
vorbilder 19
hinteren 19
präch@@ 19
impfen 19
trenn@@ 19
kim 19
wirtschaftliches 19
griffe 19
getrei@@ 19
ritual 19
designer@@ 19
gestoppt 19
bens@@ 19
schleifen 19
improvisation 19
fettleibig 19
all-@@ 19
genuss 19
psyche 19
glass 19
bildhau@@ 19
grundsätz@@ 19
eins-@@ 19
aufgezogen 19
honig 19
mitzuteilen 19
ablaufen 19
zusammensetzung 19
verändernde 19
lieb 19
or-@@ 19
anzieh@@ 19
behauptungen 19
erstellte 19
erlich 19
prozentige 19
strä@@ 19
nun@@ 19
bi 19
uchen 19
metaphor@@ 19
vertikale 19
i. 19
drehung 19
erwähne 19
brennt 19
matte 19
hafen 19
einzustellen 19
wegnehmen 19
öffentliches 19
mathe@@ 19
hervorzubringen 19
agu@@ 19
befreiung 19
fügte 19
teilchenphysik 19
geräuschen 19
gesellschaftliche 19
liger 19
abgeschnitten 19
böden 19
bekommst 19
gestimmt 19
lierten 19
romantik 19
malt 19
rin@@ 19
klimakrise 19
freun@@ 19
finanziell 19
arten@@ 19
wickelt 19
reisten 19
diente 19
gläser 19
nigeri@@ 19
privilegi@@ 19
grosses 19
schreitet 19
matisch 19
beru@@ 19
mod@@ 19
eur 19
näh@@ 19
solltest 19
erwider@@ 19
gefangene 19
ideo 19
lerne 19
hamburger 19
una 19
mysterium 19
erfanden 19
betriebssystem 19
enceladus 19
enthüllen 19
verhandeln 19
ideal 19
rettete 19
chinesisches 19
vorlesungen 19
ney 19
wilson 19
digitaler 19
abschluss@@ 19
stießen 19
urs 19
mobiltelefon 19
akademiker 19
ling@@ 19
andy 19
schmuck 19
kreuzung 19
fünftel 19
buddha 19
ross 19
trieben 19
probi@@ 19
penis 19
überschwe@@ 19
asthma 19
wiedersehen 19
choreo@@ 19
cartoons 19
umkehren 19
schwäche 19
befrei@@ 19
exper@@ 19
geschahen 19
franzosen 19
canyon 19
skand@@ 19
prozess@@ 19
ile 19
sangen 19
malerei 19
greifenden 19
ultravio@@ 19
whit@@ 19
enthüllt 19
irrtum 19
83 19
al-qaida 19
erwerben 19
garanti@@ 19
sho@@ 19
trank 19
werbes@@ 19
umt 19
verkörpert 19
ó@@ 19
grossartig 18
gummi@@ 18
plasti@@ 18
jerry 18
täter 18
montana 18
achtz@@ 18
hungersnot 18
unordnung 18
ferien 18
dg 18
cooler 18
ausbreitet 18
beschweren 18
streich@@ 18
diana 18
unglück 18
zusammenfas@@ 18
überstehen 18
shu@@ 18
familienplanung 18
300.000 18
bow@@ 18
biolumines@@ 18
day 18
tattoo 18
funktionierten 18
tzellen 18
arizona 18
soviele 18
zusam@@ 18
innova@@ 18
110 18
fertiggestellt 18
77 18
zerbrechlich 18
multination@@ 18
wired 18
komplex@@ 18
ellen@@ 18
bundesstaat 18
firmen@@ 18
druckerpresse 18
betreuung 18
sän@@ 18
maria 18
schmilzt 18
pubertät 18
vorstellt 18
vieh@@ 18
ord@@ 18
diamanten 18
os@@ 18
gezählt 18
medienunternehmen 18
ausländische 18
gren@@ 18
fig@@ 18
würdet 18
röntgen-@@ 18
) 18
beteili@@ 18
position@@ 18
bester 18
stipen@@ 18
glied 18
anhän@@ 18
östlichen 18
aufwachsen 18
hinausgehen 18
steigenden 18
erziehen 18
pus 18
plätzen 18
fell 18
glänz@@ 18
transa@@ 18
schlachtfeld 18
gebra@@ 18
post-@@ 18
außerirdischen 18
ischerweise 18
geister 18
empfän@@ 18
motorrad 18
neanderthaler 18
sige 18
zustande 18
bedanken 18
legi@@ 18
angenehmer 18
doodlen 18
vielfäl@@ 18
beutel 18
happy 18
expan@@ 18
tilien 18
sensor@@ 18
dend 18
nuklearen 18
ungerechtigkeit 18
kontinuier@@ 18
indirekt 18
iraner 18
bundesstaaten 18
pazifi@@ 18
pfl@@ 18
patho@@ 18
ev@@ 18
rsw 18
rotten 18
eignet 18
predi@@ 18
schlaue 18
davon@@ 18
big@@ 18
feucht@@ 18
entle@@ 18
lich-@@ 18
stop 18
unvorstellbar 18
unvermeidbar 18
kommerziellen 18
schleim 18
nicole 18
konz@@ 18
schockier@@ 18
sou@@ 18
anschau@@ 18
äquivalent 18
staub@@ 18
erem 18
lehnte 18
coolen 18
platzen 18
transistoren 18
shows 18
ermäch@@ 18
verbren@@ 18
anästhesie 18
leopar@@ 18
selbstmordattent@@ 18
lokaler 18
brennstoffen 18
wähler 18
ergab 18
zutrifft 18
steu@@ 18
herab 18
dvd 18
türk@@ 18
recherch@@ 18
ersti@@ 18
atombombe 18
fühl@@ 18
problematisch 18
bereitete 18
fünf-@@ 18
enkel@@ 18
pper 18
mittler@@ 18
zusammensetzen 18
meiß@@ 18
gigantischen 18
klon@@ 18
hilfsorganisationen 18
bruchs 18
sbar 18
rasi@@ 18
schlech@@ 18
grun@@ 18
belege 18
besitz@@ 18
berührte 18
ner-@@ 18
geantwortet 18
trocken 18
12.000 18
biert 18
mythologie 18
essens 18
nieren@@ 18
fru@@ 18
ein- 18
system@@ 18
fieber 18
jacke 18
noten@@ 18
mana@@ 18
flachen 18
strich 18
moskitonetze 18
virale 18
kunstwerke 18
tauchten 18
sis 18
karibik 18
partner@@ 18
hospital 18
erfreut 18
authenti@@ 18
mona@@ 18
erlangt 18
entfern@@ 18
thes@@ 18
unterdrückt 18
priorität 18
pupp@@ 18
spazieren 18
jemandes 18
notwen@@ 18
anfühlen 18
komponisten 18
orleans 18
konservative 18
konnektivität 18
sänger 18
klienten 18
träumt 18
rekor@@ 18
zähler 18
ausschlag@@ 18
nm 18
zurückgreifen 18
überwiegend 18
herrschte 18
mathematisch 18
merkten 18
vorsorge 18
glücks@@ 18
identitäten 18
laborat@@ 18
leidenschaftlich 18
rapi@@ 18
ethischen 18
gegenstück 18
angestellt 18
hypothesen 18
einigermaßen 18
symphonie 18
erhalte 18
go-@@ 18
puppe 18
mobilisieren 18
heißer 18
befrie@@ 18
reise@@ 18
gange 18
vergesst 18
entwick@@ 18
lebensform 18
ekel@@ 18
stent 18
linear@@ 18
infi@@ 18
anschluss 18
hrer 18
änge 18
langfristigen 18
auszeit 18
vorsitz@@ 18
mannschaft 18
viereinhalb 18
volk@@ 18
gängen 18
weiterentwicklung 18
jüngsten 18
hervorheben 18
margaret 18
depressiv 18
peln 18
umkreisen 18
prüfungen 18
verbraucher@@ 18
gerungen 18
präsidentschafts@@ 18
angetan 18
ostens 18
schlechteste 18
stit@@ 18
ystem 18
xt 18
hackt 18
society 18
gebrochenen 18
bs@@ 18
demnach 18
süßigkeiten 18
informierte 18
detroit 18
was@@ 18
bezahlte 18
schilder 18
guinea 18
eindring@@ 18
krisen 18
mers 18
entdecker 18
ewigkeit 18
sequenzieren 18
lohn@@ 18
geräts 18
infra@@ 18
jährliche 18
katrina 18
rent@@ 18
anter 18
wölfe 18
antun 18
wiederzu@@ 18
konsument 18
differ@@ 18
rechenmaschine 18
weißer 18
erfinder@@ 18
dritter 18
bekanntes 18
täusch@@ 18
täuschungen 18
umweltschutz 18
termin@@ 18
flexibilität 18
auslöser 18
fäl@@ 18
gewannen 18
uk 18
pazi@@ 18
ons@@ 18
auswendig 18
jon 18
schildkröten 18
schwierigkeit 18
hinauf@@ 18
wiederver@@ 18
la-@@ 18
traditionell 18
nairobi 18
ehemaligen 18
prostitu@@ 18
mücken 18
ausgesucht 18
inspi@@ 18
bedacht 18
herange@@ 18
ktiert 18
integrität 18
princeton 18
aufwärts 18
steig 18
que 18
aufbau@@ 18
197@@ 18
sum 18
richtiges 18
derjenigen 18
ziege 18
dämp@@ 18
immobilien@@ 18
anthropologen 18
balanci@@ 18
versus 18
wandels 18
verkörper@@ 18
holi@@ 18
norwegen 18
verwickelt 18
gegebenheiten 18
bohren 18
gezü@@ 18
meter-@@ 18
artefakte 18
grundlegendes 18
erweiterte 18
schlamm 18
missbraucht 18
dreiecke 18
panbanisha 18
planten 18
kapitän 18
sungs@@ 18
essi@@ 18
alist 18
faszinierenden 18
akten 18
fot@@ 18
geschei@@ 18
urban@@ 18
digitalisieren 18
bahnbrechende 18
interven@@ 18
fröhlich 18
gewässern 18
disku@@ 18
hex@@ 18
xe 18
chendes 18
veröffentlichung 18
verkünden 18
erheb@@ 18
funden 18
vernünftig 18
illusionen 18
gehörten 18
uv-@@ 18
vagina-@@ 18
studiere 18
kümmerte 18
sugger@@ 18
emotion 18
haftigkeit 18
informationstechnologie 18
laufbahn 18
statisti@@ 18
erwischen 18
vorurteile 18
bemerkung 18
babbage 18
amateur@@ 18
zufalls@@ 18
innovativen 18
verlorene 18
world@@ 18
neigt 18
bender 18
bestellen 18
pos 18
stren@@ 18
repräsen@@ 18
dehnt 18
dän@@ 18
zeitgenöss@@ 18
bak@@ 18
‚ 18
astronauten 18
anwendungs@@ 18
richti@@ 18
füllte 18
shel@@ 18
gemäß@@ 18
verwandlung 18
vere 18
bleibe 18
tigte 18
existi@@ 18
herzinfarkt 18
vortra@@ 18
zustimmung 18
market@@ 18
beschränken 18
verschicken 18
gerade@@ 18
konzentrierten 18
umfangrei@@ 18
soeben 18
siv 18
hungen 18
gyrus 18
vorzüge 18
werfer 18
ziffern 18
chel@@ 18
verga@@ 18
programmierung 18
maxi@@ 18
stoffwechsel@@ 18
vollzeit@@ 18
männer@@ 18
kell@@ 18
veraltet 18
getrunken 18
tagsüber 18
splan 18
bohrt 18
warteten 18
grönland 18
wahrer 18
himalaya 18
sperren 18
muschel 18
zwingt 18
passiv 18
1968 18
erwartung 18
ideal@@ 18
öl-@@ 18
hall@@ 18
einfangen 18
begrüßt 18
ausflug 18
ökosystemen 18
erfolgt 18
helikopter 18
hierzu 18
erstreckt 18
delt 18
herzer@@ 18
luf@@ 18
taxi 18
ungeheure 18
begeister@@ 18
ausseh@@ 18
etablieren 18
flüssen 18
unvorstell@@ 18
ersatz 18
eingesperrt 18
akteure 18
hausti@@ 18
umwandlung 18
mittelklasse 18
skrankheiten 18
zwi@@ 18
stur@@ 18
umwand@@ 18
70@@ 18
lebender 18
fürsorge 18
gedächtnis@@ 18
diagnosti@@ 18
sehkraft 18
einigt 18
ena 18
nische 18
hoff@@ 18
sanft 18
englisch@@ 18
jün@@ 18
improvisieren 18
potentiellen 18
nanotechnologie 18
max 18
7.000 18
umar@@ 18
hill 18
einklang 18
beiträgt 18
gereicht 18
beherrscht 18
impul@@ 18
schrif@@ 18
auskommen 18
eingang 18
mühle 18
gefäß 18
vorhersag@@ 18
pilzen 18
zerstörte 18
oo@@ 18
herkömm@@ 18
ausdrücke 18
nötigen 18
vulkan 18
terri@@ 18
tho@@ 18
kreide 18
fotografierte 18
formte 18
glatt 18
verban@@ 18
sterberate 18
seltenen 18
kranken 18
ticket 18
ku 18
heizen 18
verli@@ 18
fliegende 18
prozessoren 18
abgrund 18
menschenmenge 18
mitarbeitern 18
kratie 18
arabien 18
hartnäck@@ 18
sri 18
sicheres 18
haupt 18
barack 18
ct-@@ 18
kugel@@ 18
ypen 18
lebensformen 18
tedx@@ 18
auffä@@ 18
eil@@ 18
captcha 18
korreli@@ 18
einblicke 18
künst@@ 18
festgelegt 18
selbständig 18
fertigten 18
ungslos 18
effektiv@@ 18
hinterlässt 18
rod 18
zusammenhän@@ 18
ppte 18
geschmacks@@ 18
dorfes 18
gewisses 18
ozeano@@ 18
wähler@@ 18
organisch 18
aufzuhören 18
isse 18
nützen 18
zuhört 18
stecke 18
manipulation 18
datenbanken 18
komplettes 18
schöpfer 18
kratische 18
elektrisches 18
flücht@@ 18
cli@@ 18
replizieren 18
apfel@@ 18
freiwilli@@ 18
lehrer@@ 18
wendet 18
pestizide 18
verschafft 18
palette 18
überschreiten 18
aff@@ 18
aufstand 18
99@@ 18
sick@@ 18
philip 18
ani 18
lotterie 18
hende 18
verhinder@@ 17
illegal@@ 17
existenti@@ 17
krö@@ 17
attraktiv 17
val 17
militärischen 17
flüchtlinge 17
plans 17
tropen 17
stürme 17
gewichts@@ 17
schlagzeile 17
sexper@@ 17
great 17
papi@@ 17
scherz 17
altru@@ 17
ehrfurcht 17
kost 17
formu@@ 17
aufgefordert 17
sieh 17
skam@@ 17
bedauern@@ 17
30er 17
geschäftsmodelle 17
verschwen@@ 17
begeistern 17
op-@@ 17
grössten 17
früchten 17
äußern 17
exzell@@ 17
scharfen 17
stimmi@@ 17
einschlagen 17
hippo@@ 17
az@@ 17
toren 17
fairness 17
schaf 17
costa 17
gekennzeichnet 17
skarte 17
sue 17
pollen@@ 17
ander 17
schwarm 17
untersuch@@ 17
niederlage 17
griechischen 17
fünften 17
bewohn@@ 17
amer 17
solide 17
zweitgrößte 17
tum@@ 17
hole 17
abgespielt 17
hervorgebracht 17
etiket@@ 17
trie@@ 17
frontal@@ 17
erstaunlicherweise 17
sin 17
stockwerke 17
pps 17
landeten 17
immernoch 17
handels 17
filter@@ 17
keit@@ 17
caltech 17
recher@@ 17
technologischer 17
verpflich@@ 17
projekt@@ 17
prinz 17
senf 17
belt 17
veranstaltungen 17
feri@@ 17
japaner 17
lationen 17
erhältlich 17
seele@@ 17
nutzlos 17
erwiesen 17
aufgeklär@@ 17
anschaue 17
liebhaber 17
einander@@ 17
paradox@@ 17
kündigte 17
verinner@@ 17
kacheln 17
schlugen 17
zeln 17
mik@@ 17
anfan@@ 17
3,5 17
fledermaus 17
unheim@@ 17
dach@@ 17
primzahlen 17
clo@@ 17
südo@@ 17
roy 17
verblüfft 17
ansässigen 17
nepal 17
irgendwer 17
ausgang 17
anordnung 17
besprochen 17
märchen 17
anen 17
zeugnis 17
masken 17
smartphone 17
alltags@@ 17
kalk@@ 17
ehrlichkeit 17
recyc@@ 17
salat 17
flache 17
motors 17
elektrischer 17
philadelphia 17
gan 17
pack@@ 17
lüge 17
erseits 17
gremium 17
inwie@@ 17
bomben@@ 17
kampfes 17
kürzen 17
volt 17
vorsicht 17
venezuela 17
quäl@@ 17
naiv 17
inhaf@@ 17
stim@@ 17
sterbe@@ 17
ho 17
langem 17
wärme@@ 17
lan 17
durchqu@@ 17
partikeln 17
spenden@@ 17
tokyo 17
kreation@@ 17
strich@@ 17
migräne 17
15.000 17
lhc 17
erholt 17
stiger 17
beginnend 17
gemeinde@@ 17
geeig@@ 17
hnung 17
hero@@ 17
auffor@@ 17
ere@@ 17
zurei@@ 17
überschritten 17
verschoben 17
beobacht@@ 17
universell 17
tem@@ 17
1990ern 17
beeinträchtigt 17
neusten 17
weites 17
royal 17
sitzungen 17
risd 17
hurri@@ 17
entfernte 17
gleicher 17
tafeln 17
ermu@@ 17
betrieb@@ 17
schwerpunkt 17
puppen 17
biologisches 17
völli@@ 17
fluktuationen 17
restau@@ 17
startet 17
redest 17
akzeptabel 17
dimensional 17
durchdringen 17
bers 17
imitiert 17
zoo 17
sonnensystems 17
obst 17
450 17
abzuschließen 17
delphine 17
power 17
verleiht 17
zwei- 17
änderten 17
überwacht 17
umfassen 17
biotechnologie 17
deprimier@@ 17
inform@@ 17
1957 17
druckt 17
si 17
klebt 17
antiretro@@ 17
ausdenken 17
wolf 17
vernichten 17
siven 17
erschöpft 17
bono 17
rationen 17
stifte 17
gordon 17
häufigste 17
erachtens 17
melo@@ 17
cousin 17
vereinfachen 17
emails 17
ergreifen 17
bemerk@@ 17
möbeln 17
verrück@@ 17
passierten 17
ungewöhnlichen 17
frühjahr 17
glückske@@ 17
6,@@ 17
fi 17
besessenheit 17
roger 17
rutsch@@ 17
transition 17
reproduzieren 17
mächte 17
dawkins 17
derjenige 17
cameron 17
darstell@@ 17
darfur 17
ökonom@@ 17
bl 17
erbaut 17
gedruck@@ 17
alltägliche 17
naturschutz 17
beg@@ 17
krawat@@ 17
rebel@@ 17
erkranken 17
lung@@ 17
co-@@ 17
pflaster 17
hinterließ 17
hilfe@@ 17
feuerwehr@@ 17
plankton 17
geschenke 17
ärz@@ 17
busse 17
absolu@@ 17
außenwelt 17
nter 17
inhalten 17
ungläu@@ 17
gedenk@@ 17
interak@@ 17
web-@@ 17
illi@@ 17
stechnologie 17
intelle@@ 17
allererste 17
führungskräfte 17
mail 17
kometen 17
schüssel 17
r.@@ 17
konsumiert 17
usd 17
interessierten 17
äquator 17
prinzipiell 17
hammer 17
todesstrafe 17
schwärmen 17
beliebtesten 17
aneinander 17
gespült 17
70.000 17
house 17
besagte 17
cat@@ 17
amanda 17
beiträge 17
emily 17
farbigen 17
ke-@@ 17
stiker 17
simulationen 17
karo-@@ 17
zeital@@ 17
außensei@@ 17
sw@@ 17
eini@@ 17
derzeitigen 17
infrarot@@ 17
öffent@@ 17
kommunikation@@ 17
ausrichtung 17
geriet 17
etabliert 17
beträch@@ 17
wendungen 17
nano-@@ 17
hinausgeht 17
benutzung 17
gefäße 17
inten@@ 17
led 17
katoren 17
dru@@ 17
verdammten 17
reiches 17
termin 17
theke 17
moses 17
rg 17
radik@@ 17
priva@@ 17
heitlich 17
anwender 17
britan@@ 17
alko@@ 17
schem 17
jas@@ 17
bewusst@@ 17
atlan@@ 17
fiction 17
anhört 17
fordere 17
produzierte 17
beanspru@@ 17
lila 17
mütter@@ 17
gewartet 17
partnerschaften 17
zugreifen 17
fliehen 17
abweichungen 17
sichtig 17
unterdrückung 17
invasi@@ 17
hun@@ 17
freiheiten 17
crowd@@ 17
cassini 17
stisch@@ 17
zigaretten 17
mischt 17
gelegte 17
unterhaltungen 17
migranten 17
vegas 17
baby-@@ 17
landwir@@ 17
recycling 17
bezahl@@ 17
parlament@@ 17
dünen 17
fernen 17
vorherseh@@ 17
befra@@ 17
o.k. 17
produktion@@ 17
regieren 17
förmigen 17
gesteu@@ 17
studenten@@ 17
agent@@ 17
fenster@@ 17
benehmen 17
neo@@ 17
mix 17
spritze 17
charakteristika 17
stres@@ 17
zeig 17
offiziellen 17
schin@@ 17
drei- 17
gleiten 17
chines@@ 17
run@@ 17
garantieren 17
haltungs@@ 17
zuverlässi@@ 17
überwältigende 17
listet 17
wahrsten 17
schwingen 17
willens 17
psychologe 17
verstorbenen 17
recycl@@ 17
wohlhabenden 17
nützliche 17
wüsten 17
ktisch 17
tuberkulose 17
fertige 17
sein@@ 17
zahn 17
utop@@ 17
av 17
veranstalten 17
säkul@@ 17
aussahen 17
eingeben 17
strate@@ 17
verlasse 17
urbanen 17
prei@@ 17
eliminieren 17
näch@@ 17
starrt 17
1983 17
erschütter@@ 17
produktiven 17
leo 17
besuchten 17
gemeinnütz@@ 17
arr@@ 17
legend@@ 17
foxo 17
unternehmern 17
omet@@ 17
mobili@@ 17
zorn 17
co2-emissionen 17
wertes 17
pharmazeu@@ 17
dentum 17
gefängnisse 17
kunft 17
komischen 17
quadra@@ 17
nieder 17
dürfte 17
aktien@@ 17
werfe 17
zurückzukommen 17
u.s.-@@ 17
zielte 17
erschossen 17
gefroren 17
zuhör@@ 17
grös@@ 17
dokumentar@@ 17
beunruhigend 17
ganzheit@@ 17
reagan 17
seligkeit 17
rekonstruieren 17
vernetz@@ 17
30@@ 17
gigantische 17
übertrieben 17
prie@@ 17
spulen 17
zensur 17
kranke 17
ange 17
verd@@ 17
phantom-arm 17
reserven 17
hänge 17
bräu@@ 17
gesundheitswesens 17
explodiert 17
schicke 17
eingerichtet 17
bla 17
simon 17
nutzer@@ 17
gemäl@@ 17
unterkunft 17
medical 17
mund@@ 17
bohrer 17
brun@@ 17
profitiert 17
wus@@ 17
explodieren 17
ungsproble@@ 17
gesprochene 17
cheln 17
sporen 17
kleidungs@@ 17
konventionelle 17
komite@@ 17
ommen 17
phan@@ 17
mondes 17
chs@@ 17
genies 17
58 17
g. 17
kostengün@@ 17
bedeutungen 17
fertigung 17
school-@@ 17
tierwelt 17
vorrat 17
seifen@@ 17
kulissen 17
verwaltungs@@ 17
cr@@ 17
gesichtsausdrücke 17
kosmologie 17
russ@@ 17
effizienten 17
regelrecht 17
kommuniziert 17
zurückgeht 17
unerwar@@ 17
strassen@@ 17
gehor@@ 17
falsches 17
yale 17
bonobos 17
verank@@ 17
erobert 17
ple@@ 17
emotion@@ 17
augenlicht 17
nadel@@ 17
kissen 17
reiter 17
städtische 17
cholera 17
mücke 17
säugl@@ 17
wolken@@ 17
embry@@ 17
presse@@ 17
mit-@@ 17
andro@@ 17
flag@@ 17
j. 17
llig 17
onk@@ 17
ablehnen 17
korrid@@ 17
sydney 17
sst 17
nirgends 17
funktionierende 17
echtz@@ 17
priv@@ 17
erschwinglich 17
nehm@@ 17
kodieren 17
berufung 17
transpor@@ 17
eh@@ 17
gewöhn@@ 17
gezahlt 17
straßenrand 17
schlimmen 17
rohre 17
hiert 17
annimmt 17
erfordern 17
mahmoud 17
stik 17
hafen@@ 17
cyberkriminellen 17
fester 17
möglicher 17
schlechtesten 17
verkündete 17
bizarre 17
schokoladen@@ 17
vorüber@@ 17
geliebten 17
miniatur@@ 17
gedruckt 17
lässi@@ 17
gefär@@ 17
japanisch 17
lkws 17
synapsen 17
mierten 17
eriert 17
gb 17
yr 17
ther 17
gesichts 17
ellinie 17
inst@@ 17
tion-@@ 17
trete 17
ungsmittel 17
rohr 17
fäkalien 16
herumlaufen 16
west-@@ 16
klische@@ 16
grauen@@ 16
industrien 16
speichert 16
melan@@ 16
weihnacht@@ 16
ek 16
lyn@@ 16
son-@@ 16
klagt 16
fassade 16
input 16
infolge 16
baumkr@@ 16
lebensstandard 16
infizierten 16
übernahm 16
lasche 16
dünnen 16
dnis 16
pentagon 16
jahrtausende 16
stiften 16
anhalten@@ 16
kondom 16
umfassenden 16
wahrscheinlichkeiten 16
quad@@ 16
wahrhaft 16
privatleben 16
mancher 16
schildkröte 16
6.@@ 16
jennifer 16
zuzugeben 16
vorführung 16
entes 16
u.n. 16
mittelschicht 16
verglich 16
zerfallen 16
senkre@@ 16
propheten 16
sars 16
rührt 16
vorgenommen 16
kataly@@ 16
pro-kopf-einkommen 16
zuschauer@@ 16
hose 16
moschee 16
behör@@ 16
kindersitze 16
migration 16
kombinationen 16
gerechnet 16
vibri@@ 16
ktives 16
freud 16
fleder@@ 16
videospielen 16
idiot 16
umstand 16
verbrecher 16
radiowellen 16
konsu@@ 16
eiern 16
einges@@ 16
magnet 16
fur@@ 16
line@@ 16
ital 16
verdiente 16
größerem 16
zerbrechen 16
ini 16
klü@@ 16
konferenz@@ 16
schwingungen 16
karzin@@ 16
medienlandschaft 16
nischer 16
neandertaler 16
hoden 16
bekämpft 16
lag@@ 16
galois 16
kolon@@ 16
schwebt 16
steins 16
tivität 16
verdau@@ 16
gelehrten 16
cherung 16
kämpften 16
pullover 16
zwill@@ 16
eldrehung 16
verlock@@ 16
gewes@@ 16
verfasst 16
freundlichkeit 16
schnappen 16
meth@@ 16
sprechenden 16
geschmol@@ 16
aufrechterhalten 16
herzan@@ 16
hindert 16
missionen 16
ergän@@ 16
diebstahl 16
bewäl@@ 16
standardis@@ 16
loslassen 16
sorry 16
57 16
pünktlich 16
verzeihen 16
proto@@ 16
grace 16
expansion 16
spiegeln 16
bess@@ 16
navigieren 16
joel 16
aufzug 16
onie 16
verabreichen 16
cus 16
wellenlänge 16
vorsitzende 16
strömt 16
leistungsfähigkeit 16
fit 16
argentinien 16
verring@@ 16
interaktive 16
traurigkeit 16
original@@ 16
perman@@ 16
brilliant 16
diagnostizieren 16
1992 16
ampu@@ 16
anzusprechen 16
führungspersön@@ 16
modells 16
62 16
grafisch 16
überraschenden 16
kie@@ 16
beeindrucken 16
exter@@ 16
rettungs@@ 16
brocken 16
ruhige 16
maximieren 16
gleichberechti@@ 16
fühlst 16
red 16
zugehöri@@ 16
betten 16
annäherung 16
christopher 16
großzügigkeit 16
tigten 16
besprechungen 16
tional 16
zusammenhänge 16
open-source 16
musikalischen 16
experiments 16
spalten 16
peit@@ 16
gänse 16
gastgeber 16
auszuführen 16
übergeben 16
eleanor 16
eindeu@@ 16
flucht@@ 16
skelettmuskeln 16
insekten@@ 16
einzelheiten 16
49 16
nukleare 16
ausweis 16
senen 16
undurch@@ 16
schmug@@ 16
freaks 16
arkansas 16
cer@@ 16
insassen 16
u-bahn@@ 16
stickstoff 16
tiefgreifende 16
.a. 16
delfin 16
aufnahme@@ 16
verbergen 16
sticks 16
sähen 16
favor@@ 16
dler 16
zensiert 16
westens 16
action 16
akade@@ 16
sonstwo 16
hüpfen 16
hung@@ 16
cy 16
bibliothe@@ 16
karen 16
logi@@ 16
erleichterung 16
1970ern 16
empor@@ 16
teer@@ 16
warme 16
tos 16
nackt 16
-bewegung 16
fox 16
bleib 16
pistole 16
überträgt 16
delphin 16
absorbiert 16
zuständen 16
authentisch 16
schriftstell@@ 16
bler 16
bracht 16
spannen 16
befördern 16
schieß@@ 16
13. 16
allge@@ 16
origam@@ 16
anziehungskraft 16
gerichts@@ 16
gespart 16
black@@ 16
freundlicher 16
wendig 16
verhältnis@@ 16
gefangenen@@ 16
verfolgten 16
com 16
hebe 16
sag@@ 16
erens 16
extremi@@ 16
alistische 16
beh@@ 16
bestehenden 16
abzuhalten 16
verminder@@ 16
sied@@ 16
parken 16
schmetter@@ 16
mist@@ 16
fähr@@ 16
anlass 16
aktuell 16
kürze 16
asen 16
stünde 16
pest 16
widerspiegeln 16
gie-@@ 16
opo@@ 16
nenner 16
disziplin@@ 16
stossen 16
schulsystem 16
gesellschafts@@ 16
nachdenke 16
viktori@@ 16
liess 16
ausführung 16
verteil@@ 16
ktur@@ 16
hältst 16
weltrekord 16
senator 16
darstellungen 16
smann 16
skalieren 16
vertikalen 16
20ern 16
meldungen 16
übermitteln 16
darwins 16
blüten@@ 16
zunehmen@@ 16
fürchte 16
ets 16
mitternacht 16
fibonacci-@@ 16
zufälle 16
aufzuhalten 16
atten 16
nicholas 16
verl@@ 16
ut 16
ertrinken 16
flughäfen 16
alle@@ 16
wägen 16
etten 16
angucken 16
extre@@ 16
amor@@ 16
bevölker@@ 16
gewähren 16
eintrag 16
stunden@@ 16
veranschaulichen 16
autofahren 16
perfektes 16
aufweist 16
latte 16
bla@@ 16
wertet 16
abstammung 16
extrahieren 16
invasion 16
vorfall 16
enskraft 16
körper-@@ 16
diego 16
handschrift 16
gemeinschafts@@ 16
wiederherstellung 16
manuskri@@ 16
heiz@@ 16
niederlanden 16
sook 16
versu@@ 16
angehö@@ 16
verbot 16
ziemliche 16
7,@@ 16
schir@@ 16
platz@@ 16
instinkt 16
guru 16
loszuwerden 16
darbietung 16
londoner 16
implikationen 16
aktivist 16
fahrung 16
gebern 16
pfe 16
zelebri@@ 16
fließend 16
sofa 16
lieferung 16
player 16
schütter@@ 16
starbucks 16
hintergrund@@ 16
imker 16
prägte 16
engagiert 16
opern@@ 16
drücklich 16
isaac 16
mechanik 16
talks 16
kids 16
unt 16
barkeits@@ 16
hinbekommen 16
nr. 16
abstrakten 16
analysen 16
verdrahtet 16
eva 16
hochauf@@ 16
koma 16
verkündet 16
schnü@@ 16
flüssigkeiten 16
vorzugs@@ 16
iler 16
colorado 16
beschützt 16
unwohl 16
aluminium@@ 16
miete 16
briga@@ 16
zuwachs 16
auszeichnung 16
1976 16
gewähr@@ 16
willkürlich 16
illen 16
fertigen 16
passage 16
rückenmark 16
erstellten 16
schrittweise 16
hi-@@ 16
herauskam 16
1918 16
heiligkeit 16
abenteu@@ 16
twitter-@@ 16
1500 16
absolventen 16
doha 16
empfehl@@ 16
gary 16
ica 16
zutat 16
altet 16
internationaler 16
spektr@@ 16
imple@@ 16
isolieren 16
öhnen 16
untersuche 16
pier@@ 16
prostatakrebs 16
kritisch 16
schildern 16
ostasien 16
saugen 16
paras@@ 16
belange 16
schuss@@ 16
mehl 16
tika 16
segen 16
quet@@ 16
artigkeit 16
tröpf@@ 16
kerze 16
verdrängen 16
barsten 16
protozellen 16
hoffte 16
instal@@ 16
lösbar 16
eintauchen 16
blaues 16
art@@ 16
kollision 16
appar@@ 16
übereinstimmung 16
technologen 16
klammern 16
gitar@@ 16
kätzchen 16
saudi 16
haustiere 16
baumkronen 16
verstreut 16
fon@@ 16
transzendenz 16
gerichte 16
stellen@@ 16
durchbrechen 16
schwefelwasserstoff 16
ment-@@ 16
technisches 16
anwäl@@ 16
jo-@@ 16
fundamental 16
verlangte 16
flüchtling@@ 16
gleicht 16
aten@@ 16
teur@@ 16
zweifeln 16
fällig 16
cul@@ 16
rekord 16
philippe 16
östlich 16
transpar@@ 16
graue 16
stande 16
unterstützten 16
walker 16
46 16
senioren 16
unken 16
karton 16
helfer 16
zuversicht 16
ehrliche 16
ay@@ 16
laute 16
gespürt 16
schnelles 16
behandel@@ 16
ier 16
konstan@@ 16
tans 16
lebenszyklus 16
ersch@@ 16
reißt 16
savanne 16
verschli@@ 16
oscar 16
funktionierenden 16
iq@@ 16
essentiell 16
abra@@ 16
eindrücke 16
arin 16
parkinson 16
ington 16
wertschätzen 16
spektakulär 16
mittel-@@ 16
gegenüberstehen 16
tedster 16
bequem 16
gen. 16
greife 16
flori@@ 16
gestützt 16
korrespon@@ 16
ausserdem 16
nordafrika 16
wood@@ 16
ausland@@ 16
bös@@ 16
wahrnehmungen 16
gluko@@ 16
eifer@@ 16
universi@@ 16
abwei@@ 16
konventionellen 16
platten@@ 16
titan@@ 16
.... 16
kontinuierlich 16
chemo@@ 16
sz@@ 16
160 16
verzer@@ 16
gecko 16
controller 16
wom@@ 16
manipu@@ 16
5,@@ 16
brück@@ 16
gels 16
weitrei@@ 16
keineswegs 16
venter 16
vollständigen 16
phosphor@@ 16
kennen@@ 16
wirren 16
gefühls@@ 16
grüner 16
galileo 16
wart 16
derten 16
empfinde 16
übel@@ 16
schwin@@ 16
ativen 16
erfährt 16
gefoltert 16
mmes 16
akti@@ 16
norden-bombenzielgerät 16
gelächter 16
verflo@@ 16
kehrten 16
stunden-@@ 16
chr@@ 16
unterrichte 16
narben 16
aufeinander@@ 16
eingefangen 16
hochzu@@ 16
philosophischen 16
rückmeldung 16
deckung 16
rückgrat 16
yn@@ 16
ausgeschlossen 16
endgül@@ 16
siedlungen 16
benutz@@ 16
fortsetzen 16
abbildung 16
spazier@@ 16
waldes 16
56 16
sphase 16
abholzung 16
psychologischen 16
resonanz 16
zufälligerweise 16
betreiber 16
last@@ 16
stil@@ 16
geschnitt@@ 16
stiftungen 16
textil@@ 16
eingebunden 16
hinschauen 16
begün@@ 16
koen@@ 16
bereichern 16
gär@@ 16
fac@@ 16
unterrichts@@ 16
lös@@ 16
tiefgrün@@ 16
mutige 16
kosmische 16
ungedul@@ 16
abbau 16
gesessen 16
verle@@ 16
indianer 16
proble@@ 16
dna-origami 16
rob@@ 16
mir@@ 16
holten 16
87 16
pipeline 16
rex 16
breit@@ 16
bewusstseins@@ 16
ic@@ 16
gesetzes@@ 16
zusammengearbeitet 16
meeresgrund 16
hilflos 16
greifen@@ 16
shor@@ 16
gestopft 16
treffer 16
eames 16
gemeinnützigen 16
vermutung 16
gerad@@ 16
regenwasser 16
justi@@ 16
reib@@ 16
lier 16
kälte 16
gebü@@ 16
beabsichti@@ 16
vertrautheit 16
cds 16
einsteigen 16
scham@@ 16
schweres 16
ästhe@@ 16
abu 16
agentur 16
amer@@ 16
ultimativen 16
nationalpark 16
betreff@@ 16
favoriten 16
hären 16
angeordnet 16
verdreifacht 16
beachtung 16
arts 16
prior@@ 16
ressourcen@@ 16
mächtigste 16
bißchen 16
resultiert 16
größerer 16
able 16
verbundenheit 16
kelt 16
saat@@ 16
überraschenderweise 16
technischer 16
kramp@@ 16
nimmst 16
konfiguration 16
grausam 16
wirtschaftskrise 16
fortpflanzung 16
romane 16
verbannt 16
gebil@@ 16
tanzten 16
prognosti@@ 16
tiefgründige 16
tierrei@@ 16
phoenixinseln 16
aufsteigen 16
59 16
kontrollen 16
kippen 16
verbesserte 16
kommende 16
guardian 16
kollaborativen 16
seel@@ 16
einkaufszentrum 16
liebling 16
nagel 16
fotografien 16
diver@@ 16
vorm 16
wuß@@ 16
besu@@ 16
größen@@ 16
gerechte 16
schottland 16
schutzgebiete 16
anregen 16
hinüber 15
werks 15
haaren 15
lichtsch@@ 15
strecken@@ 15
gehäuse 15
verborgenen 15
tekton@@ 15
beschleunigte 15
athleten 15
dahin@@ 15
chend 15
entsetzlich 15
sämtliche 15
dächern 15
samstag 15
ana@@ 15
areale 15
elegant 15
ett@@ 15
dopamin@@ 15
konkrete 15
erkenntnissen 15
servieren 15
einzelteile 15
reichste 15
kontakte 15
gravier@@ 15
multiplizieren 15
ky 15
mamma 15
komplexere 15
spektakuläre 15
rabbi 15
konflikt@@ 15
neig@@ 15
kohlenstoff-@@ 15
nachhaltiger 15
dale 15
ringen 15
unternehmertum 15
wächter 15
highway 15
noah 15
natalie 15
mentalität 15
kreislauf@@ 15
hebrä@@ 15
richtlinie 15
neutralen 15
nächst@@ 15
maden 15
tomaten@@ 15
pink 15
sollst 15
karriere@@ 15
trauben 15
oberhalb 15
lichtstrahl 15
elektronen@@ 15
krokodil 15
sequenziert 15
handzeichen 15
biene 15
nel@@ 15
berges 15
rige 15
foot@@ 15
stadion 15
eigen 15
proteinen 15
ermuti@@ 15
gemischt 15
derte 15
ausbrüche 15
fron@@ 15
erneuer@@ 15
stören 15
genehmen 15
ehen@@ 15
kunstform 15
gros@@ 15
schiffs@@ 15
rückgängig 15
ando 15
atheist 15
interagiert 15
eur@@ 15
ewige 15
yste@@ 15
erwer@@ 15
gebrauchs@@ 15
hautfarbe 15
qatar 15
risikofaktoren 15
tierung 15
vorzunehmen 15
finnland 15
ktions@@ 15
wissenschafter 15
dings 15
krieger 15
hirte 15
station@@ 15
oxid 15
fst 15
steilen 15
moskitonet@@ 15
aufleuchten 15
gegenwärtig 15
rezen@@ 15
pein@@ 15
wickeln 15
verwir@@ 15
rebecca 15
menschheitsgeschichte 15
monsun 15
erwähnten 15
fertigt 15
errichtung 15
schutzgebiet 15
pepsi 15
terten 15
kanal@@ 15
innovations@@ 15
use 15
untergrund 15
bestehende 15
stif@@ 15
läßt 15
essenti@@ 15
eve 15
vention@@ 15
vätern 15
grafischen 15
labors 15
registriert 15
binde 15
hotel@@ 15
mieden 15
juan 15
düne 15
jets 15
performance 15
sty@@ 15
menschenverstand 15
schmetterlinge 15
modul@@ 15
getren@@ 15
nenden 15
quadratkilometer 15
ausstellen 15
einfügen 15
hur@@ 15
44 15
harmon@@ 15
zeugung 15
side@@ 15
kondi@@ 15
higgs-teilchen 15
architekton@@ 15
urheber@@ 15
untergebracht 15
ram 15
gepar@@ 15
gefressen 15
lokalisieren 15
erfin@@ 15
auszuweiten 15
modedesigner 15
folgen@@ 15
w. 15
websites 15
aspekten 15
unmittelbare 15
amkeit 15
augenblicklich 15
gebot 15
kna@@ 15
birgt 15
bodens 15
umwel@@ 15
psychisch 15
schizop@@ 15
geldgeber 15
respektiert 15
inku@@ 15
tragbare 15
botschafter 15
reichten 15
cherin 15
geheilt 15
sort 15
gouverneur 15
kümmer@@ 15
herden 15
arran@@ 15
köder 15
reales 15
fass 15
treibstoff@@ 15
anbau 15
großzügig 15
graphisch 15
linux 15
brei 15
mächtiger 15
verkaufs@@ 15
bloß@@ 15
hierarch@@ 15
verzei@@ 15
seltsamer 15
dimensionale 15
gebi@@ 15
olympi@@ 15
seife 15
spektakul@@ 15
bürste 15
revolutionäre 15
autonome 15
betrüger 15
verletzlich 15
bchen 15
autounfall 15
tagebuch 15
folg 15
nachforschungen 15
ckchen 15
skep@@ 15
völker@@ 15
reno@@ 15
exklu@@ 15
glücklichsten 15
bauchspeicheldrüsenkrebs 15
versa@@ 15
kut@@ 15
staus 15
thun@@ 15
teich 15
verärgert 15
begrenzen 15
konzent@@ 15
projiziert 15
ipad 15
absoluter 15
aufträge 15
r-@@ 15
nektar 15
härter 15
müh@@ 15
spender@@ 15
bergs 15
deckel 15
pferde@@ 15
einzuführen 15
statisch 15
jemen@@ 15
umweltverschmutzung 15
geschäf@@ 15
entsprechende 15
infe@@ 15
zig@@ 15
prob@@ 15
bedroh@@ 15
handfläche 15
kästchen 15
offenbarung 15
fangschrecken@@ 15
unglücklichen 15
films 15
kubik@@ 15
media-@@ 15
entspannt 15
zugute 15
nächte 15
bruttoinlandsprodukt 15
schüchtern@@ 15
faszinier@@ 15
ökologisch 15
kapsel 15
vergebung 15
verborgen 15
endeten 15
bequem@@ 15
streng 15
pflan@@ 15
kleb@@ 15
blitz@@ 15
erstaunlicher 15
imitation 15
stücks 15
urteile 15
rna 15
absurd 15
200-@@ 15
tung@@ 15
berichterstattung 15
archite@@ 15
back@@ 15
mac@@ 15
versichere 15
müllhal@@ 15
interne 15
ausgebildeten 15
anti-angio@@ 15
schleppen 15
grundidee 15
äqu@@ 15
lastwagen 15
sens 15
ausländischen 15
zeitliche 15
richt@@ 15
geschäften 15
lobby 15
furchtbare 15
brannt 15
reis@@ 15
klares 15
konzerte 15
zuschau@@ 15
wack@@ 15
nachbarschaften 15
ape@@ 15
myth@@ 15
gesteuerte 15
widerstand@@ 15
erzeugte 15
rang@@ 15
impli@@ 15
schrank 15
bigkeit 15
sations@@ 15
ordner 15
vorderen 15
arbeitskraft 15
dingern 15
tunesien 15
allerlei 15
wide 15
vertrieb 15
bedauer@@ 15
aufblühen 15
ria 15
feuerwehrmann 15
lerin 15
tivsten 15
chat@@ 15
gesichtsausdruck 15
redwood-@@ 15
mete@@ 15
elung 15
persön@@ 15
vielschi@@ 15
gefaltet 15
esischen 15
zimbabwe 15
faszinierendes 15
adiposit@@ 15
kuba 15
ortes 15
erfindet 15
chtigkeit 15
aufregender 15
clar@@ 15
kot@@ 15
gos-@@ 15
symbolisiert 15
prozedur 15
gelassen@@ 15
segment 15
mentiert 15
brothers 15
kommun@@ 15
intensiver 15
genü@@ 15
teilchen@@ 15
beschleuniger 15
wood-@@ 15
lauschen 15
fortgeschrittene 15
flach@@ 15
bogen@@ 15
seiten@@ 15
kalte 15
spannungen 15
geniessen 15
logische 15
burschen 15
jüng@@ 15
wertvollen 15
entwirft 15
lab@@ 15
zähl@@ 15
ernsten 15
prozenti@@ 15
gefördert 15
zielt 15
orin 15
passende 15
strebt 15
gestü@@ 15
schulter@@ 15
mage 15
interessantere 15
brannte 15
zusammenzufassen 15
überraschen@@ 15
besprechung 15
ris 15
tzer 15
nanorö@@ 15
erschein@@ 15
schenkel 15
qualit@@ 15
fasz@@ 15
spaghetti-@@ 15
vize@@ 15
simulator 15
algebra 15
beobachte 15
produktive 15
sopa 15
-projekt 15
langley 15
prävention 15
sernen 15
kauen 15
schere 15
befriedi@@ 15
edel@@ 15
etabli@@ 15
spezielles 15
modellieren 15
weitergeht 15
kuchen@@ 15
elisabeth 15
intervention 15
dienstleistung 15
senkt 15
abgegeben 15
stenz@@ 15
bb 15
hst 15
dasein 15
gehälter 15
betont 15
gier 15
beat@@ 15
geraden 15
ndes 15
krankheitserre@@ 15
pigmentierung 15
gesetzten 15
geschlechts@@ 15
sterns 15
begegnete 15
sichtbare 15
ansteigt 15
bän@@ 15
hühner@@ 15
drü@@ 15
insulinresistenz 15
sonnen 15
kollaboration 15
optimale 15
beleuchten 15
sofor@@ 15
bestimmungen 15
swerte 15
display 15
angeregt 15
ballast 15
schwul 15
cooles 15
roboter-@@ 15
dreidimension@@ 15
dienstag 15
plastik-@@ 15
antenne 15
ausgerechnet 15
sichtlich 15
mikroorganismen 15
stabilisieren 15
baseball@@ 15
vertrieben 15
anhalt@@ 15
mentalen 15
haw@@ 15
mmert 15
nachsehen 15
hochschule 15
schwän@@ 15
äußert 15
timing 15
ros@@ 15
einkaufs@@ 15
geistig 15
tattoos 15
technologisch 15
manage@@ 15
spielplatz 15
sun 15
zuwenden 15
love 15
klarer 15
patri@@ 15
trivi@@ 15
stühlen 15
spezialisiert 15
venus 15
slager 15
pracht 15
inti@@ 15
krokodi@@ 15
hättest 15
schweinen 15
primär@@ 15
basteln 15
unab@@ 15
kredite 15
radius 15
vielfältig 15
himm@@ 15
spieltheorie 15
ausster@@ 15
beachtet 15
praktiken 15
aufklär@@ 15
prag@@ 15
matischer 15
dez@@ 15
verspüren 15
bhutan 15
erworben 15
geschlossen@@ 15
lake 15
unauf@@ 15
werker 15
formulieren 15
strategische 15
stud@@ 15
bo-@@ 15
eigennütz@@ 15
kasse@@ 15
veren 15
lehm 15
tauchgang 15
amsterdam 15
loslegen 15
seli@@ 15
niedrigsten 15
begrü@@ 15
unfas@@ 15
anfän@@ 15
ächlich 15
detailliert 15
heit@@ 15
anfertigen 15
südbronx 15
k. 15
erstaunlichsten 15
gestört 15
sinnig 15
alo@@ 15
schmeißen 15
ständiger 15
produktiver 15
lamm 15
jack@@ 15
abgebaut 15
manifesti@@ 15
sass 15
frequenz@@ 15
schwankungen 15
meter@@ 15
ausdehnung 15
ermunter@@ 15
verbundene 15
vorhandenen 15
offizi@@ 15
beerdigung 15
donner@@ 15
niere 15
bestrahlung 15
palm 15
blatt@@ 15
dicht@@ 15
nutzpflanzen 15
hase 15
cro@@ 15
gespon@@ 15
dnungen 15
kommission 15
relative 15
festlegen 15
aufmerksam@@ 15
umarmen 15
hebung 15
aufnahm 15
reguliert 15
ohnehin 15
gkeit@@ 15
visualisieren 15
vorantreiben 15
papp@@ 15
limonade 15
überwach@@ 15
phas@@ 15
hochhaus 15
nutzbar 15
rede@@ 15
zunu@@ 15
verdeut@@ 15
anerkannt 15
angebor@@ 15
gurte 15
millionen-@@ 15
nachthimmel 15
haupts@@ 15
treibende 15
anmerk@@ 15
gehandelt 15
krisen@@ 15
chirurgischen 15
zenti@@ 15
äs@@ 15
beethoven 15
dierten 15
shoots 15
letzen 15
bestrafen 15
multipli@@ 15
entwarfen 15
abgebildet 15
gefährdete 15
entbe@@ 15
entum 15
ti 15
interpretiert 15
auswertung 15
aufgetaucht 15
verpflichtungen 15
ubuntu 15
gebäude@@ 15
quantentheorie 15
reaktions@@ 15
maßnahme 15
deckte 15
1975 15
warnen 15
vismus 15
flan@@ 15
15-@@ 15
leer@@ 15
einsetzt 15
erschreckend 15
sproblem 15
abschnitte 15
plakat@@ 15
darm@@ 15
abseil@@ 15
vergnü@@ 15
anstren@@ 15
ot 15
atemberaubend 15
telefonen 15
jet 15
amts@@ 15
hormon@@ 15
leich@@ 15
nationaler 15
mög@@ 15
klinisch 15
gezielt 15
schnurrbart 15
herzleiden 15
zurücklehnen 15
ruf@@ 15
sonen 15
nisses 15
potentielle 15
sischer 15
liberalen 15
ansehe 15
aufzeichnung 15
prüft 15
meda@@ 15
8.@@ 15
implantat 15
ampel 15
hundes 15
milliard@@ 15
enthielt 15
gradu@@ 15
science-@@ 15
bische 15
frühere 15
bai@@ 15
einschlag 15
skript 15
spirituelle 15
muni@@ 15
kanälen 15
ästhetische 15
tennessee 15
nichtsdestotrotz 15
zoll@@ 15
korallenriff 15
bauernhof 15
hochgeladen 15
.com. 15
viralen 15
kontinuität 15
wolkenkrat@@ 15
vollsten 15
initiativen 15
dschungel 15
oto@@ 15
überwälti@@ 15
alphab@@ 15
interessen@@ 15
wiederholte 15
designer-@@ 15
gültigkeit 15
barungen 15
chender 15
linearen 15
jahreszeit 15
lichte 15
spottdros@@ 15
hinweg@@ 15
73 15
miner@@ 15
maßstäben 15
konsens 15
ktierte 15
liessen 15
honie 15
bewegliche 15
cad@@ 15
freiheits@@ 15
künstlerischen 15
taxi@@ 15
ök@@ 15
hea@@ 15
geringere 15
uralten 15
dopp@@ 15
überraschte 15
fahrer@@ 15
küch@@ 15
daf-2 15
lebzeiten 15
sproz@@ 15
pot 15
gerweise 15
verfügbarkeit 15
1985 15
jag@@ 15
empfand 15
ferti@@ 15
illegalen 15
eigener 15
lord 15
user 15
ahn@@ 15
cancer 15
magier 15
beängsti@@ 15
wehr@@ 15
vielfältigen 15
wahnsinni@@ 15
arbeitsleben 15
unvermeidlich 15
gespür 15
harter 15
pinsel 15
zeitgenössische 15
pfan@@ 15
entschei@@ 15
ön@@ 15
elektromagnetische 15
einzigartiges 15
bron@@ 15
ddt 15
nachmittags 15
personen@@ 15
entführt 15
menschenleben 15
nachdachte 15
äpfel 15
aufstre@@ 15
wärts 15
fraktale 15
gefil@@ 15
screen 15
avenue 15
förmlich 15
walter 15
erkran@@ 15
mierte 15
geschlechter@@ 15
bie 15
membran@@ 15
soli@@ 14
berry 14
übergreifende 14
museums 14
amü@@ 14
trommel 14
hnten 14
forderten 14
kolibr@@ 14
jüdische 14
gelegenen 14
neutral 14
gestres@@ 14
nobelpreisträger 14
mönch 14
rezeptoren 14
brö@@ 14
festivals 14
sais@@ 14
beantwor@@ 14
9. 14
entschul@@ 14
stimmts 14
erlaubten 14
sorienti@@ 14
marine 14
übergegangen 14
idioten 14
bestraft 14
unerwarteten 14
regiert 14
debat@@ 14
computerspiele 14
öko-@@ 14
ausgeklü@@ 14
intelligen@@ 14
erhebt 14
einzeln 14
stigmati@@ 14
frühesten 14
reinigt 14
vorlesung 14
vorführen 14
aufzustellen 14
8-@@ 14
computerprogramm 14
zierenden 14
3d-drucker 14
seltsamerweise 14
schrie 14
straßene@@ 14
tumoren 14
bekämp@@ 14
vielfältige 14
droht 14
protein@@ 14
todesursache 14
weltwirtschaft 14
vorgesehen 14
rind@@ 14
39 14
häus@@ 14
ausnutzen 14
uc@@ 14
ausstoß 14
gangesgavi@@ 14
rehabilitation 14
deep 14
elfenbein@@ 14
mexikaner 14
schnappte 14
jonas 14
legiti@@ 14
lithium 14
einsamen 14
herrsch@@ 14
somalia 14
dezi@@ 14
gemä@@ 14
bereitstellen 14
stärkere 14
verschiedensten 14
tritt@@ 14
bewussten 14
überraschungen 14
oly@@ 14
nee@@ 14
jahrzehnts 14
ausgesehen 14
gehr@@ 14
beruhen 14
ppar@@ 14
tumors 14
afghani@@ 14
stans 14
wunde 14
rotieren 14
gewehr 14
anas 14
massenvernichtungs@@ 14
wischen 14
event 14
ören 14
faltete 14
greg 14
biomimikry 14
miter@@ 14
wich 14
geübt 14
beschwerden 14
verdammte 14
idealismus 14
inje@@ 14
toiletten@@ 14
lenkt 14
arische 14
rinder 14
kollabor@@ 14
interaktions@@ 14
dicken 14
ermü@@ 14
nutzern 14
methodi@@ 14
überlegungen 14
dokumentierte 14
asiatischen 14
stroh@@ 14
rausge@@ 14
berühmtes 14
gelähm@@ 14
technik-@@ 14
stütz@@ 14
peking 14
exemplar 14
strat@@ 14
bihar 14
kabin@@ 14
empör@@ 14
verschä@@ 14
häufigkeit 14
tasmanischen 14
teufels 14
treibhausgas@@ 14
naher 14
weggenommen 14
tiers 14
beauf@@ 14
erfahrene 14
infizieren 14
domini@@ 14
extremismus 14
koppl@@ 14
mon 14
1987 14
ssern 14
nachhaltigkeits@@ 14
port 14
sound 14
bemerkenswerten 14
klarstellen 14
dliches 14
ores 14
öhnung 14
großzügige 14
warmen 14
drähte 14
urbanisierung 14
hrchen 14
himmels@@ 14
braunen 14
schwarzer 14
jill 14
grube 14
künstlers 14
warnt 14
schnecke 14
ñ@@ 14
einig@@ 14
unmittel@@ 14
dul@@ 14
integrierte 14
auszuwählen 14
geschichtenerzählen 14
klappte 14
zeitraffer 14
begrenzte 14
brillen 14
ater@@ 14
schauf@@ 14
zid 14
verkab@@ 14
erraten 14
bisher@@ 14
wachstum@@ 14
bereichs 14
onalen 14
verdiene 14
gefertigt 14
veranschau@@ 14
gehirnaktivität 14
betrie@@ 14
sop@@ 14
landminen 14
zusammenbauen 14
kyoto 14
geburtstag@@ 14
tteln 14
ye 14
kompa@@ 14
benutzer@@ 14
benan@@ 14
schritts 14
verbieten 14
mac 14
ablagerungen 14
tiefste 14
mmerung 14
ergänzen 14
hinunter@@ 14
mosphäre 14
geschlechtsverkehr 14
beck 14
femin@@ 14
anstalt 14
brechung 14
rebellen 14
black 14
bereitgestellt 14
kurzweil 14
ernü@@ 14
außer@@ 14
gebur@@ 14
zahlungen 14
miami 14
befördert 14
wandte 14
flickr 14
gelb@@ 14
lasten 14
weihnachtsmann 14
ara 14
korallenri@@ 14
ausstell@@ 14
schnelli@@ 14
abwasser 14
akustik 14
sprechende 14
selbstbewusstsein 14
ketten@@ 14
entziehen 14
überschnei@@ 14
than@@ 14
komfort 14
helle 14
zuräumen 14
ends 14
nährstoffen 14
schwitzen 14
explizit 14
spielerisch 14
orang-u@@ 14
kis@@ 14
finanzen 14
replikator 14
verlängern 14
reagierte 14
äusser@@ 14
offenes 14
protonen 14
gelenk 14
beeinträchtigen 14
aufführung 14
berfläche 14
porträ@@ 14
sibirien 14
moslems 14
rechteck 14
niederlän@@ 14
imper@@ 14
ium 14
4.@@ 14
agi@@ 14
entz@@ 14
schuppen 14
objekts 14
überflu@@ 14
mexico 14
präzis@@ 14
kritisieren 14
überreste 14
bibliotheken 14
monats 14
kins 14
symbiose 14
sha 14
paläont@@ 14
heranzu@@ 14
würdige 14
befragt 14
hunden 14
riesen 14
biolo@@ 14
vollziehen 14
koll@@ 14
hinzuzufügen 14
gerechten 14
bemü@@ 14
bezugs@@ 14
arena 14
nicht-nullsummen@@ 14
steige 14
schmelz@@ 14
kräftig 14
genialität 14
heimatland 14
vill@@ 14
burger 14
bestätigung 14
mission@@ 14
bezeichnete 14
bibli@@ 14
veranlassen 14
silikon 14
reinen 14
verlan@@ 14
phänomens 14
veran@@ 14
mrd. 14
schalen 14
räften 14
aufstände 14
metri@@ 14
kristall@@ 14
mutanten 14
zweige 14
einflößend 14
aben 14
kampagnen 14
interagi@@ 14
stürmen 14
barbara 14
übersetz@@ 14
kaus@@ 14
erlebten 14
politisches 14
eises 14
häuptling 14
megawatt 14
solly 14
wahrlich 14
zahnarzt 14
brill@@ 14
implantiert 14
mitglie@@ 14
verspricht 14
tools 14
besetzt 14
offenbart 14
türme 14
zar@@ 14
mins 14
kündigt 14
zeichne 14
cannt 14
qualifiziert 14
umkreis 14
faszinierender 14
nächster 14
verbreiteten 14
knochenmark 14
verschrieben 14
zusammenbringt 14
ces 14
redwoods 14
90@@ 14
teilgenommen 14
akkord 14
frau@@ 14
anzuhalten 14
hou@@ 14
letztens 14
lieferanten 14
darpa 14
dab@@ 14
khmer 14
robust 14
kehrseite 14
regionale 14
festland 14
kosme@@ 14
gruselig 14
rahmen@@ 14
schwerelo@@ 14
trockenen 14
mithalten 14
boy@@ 14
herkömmlichen 14
zwangs@@ 14
karl 14
iranischen 14
therapeu@@ 14
gelehr@@ 14
jargon 14
vermehr@@ 14
clu@@ 14
funktionier@@ 14
zünden 14
auszurotten 14
hinder@@ 14
absatz 14
umfasste 14
bbc 14
mozart 14
spaziergang 14
problematik 14
sowje@@ 14
muti@@ 14
weht 14
eb@@ 14
hitler 14
auftri@@ 14
erschießen 14
zurückgelassen 14
potentiell 14
skur@@ 14
dokumentation 14
beleben 14
erwachsen@@ 14
hinauszu@@ 14
außergewöhnlicher 14
zuversichtlich 14
versau@@ 14
verdreht 14
rotes 14
satt 14
rollen@@ 14
klauen 14
motive 14
herauszuholen 14
bezahlbar 14
genomik 14
eifri@@ 14
windows 14
pumpt 14
jü@@ 14
versich@@ 14
gefe@@ 14
rupien 14
gliedmaßen 14
angehört 14
kepler 14
mitmenschen 14
anleitungen 14
vibra@@ 14
interviewen 14
überflutet 14
preises 14
gelte 14
fortwährend 14
forderung 14
1949 14
glä@@ 14
messbar 14
ellenbogen 14
glü@@ 14
raubtier 14
lügner 14
morph@@ 14
emis@@ 14
thand@@ 14
unfähigkeit 14
weißes 14
daseins 14
imstande 14
alfred 14
tesch@@ 14
dekade 14
teheran 14
ba-@@ 14
seit@@ 14
führungspersonen 14
erregung 14
eder 14
kerzen 14
istischen 14
kollektives 14
expertise 14
angreift 14
geometrische 14
mediziner 14
länder@@ 14
unbeha@@ 14
ungskosten 14
pessimi@@ 14
wuerde 14
hiv-positiv 14
segeln 14
dementsprechend 14
ausstellungen 14
programm@@ 14
tedglobal 14
einsen 14
intel 14
praktiziert 14
artiger 14
skopie 14
aufsicht 14
erobern 14
hnen@@ 14
sean 14
fert 14
gik 14
verschmutzen 14
phtalate 14
noti@@ 14
redn@@ 14
inno@@ 14
telekommunikation 14
serien@@ 14
arterien 14
erdnüsse 14
rönt@@ 14
konvention@@ 14
29@@ 14
styro@@ 14
pake@@ 14
sisches 14
skelet@@ 14
resi@@ 14
association 14
tieferen 14
page 14
misshand@@ 14
meme@@ 14
einschrän@@ 14
wissend 14
extra-@@ 14
erhell@@ 14
brauchst 14
königsko@@ 14
bra 14
verhand@@ 14
installationen 14
teufelskreis 14
zugrunde@@ 14
rändern 14
kabine 14
aden@@ 14
zurückgeben 14
kehr 14
ever@@ 14
wohnern 14
such 14
referenz@@ 14
bezogene 14
aktiv@@ 14
wohltätigkeits@@ 14
forscherin 14
geneigt 14
poin@@ 14
argumentation 14
schreibung 14
aimee 14
village 14
förmi@@ 14
neurolog@@ 14
rezepte 14
glücklichsein 14
schwanger@@ 14
soll@@ 14
treasure 14
primä@@ 14
enten-@@ 14
verschwör@@ 14
protokoll 14
weltmeister@@ 14
fokus@@ 14
gerer 14
tiefen@@ 14
relativitätstheorie 14
versie@@ 14
linksh@@ 14
flechten 14
stapelt 14
ausgebildete 14
saechlich 14
vorderseite 14
staatsober@@ 14
räumliche 14
miller 14
leist@@ 14
griechenland 14
angeseh@@ 14
goliath 14
wiederhole 14
skelett@@ 14
ear@@ 14
spfle@@ 14
ps@@ 14
tai@@ 14
eisbären 14
prognose 14
füß@@ 14
barri@@ 14
winden 14
funk 14
auges 14
größter 14
nullsummen@@ 14
gefängnissen 14
cop@@ 14
zerlegen 14
beschleunig@@ 14
abstrakt 14
statuen 14
dürften 14
53 14
herrschen 14
rang 14
flüssiges 14
besetzen 14
kle 14
verbrennung 14
sac@@ 14
dusche 14
eliten 14
organisations@@ 14
iel 14
numer@@ 14
begleiter 14
vorspielen 14
weizen@@ 14
glücklichste 14
geparkt 14
zk 14
mittelalter 14
obdachlosen 14
schade 14
universal@@ 14
grasland 14
klapp@@ 14
sanit@@ 14
kupp@@ 14
movember 14
jersey 14
vernünf@@ 14
auszubilden 14
tonne 14
geologen 14
fallschirm@@ 14
ungefä@@ 14
lies 14
telescope 14
fesselt 14
gewohnheit 14
knapp@@ 14
luftfahrt 14
hyperbo@@ 14
süßwasser 14
üren 14
flugzeugs 14
fünfmal 14
roots 14
erscheinungen 14
monitor 14
blen 14
mathematik@@ 14
profi@@ 14
erforderlich 14
abläufe 14
korean@@ 14
cock@@ 14
darfst 14
klassischer 14
mön@@ 14
gewand@@ 14
poe@@ 14
protokol@@ 14
weitesten 14
vergiftung 14
bestmögliche 14
gummi 14
kupfer@@ 14
30. 14
rohstoff 14
konzeption@@ 14
verschlossen 14
kästen 14
prämis@@ 14
nachteil 14
koordinieren 14
hahn 14
wesens 14
lyrik 14
afro-@@ 14
tragbaren 14
empfehle 14
expedi@@ 14
schwarz-@@ 14
broadmoor 14
verliebte 14
digem 14
erfolgs 14
jawohl 14
klasse-@@ 14
antidepressi@@ 14
parallelen 14
perlen@@ 14
mutigen 14
vorstellungs@@ 14
schande 14
bakterielle 14
neuartige 14
umlaufbahn 14
erschü@@ 14
delten 14
abbauen 14
sproblemen 14
unregelmäß@@ 14
oster@@ 14
bau-@@ 14
carter 14
gewür@@ 14
ont@@ 14
geheiratet 14
einsparen 14
ablegen 14
antennen 14
kreditkarten@@ 14
dir@@ 14
interpre@@ 14
minu@@ 14
einzelpersonen 14
evaku@@ 14
interaktiven 14
herz-kreislauf@@ 14
kuri@@ 14
nachvollziehen 14
natür@@ 14
anthropologie 14
existierende 14
koordination 14
komplikationen 14
videokamera 14
oprah 14
ope 14
geset@@ 14
zurückkam 14
portland 14
engt 14
bereu@@ 14
bäcker 14
dias 14
halbkugel 14
nevada 14
begrün@@ 14
zusätzliches 14
100@@ 14
unmittelbaren 14
testosteron 14
geschwindigkeits@@ 14
benachteili@@ 14
äste 14
gesprungen 14
nanometer 14
tw@@ 14
zehntausend 14
verge@@ 14
vereinheit@@ 14
baustein 14
js 14
skelette 14
phantasie 14
manövri@@ 14
jazeera 14
verabschiedet 14
schwieger@@ 14
ral 14
marschieren 14
pfeile 14
marks 14
susie 14
abschalten 14
klicks 14
nonverbalen 14
nigerias 14
indu@@ 14
anor@@ 14
urheberrecht 14
solar 14
lärm@@ 14
ruhm 14
trägen 14
honig@@ 14
pleite 14
ziem@@ 14
uniform 14
weltanschauung 14
a-afrika 14
uhren 14
sähe 14
hinsetzen 14
sagen@@ 14
vorstellte 14
philosophische 14
zusetzen 14
sensibel 14
entlang@@ 14
totaler 14
chende 14
aminosäuren 14
strömung 14
modernes 14
veranla@@ 14
open-source-@@ 14
beibehalten 14
ausgleich 14
veranlasst 14
einflüsse 14
akzept@@ 14
lösungs@@ 14
sattel@@ 14
forschungsarbeit 14
provin@@ 14
angemessene 14
anhäu@@ 14
instru@@ 14
soetwas 14
verschul@@ 14
quetschen 14
edward 14
flügeln 14
finanzier@@ 14
verfügbare 14
lou@@ 14
karb@@ 14
intergalak@@ 14
1990er 14
außerir@@ 14
ironisch 14
routin@@ 14
folge@@ 14
zentral 14
dubai 14
austausch@@ 14
bögen 14
romo 14
audio 14
besei@@ 14
chemikalie 14
abkürzung 14
cd 14
veget@@ 14
arier 14
tum 14
fungi 14
zins 14
grey 14
jam@@ 14
schockierend 14
gesetzgebung 14
schmei@@ 14
straß@@ 14
biet@@ 14
preis-@@ 14
stopp 14
41 14
signifikant 14
mieten 14
ex-@@ 14
adres@@ 14
hässlichen 14
folgender 14
ward 14
carbon@@ 14
sms-@@ 14
anna 14
neueste 14
geschö@@ 14
wegwerfen 14
geschichts@@ 14
endgültige 14
gallone 14
marker 14
reflex 14
sioux 14
wn 14
juwel@@ 14
chaotisch 14
spring@@ 14
summen 14
schlief 14
interviewt 14
star-@@ 14
punkt@@ 14
ernstes 14
hindu@@ 14
gänse@@ 14
wandel@@ 14
transi@@ 14
wundere 14
spielregeln 14
assoziieren 14
lungenentzündung 14
verkabelt 13
untergraben 13
vergiftet 13
schnu@@ 13
geschöpfe 13
photoshop 13
harv@@ 13
mär@@ 13
skeptiker 13
faszin@@ 13
bescheiden 13
fliegen@@ 13
selbstorganisation 13
verteilten 13
anführen 13
alie 13
transplantieren 13
spf@@ 13
aufsetzen 13
chinesischer 13
auftauchten 13
steri@@ 13
plato 13
duft 13
neuronen@@ 13
kämpfte 13
präsentiere 13
ster-@@ 13
ful@@ 13
schrott 13
alles@@ 13
hochzeits@@ 13
konsums 13
staubsau@@ 13
t-shirt 13
gewechselt 13
floss 13
songs 13
tha 13
bestellt 13
direkter 13
predigt 13
lux@@ 13
bilität 13
brasilianischen 13
manu@@ 13
millar@@ 13
urm 13
tation@@ 13
stufen@@ 13
anzulegen 13
versorgungs@@ 13
kreist 13
hochladen 13
tien 13
erzeug@@ 13
arzneimittel 13
zugenommen 13
sklaven@@ 13
matthew 13
sprinzip 13
janine 13
trade 13
wertschätzung 13
empfindungen 13
anzugreifen 13
verschickt 13
marco 13
kumpel 13
intensiven 13
kuppel 13
beein@@ 13
gewerbe 13
phant@@ 13
bewegenden 13
psen 13
cocktail 13
pointe 13
abc 13
bedingte 13
weltrau@@ 13
vorangegan@@ 13
kabul 13
internation@@ 13
ams 13
zimmers 13
flüssig@@ 13
cle@@ 13
kompromis@@ 13
windet 13
zunehmende 13
tönen 13
ogene 13
zivilisten 13
beschissen 13
geruchs@@ 13
angewohn@@ 13
muscheln 13
sortieren 13
zweidimensionalen 13
chirurgische 13
grundsatz 13
gewöhnlicher 13
hollän@@ 13
mühen 13
madagas@@ 13
dete@@ 13
one@@ 13
hinterhof 13
verallgemein@@ 13
vertreiben 13
luftverschmutzung 13
astrolabium 13
stütze 13
istanbul 13
survey 13
verdor@@ 13
einigkeit 13
sonnenschein 13
rän@@ 13
eröffnung 13
steil 13
kosm@@ 13
verskla@@ 13
ar-@@ 13
unbeschrie@@ 13
skor@@ 13
lichten 13
mcdon@@ 13
studios 13
fütter@@ 13
verwurzelt 13
eduardo 13
meldete 13
entscheid@@ 13
ungsproz@@ 13
schach 13
chop 13
hofften 13
verze@@ 13
entech@@ 13
unzu@@ 13
puder 13
physikal@@ 13
x-achse 13
y-achse 13
hudson 13
unterwasser-@@ 13
key 13
ermöglich@@ 13
gerecht@@ 13
weisung 13
zeiträume 13
predigen 13
orthodox@@ 13
heißes 13
vaginas 13
anweisung 13
vorschein 13
beendete 13
umarm@@ 13
tieres 13
aufgelöst 13
touch@@ 13
durchschnittlicher 13
zwillinge 13
nestbauer 13
legal 13
shirt 13
ehefrau 13
sende@@ 13
rohe 13
tera 13
wörterbücher 13
speise@@ 13
nich@@ 13
vergraben 13
verborgene 13
geboten 13
ökonomisch 13
lexiko@@ 13
fos@@ 13
fossi@@ 13
scheren 13
ünge 13
metastasen 13
hinterteil 13
doktoranden 13
vorlage 13
170 13
innerlich 13
ne-@@ 13
reiz 13
hydrother@@ 13
erschufen 13
sole 13
alla@@ 13
string-@@ 13
ät@@ 13
ministerin 13
verlinkt 13
vereinigte 13
anbieter 13
saul 13
botswana 13
richte 13
irre@@ 13
schwing@@ 13
keyboard 13
schlie@@ 13
orientierte 13
rad-@@ 13
high-tech-@@ 13
könn@@ 13
größenordnungen 13
entspannen 13
urin 13
negatives 13
ony@@ 13
dringlichkeit 13
network 13
archimedes 13
zwöl@@ 13
rohr@@ 13
pfeife 13
unbehagen 13
erkundet 13
leib 13
verachtung 13
auswirken 13
fers 13
cover 13
klebri@@ 13
ansetzen 13
mantra 13
luke 13
atomkraft 13
sinnvollen 13
symptom 13
licheren 13
gefahr@@ 13
wetten 13
lossen@@ 13
6-@@ 13
beleg 13
übernahmen 13
anwesenden 13
gossen 13
chronischen 13
vermehrt 13
verrät 13
glanz 13
süchti@@ 13
käse@@ 13
hinab@@ 13
widersprü@@ 13
prinzen 13
verzerrungen 13
quatsch 13
streckte 13
universellen 13
gesche@@ 13
bizarr 13
pulver 13
höflich 13
führend 13
skizzen 13
kämpfer 13
tausch@@ 13
geschnei@@ 13
empfo@@ 13
sturm@@ 13
östrogen 13
hervorruft 13
virtuell 13
erkältung 13
wimm@@ 13
nicht-nullsummen-@@ 13
vorherrschende 13
anfänge 13
dirigent 13
ktü@@ 13
arro@@ 13
mindest@@ 13
ban 13
verhü@@ 13
power@@ 13
wiederholung 13
erholung 13
sy 13
froren 13
staatlicher 13
unterkünfte 13
bestreiten 13
filme@@ 13
wunderschönes 13
öser 13
ng 13
stöcken 13
orni@@ 13
übeln 13
westeuropa 13
reproduktion 13
roosevelt 13
bezwingen 13
triebe 13
unterzeichnet 13
redwood 13
atheismus 13
heizt 13
expo 13
ratet 13
hubschrauber 13
dak@@ 13
cyber-@@ 13
günstigen 13
aufgeführt 13
prüf@@ 13
füge 13
laboren 13
ermitteln 13
maximum 13
visualisiert 13
hochschul@@ 13
künf@@ 13
cent@@ 13
gefährlicher 13
produkts 13
mentor 13
tabu 13
sichten 13
lymphknoten 13
ausgebreitet 13
fähiges 13
protest 13
kostspie@@ 13
anstreben 13
angegangen 13
feinen 13
etten@@ 13
netra 13
einzunehmen 13
jeglicher 13
hervorgerufen 13
faser@@ 13
satelli@@ 13
versi@@ 13
treue 13
palä@@ 13
umkehrung 13
fana@@ 13
gottes@@ 13
heftig 13
anzen 13
lügt 13
entsprach 13
philipp@@ 13
einfließen 13
hosentasche 13
skripte 13
bauunternehmer 13
nehmer 13
trockene 13
ehrgeiz 13
anstrengen 13
sad@@ 13
atomaren 13
butter@@ 13
behaup@@ 13
gemo@@ 13
lichkeit@@ 13
key@@ 13
entschlossenheit 13
gekämpft 13
pande@@ 13
ausstattung 13
elementarteilchen 13
tumortherapie@@ 13
frischen 13
erniedri@@ 13
sergey 13
pop-@@ 13
gna@@ 13
vs 13
versorger 13
transforma@@ 13
erschuf 13
ungewöhnliches 13
teppi@@ 13
harris 13
webs 13
lustigen 13
anekdote 13
mem@@ 13
master@@ 13
essex 13
umgekehrte 13
gehö@@ 13
berühmtesten 13
kurs@@ 13
betre@@ 13
säugetieren 13
veräng@@ 13
gemachten 13
aggressi@@ 13
allerbesten 13
gemeinschaftliche 13
knüpfen 13
epidemien 13
esi@@ 13
netzes 13
side 13
spender 13
ausgerüstet 13
typ-@@ 13
jeder@@ 13
vorderster 13
laune 13
leite 13
aufheben 13
ekel 13
desertifikation 13
hensweisen 13
mobil 13
bias 13
partizi@@ 13
wohnte 13
sally 13
bia 13
stechnolo@@ 13
ordnete 13
rassismus 13
schädigen 13
waisen 13
dividende 13
ergeb@@ 13
vision@@ 13
konkreten 13
nerv 13
passagiere 13
schiffes 13
effektivität 13
í@@ 13
gekleidet 13
sicherheitsrat 13
spezialisierung 13
dummen 13
urteilen 13
quadri@@ 13
ssig 13
lösten 13
pipa 13
rekord@@ 13
humanitären 13
anfange 13
beschäftigten 13
gesp@@ 13
charis@@ 13
neuerungen 13
selbstwertgefühl 13
erzieh@@ 13
interess@@ 13
oel@@ 13
terung 13
dauerhafte 13
infektions@@ 13
kanne 13
klau@@ 13
remix 13
jahre@@ 13
arzt@@ 13
wuerden 13
vergi@@ 13
fon 13
vergangene 13
auszutauschen 13
bäckerei 13
passagi@@ 13
slogan 13
schallwellen 13
dierte 13
radikaler 13
verbunden@@ 13
fer-@@ 13
trink@@ 13
prominenten 13
gewährt 13
felds 13
urheberrechts@@ 13
plas@@ 13
delfin@@ 13
blutzu@@ 13
daheim 13
entschuldige 13
rechte@@ 13
darlehen 13
goldrausch 13
white 13
einkauf@@ 13
schadet 13
brett@@ 13
erhöhung 13
unverändert 13
ausgibt 13
schleier 13
leukä@@ 13
eile 13
67 13
bond 13
regisseur 13
schnapp@@ 13
diener 13
eigeninteresse 13
glocke 13
raumfahrt 13
konstante 13
typischer 13
hauptgrund 13
gewaltiger 13
a.@@ 13
entfaltet 13
rüst@@ 13
gürtel 13
überfis@@ 13
kompromisse 13
klopfen 13
höf@@ 13
längen 13
kernkraft 13
experimentelle 13
ments 13
debatten 13
kontroversen 13
ppm 13
skalierung 13
branchen 13
vio@@ 13
internen 13
verletzte 13
til 13
fehlenden 13
verhaltens-@@ 13
zusammenschließen 13
viren@@ 13
begi@@ 13
ballen 13
lächel@@ 13
demen@@ 13
prostat@@ 13
bildungen 13
acumen 13
asymmetr@@ 13
kritz@@ 13
therape@@ 13
kations@@ 13
browne 13
schütten 13
grenzung 13
totalen 13
überquert 13
dominieren 13
homini@@ 13
mitfühl@@ 13
effektiven 13
picasso 13
insi@@ 13
technologie-@@ 13
wirkungen 13
kindheit@@ 13
ertragen 13
eigent@@ 13
flöten 13
simplen 13
bangladesh 13
epilep@@ 13
signifi@@ 13
verseu@@ 13
kio 13
renten@@ 13
diktator 13
skräfte 13
enkt 13
bizar@@ 13
res 13
gehry 13
fond 13
lisa 13
erforsche 13
leads 13
fabel@@ 13
eichhör@@ 13
glaubens 13
mutterleib 13
barbar@@ 13
nördlich 13
aufregendste 13
vaskul@@ 13
dollar@@ 13
plant 13
gleiter 13
salter 13
aushalten 13
umschlag 13
anatom@@ 13
halts@@ 13
dens@@ 13
evange@@ 13
you@@ 13
weh@@ 13
opera@@ 13
erreichbar 13
dog@@ 13
rekur@@ 13
lobby@@ 13
anfassen 13
thr@@ 13
ju 13
eingangs@@ 13
rache 13
bringst 13
anfängen 13
verworfen 13
dra 13
gy@@ 13
kommunen 13
alleinerzieh@@ 13
flieger 13
genesung 13
kuh@@ 13
ernden 13
vie@@ 13
inie 13
julie 13
geschmei@@ 13
lagen@@ 13
skop@@ 13
wundervolles 13
terrain 13
suchmaschine 13
gegenmittel 13
video-@@ 13
zium 13
niedlich 13
tourismus 13
saf@@ 13
geschult 13
retina 13
wandelt 13
servi@@ 13
drüse 13
zerin 13
dehn@@ 13
sofern 13
metr@@ 13
prognosen 13
verursachten 13
blutfluss 13
1969 13
beständig 13
extremer 13
selbstmor@@ 13
variabilität 13
elizabeth 13
busch@@ 13
-up 13
erlauf@@ 13
marihuana 13
genehmigt 13
weiche 13
justiz@@ 13
religiöser 13
maliger 13
systematische 13
unterteilen 13
iedelt 13
konzipiert 13
trip 13
see-@@ 13
zahlte 13
soziologen 13
streitgespräch 13
tnissen 13
rüber@@ 13
glatte 13
strenge 13
europä@@ 13
betteln 13
appli@@ 13
era 13
übersetzer 13
zufälli@@ 13
connecticut 13
dynamiken 13
anpassungen 13
ford-@@ 13
härtesten 13
flugbahn 13
ält 13
akademische 13
drum 13
dreißig 13
sapiens 13
bündeln 13
blickte 13
atemzug 13
bissen 13
spru@@ 13
besatzung 13
rannten 13
vorgibt 13
scheiden 13
jekte 13
nollywood 13
fänger 13
kodex 13
dr.@@ 13
eingeschrän@@ 13
dominierende 13
großteils 13
gefun@@ 13
zurücklegen 13
verschlechtert 13
landwirtschaftliche 13
lässlich 13
vokabular 13
körpergröße 13
durchführt 13
behinderten 13
mister 13
parallel@@ 13
bloss 13
1974 13
rechtlich 13
reibung 13
putzen 13
charta 13
ansamm@@ 13
objektive 13
magnetische 13
rory 13
anrief 13
kostengünstige 13
damm 13
gando 13
zählung 13
machine 13
autobio@@ 13
beschreibungen 13
katholischen 13
google-@@ 13
200@@ 13
tox@@ 13
amphi@@ 13
mangro@@ 13
iga 13
ignoranz 13
higgs-feld 13
voranzutreiben 13
schrauben 13
prinzess@@ 13
auto-@@ 13
betrachtungsweise 13
schriftstellerin 13
übergewichtig 13
sensorische 13
bedeutendste 13
schlichtweg 13
fabrik@@ 13
brot@@ 13
cartoon 13
vermein@@ 13
deutlicher 13
besteh@@ 13
bulgarien 13
skype 13
besonderer 13
schocks 13
ausbeutung 13
riskiert 13
getaucht 13
vancouver 13
beinhaltete 13
geschäftsleute 13
wendung 13
verse 13
des-@@ 13
kapazitäten 13
q 13
enth@@ 13
befriedigen 13
produk@@ 13
visi@@ 13
geckos 13
jahrzehn@@ 13
verviel@@ 13
motiv@@ 13
feln 13
lligkeit 13
nackte 13
gießt 13
ktieren 13
sinnlos 13
auseinandersetzen 13
wirkte 13
bos@@ 13
socken 13
schel@@ 13
aufzustehen 13
reguli@@ 13
ständiges 13
glori@@ 13
konstruktionen 13
siedeln 13
regier@@ 13
auszubauen 13
beherbergt 13
transistor 13
by@@ 13
anklicken 13
europäer 13
scharfe 13
vermas@@ 13
schädel@@ 13
lauert 13
wirt@@ 13
ement 13
ausführ@@ 13
voyager 13
ila 13
schlüssen 13
ton-@@ 13
benachbar@@ 13
olymp@@ 13
würdigen 13
entlegenen 13
can 13
mali@@ 13
herbeizu@@ 13
lebhafte 13
iker 13
sive 13
stillen 13
lanka 13
betriebene 13
reflexion 13
schrau@@ 13
giftige 13
breitet 13
afrikanisches 13
graphik 13
sul@@ 13
satellit 13
eh 13
tauben 13
hlung 13
loyalität 13
tlicher 13
detektoren 13
nettes 13
berühmter 13
parall@@ 13
tztes 13
andauern@@ 13
furchterre@@ 13
offensichtlichen 13
weiterentwickeln 13
entgegengesetzte 13
kritisiert 13
elektroautos 13
ziemlicher 13
wechselwirkungen 13
gelegten 13
schweiß 13
ret@@ 13
sechsjährigen 13
nass 13
schwarzäugige 13
durchsuchen 13
inszen@@ 13
kind-@@ 13
gebend 13
salzwasser 13
bekämen 13
immer@@ 13
kuss 13
neurologische 13
biot@@ 13
ausgeglich@@ 13
moralisches 13
parabel 13
1967 13
e8 13
kontrast 13
fernbedienung 13
gewa@@ 13
telef@@ 13
nächsten@@ 13
arbeiterin 13
kommunismus 13
luxus@@ 13
heres 13
praktizieren 13
trainings 13
ministeriums 13
betroffene 13
präsentationen 13
verarbei@@ 13
institutionelle 13
kamera@@ 13
augu@@ 13
kolben 13
fernse@@ 13
ähnlichkeiten 13
reservate 13
brin@@ 13
anom@@ 13
grove 13
bisch 13
unüber@@ 13
unmengen 13
sern 13
1978 13
landwirtschafts@@ 13
gehe@@ 13
tauscht 13
durchführte 13
entisch 13
eigenartig 13
zweck@@ 13
stemp@@ 13
supercomputer 13
wünschten 13
melte 13
theoretiker 13
anbetracht 13
selbstorgan@@ 13
economist 13
klassisches 13
quarti@@ 13
delph@@ 13
eter 13
regelwerk 13
vital@@ 13
hemisph@@ 13
gebrochene 13
hochtr@@ 13
famili@@ 13
anforderungen 13
klonen 13
karikaturisten 13
gepackt 13
later@@ 13
tierende 13
serotonin 13
pam@@ 13
fantastischer 13
freuden 13
pa 13
rhythmen 13
entnommen 13
funken 13
mental 13
tigungen 13
empor 13
erwärmt 13
schwangere 13
trum@@ 13
c.@@ 13
übri@@ 13
neige 13
spende 13
wiese 13
hingewiesen 13
graph@@ 13
gelangwei@@ 13
kostü@@ 13
reed 13
wasserfall 13
ome@@ 13
bom@@ 13
ungeheu@@ 13
viermal 13
tyr@@ 13
us-dollar 13
geschlossene 13
strafen 13
palast 13
aufzuzeichnen 13
freundinnen 13
angaben 13
wirkliches 13
hertz 13
map 13
sohnes 13
ies 13
sisch 13
dot@@ 13
einzubringen 13
geschwindigkeiten 13
logarith@@ 13
chemie@@ 13
pielen 13
ernsthaftes 13
phänomenal 13
versprach 13
jed@@ 13
spray 13
herausgekommen 13
strationen 13
benutzeroberfläche 13
vorbeugung 13
könig@@ 13
te. 13
tenden@@ 13
aufführen 13
bestre@@ 13
treffend 13
backen 13
puls 13
eistungen 13
1962 13
übersetzungen 13
hipp@@ 13
verwechseln 13
zielten 13
tankstelle 13
vorran@@ 13
naht@@ 13
digital@@ 13
wechs@@ 13
schlussfolgerungen 13
ergie 12
sheila 12
ipods 12
tres@@ 12
hiroshima 12
weblogs 12
diam@@ 12
wiegend 12
ohio 12
jen@@ 12
teleskop@@ 12
mega@@ 12
dimension@@ 12
reli@@ 12
54 12
rica 12
rucksack 12
schlüs@@ 12
courage 12
frank@@ 12
li 12
syner@@ 12
chil@@ 12
sack@@ 12
tm 12
reality-@@ 12
gefühl@@ 12
osaurus 12
00 12
onlin@@ 12
iles 12
tha@@ 12
bahamas 12
niens 12
adrenal@@ 12
68 12
gou@@ 12
erklär@@ 12
besser@@ 12
stere@@ 12
extro@@ 12
aura 12
tank@@ 12
crick@@ 12
mantel 12
suey 12
hof@@ 12
nolo@@ 12
musch@@ 12
california 12
ihr@@ 12
couch 12
enthusiast@@ 12
82 12
kaner 12
vre 12
asche 12
marshmallow 12
öst@@ 12
äten 12
à 12
winzi@@ 12
chin 12
versor@@ 12
queen 12
opar@@ 12
monu@@ 12
ness@@ 12
hard@@ 12
kator 12
embryo 12
passion 12
toyota 12
dolby 12
chi 12
1947 12
avi@@ 12
za-@@ 12
thinking 12
taler 12
valent@@ 12
faltet 12
danny 12
schr@@ 12
ili@@ 12
rd 12
seth 12
erfolgrei@@ 12
großzü@@ 12
dat 12
tner 12
boy 12
ferin 12
84 12
geschma@@ 12
kolo@@ 12
locke 12
änder@@ 12
n. 12
is-@@ 12
60-@@ 12
fing@@ 12
ration 12
aph@@ 12
ursprün@@ 12
unbesch@@ 12
yo 12
1979 12
bestimm@@ 12
tester 12
synchr@@ 12
mega-@@ 12
dener 12
here 12
biom@@ 12
screen@@ 12
promin@@ 12
invest@@ 12
chirur@@ 12
gin 12
oc@@ 12
date 12
quarks 12
standard-@@ 12
elvis 12
laster 12
[...]
